#version: 0.2
Ġ Ð
Ð ¾
Ð °
Ð ¸
Ġ Ñ
Ñ ĸ
Ð¾ Ð
Ð µ
Ð° Ð
Ñ Ģ
Ñ Ĥ
Ð ½
Ñ ĥ
Ñ ģ
Ð »
Ð ²
Ð º
Ñ ı
ĠÐ ²
ĠÐ ¿
ĠÐ ½
Ñ Į
Ð ´
ĠÑ ģ
Ð ¼
ĠÐ ·
Ñ ĩ
ĠÑ Ĥ
ĠÐ ´
Ñ ħ
Ñ İ
Ð¾Ð ²
Ñ Ī
Ð ¹
Ð°Ð »
ÑĤ Ð¸
â Ģ
ĠÐ ±
Ð°Ð ²
Ð¾Ð ³
âĢ Ķ
Ð ¿
Ð ±
Ðµ ÑĢ
ĠÐ ¼
ĠÐ º
Ñģ Ñı
ĠÑ ĸ
ĠÐ½ Ðµ
Ð¾Ð ¼
ÑĢ Ð¸
Ð» Ð¸
Ð¾Ð »
Ð¾Ð³ Ð¾
Ð°Ð ½
Ñģ ÑĤ
ĠÐ ¹
ĠÐ½ Ð°
Ð ·
. .
ĠÑ Ģ
Ñĸ Ð´
Ð½ Ð¸
Ð¾ ÑĢ
ÑĤ ÑĮ
Ñģ ÑĮ
ĠÐ ¾
Ð ¶
Ð ³
Ð¾Ð ´
Ġ âĢĶ
Ñ Ĩ
ĠÑ ī
Ñ Ĺ
Ð°Ð ¼
ĠÐ ³
ĠÑ ı
Ðº Ð¸
Ð½ Ñĸ
Ð¾Ð ½
Ð» Ð°
Ñ Ķ
Ñĥ Ð²
ĠÑ ĥ
Ð°Ð º
Ñĸ Ð²
Ñĩ Ð¸
Ñĸ Ð½
Ðµ Ð½
ĠÑ ĩ
Ð° ÑĢ
Ð¾Ð ±
ĠÐ »
Ð¸ Ð²
Ð½ Ð¾
ĠÐ °
Ñĸ Ð»
ĠÑ ħ
ĠÑī Ð¾
Ðº Ð°
Ð°Ð ´
Ð¾Ð º
ĠÐ¿ Ð¾
ĠÐ¿ ÑĢ
ĠÐ² Ð¸
ĠÑģ ÑĤ
ĠÑı Ðº
Ð» Ñı
Ð¾Ð ·
ĠÐ ¶
Ð° ÑĤÐ¸
ÐµÑĢ Ðµ
Ð½ Ð°
ĠÐ´ Ð¾
ĠÑ Ĩ
Ð°Ð» Ð¸
.. .
Ð°Ð ·
Ð¾Ð¼ Ñĥ
ĠÐ· Ð°
Ð°Ð» Ð°
Ñĸ Ð¹
Ð» Ð¾
Ð½ Ñĥ
Ðº Ñĥ
ĠÐ± Ñĥ
Ð¸ Ð¼
Ðº Ð¾
Ð½ Ñı
ĠÑģ Ð²
ĠÑ Ĺ
Ð» Ðµ
Ð°Ð ¹
ĠÐ Ĵ
ĠÐ Ĳ
ĠÐ² ÑĸÐ´
Ð¾Ð ¶
Ð° ÑĤ
ĠÐ¿ ÑĢÐ¸
Ð´ Ð¸
ĠÐ ¢
Ñĸ ÑĤ
Ð¾ ÑĤ
Ðµ Ð¼
ĠÑĤ Ð°Ðº
ÑĢ Ñĥ
ĠÐ½ Ñĸ
Ð°Ð ³
ÑĸÐ» ÑĮ
ĠÐ Ł
Ð°Ð ¿
ĠÑģ Ð¿
Ð¸ Ñħ
Ð¾ ÑĹ
Ð¾ Ñİ
Ñ ī
ĠÐ¹ Ð¾Ð³Ð¾
ĠÑĢ Ð¾Ð·
Ð¾ Ñģ
ĠÐ Ŀ
Ð¾Ð ¿
ĠÐ² ÑĸÐ½
ÑĢ Ñĸ
Ð° ÑĶ
ĠÐ ¡
Ð° Ñģ
ÑĪ Ð¸
ĠÐ ľ
Ð¾Ð» Ð¸
Ð¶ Ðµ
ÑĨ Ñĸ
Ð¼ Ð¸
Ð°Ð¼ Ð¸
ĠÐ² Ð¾Ð½
ĠÑ Ī
Ð¸ ÑĤ
Ð½ Ðµ
ÑĤÑĮ ÑģÑı
ÑĢ Ðµ
Ð° Ñİ
ĠÑĤ Ðµ
ĠÐ² Ñģ
Ð° Ñħ
Ð¾ Ñĩ
ĠÐ¿ ÑĸÐ´
ÑĪ Ðµ
Ñĸ ÑĢ
Ð°Ð ±
ĠÐ¿ÑĢ Ð¾
Ñĥ Ð¼
Ġ "
ĠÐ¿ ÐµÑĢÐµ
ĠÑĤ Ð°
Ð² Ð¸
ĠÐ¾ Ð±
Ð½Ð¸ Ð¹
Ð½ ÑĥÐ²
ĠÐ Ĩ
Ñĥ ÑĤ
Ð¾Ð² Ñĸ
Ð» Ñĸ
ĠÐ¾ Ð´
ĠÑģ Ðº
Ñĸ Ñģ
Ð°Ð ¶
ÑĤ Ð¾
ĠÐ Ķ
Ñĩ Ðµ
Ð± Ð¸
ĠÑģ Ð°Ð¼
ĠÐ² Ðµ
ĠÐ» Ñİ
ĠÐ Ĺ
Ñĸ Ð¼
Ð°Ð» Ð¾
ĠÐ ļ
Ð¾Ð´ Ð¸
Ð´ Ðµ
Ð¸ Ð¹
ĠÐ ¥
ĠÑĢ Ñĥ
ĠÐ ĳ
ĠÑĨ Ðµ
Ðµ Ð·
ĠÐ ¯
ÑĢ Ð¾
Ñĩ Ñĸ
ÑĤ Ðµ
ÑĢ Ð°
ĠÐ³ Ð¾Ð»
Ð»Ð¸ Ð²
ĠÐ ĵ
ĠÑģ Ð¸
ĠÑĹ ÑĹ
ÑĨ ÑĮ
Ð» Ñĥ
ĠÐ ŀ
ĠÐ¿ Ð¾Ð²
Ð» ÑĮ
ÑĨ Ñı
ĠÐ· Ð½
ĠÑī Ðµ
ÑĢ Ð°Ð²
ĠÑĤ Ð¾
Ð¸ ÑĤÐ¸
Ð± Ðµ
Ð¼ Ñĸ
Ñĥ Ð¿
ÐºÐ¸ Ð¹
ĠÐº Ð¾Ð»Ð¸
Ñĸ Ð·
ÑĮ Ð¾Ð³Ð¾
ĠÐ±Ñĥ Ð»Ð¾
ÑĸÐ»ÑĮ ÐºÐ¸
Ð¾Ð´ Ñĸ
Ð» Ñİ
ĠÐ²Ð¾Ð½ Ð°
Ñĥ ÑĢ
ÑĤ Ñı
ĠÑĤ Ð¸
ÑĤ Ñĸ
ĠÐ´ Ðµ
Ð¾Ð ¹
Ñģ ÑĤÐ¸
ĠÑģ Ñĥ
ÑģÑĤ ÑĮ
ĠÐ± ÐµÐ·
Ð°Ð² ÑģÑı
Ð°Ð» ÑĮ
ĠÐ §
Ð½ Ð¾Ð³Ð¾
ĠÑĹ Ñħ
Ð¾Ð¶ Ðµ
ĠÑģ Ðµ
Ð± Ð°
Ð¿ ÐµÑĢ
Ð¾Ð² Ñĥ
ĠÐ²Ñģ Ðµ
ĠÑĩ Ð¸
Ñı Ð²
ĠÐ´ Ñĥ
Ð°Ñİ ÑĩÐ¸
ĠÐ» Ð¸
ÐµÐ½ ÑĮ
Ð¾Ð± Ñĸ
ÑĨ Ðµ
Ð½Ð¸ Ñħ
Ñİ ÑĩÐ¸
ĠÐ¼ Ñĸ
Ð´ Ñĥ
ĠÐ² Ð¶Ðµ
Ñ Ħ
ÑģÑĤ Ñĸ
ĠÐ´ Ð²
Ð° ÑĢÐ¸
ÑģÑĮ Ðº
ÑĤ Ð°Ð½
ĠÐ½ Ð°Ð²
ĠÐ· Ð²
ĠÐ½ Ð°Ð´
ĠÐ¿ Ð¾Ðº
Ð°Ð½ Ð½Ñı
ĠÐ¼ Ðµ
ĠÐ¹ Ð¾Ð¼Ñĥ
Ð¾Ð² Ð¸
Ñģ Ð¸
ĠÐ¼ Ð¸
ÐµÐ½ Ðµ
ÑĤ Ñĥ
ĠÐ± ÑĥÐ²
ĠÑĤ ÑĸÐ»ÑĮÐºÐ¸
Ñĸ Ðº
ĠÐ° Ð»Ðµ
Ð¾ ÑĢÐ¸
ÑĪ Ñĸ
Ð»Ð° ÑģÑı
ĠÐ²Ð¾Ð½ Ð¸
ĠÐ± Ð°
ĠÐ· Ð´
Ð¾ ÑĶ
ÑĥÐ² Ð°Ð²
Ð½Ð¸ Ðº
Ñĥ Ð´
ĠÐ¿ Ð¾Ð´
ĠÐ· Ð°Ð¿
Ñģ Ðµ
ĠÑģÐ² Ð¾ÑĹ
ĠÐ ł
ĠÐ¼ Ð¾Ð²
ĠÑģ Ð»
ĠÐ´ Ð¸Ð²
Ð¸ Ð»Ð¸
ÑĪ Ð¾Ð²
Ñĸ Ñĩ
Ð¸Ð² ÑģÑı
ĠÑī Ð¾Ð±
Ð½Ð¸ Ð¼
ÐºÐ¾ Ñİ
ÑĢÐ¸ Ð²
Ð¸ ÑĢ
ĠÐ» Ðµ
ĠÑģÐ² ÑĸÑĤ
ĠÐĿ Ðµ
Ð Ĵ
ĠÑħ Ð¾Ñĩ
Ð¼ Ðµ
ĠÐ´ Ð»Ñı
Ð» ÑĤÐ°Ð½
ĠÐ¿Ð¾ Ñĩ
ÑĢÑĥ Ð³
ĠÐ· Ð°Ð²
ĠÐ± Ð¾
Ñģ Ñĸ
ĠÑĸ Ð·
ĠÐ³ Ð¾ÑĢ
ĠÐ²Ðµ Ð»Ð¸
Ð¼ Ñĥ
ĠÐ Ľ
Ð² Ðµ
Ð² Ñĸ
ĠÐº ÑĢ
Ð´ Ñĸ
ĠÐ¿ Ð¾ÑĢ
ĠÑĤ Ð¾Ð³Ð¾
Ð¾Ð» Ð¾Ð´
ÑģÑĤ Ñı
Ð Ł
ĠÐĴ ÑĸÐ½
ĠÐ¿Ð¾ Ñģ
ĠÐ½ ÑĮÐ¾Ð³Ð¾
Ð°Ð» Ñĸ
ĠÑģÐº Ð°Ð·
ĠÐ¿ Ð¾Ð»
ÑĥÐ² Ð°ÑĤÐ¸
ĠÐ¿ÐµÑĢÐµ Ð´
Ð¸Ð¼ Ð¸
ÑĪ Ñĥ
ĠÑĸ Ð½
ĠÐ· ÐµÐ¼
Ñħ Ð¸
ÑĢ Ñı
Ð½Ð¾ Ñİ
ĠÑĩ Ð°Ñģ
Ð¼ Ð°
ĠÑģÑĥ Ð»ÑĤÐ°Ð½
Ð°Ð½ Ñĸ
ÐºÐ¸ Ñħ
ĠÑĤ Ð°Ð¼
Ñĸ ÑĤÑĮ
ÑĪ Ð°
Ð² Ð°
ĠÐ´ ÑĥÐ¼
" .
ĠÑĤ ÑĥÑĤ
ĠÐ £
Ð½Ñĸ Ð¹
Ð Ĳ
ĠÐ²Ñģ Ñĸ
Ð½ Ð´
Ðº Ð¾Ð¼
ĠÐ¼ ÐµÐ½Ðµ
Ð¾ Ñħ
ĠÐ· Ð½Ð°
ĠÐ´ Ð¾Ð±
ĠÐº Ð¾Ð»
Ð¸ Ñģ
Ðº Ñĸ
ĠÐº Ñĥ
! ..
Ð°Ð» Ðµ
Ð°Ð½ Ð°
ÐµÐ½ Ð½Ñı
ĠÐ¿Ð¾ ÑĤ
Ð¾Ð² Ð°
ĠÐ¿ Ð¾Ð¼
Ð ¢
ĠÑģ ÐµÑĢ
ĠÐ´ Ð¾Ð²
ĠÐ ©
ĠÑĤ Ð¾Ð¹
Ñĸ Ð³
Ñĥ ÑĤÑĮ
Ð Ŀ
ĠÐ ¦
ĠÐ½ Ð°Ð¹
Ðµ ÑĤ
ĠÐ· Ð°Ðº
ĠÐ½ Ð°Ð¿
ĠÑ Ħ
ĠÐ· Ð°Ð±
ĠÑĢ Ðµ
ĠÑģÐµ Ð±Ðµ
Ðº Ð°Ð¼Ð¸
ÑĩÐ¸ Ð²
Ñİ ÑĤÑĮ
Ð¾Ð½ Ð¸
Ð½Ð¾ ÑĹ
Ð¾ ÑģÑĤ
ĠÑĤ Ñĸ
Ð¾ Ñı
Ð»Ð¸ ÑģÑı
ÐµÑĢÐµ Ð´
ĠÐ½Ðµ ÑĹ
ĠÐĲ Ð»Ðµ
ĠÐ· ÑĢ
ĠÑĤ Ð¸Ñħ
Ð½Ñĥ Ð»Ð°
ĠÐ»Ñİ Ð´Ð¸
ĠÐ½Ñĸ Ñĩ
ĠÐ¼ Ñĥ
ĠÐ¼ Ð¾Ð¶Ðµ
ĠÐ³ Ñĥ
Ð°Ð»Ð° ÑģÑı
ĠÐ¿ Ð¾Ð³
Ð± Ñĥ
ĠÑħ ÑĤÐ¾
Ð± Ð¾
ÑĢÐ¸ Ð¼
Ð½ Ñİ
ÑģÑĤ Ð°Ð²
ĠÑĢ Ð°Ð·
ÑĸÐ» Ð¾
Ð°Ð»Ð¸ ÑģÑı
Ñĸ Ð»Ð¸
Ð ¡
Ð» Ð°Ð´
ĠÐ¾ ÑĤ
ĠÐ±Ñĥ Ð»Ð°
ĠÐ¢ Ð°
Ð¾ÑĢ Ñĥ
ĠÐ¾ ÑĩÑĸ
Ñĥ ÑĶ
ÐµÑĢ ÑĤ
ĠÑĤÐµ Ð¿ÐµÑĢ
Ð°Ñİ ÑĤÑĮ
ĠÐ¿ Ð¾Ð±
ĠÐ· Ð°Ð³
ĠÑĤ Ñĥ
Ð¸ Ð´
ĠÐ¿ ÐµÑĢ
" ,
Ð¾Ð½ Ð°
ĠÑĢ Ð¾Ð±
Ð°ÑĶ ÑĤÑĮÑģÑı
ĠÑĤ Ð¾Ð´Ñĸ
Ð¾ ÑĤÐ¸
ĠÑģÑĤ Ð°ÑĢ
Ð» Ð¾Ð¿
ĠÑģ Ð¾Ð±Ñĸ
Ðº ÑĸÐ²
Ñı Ð³
ĠÐ²Ð¸ Ñģ
ÑĤ Ð¾Ð¼
ĠÐ± ÑĢ
ĠÑģÐ² Ð¾ÑĶ
ĠÑģ Ð¼
Ð± ÑĢ
ĠÐ± ÑĸÐ»
ĠÐ¼Ðµ Ð½Ñĸ
ĠÐº ÑĢÐ¸
ĠÑ Ķ
ĠÐĲ Ð½Ð´
ÐµÑĢ Ñĸ
ÑĤ Ð°
ĠÐº Ð¾ÑĢ
ĠÐ½Ð° Ñģ
Ð°Ð½ Ð¾
ĠÑĩ Ð¾ÑĢ
ĠÑĹ Ð¹
Ð°Ð»Ð¾ ÑģÑı
Ñĸ Ð¿
ĠÐ² Ñĥ
ĠÐ¿ Ð¾Ð¿
ĠÐ½ Ð¸Ñħ
Ñī Ðµ
Ð»Ñĥ Ñħ
Ð»Ñı Ð´
Ð½ ÑĮ
Ñĩ Ñĥ
ĠÐ¿ Ñĸ
ÑĨ Ñİ
ĠÐ·Ð° Ñģ
Ð»Ð¾ ÑģÑı
ĠÑĩ Ð¾Ð»
ĠÐ´ ÑĢÑĥÐ³
Ð¾ÑĢ Ñĸ
Ð¸ Ð»Ð°
ĠÐ¢ Ð°Ðº
ĠÐĿ Ð°
Ðº Ð°Ð²
Ð» ÐµÐ½
Ð¾Ð´ Ñĥ
ĠÑĤ Ð²
ĠÐ¶ Ð¸ÑĤ
Ð½ÑĥÐ² ÑģÑı
ĠÐ¿ Ðµ
Ð¿ Ð¾Ð²
ĠÑĤ ÑĢÐµ
Ð¸ ÑĤÑĮ
Ð Ĩ
ĠÐ¿ Ð°Ð½
Ð½Ñĥ ÑĤÐ¸
Ð¿ Ñĥ
ĠÐ½Ð°Ð² ÑĸÑĤÑĮ
ÑģÑĤ Ð°
Ð»Ð¸ Ñĩ
Ð· ÑĮ
ĠÐ¥ ÑĢÐ¸
Ðµ Ð¹
ĠÐ± Ð¸
Ð½Ð¸ Ð¼Ð¸
ĠÐ± ÑĸÐ»ÑĮ
ĠÐ³ Ð°ÑĢ
ÐµÑĢÐµ Ð·
Ðº Ð¾Ð²
Ñģ ÑĸÐ¼
ÑĢ ÑĸÐ¹
ÑĥÐ² Ð°Ð»Ð¸
Ð² Ð¾
ĠÐ· Ð³
ĠÐ·Ð½ Ð¾Ð²Ñĥ
Ð Ķ
ĠÐ° Ð¶
ÑģÑĤ Ð¾
ĠÑģÐ¿ ÑĢÐ°Ð²
ĠÐ¶ ÑĸÐ½
ÑĢ Ð°Ð·
Ðµ ÑĨÑĮ
ĠÑĩ Ñĥ
Ñı Ð·
Ð´Ð¸ Ð½
ĠÐ¼ Ð¾Ð¶
Ñı ÑĤ
ÑģÑĤ ÑĥÐ¿
ĠÐ¯ Ðº
ĠÐº Ð°Ð¼
ĠÑĥ Ð¶Ðµ
ĠÐ±Ñĥ Ð´Ðµ
ÐºÐ° Ñħ
ĠÐº Ð¾Ð½
ĠÐ´ Ð°Ð²
ĠÑīÐ¾ ÑģÑĮ
Ñģ Ð¸Ð¼
Ñĩ Ð°
Ð½Ñĸ Ð²
Ñĥ Ð±
ĠÑĩÐ¾Ð» Ð¾Ð²Ñĸ
ĠÐ² Ð¾Ð»
ĠÑĤÐµ Ð±Ðµ
ĠÑģ Ñħ
ĠÐ· Ð±
ĠÑģ Ð¾Ð½
ĠÐ¿ÑĢÐ¸ Ð¹
ĠÑı ÐºÐ¸Ð¹
Ð¸ Ð½
ĠÐ²Ð¸ Ð´
Ð°Ðº ÑģÐ¸Ð¼
Ð ľ
ĠÐ±Ñĥ Ð»Ð¸
Ñī Ð¾
ĠÐ¦ Ðµ
Ñĸ Ð»Ð°
ĠÐ· Ð°Ð¼
Ð¼ Ð¾Ð²
Ð½ Ð¾Ð¼Ñĥ
Ðº Ð¾Ð³Ð¾
Ð»Ð¸Ð² Ð¾
ĠÐ¶ Ð¸Ð²
Ð Ĺ
ĠÐº Ð¸
Ð ŀ
Ñĸ Ñı
ĠÐ¿ ÑĸÑģ
ÑĸÐ½ ÑĮ
ĠÐ³Ð¾Ð» Ð¾Ñģ
Ð² ÑĸÑĤ
ĠÐ½ Ð¸Ð¼
Ñģ Ðº
ĠÐ· Ð°ÑĢ
ÑĥÐ² Ð°Ð»Ð°
Ñı ÑĤÑĮ
ÑĪÐ¸ ÑģÑĮ
ĠÐ© Ð¾
ĠÐ²Ð¸ Ð¿
ĠÑĤ ÑĢ
Ð¾Ð³ Ð¸
ĠÐ´ ÑĸÐ²
ĠÑģ Ð¾Ð±
ĠÑħ Ð°ÑĤ
Ñĸ ÑĤÐ¸
ĠÐ½Ðµ Ð¿
ĠÑģÐºÐ°Ð· Ð°Ð²
Ð² ÑģÑı
Ð´ Ð°
ÑģÑĮ ÐºÐ¸Ð¹
Ð¸ Ð½Ð¸
ĠÐ¿ÑĢ Ð°Ð²
, âĢĶ
Ð» Ð°Ð²
ĠÑĢ Ð°Ð´
Ð¼ Ð°Ð½
ĠÐ½ Ð°Ð·
ĠÐ»Ñİ Ð´
Ñħ Ð¾Ð´Ð¸
ĠÐ¶ Ðµ
Ð¾Ðº Ð¸
ĠÑģÑĤ Ð°Ð²
ÑĪ Ð»Ð°
âĢ ¦
ĠÐ½ Ð°Ð¼
Ñĸ Ð¶
ĠÐ¶Ð¸ÑĤ ÑĤÑı
Ð°Ð½ Ðµ
Ð½Ñĸ ÑģÑĤÑĮ
ĠÐº Ð¾Ð¶
ĠÐ² Ð·
ĠÑıÐº Ñĸ
ÐºÐ¸ Ð¼
ĠÐ½Ðµ Ð·
ĠÐ¾ Ñģ
ĠÐ½ÑĸÑĩ Ð¾Ð³Ð¾
Ðº Ð¾Ð»Ð¸
ĠÐ¢ Ð¸
ÑģÑĮÐº Ð¾Ð³Ð¾
ÐºÐ¾ ÑĹ
ĠÐ¡ ÑĤ
Ðº Ð¾Ð»
Ð ļ
Ñģ Ð¿
ĠÐ² Ð¿
ĠÐ½Ð° ÑĩÐµ
ĠÐ³ ÑĢÑĥ
ĠÑĨ ÑĮÐ¾Ð³Ð¾
ĠÐ¿ Ð¾Ð·
ĠÑĩ Ð¾Ð³Ð¾
ĠÑĤ Ð¾Ð±Ñĸ
ÑĪ Ð»Ð¸
ĠÑĤÑĢÐµ Ð±Ð°
ĠÐ³ ÑĢ
Ñħ Ð¾Ð´
ÑĤÐ¸ ÑģÑı
ĠÐ½Ñĸ Ð±Ð¸
Ðº Ð°Ð·
ÑĸÐ½ Ð½Ñı
ĠÑĩ ÐµÑĢ
ĠÐľ Ð°ÐºÑģÐ¸Ð¼
Ñĥ ÑģÑĤ
Ð° Ñĩ
ĠÑģÐ² Ð¾Ñİ
ĠÑĢÐ¾Ð· Ð¿
Ñĸ ÑģÑĤÑĮ
ĠÐ¼ ÑĸÑģ
ĠÐº Ð°Ð¶
ÑĪÐ¸ Ð¹
ĠÑĤ Ð¾Ð¼Ñĥ
ĠÑĤ Ð¸Ð¼
Ð´Ðµ Ð¹
ĠÑĤ ÐµÐ¼
ĠÐ¿ Ð°ÑĢ
ĠÐ² ÐµÑĢ
Ñĸ ÑĶ
Ð½ Ð°Ð²
Ð° ÑĪ
ĠÐ´ Ð¾ÑĢ
Ð°Ðº Ð¸
ĠÐ½ Ð°Ð³
Ð°Ð½ ÑĮ
ĠÑħ Ð¾ÑĤ
ĠÑħ Ð»Ð¾Ð¿
ĠÐ¼ Ð°ÑĤ
ĠÑģÐ² Ð¾Ð³Ð¾
Ðµ Ñģ
Ðµ Ð²
Ð°ÑĤÐ¸ ÑģÑı
Ð³ Ð¾ÑĢ
Ð¾Ð² ÑģÑĸÐ¼
Ð³ Ñĥ
ĠÑĢÑĥ ÐºÐ¸
ÑģÑĮ ÐºÐ°
Ð¼ Ð¾
ÑĢÐ° ÑĪ
ĠÐ² Ñĸ
ĠÐ¼ Ð°Ð¹
ĠÐ±Ð° ÑĤÑĮ
! "
Ð¼Ñĸ Ñħ
ĠÐ¿ Ð¸
ĠÐ µ
ÐµÐ½ Ð¾
ĠÑĩ ÐµÑĢÐµÐ·
Ñİ Ð´Ð¸
Ð² Ð°Ð½
ÑĩÐ¸ Ð¼Ð°
? ..
Ñħ Ð°
ĠÐ² Ð´
ĠÐ´Ð¾Ð² Ð³
ÐµÐ½ Ð°
ĠÐ½Ðµ Ð²
ĠÐ±ÑĸÐ»ÑĮ ÑĪÐµ
ĠÐ± Ð°Ð³
ĠÐ· Ð°Ð´
ĠÐ¾Ð± Ð»Ð¸Ñĩ
ĠÐ¼ Ð¾Ð³
ĠÐ¼ Ð¾ÑĢ
ĠÑģÑĤ ÑĢ
Ð°ÑİÑĩÐ¸ ÑģÑĮ
ĠÐ±ÑĸÐ» Ñı
ÑĨ ÐµÐ¼
ĠÐ² ÑĸÐº
Ð²Ð¸ Ð´
ĠÐ² Ð¾ÑĢ
ĠÑħ Ð²Ð¸
ĠÑĤÐµ Ð¶
ĠÐº Ð°ÑĢ
ĠÐľ Ð°ÑĢ
âĢ Ļ
ÑģÑĤ ÑĢ
Ġ (
Ñĩ Ñı
ÑĢÑĸ Ð±
Ðµ Ð½Ñĸ
ĠÐ· Ð¾Ð²ÑģÑĸÐ¼
Ñĸ ÑĹ
Ñħ ÑĤÐ¾
ĠÑģÑĤ Ðµ
ĠÐ»Ñİ Ð´ÐµÐ¹
Ðµ Ð´
Ñı Ð´
ĠÐļ Ð¾Ð»Ð¸
Ðµ ÑĪ
ĠÐ¿Ð¾Ð² ÐµÑĢ
ĠÐ° Ð±Ð¾
ĠÐ· Ð¼
ĠÐĴ Ð¾Ð½Ð°
ĠÐ¿Ð¾Ð± Ð°
Ñĸ Ð±Ð°
ÑĢÐ¸ Ð¹
ÑĮ Ð¾Ð¼Ñĥ
ÑģÑĤ Ñİ
Ð¾Ñģ Ð¿
Ð ĵ
ÑĤ Ð¾Ð²
ĠÐ¾ Ð´Ð¸Ð½
ĠÐ± Ð»Ð¸
ÑĶ ÑĤÑĮÑģÑı
ĠÐ½Ðµ Ð´
Ð¾Ð» Ñİ
Ðµ Ðº
ĠÐĵ ÑĢÐ¸
ÑģÑĤ Ð°Ð½
Ð² Ð¾Ð½
ĠÐ»Ð¸ ÑĪÐµ
ĠÐ¼ Ð°Ð²
ĠÑĤ ÑĢÐ¾
ĠÑģÑĤ Ð¾Ñı
ĠÐ·Ð° Ñħ
ĠÑĥ ÑģÑĸ
ĠÐ´Ðµ ÑģÑĮ
Ð¾ÑĢ Ð°
Ð¾Ð´ Ð°
ĠÑı ÐºÐ°
ĠÐ·Ð½ Ð°Ð¹
ĠÐ¾ ÑĩÐ¸Ð¼Ð°
ĠÐĿ Ñĸ
Ð°Ð» Ñı
ĠÐĲÐ½Ð´ ÑĢÑĸÐ¹
ĠÐ¥ÑĢÐ¸ ÑģÑĤÑı
ĠÐ½Ð° ÑĢ
Ð»Ð° Ñģ
Ð°Ð½ Ð¸Ð¹
ÑĨ ÑĸÐ²
Ð ¯
ĠÐ´ Ð°Ð»Ñĸ
ĠÐ·Ð½Ð° ÑĶ
Ñı ÑĤÐ¸
Ð³ Ð°
ĠÐ¿ Ð»Ðµ
ĠÐ² ÑĸÑĤ
ĠÐ±Ð° ÑĩÐ¸
Ð¾Ð² Ð¾ÑĢÐ¸
ĠÐ¼Ð¾Ð² Ñĩ
ĠÐĴ Ð¸
ĠÐľ Ð¸
Ð²Ð¸ Ñĩ
ĠÐ³Ð¾Ð» Ð¾Ð²Ñĥ
Ð°Ð½ Ð¸
ĠÐ¼Ñĸ Ð³
ĠÑģÐ¼ ÐµÑĢ
ĠÐ²Ð¸ Ð³
ĠÐ¼ Ð°ÑĶ
Ð¶ Ñĥ
ĠÐº ÑĥÐ¿
ĠÐ·ÐµÐ¼ Ð»Ñĸ
ĠÑĨ ÑĸÐ»
ÑģÑĮÐº Ñĸ
ĠÐ² Ð¾Ð³
ĠÑĨÐµ Ð¹
ĠÐ³Ð¾Ð» Ð¾Ð²
Ð¾ ÑģÑĮ
ĠÑĤ Ð¾Ð²
ĠÐ¡ Ñĥ
ĠÐ¼Ð¾Ð¶ Ð½Ð°
ĠÐ³ Ð»Ð¸
Ð¾Ðº Ñĥ
ĠÐ· Ñĸ
ĠÐ¾ Ð¿
ĠÐ²Ð¸ Ð¹
Ðº Ð½ÑĥÐ²
ÑĢ ÐµÐ¼
ÑģÑĮ ÐºÐ¸Ñħ
ĠÐº Ð°Ð·
Ñı ÑĩÐ¸
ĠÐ¿Ð¾ Ñħ
Ñı Ñħ
ĠÐº ÑĸÐ½
Ðº Ðµ
Ð¿Ð¾Ð² ÑĸÐ´
ĠÐŀ ÑĤ
ĠÑĹ Ð¼
ĠÐ¾Ð±Ð»Ð¸Ñĩ ÑĩÑı
ĠÑĥ Ñģ
ĠÐ²Ð¾Ð½ Ð¾
ĠÐ§ Ð¸
ĠÑģÐ» ÑĸÐ´
Ñħ Ñĥ
Ð°Ð² Ð¸
Ð»Ð¸ ÑģÑĮ
ÑĤ ÑĸÐ²
ÑĩÐ¸ Ð½Ð°
Ñı Ð½
Ð½Ð¾ ÑģÑĤÑĸ
ĠÐ± Ð»
ĠÐĿ Ñĥ
ĠÐ±Ñĥ ÑĤÐ¸
ĠÑģÐ²Ð¾ÑĹ Ñħ
ĠÐ ¤
ĠÐ¿Ð¾Ðº Ð¸
ĠÐ Ļ
ĠÐ²ÑĸÐ´ Ñĩ
ĠÐ² Ð°Ñģ
Ð¾Ð½ Ñĥ
Ðµ ÑĤÑĮ
ĠÐº ÑĢÑĸ
ĠÐ»Ðµ Ð¶
ÑĪ Ð¾Ð³Ð¾
ĠÐ´ Ð¾Ð»
ĠÐ¿ÑĢ Ð¾Ð¼
ÐµÑĢ Ð¸
Ð· Ð¸
Ñİ Ð²
ĠÐ¿ Ñĥ
Ð¿ Ð¸
ĠÑģÐ¿ Ð¸ÑĤ
Ð½Ð¸ ÐºÐ°
ĠÐº Ð¾Ð¼
ĠÐ§ ÑĸÐ¿
ĠÐ² ÑĸÐ·
Ð ¥
Ñģ Ñĥ
Ð¾Ð» Ð¾ÑĤ
ĠÐ¢ Ð¾
Ð°ÑĤ Ð¾
ĠÑģÐµÑĢ ÑĨÐµ
Ñı Ð¶
ĠÑģÑĤ ÑĢÐ°ÑĪ
Ð¾ ÑĪ
Ð¾Ð³ Ñĥ
Ð¾Ð½ ÑĮ
ĠÐ» ÑĸÑĤ
ĠÐ¿ Ð»
Ð¾Ð´ ÑĸÐ²
ĠÐĲÐ½Ð´ ÑĢÑĸ
Ð± Ð¸Ð²
ĠÐ½ Ð°Ð±
Ð ł
ĠÐ· Ð°Ð»
ĠÐ²Ð¸ Ðº
ÑĢÐ° ÑĹ
ĠÐ½Ñĸ Ð¶
ĠÐĴ Ð¾Ð½Ð¸
ÑĩÐ¸ Ð½
ĠÐ·ÑĢ Ð¾Ð±
ĠÐ½Ñĸ ÐºÐ¾Ð»Ð¸
ĠÐ½ Ð¸
ĠÑĢ Ð°Ð¿
Ð² Ñĥ
ÑģÑĤ Ðµ
ĠÑĤÑĢÐ¾ ÑħÐ¸
Ð¾Ð³ Ð°
ÑĢÑĥ Ð¶
ÑģÑĤ Ð²Ð¾
Ð¾Ðº ÑĸÐ¹
ĠÐ² ÑĸÐ¹
ĠÐ¿ Ð»Ð°
ĠÐ±ÑĢ Ð°ÑĤ
ĠÐĹ Ð°
Ð¾ ÑģÑĤÑĸ
Ð³ Ð¸
Ð½Ð¸ Ñĩ
Ð°Ð½ Ñĥ
ĠÐ¿ÑĸÑģ Ð»Ñı
ÑİÑĩÐ¸ ÑģÑĮ
ĠÑģ ÐµÑĢÐµÐ´
Ð»Ð° ÑģÑĮ
ĠÑıÐº Ñĥ
ĠÑĢÐ¾Ð· ÑĥÐ¼
ĠÐ»Ðµ Ð³
ĠÐºÐ¾Ð» Ð¾
Ð¾Ð µ
ĠÐ¼ Ð°ÑĤÐ¸
Ð² ÐµÑĢ
Ð»Ðµ Ð¹
ĠÐº ÑĸÐ»ÑĮ
ĠÑĩ Ðµ
ĠÐ´ Ð¾Ð´
Ð² ÑĸÐ´
Ð°Ð´ Ð¸
ÑĤÑı Ð³
ĠÐ² Ð°Ð¶
Ð ĳ
ĠÐ´ ÐµÐ½ÑĮ
Ð¾Ð² Ð¾
ĠÐ±Ñĥ Ð´
ÑĤ ÑĢ
ĠÐ¿ÑĢ Ð¾Ñģ
ĠÐ½ Ð¸Ð¼Ð¸
ĠÐ´ ÐµÑĢÐµ
Ð½Ñĸ Ð¼
Ð §
ÑĪ Ð¸Ñħ
ĠÐ¼ Ð¾Ð»
Ñĥ Ð½
Ð» ÑĸÐ²
ÑĩÐ¸ Ð½Ð¸
ĠÐ ¨
ÑĨÑĸ ÑĹ
Ñĥ Ðº
ĠÐ²Ð¸Ñģ Ð¾Ðº
Ðµ Ð»Ð¸
Ñı Ðº
Ð² Ð°Ð¶
ĠÐ½Ñĸ ÑħÑĤÐ¾
ĠÑģÐ°Ð¼ Ðµ
Ð¾Ð¼ Ð°
Ð¸Ð² ÑĪÐ¸
Ðµ Ñĩ
Ð±Ð¸ ÑĢ
Ð°Ð´ Ñĥ
Ð´ Ð°Ð²
Ð°Ð³ ÑĸÐ¼
Ð±ÑĢ Ð°Ð³ÑĸÐ¼
ĠÐ ĸ
Ñı Ñĩ
ĠÑģ Ð»ÑĥÑħ
Ð¼ ÐµÐ½
ĠÑģÐ°Ð¼ Ð°
ĠÑģ Ð¼Ñĸ
ĠÐ´ Ð°Ð»Ðµ
Ñĸ ÑĪ
Ñĩ Ð°Ð²
Ðµ Ð»ÑĮ
ĠÑģÑĤ Ð¾
Ð £
ĠÑĤÐ°Ðº Ð¸Ð¹
ĠÐ³ ÐµÑĤÑĮ
Ð¾Ð» Ñĸ
ÑĩÐ¸ ÑĤÑĮ
ĠÐ½Ðµ Ñİ
ĠÐ± Ð¾ÑĢ
ÐºÐ¸ Ð¼Ð¸
ÑĢÐµ ÑĪ
ÑĤ Ð¾ÑĢ
ĠÐ·Ð½ Ð°Ð²
ĠÐ¼ Ð°Ð»
? !
ĠÑĢ ÑĸÐ´
ĠÐº Ð¾Ð³Ð¾
ĠÑĤÐ°Ðº Ðµ
ÐµÑĢ Ð¶
ĠÐ²ÑģÑĸ Ñħ
Ñĥ ÑĪ
ÑĤÐ¸ Ð¹
ĠÐŁ ÑĢÐ¾
ĠÐ»Ð¸ ÑĪ
ĠÑ İ
ĠÑĥ Ð¿
ĠÑĢÐ°Ð¿ ÑĤÐ¾Ð¼
ĠÐ² ÑĸÑĢ
Ð½Ð¸ ÑĨÑĸ
Ð½ Ð°Ðº
ĠÐºÐ¾Ð»Ð¸ ÑģÑĮ
Ñı Ñģ
Ð½Ñĥ Ð»Ð¸
ĠÐº Ð¾ÑĤ
ĠÐ¿ ÑĸÐ²
? "
ĠÑĥ ÑģÐµ
Ð´Ñĥ ÑĤÑĮ
Ð¾Ð» ÑĮ
ĠÐ½ Ð¾Ð³Ð¸
ĠÑıÐº Ð¾Ð³Ð¾
ĠÐ·ÐµÐ¼ Ð»Ñİ
ĠÑĤ ÑĢÐ¸
ĠÐ¾ Ð·
ĠÐ´Ð¾Ð± ÑĢÐµ
ÑĢ Ð¾Ð²
ĠÐ¾ ÑģÑĮ
ÑĥÐ² Ð°Ð²ÑģÑı
ĠÐ´ Ð¾Ð¿
ĠÐ¢ Ðµ
ĠÐ¼Ñĸ Ð¶
ĠÑĤ Ñİ
ÑıÐ² ÑģÑı
ĠÐ¼ Ð¾Ð»Ð¾Ð´
Ð¶ Ñĸ
ĠÑģÐ¸ Ð´
ĠÐ²Ðµ Ñĩ
Ð¿ Ð°
Ð± Ñĸ
ĠÑĩÐ¾Ð»Ð¾Ð²Ñĸ Ðº
ĠÐ½ Ð¾Ð²
ĠÑĤ ÑıÐ¶
ĠÑħ Ð¾Ð»Ð¾Ð´
ĠÐºÑĥ Ð´Ð¸
ĠÑģ ÑĥÐ¼
ĠÐ¿ÑĢÐ¸ Ð³
Ð² ÑĸÑĢ
Ð°Ð½ Ð´
Ð½ ÑĮÐ¾Ð³Ð¾
ĠÑħ Ð°ÑĤÐ¸
Ñī Ð°
ÐºÐ° ÑĤÐ¸
ĠÑģÐ¿ ÑĸÐ²
ĠÑĢÑĥ ÐºÑĥ
ĠÐĳ Ñĥ
ĠÑģÐ²Ð¾ÑĹ Ð¼
Ð» Ð¾Ð½
ĠÐĨ Ð±ÑĢÐ°Ð³ÑĸÐ¼
Ðµ Ð»Ðµ
ĠÐ´Ñĥ ÑĪÑĸ
Ð¾Ð´ Ð½Ñĸ
Ð¶ Ð´Ð¸
ĠÐ¡Ñĥ Ð»ÐµÐ¹
Ð² Ð¾ÑĢ
ÐµÑĢ Ð¿
ĠÑģÐ» Ð¾Ð²Ð°
ĠÑģ Ð»Ñĥ
ĠÐ Ħ
ĠÐ½Ðµ Ð¼
ĠÐĶ Ðµ
Ð°Ð· Ñĥ
ĠÐ¿Ð¾ÑĤ ÑĸÐ¼
ĠÐ·Ð² ÑĸÐ´
ĠÐ¿ÑĢ Ð¾Ðº
ĠÐĨ Ð²Ð°Ð½
ĠÐ²Ðµ ÑģÐµ
Ð½ Ð¾Ð²
ÑĥÐ² Ð°Ð½Ð½Ñı
ĠÐŀ Ð´
ÑĢ ÑĸÐ²
ĠÑģÐ¾Ð± Ð¾Ñİ
ĠÐ½ Ð¾Ñĩ
ĠÐ¾Ð´ Ð½Ð¾Ð³Ð¾
ĠÐ´ Ð¸
ĠÐ¿Ñĸ ÑĪÐ¾Ð²
Ð»Ñİ Ð²
ĠÐ³ Ð¾Ð²Ð¾ÑĢÐ¸
ĠÐ¿ÑĢÐ¸ Ñģ
ÑģÑĤ Ð²Ð°
Ð¾ÑĤ Ñĥ
ĠÑĩÐµÑĢ Ð²Ð¾Ð½
ĠÐ² Ð¾Ð´
Ð½Ð¸ ÐºÐ¸
Ð°Ð»Ð¸ ÑģÑĮ
ĠÐ¿ Ð¸ÑĤ
ĠÐ· Ð°Ð¹
ÑģÑĮ ÐºÐ¾ÑĹ
Ð· Ð´
ĠÑĩ Ð¾Ð¼Ñĥ
ĠÐ· Ð»
ĠÐ² Ð°Ð¼
ĠÑģ ÑĤÐ¸
ĠÑĢÐ°Ð· Ð¾Ð¼
ĠÑĢ Ð¸
Ð²Ð¸ Ð¹
ĠÐ¾ Ð³
ĠÐ³ ÑĢÐ¾
Ð°Ð»Ð° ÑģÑĮ
ĠÐ¿ÑĢÐ¾ ÑĤÐ¸
ÑĥÑĤ ÑĤÑı
ĠÑĤ ÑĢÐ¸Ð¼
ĠÐ²Ñĥ Ð»Ð¸
ĠÑģ Ð¾ÑĢ
ĠÑĤÐ¸Ñħ Ð¾
ĠÐ² Ð»Ð°Ñģ
ĠÑĤ Ð¾ÑĢ
Ð½Ñĸ Ñħ
ÑĩÐ¸ Ð¹
ĠÑģÐ¸ Ð½
Ñı Ð¼
Ñĥ Ñģ
Ñħ Ð¾Ð¿
ĠÐ» ÑĸÑģ
ĠÑĪ Ð²Ð¸Ð´
ĠÑģÑĤÐ¾ ÑıÐ²
ĠÐ¿Ð¾Ð´ ÑĥÐ¼
ĠÑģÐ°Ð¼ Ð¾
ĠÐ¿Ð¾Ð³ Ð»ÑıÐ´
ĠÐĵÑĢÐ¸ ÑĨÑĮ
ĠÐ³ ÑĸÑĢ
Ð½Ñĸ ÑĪÐµ
ĠÑı ÐºÐ¸Ñħ
Ð¾ÑĤ Ð°
Ð» ÑĸÐ´
ĠÐ²Ð¸ ÑĤ
ĠÑģÐ² ÑĸÐ¹
Ð°ÑĤ Ð°
ĠÑĩÐ°Ñģ Ð¾Ð¼
ĠÐ»Ñİ Ð±
Ð½Ð¸Ðº ÑĸÐ²
Ð¾Ð· Ð¸
ÑĢ Ð¾Ð¼
Ð»Ð¾ ÑģÑĮ
ĠÐ´Ñĥ Ð¶Ðµ
Ð¼ Ð°ÑĢ
ĠÐŁ ÑĢÐ¸
Ñĩ ÐµÐ½
ĠÐ´ Ð·
ĠÐ¢ Ð¾Ð´Ñĸ
ÑĢ Ð¾Ð±
Ñī Ñĸ
ĠÐ´Ð¾Ð²Ð³ Ð¾
ĠÑħ Ð»Ñĸ
ĠÑĪ Ð¸
ĠÐľ Ð¾Ð¶Ðµ
Ð¸ÑĤÐ¸ ÑģÑı
ÐºÐ° ÑĶ
Ð°Ñģ Ð¸
ĠÑģÐº ÑĢÐ¸
ĠÐ¿ Ð¾Ðµ
ÐµÐ¼ Ð¾
ĠÐĴ ÑĸÐ´
ĠÑĤÐ°Ðº Ñĸ
Ðµ Ð»Ñĸ
ĠÑĸ Ð¼
ĠÑĩ Ð¸Ð¼
ĠÐ´ Ð¸ÑĤÐ¸
Ð½Ñĥ Ð»Ð°ÑģÑı
ĠÑĤÐ°Ðº Ð°
ÑģÐ¸ ÑĤÑĮ
ĠÐ·Ð°ÑĢ Ð°Ð·
ĠÐ¥ ÑĤÐ¾
ĠÐ· Ð°Ð»Ð¸
ĠÐ·Ð´ Ð°Ð²
Ð²Ð¸Ñĩ Ð°Ð¹
ĠÐ¿ Ð°Ð»ÑĮ
ĠÑģÐ¿ Ð¾ÐºÑĸÐ¹
Ð¶ Ð¸
Ð¾Ð½ Ñĸ
Ðº Ð¾Ð²Ñĸ
Ð½ÑĥÐ² ÑĪÐ¸
ĠÑģÐ¿ÑĢÐ°Ð² Ð´Ñĸ
Ð¾Ð» Ð¾Ð¼
ĠÐ±Ð° ÑĩÐ¸Ð²
ĠÑģÐºÐ°Ð· Ð°Ð»Ð°
Ð°ÑĶ ÑĪ
ĠÐ± ÐµÑĢÐµ
Ðµ Ð¿
Ð°Ð± ÑĥÑĤÑĮ
Ð° ÑĤÑĮ
Ð»Ñı Ð²
ĠÑĪ Ð»Ñı
ÑĢ Ð°Ð½
ĠÐ² Ð³
ĠÐ² Ð¾Ð´Ð¸
ÑģÑĤ Ñĥ
ÑģÑĮ ÐºÑĥ
ĠÑģÐº Ð°Ð¶
ĠÐŁ ÐµÑĤ
ĠÑĢ ÑĸÐ·
Ðº ÑĢÐ°ÑĹ
ĠÑħÐ¾ÑĤ ÑĸÐ²
ĠÐ· ÑĸÑĤ
Ñĩ Ð½Ð¾
ĠÑĤÐ°Ðº Ð¸
Ðº Ð¾Ð¼Ñĥ
ĠÐĳ Ð¾
ÑĸÐ¹ ÑĪÐ¾Ð²
ĠÐ¿ÑĢÐ¸ Ð²
Ð¿ Ð°Ð½
Ð½Ñı Ð²
ĠÐ´Ð¸Ð² Ð¸Ð²ÑģÑı
ĠÑĤÐ¾Ð² Ð°ÑĢÐ¸
ÑģÑĮ Ð¾Ð³Ð¾
ÑĩÐ¸ ÑĤÐ¸
ĠÐ¿ÑĢ Ð¾Ð¿
Ð°ÑĤÐ¸ ÑģÑĮ
ĠÐ½ Ð°Ðº
Ð»Ð¸ Ð½
ĠÐ´Ð² Ð°
ÑĢ Ð¾Ñģ
ĠÑĨ Ñĸ
Ð» Ð¾Ð¼
ÑĨÑı Ð¼Ð¸
ĠÑħÐ¾Ñĩ Ðµ
ĠÐ´ ÑĥÑĢ
Ð»Ð¸ Ð¹
Ð¼ ÐµÑĢ
ĠÑĥ Ð²
ĠÐ´ ÑĸÑĤ
ĠÐºÐ°Ð¶ Ðµ
ĠÐ· Ð¾Ð»Ð¾ÑĤ
ĠÐ¿ÑĢÐ¾ ÑģÑĤÐ¾
Ð Ľ
ĠÐ¿ÑĢ Ð¾Ð²
ĠÑĤÑĥ Ð´Ð¸
ĠÑģ ÑİÐ´Ð¸
ĠÐ½Ð° ÑĪ
ĠÐºÑĸÐ»ÑĮ ÐºÐ°
ĠÑĤ Ð¾Ð½
ĠÐ½Ðµ Ñģ
Ð¾Ð· Ñĸ
ĠÐ´ ÑĸÐ´
ĠÐ·Ð°Ð² Ð¶Ð´Ð¸
ÑĶ ÑĹ
Ð¾Ð· ÑĥÐ¼
ĠÐŁ Ð¾ÑĤ
Ñĸ ÑģÑĤ
Ð°ÑĶ Ð¼
ÑĩÐµ Ð¹
ĠÑĢ ÑĸÑĩ
ĠÐ³ ÑĢÑĸ
ĠÐŁ ÑĸÐ´
ĠÐ´Ð² ÐµÑĢÑĸ
Ðº ÑĢÐ¸
Ð°Ð¹ ÑĤÐµ
ĠÐ³ Ð¾ÑģÐ¿
ĠÑħÑĤÐ¾ ÑģÑĮ
ĠÑĤ ÑıÐ³
ĠÐ± Ð°Ð±
Ñī Ð¸
ĠÐ¼ Ð°ÑĢ
ĠÐº Ð¾Ð·
Ð°Ð¼ Ð±Ñĥ
ĠÐ½Ðµ ÑģÐ¿
Ð°ÑĢ ÑĸÐ²
ÑĮ Ð¾Ð³
Ð¾Ð² Ð°Ð½
Ð¾Ð» Ñĥ
ĠÐ¾ Ñĩ
Ð°Ð»Ð¾ ÑģÑĮ
Ð¾Ðº ÑĸÐ²
ĠÑĨ Ñİ
ÐµÐ½ ÑĤ
ÑĶ Ð¼
ĠÑĪ Ðº
ĠÐ§ÑĸÐ¿ ÐºÐ°
ĠÑĢÐ¾Ð· Ð³
Ð°Ñİ ÑĤÑĮÑģÑı
ĠÑģ Ð½Ñĸ
ĠÐ¼ Ð°Ð»Ð¸
ĠÐ¼ ÑĸÐ¹
ĠÑĨ ÑĸÑĶ
ĠÐ¿ Ð°Ð¼
Ð¾Ð² Ð¸Ð¹
ĠÑģÐ²ÑĸÑĤ Ñĸ
ÐĿ Ð°
ĠÐ·ÑĸÑĤ Ñħ
Ð¸ ÑĤÑĮÑģÑı
Ð½ Ð¾Ð¼
ÑĸÐ» Ñı
ĠÑģÐ¸ Ð´Ñĸ
Ð°Ð» Ñĥ
ĠÑıÐº Ðµ
ĠÐ·Ð° ÑĤ
ĠÑĪ Ð¸ÑĢ
ĠÑħÐ°ÑĤ Ñĥ
ÑĪ Ð¸Ð²
Ð· Ð°
ÑĮÐ¾Ð³ Ð¾Ð´Ð½Ñĸ
! !
ĠÐ² ÑģÑı
Ñı Ð²Ð¸
ĠÑı Ñģ
ĠÐ¼Ñĸ ÑģÑı
ĠÐ¡ Ð¿
ĠÐ¥ ÑĸÐ±Ð°
ĠÐ²Ð¸Ð´ Ð½Ð¾
ĠÐ¼Ð°ÑĤ ÐµÑĢÑĸ
ĠÐ³Ð¾Ð»Ð¾Ð² Ð¾Ñİ
ĠÐ¡ Ðº
ĠÐ±Ð°Ð³ Ð°ÑĤÐ¾
Ð ¦
ĠÐ¿ Ð¸Ñģ
Ð» Ð¾Ð²
Ð»Ñı Ð½
ĠÐ´ Ð¾Ðº
ĠÑĨ ÑĮÐ¾Ð¼Ñĥ
Ñİ ÑĤÑĮÑģÑı
ĠÐºÑĢ Ð¾Ð²
Ð½ ÑĶ
Ñĥ Ñħ
ĠÐ» Ð¸Ñħ
ĠÑħ Ð¾Ð´Ð¸
ĠÐ¿ Ð¾Ð½
ĠÐ½ ÑĮÐ¾Ð¼Ñĥ
ĠÐ¿Ð¾Ñĩ Ð°Ð²
ĠÑĤ ÑĢÑĥ
ĠÐ³ Ð»Ñı
Ð¾Ðº Ñģ
Ð¸Ð»Ð¸ ÑģÑı
ĠÑģÐ°Ð¼ Ð¾Ð³Ð¾
ĠÐ·Ð½Ð° Ñİ
ĠÐ½ÐµÐ¼ Ð°ÑĶ
ĠÑģÑĤ Ð¾ÑĢ
ĠÑģÑĤ Ð°ÑĢÐ¸
ÑĸÐ¹ Ð¼
ĠÐ¿ÑĢÐ¾ ÑģÑĤ
ĠÐĶ Ð¾
ÑĶ Ñİ
ÑĥÐ´ ÑĮ
ĠÐ± ÑĸÐ³
ĠÐº Ð¾Ð¼Ñĥ
ĠÐ¾ ÑģÑĤÐ°Ð½
Ð°Ð» Ñİ
ÑĪ ÐºÐ°
ĠÑĩ Ð°
ĠÑĢÐ¾Ð· Ð´
ĠÑģÐ²Ð¾ÑĶ ÑĹ
Ð± ÑĸÐ»ÑĮ
Ð¾ÑĢ Ð¾
ÑĸÐ»Ð¸ Ð¹
ĠÐ·Ð³ Ð°Ð´
ĠÐ· Ð¼Ñĸ
ĠÐ¾ Ðº
ĠÑģÑĥÐ»ÑĤÐ°Ð½ Ð°
ĠÐ¼ Ð¾ÑĹ
Ð¸ Ð»Ð°ÑģÑı
ĠÐº ÑĢÑĥ
Ð°ÑĢ Ñĸ
ĠÐĴ ÑģÐµ
ĠÐ¡ÑĥÐ»ÐµÐ¹ Ð¼Ð°Ð½
Ñĸ Ð±
Ð¼ Ð°ÑĤ
ÑĪ ÐºÐ¸
ĠÑĥ Ð´
ĠÐ½ Ð¾Ñģ
ĠÐº ÑĢÐ°
ĠÑģÑĤ Ð°Ð»Ð¾
ĠÑħÐ°ÑĤ Ñĸ
ÑĥÑģÑĤ ÑĢÑĸ
ĠÐ³Ð»Ð¸ Ð±
ĠÐºÑĢÑĸ Ð·ÑĮ
ĠÐ¾ ÑĢ
Ð°Ð· Ñı
Ð°Ð¹ Ð´Ñĥ
ÑĹ Ñħ
ĠÐ¿ÑĢÐ¸ Ðº
ĠÐ¿Ð¾Ð´ Ð¸Ð²
ĠÑģ Ð»ÑĮ
Ð¾Ð´ Ð¶
ĠÐ¼Ð°Ð¹ Ð¶Ðµ
Ð¾Ð» Ñı
ĠÑĢÐ¾Ð· Ð¼
ĠÐ²Ðµ ÑģÑĮ
ĠÑĢÑĥ ÐºÐ°Ð¼Ð¸
ĠÐ¿Ð¾Ð² ÑĸÑĤ
ÐĴ ÑĸÐ½
ĠÑĤ ÑĢÐ°Ð²
Ð°ÑĢ Ñı
ĠÐ¿ÑĢ Ð¾Ð±
Ñĩ ÐºÐ°
Ð¾Ñģ ÑĤÐ¸
Ð°Ð»Ðµ Ð¶
ĠÐ² Ð¸Ð²
Ð°Ð½ ÐºÑĥ
Ð½Ð¸ Ð·
Ð¾Ð´ Ð¸Ð²
ÐºÐ¾Ð» Ð°
Ð² Ð°ÑĢ
ĠÐ¿ÑĢÐ¸ Ð¿
ĠÑĤÐµ Ð¿
ĠÑģÐ°Ð¼ Ñĸ
ĠÐ² ÑĢ
ĠÐ´Ð² Ñĸ
ĠÐ¼ Ð°Ð»Ð¾
ĠÐ¢ ÑĸÐ»ÑĮÐºÐ¸
Ð¾ÐºÑģ Ð¾Ð»
Ð» Ð°Ð¼
ĠÐ²ÑĸÐ´ Ð´
ĠÐŀ ÑģÑĮ
ĠÐ½Ðµ Ð±Ð¾
ĠÐ»Ðµ Ð´
Ð² Ð°Ð²
Ð»Ð¸ Ðº
ÑĹ Ð²
Ð»Ð¸Ð² Ñĸ
ĠÐ² Ð°ÑĢ
Ñĩ Ð°Ñģ
ĠÐ° Ð±Ð¸
ÑĤ ÑĢÐ°
ÑĩÐ¸ Ð»Ð°
ĠÐ© Ðµ
Ð°Ð´ ÑĨÑı
Ð° ÑģÑĤÑı
ĠÐ¿Ð¾ ÑģÑĤÐ°Ð²
ĠÐ½Ñĸ Ñı
ĠÐ½Ð¾Ñĩ Ñĸ
Ð· Ð½Ð°
ĠÑģÐ¿ Ð¸
ĠÑģÐ²ÑĸÑĤ Ñĥ
ĠÐ´ÑĥÐ¼ Ð°Ð²
ĠÐ± Ð°ÑĢ
ĠÐ¢ Ð°Ð¼
ĠÐ·Ð°Ð¿ Ð¸ÑĤ
ĠÐ´ Ð¸Ð¼
ĠÑħ ÑĸÐ±Ð°
Ñģ ÐºÑĥ
Ñĩ ÐºÐ¸
ĠÐ¿ÑĢ Ð¾ÑĤ
ĠÐ¿Ð¾Ðº Ð°Ð·
ĠÐ´Ñĥ ÑĪÑĥ
ĠÐ¿Ð¾Ð±Ð° ÑĩÐ¸Ð²
ĠÑĨ Ñı
ÑĤÐ¸ Ð²
ĠÐ³ Ð¾Ð´Ð¸
ĠÑħ Ð°Ð¹
ĠÐ¡ ÑĤÐµ
ĠÐ¾Ð´ Ð½Ð°
Ð´ Ð¾Ð²
ĠÐ¼ Ð°Ð±ÑĥÑĤÑĮ
Ð°ÑĢ Ð°
Ð ©
Ð¾Ñģ Ðº
ĠÑĥÑģÑĸ Ñħ
Ðµ Ð³
Ð³ Ð°Ð½
ĠÐ§ Ð¾Ð³Ð¾
ĠÐ¼ Ð°Ð»Ð°
Ð¾Ð± Ð¸
ĠÑĢÑĥ ÐºÐ¾Ñİ
Ñĸ Ð½Ð¸
ĠÑĪ Ñĥ
ĠÐº Ð½Ð¸
Ð¾ÑĢ Ð¾Ð¼
ÑĸÐ½ Ð°
ĠÐĳ Ð°
ÑĸÐ´ Ð¾Ð¼
Ð´ Ð¶
ĠÐ¼ Ð°
ĠÐ¿Ð¾ ÑģÑĤ
ĠÐŁ ÑĢÑĸ
ĠÐ¿ÑĢ Ð°
ĠÑģÐ¸Ð´ ÑĸÐ²
ĠÐ· ÑĥÐ¿
ĠÐº Ð¾ÑĢÐ¸
Ð½Ñĥ Ð»Ð¾
ĠÑĩÑĥ Ð¶
ÑĪ Ð¸Ð¼
ĠÐ´ ÐµÑĢÐ¶
ĠÐ¿ÑĢ Ð¾Ð¹
ĠÑģÑĤ ÑĢÑĥ
Ð°Ñħ Ñĥ
ĠÐļ Ð¾Ð»
ÑĸÐ´ Ðµ
ĠÐºÑĢ Ð°Ñģ
ÑĢ Ð°Ð´
Ñĩ ÐºÑĥ
Ð¾ÑĤ ÑĸÐ²
Ð¿Ñĥ ÑģÑĤÐ¸
ĠÐ¶ÑĸÐ½ ÐºÐ°
ĠÐ²Ð¸ Ð±
ĠÐ° ÑĢ
ĠÐ¢Ðµ Ð¿ÐµÑĢ
Ð»Ñĸ Ð¿
Ð¿ ÑĸÐ²
ĠÐ³ Ð¾ÑģÑĤ
ÑĸÐ» Ñĸ
ĠÐ¿ÑĢ Ð¾Ð´
Ð»Ñı ÑĩÐ¸
ĠÑģ ÑĮÐ¾Ð³Ð¾Ð´Ð½Ñĸ
Ñĩ Ð°Ð»ÑĮ
ÑĸÐº Ð°Ð²
ÐĿ Ðµ
Ð» ÑĸÑĤ
ĠÐ± Ð¾Ð¶Ðµ
ĠÐº ÑĸÐ¼
Ð°ÑĤ Ñĥ
ĠÑĤÐ¸ ÑģÑı
ĠÑī Ð°ÑģÑĤÑı
ĠÑıÐº Ð¾ÑĹ
ĠÑĥ Ð·
ÐºÐ° ÑİÑĩÐ¸
ĠÐ±Ð» Ð°Ð³
ĠÑĤÐ°Ðº Ð¾Ð³Ð¾
ĠÐ·ÐµÐ¼ Ð»Ñı
ÑĢÐ°Ð· Ñĥ
ÑĤÐ¸ Ñħ
ĠÐ³Ð¾Ð» Ð¾Ð²Ð¸
ĠÑıÐº Ð¾ÑģÑĮ
Ð°ÑĤ Ñĸ
ÑĤ Ñİ
Ð¾ÑĢ Ð¾Ð²
ĠÐ· Ð°Ð·
ÑģÐ¸ Ð¿
... "
ĠÐ·Ð°Ð» ÑĸÐ·
ĠÑĨÑĸÑĶ ÑĹ
ĠÐ½ ÑĸÐ¹
ĠÑĸ ÑģÑĤ
ĠÑħ Ð°Ð·Ñı
ÐµÑĢ Ðº
ĠÐĿ Ð°Ð²
ĠÐ¿ Ð°
ÐµÑĢ Ð´
ĠÐ½Ðµ Ð¼Ð¾Ð²
ĠÐ´Ñĥ Ñħ
ĠÐ´Ð°Ð² Ð½Ð¾
Ð¾ ÑĦ
Ð» Ð°Ðº
ĠÐ½ Ð¾Ð³
Ð»Ñı Ðº
ĠÐļ Ð¸
ĠÐ¿ Ð°Ð¿
ĠÐŁÐ¾ÑĤ ÑĸÐ¼
ĠÐ½Ðµ Ð¼Ð°
ĠÐ±Ñĥ ÑĢ
ÑĤ Ð°ÐºÐ¸
ĠÐ´ÑĢÑĥÐ³ Ð¸Ð¹
ĠÐ¼ÑĸÑģ ÑĨÐµ
Ðº Ð¾Ð½
ĠÐ² ÑĸÑĩ
ĠÑģÑĤ Ð°Ð½
Ð° ÑĦ
Ðº Ð½ÑĥÐ»Ð°
ĠÐ´ Ð¾Ð¼
Ð»Ñı ÑĤÑĮ
ĠÑĨ Ð¸
ĠÐľ Ð°Ð»ÑĮ
ĠÐ¿Ð¾Ñĩ ÑĥÐ²
Ñĥ Ñĩ
ĠÑģÐ¾Ð½ ÑĨÐµ
ĠÑģÑĤ Ð¾ÑĹ
ÑĢÐµÑĪ ÑĤÑĸ
Ñĸ Ñİ
Ð°Ð» Ð¸Ð²
Ð°Ð½ ÑĤ
ĠÐ²ÑĸÐ´ Ð¿Ð¾Ð²ÑĸÐ´
ĠÐ¿Ðµ Ð²
ĠÐ¼ Ð¾ÑĶ
ÑĶ ÑĪ
ĠÑĩ ÑĥÐ´
ĠÑģÐ²Ð¾ÑĹ Ð¼Ð¸
. âĢĶ
Ð¶ ÑĩÐµ
ÑĨÑĸ Ñı
Ð³ Ð¾
ÑģÑĮÐº Ðµ
ĠÐŁ ÑĢ
ĠÐĲÐ½Ð´ÑĢÑĸ Ñı
Ð½ Ð°ÑĤÐ¸
Ñĥ Ð±Ð¸
ĠÐ¾ ÑĩÐµÐ¹
Ð¾Ñĩ Ðµ
ÑħÐ¾Ð´ Ð¸Ð²
ĠÐ½ ÐµÑĢ
ÐµÑĢ Ð°
ĠÐ³ Ð¾ÑĢÐ¸
Ð½ ÐµÐ½
ĠÐ¾Ð´ ÐºÐ°Ð·
ĠÐ´Ðµ ÑģÑı
Ð»ÐµÐ½ Ð¾
ĠÑĪÐ¸ÑĢ Ð¾Ðº
Ò ĳ
ĠÑģÐ¸ Ð»Ð¸
ĠÐ²ÑĸÐ´Ñĩ ÑĥÐ²
ĠÐ¼Ð°Ð» ÐµÐ½ÑĮ
ĠÐ ķ
Ñģ Ð°
ĠÑĤ ÑĸÐ»Ð¾
ĠÐ± ÑĸÐ´
Ð½Ð¸ ÑĨÑı
ĠÐ²ÐµÐ»Ð¸ Ñĩ
ĠÐ¿ÑĢÐ¾Ð¼ Ð¾Ð²
ĠÐº ÑĥÑĤ
Ð¾Ñĩ ÐºÐ¸
Ð² Ð°Ð»Ð¸
ĠÐ± ÑĢÐ¸
Ð°Ð² ÑĪÐ¸
ĠÐ¶ Ð¸ÑĤÐ¸
ĠÐ´ Ð½Ñı
ĠÐ¼ Ð¾Ñı
Ð¶ Ð¸Ð²
ÑĸÐ» Ð»Ñı
ĠÐ²Ðµ Ñģ
Ð½Ð¾ ÑĩÑĸ
Ð¿ ÑĸÐ´
ĠÑģÑĤ ÑĥÐ¿
ÐĲ Ð»Ðµ
ĠÑıÐºÐ¸Ð¹ ÑģÑĮ
ĠÐ¯ Ð²
ĠÐ´Ð¾Ð´ Ð¾Ð¼Ñĥ
ĠÑĤÑİ ÑĢ
ĠÐ·Ð´ Ð¸Ð²
Ð² ÑĸÐ²
ÐµÑĢÐµ Ð´Ð¸
ĠÑģ Ð°Ð´
Ðµ Ð»
Ð½ Ð°Ð¹
ĠÐ½Ð°Ð· Ð°Ð´
ĠÑĢ ÑĸÐ²
ĠÑı Ð½Ð¸Ñĩ
Ð»Ðµ Ð½Ñĸ
ĠÐ² Ð°
ĠÐ¿ Ð°Ð´
Ð°Ðº Ð°
ĠÐ¶ Ð°ÑĢ
ĠÐł Ð¾ÐºÑģÐ¾Ð»
ĠÐ»ÑİÐ´Ð¸ Ð½Ð°
ĠÐ¿ Ð¾Ð²Ñĸ
ĠÑģÐºÐ°Ð· Ð°ÑĤÐ¸
ÑĤ ÑĢÐ¸
ÑħÐ¾Ð´Ð¸ ÑĤÑĮ
ĠÑĪÐ»Ñı Ñħ
ĠÐ¿ÐµÑĢÐµ Ð¿
Ð¸ÑĤ Ð¾
Ð»ÑĮ Ð½Ð¾
ÐµÑĢ Ñĥ
ĠÑĨ ÑĸÐ¹
ĠÐ¡ Ð°Ð¼
ĠÑĤÑĢ ÐµÐ¼
Ð°Ð²Ð¸ Ð»Ð¾Ð½
ÑĸÐ»ÑĮ Ð½Ð¾
ĠÐ¡ÑĤ Ð°Ð¼Ð±Ñĥ
ĠÐ¼Ð¾Ð³ Ð»Ð°
ĠÑģÐ¿Ð¸ÑĤ Ð°Ð²
Ð°Ñģ ÑĤÐ¸
ÐµÐ½ÑĮ ÐºÐ¾
ÑĨÐµ Ñİ
ĠÐ¼Ð¸ ÑĤÑĮ
ĠÐĽ Ð¸
ĠÑĢÐ¾Ð± Ð¸ÑĤÐ¸
ĠÐº ÑĢÑĥÐ³
ĠÐ¶ Ð¾Ð´
ĠÑģÐ» Ð¾Ð²
ĠÐ¿ ÑĸÐ·
ĠÑĤ Ð¾Ð±
ĠÐ² Ðº
ÑĢÑĸ Ð¼
ĠÑģÐ¼ÐµÑĢ ÑĤÑĮ
ĠÑĤ ÑĢÐ¸Ð²
ÑĤÐ¸ ÑģÑĮ
ĠÐ·Ð½ Ð°ÑĤÐ¸
ĠÐ½Ðµ Ð±
ÐºÐ¸ Ð´
Ð»Ðµ Ð½Ð¸Ð¹
Ñĥ Ð´Ð¸
Ð½Ð¸ ÑĨÑĮ
Ð¢ Ð°Ðº
ĠÐ² Ð¾Ð´Ñĥ
ĠÑĩ Ð¸ÑĤ
Ð¾Ð» Ð¾Ñģ
ĠÑĥ ÑģÑĸÐ¼
ĠÐ²Ð¸ Ð¼
ĠÑģÑĤ Ð°Ð»Ð°
Ð½ÑĮ Ð¾ÑĹ
ĠÐ²Ñģ Ñİ
ĠÐ° Ð½Ñĸ
ĠÐ¥ Ð¾Ñĩ
ĠÐ² Ð»Ð°Ð´
ĠÑħ ÑĢÐµ
ĠÐ²ÐµÐ»Ð¸ ÐºÐ¸Ð¹
ĠÐ±Ð°ÑĤÑĮ ÐºÐ¾
ĠÑĢ Ð¾ÐºÑĸÐ²
Ñ ĭ
Ð¾ÑĢ Ð¾Ð½
ĠÐ¼Ð¾Ð²Ñĩ ÐºÐ¸
ĠÐ³ÑĢÐ¾ ÑĪÑĸ
ĠÐĵ Ð°Ð»Ñı
ÑģÑĮÐº Ð¾Ð¼Ñĥ
ĠÐ½Ð° ÑģÑĤ
ÑĨ ÑĸÐ¹
ĠÑģÑĤ ÑĸÐ½
ĠÐ¿ÑĢÐ¸ Ð±
ĠÐ¼Ðµ ÑĤ
ÑĪ Ðº
Ñģ ÑĸÐ´
Ñı Ð¼Ð¸
ĠÑĨ Ð¸Ñħ
Ð°Ð³ Ð¸
ĠÐŁ Ð¾
ĠÐ² Ð¾Ð·
ĠÐ² ÑģÑĮÐ¾Ð³Ð¾
ĠÑģÐº ÑĸÐ»ÑĮÐºÐ¸
ĠÑħÐ»Ñĸ Ð±
ĠÐľ Ð°ÑĢÐ¸
ĠÐĻ Ð¾Ð³Ð¾
ĠÑı ÐºÐ¸Ð¼
ĠÑĩ ÑĥÐ²
ĠÑĨ Ð¸Ð¼
Ð¼Ð¸ ÑĢ
ĠÐ·Ð´ Ð°ÑĶÑĤÑĮÑģÑı
Ð»ÐµÐ½ Ð°
ĠÑģÑĤÐ¾ÑĹ ÑĤÑĮ
ĠÑĤ Ð°Ð½
ÑĪ Ð»Ð¾
ĠÑĸ Ð´Ðµ
ĠÐ¿Ð¾Ð² ÐµÑĢÑĤ
ĠÐ¿ Ð¾Ð¶
ĠÐº Ð°Ð¿
ĠÐ¢ ÑĥÑĤ
ĠÐĶ Ð¾Ð²
ĠÐ¿ÐµÑĢÐµ Ð¼
ĠÐł Ð¾Ð·
ĠÑģÐ»Ñĥ Ð¶
ĠÐ² Ð°ÑĪ
ĠÑıÐº Ð¾Ð¼Ñĥ
ĠÐ²Ð¾Ð» Ð¾Ñģ
ĠÐ¾Ñĩ Ð°Ñħ
ĠÐ³Ð»Ð¸Ð± Ð¾Ðº
ÑĥÐ² Ð°Ð»Ð¾
ĠÐ¿Ð¾ÑĢ Ð¾Ð¶
ĠÐĵÑĢÐ¸ÑĨÑĮ ÐºÐ¾
ĠÑģÑĤÐ°ÑĢÐ¸ Ð¹
ĠÐ´ ÑĢ
ĠÐº Ð²ÑĸÑĤ
ĠÑģÐ² Ñı
Ð´Ð¸ ÑĤÑĮ
ĠÑĢÐµ Ð²
ĠÐ¼ÑĸÑģ ÑĨÑı
ĠÑĪÐ²Ð¸Ð´ ÐºÐ¾
ĠÐ½ÐµÑģÐ¿ Ð¾Ð´ÑĸÐ²
ÑĢ Ð°Ñģ
Ð² Ð°ÑĤÐ¸
Ðº Ñģ
ĠÐ´ Ð¸Ñħ
Ð»Ð¸ Ð²Ð¸Ð¹
Ð¿Ð¾Ð² ÑĸÐ²
ĠÐ¾ Ñħ
ĠÐ´ Ð½Ñĸ
ĠÐ± ÑĸÐº
Ð°ÑĢ Ð±
Ð°Ð³ Ð°
ĠÐľ Ñĥ
ĠÐ½Ð°Ð¹ Ð±ÑĸÐ»ÑĮ
ĠÐ³ÑĢ Ð¾Ð¼
ÑĮ Ð¼Ð¸
Ñī Ñĥ
Ñı Ð»Ð°
ĠÑıÐº ÑīÐ¾
ĠÑģÑĤÐ¾Ñı Ð»Ð°
Ñĸ Ñħ
Ð´ Ñı
Ð¾Ñĩ ÐºÑĥ
ÑĸÑģ Ð½Ð¸Ðº
ĠÐº ÑĥÑĢ
Ð½Ðµ Ñģ
ĠÑĢÑĥ ÐºÐ°Ñħ
ĠÑĩÐ¾Ð»Ð¾Ð²Ñĸ ÐºÐ°
ÑĤ Ð¾Ñİ
Ð¾Ð±Ñĸ Ð³
ÑĶ Ð²
ĠÑĩ ÐµÑĢÐµ
ĠÐ²ÑĸÐ´ Ð¿
ĠÑĢÑĥ Ðº
ĠÐ²ÐµÐ»Ð¸ ÐºÐ¾Ð³Ð¾
ĠÑĩÐ°Ñģ Ñĥ
ĠÐ¾ÑĤ Ð°Ðº
ĠÐ´Ð¾ ÑģÑĸ
ÐĲ Ð½Ð´
ĠÐ¶ÑĸÐ½ ÐºÐ¸
Ñĥ ÑĤÐ¸
ĠÐ² Ð°Ð»
Ð¾Ð² Ð¸Ñħ
ĠÐ» Ñĥ
) ,
Ð² Ð¾Ð»
ĠÐ· Ð¾ÑģÑĤ
Ð¾Ð² Ð¾Ð³Ð¾
ÑģÑĤ Ð²
ĠÐ¾Ð´ Ð½Ñĥ
ĠÐĶ Ð¸Ð²
ĠÑģ Ñı
ĠÐ´ Ð°ÑĢ
ĠÐº Ð¾Ð¿
Ð°Ð½ Ð¸Ñħ
Ð¸Ð¼ Ð¾
ĠÐ½Ð°ÑĢ Ð¾Ð´
ĠÐ¿ Ð°Ñģ
ĠÑĢÐ¾Ð· Ð±
ĠÑĢ Ð°Ð±
Ð¿ÐµÑĢ ÑĪÐµ
Ð» ÐµÐ½Ð½Ñı
ĠÑĨ ÑĸÐºÐ°Ð²
ĠÑģÐº Ð»Ð°Ð´
ĠÑģÑĤÐ°ÑĢ Ð°
Ñı Ð»Ð¸
âĢ ĵ
ÑģÑĤ Ð¾Ðº
ĠÑĤÐ°Ðº Ð¸Ñħ
ĠÐ²Ð¸Ð¿ Ð°Ð´
Ñĥ ÑģÑĤÐ¸
ĠÐ² ÑĤÑĸ
ĠÐ± Ð°Ð¶
Ð»Ðµ ÑĤ
ĠÐ´ÑĥÐ¼ ÐºÐ¸
ÑģÑĮ ÐºÐ¸Ð¼
ĠÐ¶ Ð¾Ð²
Ð»Ñĸ Ð·
ĠÐ³ÑĢÑĥ Ð´
ĠÐ± Ð¾Ð³
ĠÐ¼ ÐµÑĢ
ĠÐ½Ð° ÑĢÐµÑĪÑĤÑĸ
ĠÐ½Ð°Ð¼ Ð°Ð³
ĠÑĪ ÐµÐ¿
ĠÐ´ÐµÑĢÐµ Ð²
ÑĪ ÐºÑĥ
ĠÐ½Ðµ Ð²Ðµ
ĠÐ´Ñĥ ÑĪÐ°
ĠÐ·Ð² Ðµ
ĠÐ·ÑĢ Ð¾Ð·ÑĥÐ¼
Ñĩ ÐµÐ¼
ĠÑĢ Ñĸ
ÑĩÐ¸ Ð»Ð¸
Ð¾Ð± Ð°
ĠÑħ Ð¸ÑĤ
ĠÐ²Ð¸ ÑĢÑĸ
ÑĢÐµ Ñģ
ĠÐ¿ Ð°Ð»Ð°
ÑĩÐ¸ Ð¼
ÐµÑĢÐµ Ð¶
ĠÑģÐ¸ Ð½Ð°
ĠÐ½ Ð°Ð»ÐµÐ¶
Ð´ Ð¸Ð²
ĠÐ± Ð°Ð¹Ð´Ñĥ
ĠÐ´Ð¾Ð± ÑĢ
ĠÑģ ÑĥÐ¿
ĠÐ° Ð²
ÑĸÑģ Ð½Ð¾
ĠÐ¡ÑĤÐµ Ð¿Ð°Ð½
Ñħ Ð¼Ðµ
ĠÐ ĩ
ĠÐ³ Ð¾ÑĤ
ĠÑģÐ» Ð¾Ð²Ð¾
ÐµÑĢ Ð³
ĠÐ¼ ÐµÑĢÑĤ
Ð¸ÑĤ Ñĥ
ÑĢÐ°Ð² ÑģÑı
ĠÑħÐ²Ð¸ Ð»Ð¸
Ð» Ð°Ð½
ĠÐ² ÑĤ
Ð½Ð¸ ÑĨÑİ
Ð½Ð° Ñħ
ĠÐĳ Ð¾Ð³
ĠÐ·Ð½ Ð¾Ð²
Ð»Ð¸ Ð¼
Ð°Ð´ Ðµ
Ð°Ð³ Ñĥ
ĠÐĶ Ð¾Ð±
ĠÑĸÐ½ ÑĪÐ¸Ñħ
ĠÑĶ Ð´Ð¸
ĠÐ· ÐµÐ»Ðµ
ĠÐ¹ Ð´Ðµ
Ð¼Ðµ Ð¶
ĠÐ±ÐµÐ· Ð¿
ĠÐ´ ÑĸÐ¹
ĠÐ´ÑĸÐ² Ñĩ
ĠÐ¯Ð² ÑĤÑĥ
Ð· Ñĸ
Ñģ Ð¸Ð²
Ð´ Ð¶Ðµ
ĠÐ´Ð¾ Ñģ
ĠÐ¾Ð´ Ð½Ð¾
ĠÑģÐµÑĢ ÑĨÑı
Ð°Ð½ÑĮ ÐºÐ¾
ĠÐ¿ÑĸÐ´ Ð¿
ĠÐ´ ÑĢÑĸÐ±
ĠÐ¹ ÑĤÐ¸
Ð¾ÑĢ Ð¾Ð¶
ĠÐļ Ð°ÑĢ
ÑĥÑĢ ÑĢÐµÐ¼
ĠÑģÐ²Ð¾ÑĹ Ð¹
Ġ 1
ĠÑģ Ñĸ
ĠÑģ Ð¾Ð»
ĠÐ· Ð²Ð¸
ĠÑĤ ÑĢÑĸ
ĠÐ²Ñģ ÑĸÐ¼
ĠÐ·ÑĢ Ð°Ð·Ñĥ
ĠÐ³ÑĢÑĥ Ð´Ð¸
ĠÐ± ÑĢÑĥ
ĠÑĥ Ð³
ĠÑĨ Ð°ÑĢ
ÑĤ Ð°Ð²
ĠÐ¿ÑĢ Ð¾Ð³
ĠÐ»Ñİ Ð±Ð¸
ĠÐ¥ Ð°Ð¹
ĠÐ³Ð¾Ð» Ð¾Ð²Ð°
Ð»ÑıÑĩÐ¸ ÑģÑĮ
ĠÐº ÑĢÐ¸Ð²
ĠÐ³ ÑĥÑĢ
ĠÐ·Ð² ÐµÑĢ
ĠÑģÐ²Ð¾ÑĶ Ñİ
ĠÐ¿ÑĢÐ¸Ð¹ ÑĪÐ¾Ð²
ĠÐ³Ð¾ÑģÐ¿ Ð¾Ð´
Ð»Ð° Ñħ
ĠÐ½Ñĸ Ð³
ĠÐ¥ Ð»Ð¾Ð¿
ĠÑĢÑĥ Ñħ
Ġ Òĳ
ĠÐ· Ð±Ð¸ÑĢ
ĠÐ´ Ð¾Ð³
Ð¾Ð¼ Ð°Ð½
ĠÐ¼Ð° ÑĪÐ¸
ĠÐ·ÑĥÐ¿ Ð¸Ð½Ð¸
ĠÑĤ ÑĥÑĢ
ĠÐ» Ð°Ñģ
ĠÐ±Ð°ÑĤÑĮ ÐºÐ°
Ñĩ Ð°Ð»Ð¸
ÑĪ ÑģÑı
ÑĶ Ð²Ñĸ
Ð»Ñı ÑĶ
Ð²Ðµ Ñĩ
ĠÐ½Ð° ÑĩÐ°Ð»ÑĮ
Ð¾Ð´ Ð¾Ð¼
Ð»Ðµ Ñİ
ĠÐ· Ð²Ð¸ÑĩÐ°Ð¹
Ð¸ÑĤ Ðµ
ĠÐ¿Ð¾Ñģ Ð¿
ĠÑĤÑĸ ÑĶÑĹ
ĠÐ·Ð½Ð°Ð¹ Ð¾Ð¼
ĠÑģ ÐºÐ¾
ĠÑĤ ÑĸÐ¹
ÑĨ ÐµÐ½
ĠÐ²Ð¸ Ñħ
ÑĢÐµ ÑĤ
ÑĢÐ¾ ÑģÑĤ
ĠÐ¼Ñĸ ÑĨ
ĠÐ·Ð°Ñģ Ð¼Ñĸ
ĠÐ¿ Ð°Ñħ
ĠÑĤ Ð°ÑĶÐ¼
ÐµÑĢ ÑĸÐ³
ĠÑĢ Ð¾Ñģ
Ð¶ Ð°
ĠÐ± ÑĸÐ»Ð¸
ĠÐ½Ðµ Ð±Ð°
ÑĨ ÑĤ
Ð°Ð¼ Ð¾Ð²
ĠÐ¾Ð´ Ð½Ðµ
ĠÐ¿Ð¾Ð¼ ÑĸÑĩ
Ñģ Ð½ÑĥÐ²
ÐµÐ½ Ð¾Ð³Ð¾
ĠÐ³Ð¾Ð» Ð¾Ð²Ñĸ
ĠÐ¾Ñģ Ð¾Ð±
ĠÐ±ÑĥÐ´ ÑĮ
ĠÑģÐ»ÑĮ Ð¾Ð·Ð¸
ÑĥÐ² Ð°Ð»Ð¸ÑģÑı
ÑĨÑĸ Ñİ
ĠÐ¿Ñĸ ÑĪÐ»Ð°
ĠÐ¼ÑĸÑģ ÑĨÑĸ
Ð³Ð¾ÑĢ ÑĸÐ¹
ĠÐ´ÑĸÑĤ ÐµÐ¹
ÐĲÐ½Ð´ ÑĢÑĸÐ¹
ÑĢ Ð°ÑĤ
ÑĨ ÑĸÐ»
ĠÑĥÑģ Ð¼ÑĸÑħ
Ð°Ð´ÑĨÑı ÑĤÑĮ
ĠÑĢ ÑıÐ´
ĠÐĴ ÐµÐ»Ð¸
ĠÑģÑĥ Ñħ
ĠÐ¿Ð¾ÑĤ ÑĢÑĸÐ±
ĠÑģÑĤÑĢ Ð°Ñħ
ĠÐ²ÑĸÑĤ ÐµÑĢ
ÑĤ ÐµÑĢ
Ðº Ð»Ð°
ĠÐ¿ Ð¾Ð´Ñĸ
ÑĪ ÑĤ
ĠÑģÐ¿ Ð¾Ð´ÑĸÐ²
ĠÐ¾Ð± ÑĢÐ°Ð·
ÐĴ Ð¾Ð½Ð°
ÐºÐ¾Ð» Ð¾
ÑĢ Ð¾Ð½
ĠÐ· Ð°Ð½
Ð»Ñı Ð»Ð¸
Ð½Ñĥ ÑĤÑĮ
ĠÐ¿ÐµÑĢÐµ Ð¹
ÑĢÐ¸ ÑĤÐ¸
Ð¾Ð» Ð¾ÑĤÐ¸
ĠÐ·Ð°Ð± ÑĥÐ²
ĠÐ´Ð°Ð»Ðµ ÐºÐ¾
Ñĥ ÑİÑĩÐ¸
ĠÐ¼ Ð°Ñħ
ĠÐº Ð¾Ð²
ĠÐ½ÐµÐ¿ ÑĢÐ¸
ĠÐ· ÑĥÑģÑĤÑĢÑĸ
ÑĤÐ¸ ÑĤÑĮ
ĠÑħ Ð¼Ð°ÑĢ
ĠÐĦ Ð»ÑĮ
ĠÐºÑĢÐ° ÑīÐµ
ĠÐ»ÐµÐ´ Ð²Ðµ
ĠÐ¾Ð´ Ð½Ð°Ðº
ĠÐ¼Ð¾Ð² Ð±Ð¸
Ð½ Ð°Ð´
Ðº Ð°Ð½
ĠÐ´ Ð¾Ð·
ĠÐ³ ÑĢÐµ
ĠÑħ ÑĥÐ´
Ð°Ð»ÑĮ Ð½Ð¾
ĠÐ½Ð°Ð² Ñĸ
ĠÑĢÐµ Ð³
ĠÐº Ð¸Ð´
ĠÑĢ Ð°Ð½
Ð½Ñĸ ÑģÑĤÑİ
ĠÑĪ Ð¼Ð°ÑĤ
Ð¢ Ð°
ĠÐºÐ¾Ð½ Ñĸ
ĠÐ²Ð¸Ð¹ ÑĪÐ¾Ð²
ĠÐ¿ Ð°Ð»
ÐµÐ½ Ñĥ
ĠÐľ ÐµÐ½Ñĸ
Ð½ÑĥÐ»Ð° ÑģÑĮ
ĠÐ¿Ð» Ð°Ðº
ÑĢÐ¸ Ð³
ĠÐ½Ð°Ð¿ Ð¸Ñģ
ĠÐ¼ ÐµÐ½
ĠÐ´Ð¾ ÑģÐ¸ÑĤÑĮ
ĠÑĦ Ð¾ÑĢ
ÑĤ Ð°Ðº
ĠÐ· Ð½Ðµ
ĠÐ´ ÑĢÑĥÐ¶
ĠÑģÐ² ÑĸÑĤÐ¸
ĠÐ²ÐµÑĩ ÑĸÑĢ
Ñĩ Ð¾Ð³Ð¾
ĠÐ´ ÑĸÐ»Ð¾
ĠÐ´ ÑĸÑĤÐ¸
ĠÐ² Ð¾Ð´Ð°
Ð¿ Ð¾Ðº
Ð»Ñı ÑĤÐ¸
ĠÐ¿Ð¾Ñģ Ð¼ÑĸÑħ
ÑģÑĤ ÑĢÐ°
Ð½Ñĸ Ñģ
ÑĩÐ¸ Ð½Ñĥ
ÐµÑĢÐµ Ð¹
Ð»Ð¾ Ñİ
ĠÐľ Ð¾ÑĤ
ĠÐ¥ ÑĥÑĢÑĢÐµÐ¼
ĠÐºÑĸÐ¼ Ð½Ð°
ĠÐ³Ð°ÑĢ ÐµÐ¼
ÑĤ Ð°Ñħ
ĠÐ· ÑĸÑĢ
ĠÐº Ð¾Ñģ
ĠÑĤÐ°Ðº Ñĥ
ĠÑĪ Ð°Ð¿
ĠÑģÑĥ ÑģÑĸÐ´
Ð½Ð¸Ðº Ð¾Ð¼
ĠÑħÐ»Ð¾Ð¿ ÐµÑĨÑĮ
ĠÐ¿Ð¾Ð²ÑĸÑĤ ÑĢÑı
ÑĢÐµ Ð±Ð°
Ð»Ð¸Ð² Ðµ
Ð¾Ð²Ð¸ Ð»Ð°
ĠÑģÐ» Ð°Ð²
Ð¼Ñĥ ÑĤÑĮ
ĠÑģÐ¼ÐµÑĢ ÑĤÑĸ
ĠÑģÐ¿Ð¾ÐºÑĸÐ¹ Ð½Ð¾
Ñı Ð½Ñĸ
ĠÐ² ÑĢÐ°Ð·
ĠÑĥ ÑģÑĤ
ĠÑĢÐ¾Ð· Ðº
ĠÐ¾Ð± ÑĸÐ´
ĠÐ²ÑĸÐº Ð½Ð°
Ð¯ Ðº
ÑĦ Ð°
ĠÑģÐ²Ð¾ÑĶ Ð¼Ñĥ
ĠÐ´Ð¾Ð¿ Ð¾Ð¼
ĠÑĤ ÑĥÐ¼
ĠÑĩ Ð¾ÑĤÐ¸
ĠÐ¶ Ð¾ÑĢ
ĠÑĸÐ½ ÑĪÑĸ
ĠÐ¿ÐµÑĢ ÑĪÐ¸Ð¹
ĠÐºÐ¾Ð½ Ñı
ĠÐ¼Ð¾Ð³ Ð»Ð¸
ĠÐļÐ¾Ð» ÑĸÑģÐ½Ð¸Ðº
ÑĪ Ð¾Ðº
Ð»Ð¸ Ñħ
ĠÐĿ Ð°ÑĤ
Ð½Ðµ ÑĤÑĮÑģÑı
ĠÑģÐ¿ÑĢÐ°Ð² Ð¶
ĠÑĤÐ¾Ð± Ð¾Ñİ
Ð² Ð°Ð²ÑģÑı
ÑĸÑģ Ð»Ñı
ĠÐ¿Ð°Ð½ Ð¸
Ðļ Ð¾Ð»Ð¸
Ð´ ÐµÐ½ÑĮ
ĠÑģÑĤÐ¾Ñı Ð»Ð¸
Ðµ Ñİ
ÑĤÐ¸ Ð³
ĠÐ³ Ð°Ð´
ĠÐ³ Ð»ÑĥÑħ
ĠÐ¿ÑĢÐ°Ð² Ð´Ð°
Ðµ Ð½Ð¸Ð¹
ĠÐ² ÑĸÐ²
ĠÑģ Ð¼ÑĸÑħ
ĠÑģÑĤ ÑĢÑĸ
Ð»Ð¸Ð² Ð°
ĠÑģÐ¿Ð¸ÑĤ Ð°Ð»Ð°
ÐºÑĢÐ°ÑĹ Ð½
ĠÐ½Ð¾Ð³ Ð°Ð¼Ð¸
ÑĪ Ð½Ð¾
ĠÐ± Ð¾Ð»
ĠÐ²Ð¸ ÑĢ
ĠÑģÐ¸ Ð»Ñĥ
ĠÐĽ ÑİÐ´Ð¸
ĠÐ¿Ð¾Ð´ÑĥÐ¼ Ð°Ð²
ĠÐ¿ Ð»Ñı
ĠÑī Ð¾Ð´
ĠÐ¿ÑĢÐ¾ Ñħ
Ð¸ÑĤÐ¸ ÑģÑĮ
ĠÑģÑħ Ð¾Ð¿
ĠÑģ ÑĥÐ²
Ð· Ñĥ
ĠÑĢ Ñı
ĠÐ¶ Ð°Ñħ
ĠÐļÐ¸ ÑĢÐ¸
Ñĩ ÐµÐ½Ð½Ñı
ĠÐ²ÑĸÐ´ Ð¿Ð¾Ð²ÑĸÐ²
ÑĸÐ»Ð¾ ÑģÑı
Ð½ÑĮ Ð¾Ð¼Ñĥ
ĠÐ·Ð°Ñħ Ð¾Ð¿
ĠÐ´ Ñĸ
ĠÑĨ ÑĸÐ»Ð¸Ð¹
ĠÐºÑĥ Ñħ
ĠÐ·Ð°Ð± Ñĥ
ĠÐºÐ¾ÑĢ Ð¾ÑĤ
ĠÑģ ÑĸÑĢ
ĠÐ´ÑĸÐ² ÑĩÐ¸Ð½Ð°
ĠÐ¼Ð°ÑĤ ÑĸÑĢ
ĠÐ²Ð¾Ð»Ð¾Ñģ ÑģÑı
Ñĸ Ð½Ñĸ
Ñı Ð»Ð°ÑģÑı
ĠÑģ Ð¾ÑĤ
ĠÐ¼ Ð°Ð¼
ĠÑĢ Ð¾Ð´Ð¸
ĠÑħ Ð°Ð½
ĠÐºÐ¾Ð¶ ÐµÐ½
ĠÐ¿ÑĢÐ¾Ð¼Ð¾Ð² Ð¸Ð²
ÑĢ Ð¾Ð¿
ÑĢÐµ Ð¹
ÑģÑĮÐº ÑĸÐ¹
ÑĤ ÑĸÐ¹
ÑĮ Ð¾Ñħ
Ð³ Ð°ÑĢ
ĠÑħ ÑĥÑĤ
ĠÑģÑĤ ÑĸÐ½Ð¸
ĠÐĿ Ð°Ð´
ÑģÑĤÑı Ð³
ÑĥÑĶ ÑĤÑĮÑģÑı
Ð¾Ð² Ð°Ð½Ð¾
ĠÑĨ ÐµÑĢÐº
ĠÐĹ Ð´
ĠÐ¶Ð¸Ð² Ðµ
Ð½ ÐµÐ¼
Ñħ Ð°Ð¹
ĠÑģÑĤ Ð°Ð»Ð¸
ĠÐ²Ñģ ÑĤÐ¸Ð³
ĠÑģ ÑĸÐ´
ÑĥÐ²Ð°ÑĤÐ¸ ÑģÑı
ĠÑĢÐ¾Ð· Ð²
Ð»Ð¸Ð² ÑģÑı
ĠÐ§ Ð¾Ð¼Ñĥ
ĠÐ»Ð¸ ÑģÑĤ
ĠÐ½Ð°Ð² Ð¿
ÑģÐ¸ Ð»Ð°
ĠÑģÑĤÐµ Ð¶
ĠÐ²Ð°Ð¶ ÐºÐ¾
Ñģ Ð»Ð°Ð¼
.. ..
ĠÐ»Ð¸ ÑĨÐµ
ĠÐ´ Ð¾ÐºÐ¸
ĠÐ° Ð»
ĠÐ¿ÑĸÐ´ Ð»
Ð¾Ð¹ Ð´
ĠÐ²Ð· ÑıÐ²
ĠÐ²ÑĢ Ð°Ð¶
ÑĢ ÑıÐ²
Ð¾Ðº Ð°
ÑĪÐ¸ ÑĤÐ¸
ĠÐ·ÑĢ Ð°Ð´
ĠÑĩÐ¾ÑĢ Ð½Ñĸ
ĠÐ·Ð½Ð°ÑĶ ÑĪ
ĠÐ²ÑĸÐ· Ð¸ÑĢ
ĠÐ´Ð· Ð²
ÑĪ Ð¾ÑĹ
ĠÐ³ Ð¾Ð¼
Ð°ÑĢ Ð¾Ð¼
ĠÐ» ÑıÐ³
ĠÐ¿Ð¾ ÑıÑģ
ĠÑıÐº ÑĸÐ¹
Ð¸ Ð»Ð¾
ĠÐ² Ð²Ð°Ð¶
ĠÐ¿ Ñģ
ÑĢÐ¸ Ð±
Ð¸Ð² ÑĪÐ¸ÑģÑĮ
ĠÑĢÑĥ ÑĪ
ĠÐ¼Ð¾Ð» Ð¾Ð´Ð¸
ĠÐ´ÐµÑĢÐ¶ Ð°Ð²
ĠÑĩ ÑĥÑĤ
ĠÐ· Ð½Ð¸Ðº
Ð°Ð½ ÐºÐ°
ĠÐ·Ð° ÑģÑĤ
ĠÑĤÐ°Ðº Ð¾Ð¶
ÑĪÐµ Ñİ
Ðº Ð°Ð»Ð¸
ĠÐ» Ð°Ð²
ÑĢÑĥ Ñĩ
Ð°Ð³ Ð°Ð»Ñĸ
ĠÐŀ Ð±
ĠÑĢÐµ ÑĩÑĸ
ĠÐ±Ð»Ð¸ Ð·ÑĮ
) .
ĠÑģ ÐºÐ¸
ĠÐ¼ Ð¾Ð»Ð¸
Ð¸ÑĤ Ñĸ
ĠÐ·Ð½ Ð°Ð»Ð°
ĠÐ¼Ð¸ Ñģ
ĠÐ¼ ÑĥÐ´
ĠÐº Ð¾Ñħ
ĠÐ´Ð¾ Ñī
Ð¾ÑĤ Ñĸ
ĠÐĳ Ð°Ð³
Ð°Ð½Ð½Ñı Ð¼
ĠÐºÐ°Ð¶ ÑĥÑĤÑĮ
Ð½ ÐºÑĥ
ÑĨ Ð¸
ĠÐ¿ÐµÑĢÐµ Ð²
ĠÐ±ÐµÐ· Ð¼ÐµÐ¶
ĠÑħÐ¾Ñĩ Ñĥ
ÑħÐ¾Ð´Ð¸ Ð»Ð¸
ĠÐ²Ð¾ÑĢ Ð¾Ð³
ĠÐ¿Ñĥ ÑģÑĤÐ¸
ĠÑĤÐ°Ðº Ð¸Ð¼
ĠÐ´Ð² ÐµÑĢÐµÐ¹
ĠÐ²ÑĥÐ»Ð¸ ÑĨÑĸ
ĠÐ·Ð´Ð°Ð² Ð°Ð»Ð¾ÑģÑı
Ġ [
Ð½ ÑĤ
ĠÐ² ÑĸÐ»ÑĮ
ÑĪ Ð°Ñħ
ÑĤÐ¸ Ð¼
ÐµÐ½ ÐµÑĢ
ĠÐ½Ð°Ð· Ð¸Ð²
Ð¾Ð´ Ð°Ð¹
ÑĥÐ² Ð°Ð»Ð°ÑģÑı
ĠÐ» Ð°Ð¼
ĠÐ¿ÑĢ Ð¾Ð·
ĠÑģÑĤ Ð¾Ð²
ÑĸÑģ ÑĤÐ¸
ĠÐ·Ð² ÑĸÑĢ
ĠÐ¿Ð¾Ð¼ ÑĸÑĤÐ¸
Ð½ÑĥÑĤÐ¸ ÑģÑı
ĠÑıÐºÑĸ ÑģÑĮ
ĠÐºÐ°Ð¶ Ñĥ
Ð¦ Ðµ
ĠÑĤÐ¸ÑģÑı Ñĩ
ĠÑħÐ°Ð·Ñı ÑĹ
ĠÐ ¸
Ð½ Ð°Ð»Ð°
ĠÑħ Ð¾Ð²
ĠÐĴ ÑģÑĸ
Ð°ÑĤ Ð¾ÑĢ
ĠÐ¿Ð¾Ð² Ð·
Ð²Ñĸ ÑĤÐ¸
ĠÐºÑĢ Ð°Ð¹
ĠÑģ Ð¸Ð²
ĠÐ²Ð¸ Ð·
ĠÐ±Ð°ÑĩÐ¸ Ð»Ð°
Ð ķ
ÑĤ Ð¾Ð¿
ĠÐ¿Ð¾ ÑĩÐ¸Ð½Ð°
ĠÑģÑĤ Ð¾Ð»Ð¸
Ð¾Ð² Ðµ
ĠÐ¼ Ð¾ÑĤ
ĠÑħ Ð²
ĠÑģÑĤ ÑĸÐ»
ĠÐ·Ð°Ðº ÑĢÐ¸
ĠÐ¾ ÑĨÐµ
ĠÑıÐº Ð±Ð¸
ĠÐ½ Ñĥ
ĠÐ· ÑĥÐ±
ĠÐº Ð²
ĠÑħ Ð¾Ð´
Ð°ÑĤÐ¸ Ð¼Ðµ
ĠÐĵ Ð¾ÑģÐ¿
ĠÐ¿Ð¾Ð³ Ð»Ñı
ĠÐ² Ð¾Ð²
ĠÐ² Ð¼Ñĸ
Ð¼ ÑĸÐ½
ĠÐ· ÑĥÐ±Ð¸
ĠÐ¼ Ð½Ð¾Ñİ
ĠÑı Ð·Ð¸
ÐµÐ½ Ð´
ĠÑģÐ¿ Ð°Ð»Ð°
ĠÐĵ Ð¾ÑĢ
ĠÑģÐµ Ð»Ð¾
ĠÑĤÑıÐ¶ ÐºÐ¾
Ñĩ ÐºÐ¾
ĠÐ½Ðµ Ð½Ð°Ð²
ĠÑĨ Ð°Ð¿
ĠÐ²ÑĸÐ´ Ð±
ĠÐ²Ðµ Ð»ÐµÑĤ
ĠÐĹ Ð°Ð³
ÑĢÐ¾ ÑĤÐ¸
Ð¸Ð»Ð¸ ÑģÑĮ
ÑģÑĮ Ð¾Ð¼Ñĥ
ĠÐ» Ñı
ĠÑıÐº Ð¾Ñİ
Ð½Ñı ÑĤÐ¸
ĠÐ¡ ÐµÐ»Ñĸ
ĠÐ¾Ð´ Ðµ
ĠÐ´ÑĢÑĥÐ³ Ð¾Ð³Ð¾
ĠÐľÐ°ÑĢ ÑĸÑı
ĠÑıÐºÑĥ ÑģÑĮ
ĠÑģÐ½Ñĸ Ð³
ĠÐ±Ð¾Ð¶Ðµ Ð²
Ð½ ÐµÐ½Ð½Ñı
ĠÐ· Ðµ
ÑĢÐµ ÑĨÑĮ
Ð´Ðµ ÑĪ
ÑĤÐµ Ð»ÑĮ
ĠÐ·Ð´ Ð¾ÑĢÐ¾Ð²
ĠÐ¿Ð¾ÑĢ ÑıÐ´
ĠÑģÐµÑĢ ÑĨÑĸ
Ð½ Ð°Ð»Ð¸
ĠÑī Ð¸
ĠÑģÐ¿ Ð¾Ð²
ĠÑĹÑħ Ð½Ñĸ
ĠÐ£ ÐºÑĢÐ°ÑĹ
ĠÐ²Ð¾Ð» Ñĸ
Ñĩ Ð°Ð»Ð°
ĠÑĤ ÐµÑĢÐ¿
Ð°ÑĤ Ðµ
ĠÐ½Ñĸ ÐºÐ¾Ð³Ð¾
ĠÐ½Ð°Ð² ÐºÐ¾Ð»Ð¾
ĠÐ¿Ð¾ÑĢ ÑĥÑĩ
ĠÐ½Ðµ Ñī
ĠÑĩ Ð°ÑĢ
ĠÐ¿ÑĢÐ¾ ÑģÑĤÑıÐ³
Ð»Ñİ Ñī
ĠÐ²Ñĸ ÑĢÐ¸
ĠÐ´ÐµÑĢÐµ Ð²Ð°
ĠÐ½ÐµÑģ Ð°Ð¼Ð¾Ð²
ĠÑģ ÑĸÐ²
ĠÑģ ÑĢÑĸÐ±
Ð¾Ð² Ð°Ð½Ñĸ
ĠÑĢ Ð°Ð½Ñĸ
ÑģÑĮ ÐºÐ¾
Ð¾Ðº Ð¾Ð¼
Ð½Ð° ÑĩÐµ
ĠÑģÐ¸ Ð»Ð°
ÑĤÑĸ Ð»Ð°
ĠÐ´Ð¾ÑĢ Ð¾Ð³Ñĥ
ĠÑĥ ÐºÑĢÐ°ÑĹÐ½
ÑĩÐ¸ Ñħ
ĠÐĴ Ð°Ð²Ð¸Ð»Ð¾Ð½
ÑĢÑĸ Ð·
ĠÑıÐºÐ° ÑģÑĮ
ĠÐ² ÑĤÑĢ
ÐºÐ° ÑİÑĤÑĮ
Ð½ÑĥÐ² ÑĪÐ¸ÑģÑĮ
ĠÑĤÐ¸ Ð¶
ÑıÐ² Ð»Ñı
ĠÐ´Ð² Ð¾ÑĢÑĥ
ĠÑģÑĤÐ°ÑĢ Ð¾Ð³Ð¾
ĠÑĤÐµÐ¼ ÑĢÑıÐ²
ĠÐ½Ð°Ð³ Ð°Ð´
ĠÐ»ÑİÐ± Ð¾Ð²
ĠÐ· Ð»Ð¾
ĠÐ» ÑĸÐº
ĠÐ¿ Ð¾Ð»Ð¸
ĠÐ· Ð°ÑĤÐ¸
Ð°ÑĤÐ¸ Ð¹
Ð»Ðµ Ð³
Ð¾Ð¶ Ð°
ĠÐ½Ñĸ Ð¼
ĠÑģÐ¿ Ð¸Ð½Ð¸
ÑĩÐµ Ð½Ð¸Ð¹
ĠÐ¿Ð¾Ñĩ Ð°Ð»Ð°
ĠÑĤÐ² Ð¾ÑĹ
ĠÐ² ÑģÑĤ
Ð¼ ÑĥÑĢ
Ñĩ Ð¾Ðº
Ð¾Ð² Ð°Ð½Ð¸Ð¹
Ð¾Ð³Ð¾ Ñİ
ĠÐ¿ÑĢ Ð¾ÑĢ
ĠÐŁ ÐµÑĢÐµ
ĠÐľ Ðµ
ĠÑĪ Ð°Ñħ
ĠÐł Ñĥ
ĠÐ´Ð¾Ð² ÐºÐ¾Ð»Ð°
ĠÐºÐ¾Ð¶ Ð½Ð¾Ð³Ð¾
ĠÐ·Ð²ÑĸÐ´ ÐºÐ¸
ĠÐ²ÐµÑģÐµ Ð»Ð¾
ĠÐ³ ÐµÑĢ
ĠÑĩ Ð¾Ð±
ÑĸÐ» Ñĥ
ĠÑģÑĤ Ð¾Ð»Ñĥ
ÑĪÐµ Ð¿
ÑĨÑı Ñħ
ÑĢ Ð¾Ð·
ÑĢ Ð°Ð¿
Ð¼ Ð°Ð½Ð°
ĠÐ· Ð¾Ð»Ð¾ÑĤÐ¸
Ð°Ð» ÐºÐ°
ĠÑģÐ¿ Ð°ÑĤÐ¸
ĠÐ»Ð¸ ÑĪÐ¸
ĠÐ±Ð°ÑĩÐ¸ ÑĤÐ¸
Ð°Ð´ Ð°
ĠÐ¿ÑĢÐ¸ Ð¼
ÑıÐ´ ÑĮ
ĠÐ¿ ÑĥÑģÑĤ
Ð°ÑĢ ÐµÑĪ
ĠÐ¿Ñĸ ÑĪÐ»Ð¸
ĠÐĻ Ð¾Ð¼Ñĥ
ĠÐ±ÐµÑĢÐµ Ð³
ĠÐŁÑĢÑĸ ÑģÑĮÐºÐ°
ĠÐ¿ÑĢÐ° ÑĨÑİ
Ġ .
ÑĢ Ð¾Ð´
ÑĸÐ» Ð¾Ð¼
ĠÑħ Ð¸
ĠÐ²Ð¸ ÑĤÑıÐ³
Ð¾ÑĤ Ðµ
ĠÐ¾Ð´ ÑıÐ³
ĠÐ´Ð² Ð¾Ñħ
ĠÐ¼Ð¸ Ð»Ð¾
Ð© Ð¾
Ð» Ð¾Ð³Ð¾
ÑĢÐ¸ Ð·
Ð°Ðº Ñĥ
Ñī ÑĸÐ¹
Ð½Ðµ Ð±
ĠÐ´Ð¸Ð² Ð»ÑıÑĩÐ¸ÑģÑĮ
ĠÐ¿Ð¾Ð²ÐµÑĢ Ð½ÑĥÐ²ÑģÑı
ĠÐ²Ð¸Ð³ Ð»ÑıÐ´
ĠÐ´ Ð¸ÑĤ
ĠÐº Ð¾ÑĪ
ĠÑģÐ¿ Ðµ
ÑĢÑĸ Ð·ÑĮ
ÑĦ Ð¾ÑĢ
ĠÐ´Ð¾Ð² Ðµ
ĠÐ¥ÑĢÐ¸ ÑģÑĤÑĸ
ĠÐ²Ð¾Ð´ Ð¾Ñİ
Ð°Ð½ Ð¾Ð³Ð¾
Ð½Ð¸ Ð²
ĠÐ¿Ð¾ ÑĤÑıÐ³
ĠÐ¢ Ð¾Ð¹
ĠÑĤÐ°Ðº Ð¾ÑĹ
ĠÐŁ Ð°Ð½
ĠÐºÐ°Ð¼ ÐµÑĢÐ¸
ÑĩÐ° ÑĤÑĮ
ĠÐ·Ð°Ð¼ ÑĸÑģÑĤÑĮ
ĠÐ¾Ð¿ Ð¸Ð½Ð¸
Ð¸ ÑĪ
ĠÑĤ ÑĸÐ¼
ĠÐ½Ð° ÑĪÑĸ
ÑĤÑĸ Ð»Ð¸
ĠÐĿÐ°Ð² ÑĸÑĤÑĮ
Ð½ Ð¾Ðº
Ð¾Ð² Ð¾ÑĹ
ĠÐ½Ðµ Ð³
ĠÑī Ð°Ñģ
ĠÑģÑĤ Ð°Ð½Ðµ
ÐºÑĥ Ð¿
Ð»Ñİ Ð´
ĠÐ²Ð· Ð°Ð³Ð°Ð»Ñĸ
ĠÐ¿ÑĢÐ¾Ðº Ð»Ñı
ĠÐ² Ð¾Ð»Ð¾Ð´
Ð½Ñĥ Ð»Ð¸ÑģÑı
ĠÑĪ Ð¾Ð²
ĠÐ¾Ð´ Ð½Ñĸ
ĠÐ´Ð² ÑĸÑĢ
ĠÐ·Ð°Ð´ ÑĥÐ¼
ĠÐºÐ°Ð· Ð°Ð²
Ñģ Ð½Ð¾
ĠÐ² Ð¼
ĠÐ² Ñĩ
ĠÑĸ ÑĪÐ¾Ð²
ĠÐ¾Ð´ Ð½Ð¾Ð¼Ñĥ
Ð»Ñİ Ð±
ĠÑģÐ¾Ð½ ÑĨÑı
ĠÑħÐ¾ÑĤ ÑĸÐ»Ð°
ĠÐ»ÐµÐ³ ÐºÐ¾
ĠÐºÐ½Ð¸ Ð¶
ĠÐ¶Ð¾ÑĢ ÑģÑĤÐ¾Ðº
Ð¹ ÑĤÐµ
ĠÐº Ð»Ñĥ
ĠÐ¹ ÑĪÐ¾Ð²
ĠÐ¾ ÑģÑĤ
ĠÐ´Ð¾Ð± ÑĢÐ°
ĠÐ¼ÑĸÑģÑı ÑĨÑĮ
ÑĪ Ð½Ñĸ
Ð°ÑĢ ÐºÐ°
Ð°ÑĤÐ¸ Ð²
ĠÐĳ ÐµÐ·
Ð°Ð»ÑĮ Ð½Ñĸ
ĠÑģÐ²ÑĸÑĤ Ð»Ð¾
ĠÐ¿Ðµ ÑĩÑĸ
ĠÑĩÐ¾Ð³Ð¾ ÑģÑĮ
ĠÑħÐ»Ñĸ Ð±Ð°
ĠÑģÐ² ÑĸÐ¶
ĠÑĢÐ¾Ð· Ð¿Ð¾Ð²ÑĸÐ´
Ð°ÑĶ Ð¼Ð¾
ĠÑİ ÑĢ
ĠÐ½ÐµÐ²Ðµ Ð»Ð¸Ñĩ
ĠÐ´Ð² ÐµÑĢ
ĠÐ·Ð°Ð¿ Ð°Ñħ
ĠÐ¿Ð¸ Ð»ÑĮÐ½Ð¾
ĠÐ¿ Ð¾Ð½Ñĥ
Ð¾Ð² Ð¾Ð»
ĠÐ¼Ñĸ ÑģÑĤÐ°
Ð¸Ð»Ð° ÑģÑĮ
ÑıÐ· Ð¸Ð´
ĠÐ² Ð½Ð¾ÑĩÑĸ
ĠÐ¼ Ð¾Ð½
ÑĢÐ°Ð² Ð´Ð°
ĠÐ³Ð¾ÑĢ Ð¾Ð´
ĠÐĵÑĢÐ¸ Ð³Ð¾ÑĢÑĸÐ¹
ĠÐ²Ð°Ð» ÑĸÐ´Ðµ
Ðº ÑĸÐ½
Ð´ Ð°Ð½
Ð½Ð¸ ÑĤÐ¸
ĠÐĴ Ð¾Ð»Ð¾Ð´
ĠÐ¿ÐµÑĢÐµ Ð±
ÑĩÑĸ Ð¿
ĠÑĶ Ð²
ĠÐ´Ð¾ÑĢ Ð¾Ð·Ñĸ
Ð¥ ÑĢÐ¸
Ñĸ ÑĢÑĥ
Ðº ÑĥÐ²Ð°Ð²
ĠÑģ Ð¾Ð»Ð¾Ð´
Ñĩ Ð°ÑĤÐ¸
ĠÐ¼ Ð°Ñģ
ĠÑĢ Ð¾ÐºÐ¸
Ð°Ðº ÑĸÐ²
ĠÐ±Ñĥ Ð´Ñĥ
ÑĩÐµ Ð¿
ÑĩÐµ Ð·
ĠÐ³Ð¾Ð»Ð¾Ñģ Ð¾Ð¼
Ð½ Ð°Ð¼Ð¸
ĠÑĤ Ð°ÑĤ
Ð± ÑĸÐ´
Ð°ÑĤ ÐºÑĥ
ĠÑģÐ°Ð¼ Ð¾ÑĤ
ĠÐĳ Ð¾Ð¶Ðµ
ĠÑģÐµ Ð»Ð°
Ð²Ðµ ÑģÑĮ
ĠÐºÐ¾Ð» ÑĸÐ½Ð°
ĠÐ³Ñĥ Ð±
ĠÐľÐ°ÐºÑģÐ¸Ð¼ Ð°
ÑĢ Ð°Ð»Ð¸
ĠÐ· Ð¸Ð¼
ĠÐ± ÑĢÐµ
ĠÑħÐ»Ð¾Ð¿ ÑĨÑĸ
ĠÐ²Ð¾Ð³ Ð¾Ð½ÑĮ
Ð½ÐµÐ± ÑĥÐ´ÑĮ
ĠÐ¶ Ð¸Ð´
ĠÐ¿ÑĢÐ¸ Ð²ÑĸÑĤ
ĠÐĿ ÑĸÑĩ
ĠÐ´Ð¸Ð² Ð¸ÑĤÑĮÑģÑı
Ð²Ðµ ÑĨÑĮ
ĠÐ±Ð°Ð³ Ð°ÑĤ
ÑĢ Ð°Ð¼
ÑĢÐ¸ Ñħ
ĠÑħ ÑĢÐ¸
ĠÐ¿Ð¾ ÑĹ
ĠÐ½Ñĸ ÐºÐ¾Ð¼Ñĥ
ĠÐ¾Ð´ ÑĢÐ°Ð·Ñĥ
ĠÐ½Ð°Ð´ ÑĤÐ¾
ĠÐ»ÑİÐ´Ð¸ Ð½Ð¸
ĠÐ·ÑĢÐ¾Ð± Ð¸ÑĤÐ¸
ĠÑģÐ¸Ð´Ñĸ Ð»Ð¸
ÑĤ ÑĤÑı
ĠÑĸ ÑģÐº
ÐµÑĢÐµ Ð´Ñĥ
ĠÐ¢ ÑĢÐµÐ±Ð°
ĠÑģÐ¸ Ð´Ð¸ÑĤÑĮ
ĠÐ´ÑĥÐ¼ ÐºÐ°
ĠÐ·Ð°Ðº Ð¾Ð½
ÑĥÑĶ ÑĪ
ĠÐ¿Ð»Ðµ ÑĩÑĸ
ĠÐ¿Ð¾Ð³Ð»ÑıÐ´ Ð¾Ð¼
ĠÐłÐ¾ÐºÑģÐ¾Ð» Ð°Ð½Ð°
ĠÐ¿ Ð»Ð¸Ð²
Ð¾Ð³ Ð°Ð´
ĠÐ¹ ÑĪÐ»Ð¸
Ð¶ ÐµÐ½Ð½Ñı
ĠÐ³ Ð¾Ð¹Ð´
ÑĩÐ¸ Ðº
ÑĩÐµ Ð½Ñĸ
ĠÐ¼Ñĸ ÑģÑĤÐ¾
ĠÐ²Ð¾Ð» Ñİ
ĠÐ²Ð³ Ð¾ÑĢÑĥ
Ñı Ð½Ð¸
ĠÐ¿ Ð°Ð»Ð¸
ÑĪÐµ Ð½Ñĸ
ĠÐ¾Ð± ÑĸÐ·
ĠÐºÐ°Ð¼ ÐµÑĢÑĸ
ĠÐ»ÑİÐ´ ÑĮÐ¼Ð¸
ĠÐ½ÐµÐ² ÑĸÐ´Ð¾Ð¼
Ð°ÑĢÐµÑĪ ÑĤÑĸ
ĠÐ½ Ð°Ð¼Ð¸
ĠÑĤ ÐµÑĢ
Ð°Ð½ Ð½Ñĸ
ĠÐ·Ð½ Ð°Ð»Ð¸
ĠÐºÐ¾Ð½ ÐµÐ¹
ĠÐºÐ°ÑĢ ÑĤÐ¸
ĠÐ² ÐµÑĢÑĤ
Ñĩ Ð½Ñĸ
ÑģÑĤ Ð¾Ð¼
ĠÑĢ ÑĸÐº
Ð¾ÑĢ Ðµ
ĠÐ·Ð°Ð² ÑĤÑĢÐ°
ĠÐ³Ð¾ÑĢ ÑĸÐ»
ÑĩÐ¸Ð² ÑģÑı
ÑĢÐ°Ð½ ÑĨÑĸ
ĠÐ³ÑĢÑĥÐ´ ÑıÑħ
Ð½ Ð½Ñı
Ñģ Ð½Ðµ
Ð² Ð¾Ñİ
ĠÐ² Ð½Ð¸Ð·
ĠÐ¿ Ð°Ð´Ð¸
ĠÐ¡ Ðµ
ĠÐ¿ÑĸÐ´ Ð½Ñı
ĠÐĹ Ð½Ð°
Ð´Ðµ ÑĤÑĮÑģÑı
ĠÐ¿Ð¾Ð» Ðµ
ĠÑĤÑĸ Ð»Ð°
ĠÐ³Ñĥ Ð±Ð¸
Ð¿Ñĥ Ñģ
Ð Ļ
ĠÐ± Ð¾ÐºÑĥ
Ð¿ Ð¾
ĠÐ½Ðµ ÑĤ
ÐµÐ½ Ñı
ĠÐ±Ñĥ Ð´Ð¸Ð½
ĠÐ±Ñĥ Ð´ÑĥÑĤÑĮ
ĠÐĽ Ñİ
ĠÐ¿Ð¾Ð» Ð¾Ð²Ð¸
ĠÐºÑĢÐ¸ Ðº
ĠÐ²Ð´ Ð°ÑĢÐ¸
ĠÐ²Ð¾ÑĢ Ð¾Ð¶
ĠÑĸÐ¼ Ð¿ÐµÑĢ
ĠÑĤÐ¾Ð²Ð°ÑĢÐ¸ ÑĪ
ĠÐĶÐ¾Ð± ÑĢÐµ
ÑĤ ÑĥÑĢ
ĠÐ± Ð¾Ð´Ð°Ð¹
ĠÐº Ð»Ð¾Ð¿
ĠÐ¿Ð¾ ÑĨÑĸÐ»
Ð¾Ñĩ ÐºÐ°
ĠÐ¿Ð¾Ð´ Ð²ÑĸÑĢ
ĠÐºÑĸÐ½ ÑĨÑı
ĠÐ²ÑĸÐ¹ ÑģÑĮÐº
Ð² Ð¾ÑĢÐ¸
ĠÑģ ÑĸÐ¼
ÑģÑĤ ÐµÑĢ
ĠÐºÑĢ Ð¾Ð²Ñĸ
ĠÑĢÐ°Ð· Ñĥ
ĠÐºÑĢÑĸ Ð¼
ĠÐ»ÐµÐ¶ Ð°Ð²
ĠÑĩÐ¾Ð¼Ñĥ ÑģÑĮ
ĠÐ¼ ÑĥÑĢ
Ð¾Ð¼ Ð¾
ĠÐ» ÑĸÐ²
ĠÐ¾Ð± ÐµÑĢ
ĠÐĨ Ð½
ĠÐŀ ÑĨÐµ
ĠÐł ÑĥÐ±
ĠÐ²ÐµÐ»Ð¸ ÑĩÐµÐ·
ĠÐ²ÑĸÐº Ð½Ð¾
ĠÐºÐ¾Ð· Ð°
ĠÐ± Ð¾Ñģ
ĠÐ¼ ÑĸÑĢ
Ð»Ð¸ Ð·
Ð»Ð¸ ÐºÐ°Ð²
ĠÐ³ Ð½ÑĸÐ²
ĠÑħ Ð°ÑĢ
ĠÐ¡ Ð¸
ĠÐĶ Ð°Ð²
ĠÐĵ Ð»Ð¸Ð½
ĠÐ¿Ð¾Ñĩ ÑĥÑĤÑĤÑı
ĠÐ·ÑĢÐ¾Ð± Ð¸Ð²
ĠÐ¿Ð¾Ðµ ÑĤ
ĠÑĩÐ¾ÑĤÐ¸ ÑĢÐ¸
ĠÑģ ÑĥÑĤ
ĠÐ¿ÑĢ ÐµÐ´
ÐµÐ¼ Ð°
ĠÐ¡ Ð¾Ðº
ĠÐ½Ð°Ð¿ ÐµÐ²
ĠÐ·Ð°ÑĢ Ð¾Ð±
ĠÐ²ÐµÐ»Ð¸Ñĩ Ð½ÑĸÑģÑĤÑĮ
Ñĥ ÑİÑĤÑĮ
Ñħ Ð¾Ð²
ĠÐ¼ Ð¾Ð³Ð¾
Ð½Ñĸ ÑĪ
ĠÐ¿ÑĢ Ð¾Ð»
ĠÐ¿ÑĢ ÐµÐº
Ð°ÑĶ ÑĤÐµ
Ð°Ð± ÑĸÑı
Ð»Ñĸ Ñĩ
ĠÐ¾Ð´ Ð½Ð¸Ð¼
ĠÐ±Ð° Ñĩ
Ðľ Ð°ÐºÑģÐ¸Ð¼
ĠÐ¿ÑĢÐµÐº ÑĢÐ°Ñģ
Ð² Ð¾ÑĶ
ĠÑģ ÑħÐ¸
ĠÐº Ð¸Ð¼
ĠÑģÑĤ Ñĥ
ĠÑĢÐ¾Ð· ÐºÐ°Ð·
ĠÐĳ ÑĥÐ²
ĠÐŀ Ð»Ðµ
ĠÑĤÐ² Ð¾ÑĶ
ÐºÐ¾Ð² Ð¾
ÑİÐ² Ð°Ð²
Ð¿Ð° ÑĪÐ°
ÐµÑĢÐµÐ´Ð¸ Ð½Ñĸ
Ð¾ ÑģÑı
Ñı Ð»Ð¸ÑģÑı
ĠÐ½Ðµ Ð²Ð¸
ĠÐĴ Ð°
ÑģÑĤÐ¸ Ð¹
ĠÐ ®
Ð¼ Ð°ÑĢÐ¸
Ð¿ Ðµ
Ð°Ð· Ð´
ĠÐĵ Ð°Ñģ
ĠÐ·Ð°Ð¼ Ð¾Ð²
ĠÐ¼Ð¾ÑĢ Ðµ
Ðº ÑĸÐ¹
ĠÐ´ Ð¾Ð½
ĠÑĥ ÑĤÑĸ
ĠÐŁ Ð¾Ð²
ĠÐ¾Ð± ÑĸÐ¹
ĠÑģÑĥ Ð´
ĠÐ© Ð¾Ð±
Ð¡ ÑĤ
ĠÐ¼Ð¾Ð¶ Ñĥ
ĠÐºÐ¾ÑĢÐ¸ Ð´
ĠÐ½ÐµÑģÐ¿Ð¾Ð´ÑĸÐ² Ð°Ð½Ð¾
ÐµÑĢÐ³ ÑĶ
Ð»Ñı ÑĢ
ÑĨÑĸ Ð¾Ð½
ÑĪÐµ Ð¹
ĠÐŀ Ñģ
Ð¾Ð²Ð¸ Ñĩ
ĠÐ·Ð°Ð³ Ð¸
ĠÐ¼ÐµÑĢ ÑīÑĸÐ¹
ĠÑĢÐ°Ð½Ñĸ ÑĪÐµ
Ð¾ Ñī
ĠÐ¿ Ð°Ð½Ð°
ĠÑĢ Ð°Ð¹
ĠÑħ Ð°Ð¿
ĠÐ¶ Ð°Ð´
ĠÑģÐ» ÑĸÐ²
ĠÐ²ÐµÐ»Ð¸ ÐºÑĸ
ĠÑģÐµÑĢ Ð´Ð¸
ĠÐ²Ñĥ Ñħ
ĠÑģÑĤÑĢÐ°ÑĪ Ð½Ð¾
ĠÐ± Ð°ÑĤ
Ð± ÑĤÐ¾
Ð· Ð´Ð¸
ÑĢÐ¸Ð² ÑģÑı
ĠÑĸÐ½ Ð¾Ð´Ñĸ
ĠÐ¼Ñĥ Ð·Ð¸
ĠÐ±ÑĢ Ð°ÑĤÐ¸
ĠÐ·Ð± Ð°Ð³
ĠÐĳÐ° ÑıÐ·Ð¸Ð´
ĠÑĸÑģÑĤ Ð¾ÑĢÑĸ
Ð± Ð°Ð²
ÑģÑĤ Ð²Ñĸ
ĠÑĩ ÐµÐº
ĠÐ¶ Ð°Ð»
ĠÑģÐ² Ð¸
ĠÐ½Ñĸ ÑıÐº
ÐµÐ½ÑĮ ÐºÐ¸Ð¹
ÑĸÐ½Ð½Ñı Ð¼
ĠÐ±Ð» ÑĸÐ´
ĠÐ·Ð°Ð»Ð¸ ÑĪ
ÑĹÑħ Ð°Ð²
ĠÐ´ÐµÑģÑı ÑĤÑĮ
Ðº Ð»Ð°Ð´
ĠÐº ÑĸÐ½ÑĮ
ĠÐ¿ÑĸÐ´ ÑĸÐ¹ÑĪÐ¾Ð²
ĠÐļ Ð¾Ð¶
ÑĦ ÐµÑģ
ĠÐ¿Ð¾ÑģÐ¿ ÑĸÑĪ
ĠÐ±Ð¾Ð¶ÐµÐ² ÑĸÐ»ÑĮ
Ð ĺ
Ð¾Ð» Ð°
ĠÐŁ Ð°Ð²
ĠÑĩÑĥ ÑĤÐ¸
ĠÐ²Ð° ÑĪÐ°
ĠÑĥ Ð²ÐµÑģÑĮ
ÐµÐ½ Ð½Ñĸ
ĠÐ» ÑĸÐ¿
Ð¸ÑĤ Ð°
Ð¾Ð´Ð¸ ÑĤÑĮ
ĠÐ¿Ð¾Ñĩ Ñĥ
ĠÐĽ ÑĥÐº
ĠÐ±Ð»Ð¸ ÑģÐºÑĥ
ĠÐĨÐ±ÑĢÐ°Ð³ÑĸÐ¼ Ð°
ĠÐ³Ð¾Ð²Ð¾ÑĢÐ¸ Ð²
Ð¥ÑĢÐ¸ ÑģÑĤÑı
ĠÐ¿ Ð¾Ð±ÑĸÐ³
Ð¼ ÑĸÑĢ
Ð¾ÑĢ ÑĸÐ²
ĠÐ¾ Ð½
ĠÑĥ Ð¼
ĠÐ¿ÑĢÐ¸ Ð·
ĠÐ¿ÑĸÐ´ Ñģ
ĠÐ³Ð¾Ð» Ð¾Ð´
ĠÐ¿Ð¾Ðº Ð»Ð°Ð²
ĠÑģÑĥÐ»ÑĤÐ°Ð½ Ð¾Ð²Ñĸ
ĠÐľÐ¸ ÐºÐ¾Ð»Ð°
Ðº ÑĤ
ĠÐ² Ð¾ÑĢÑĥ
ĠÑģ ÑĸÐ½
ĠÐ´ Ð¾Ð»Ð¸
Ð¿ Ð¾Ð¼
ĠÑħ Ð¾Ð´Ð¸Ð²
ĠÑģÑĤ Ð¾Ð³
ĠÐ·Ð° Ñĩ
ĠÐ´ ÑĢÑĥ
Ð¿ Ð°ÑĢ
ĠÐº ÑĢÐ°ÑĹ
Ð½Ð¸ Ð±ÑĸÐ´
ĠÐ¿Ð¾ ÑĪ
ĠÑģÑĤ ÑĸÐ»ÑĮÐºÐ¸
ĠÐ·Ð° ÑħÐ¸
ĠÑĢÐ¾Ð· Ð¼Ð¾Ð²
Ð¾Ñĩ Ñĸ
ÐµÐ½ÑĮ ÐºÐ°
ÑħÐ¾Ð´Ð¸ Ð»Ð°
ĠÐŁÐµÑĤ ÑĢÐ¾
ĠÑĩÐ° ÑģÑĤÐ¾
ÑĢ Ð°ÑĤÐ¸
Ð² Ð°Ð»
Ñı ÑĤÑĸ
ĠÐº Ð»Ðµ
ĠÑģÑĤ Ð°ÑĤÐ¸
ÐºÐ¾ ÑĤ
ĠÐĴ Ð¶Ðµ
Ð¾ÑĤ Ð¾Ð¼
ÑĪÐ¸ Ð»Ð¸
ĠÐ¿ÐµÑĢÐµ Ñģ
ÑĸÐ· Ð½Ð°Ð²
ĠÐ·Ð°Ð³ Ð°Ð´
Ð½ Ð³
Ð² Ð¶Ðµ
ĠÐ¿ Ð¸Ð²
Ñĩ Ñİ
ĠÐº Ð°Ð½
ĠÐĲ Ð¶
ĠÐ¿Ð¾Ð´ Ð°Ð²
ĠÐ¤ Ð°Ð±ÑĸÑı
Ñĩ Ð½Ð¸Ð¹
ĠÐ´ Ð¶
ĠÐ¾ ÐºÐ¾
ĠÐ¢ Ð¸Ð¼
ĠÐ³Ñĥ ÐºÐ½ÑĥÐ²
ĠÐ¡Ñĥ Ð»ÑĤÐ°Ð½
ĠÐ³Ð»Ñı Ð½ÑĥÐ²
Ð¸ Ð½Ð°
ÑĢ Ð°Ñħ
ĠÐ´ Ð½ÑĸÐ²
Ð»Ð° ÑģÑĤÐ¸
ĠÐ¿Ð¾ ÑģÑĤÐ°
ĠÑĢÑĥ Ð±
ĠÑĩÐ°Ñģ ÑĤÐ¸
ĠÐ¤ ÐµÐ´
ÑĥÑģÑĤÑĢÑĸ Ñĩ
Ð´ Ð°ÑĤ
ĠÐ½Ðµ Ð±Ñĸ
ĠÑĥ Ð±
ĠÐ¿Ð¾ ÑģÐ¸
ĠÐ¿Ð¾ ÑĩÐ¸Ð½
ĠÑĹ ÑģÑĤÐ¸
Ð½Ðµ Ñİ
ÑĢÑı Ð´
ĠÐ´ÑĢÑĥÐ³ Ð°
ĠÐ·Ð°Ð¿Ð¸ÑĤ Ð°Ð²
ĠÐľÐ°Ð»ÑĮ Ð²Ð°
ĠÐ²ÐµÐ»ÐµÑĤ ÐµÐ½
ĠÐ² Ð°Ð³
ÑģÑı Ð³
Ð°ÑĢ ÐµÐ¼
Ð¾Ñĩ Ñĥ
ĠÑģÐ°Ð¼ Ð¾Ð¼Ñĥ
ĠÐĵ ÑĢ
ÑĦ Ñĸ
ĠÐ¿Ð¾Ñĩ Ð°Ð»Ð¸
ĠÐ¿ÐµÑĢ ÑĪ
ĠÐ²ÑĸÐº Ð¾Ð½
ĠÐľÐ¾ÑĤ ÑĢÑı
ĠÐ¿Ð°Ð´Ð¸ ÑĪÐ°Ñħ
Ð² ÑĸÐ¹
ĠÐ½ Ð°Ð»
Ð¾Ð² Ð¾ÑĢ
ÑģÑĮ ÐºÐ¸Ð¼Ð¸
ĠÐ²Ð¸ Ð³Ñĥ
ĠÑģÑĤ Ð°Ð»Ð¾ÑģÑı
ĠÐ¡ ÐµÑĢÐ³ÑĶ
ĠÐľ Ð¾Ð²
ĠÐĶ Ð»Ñı
ĠÑĢÑĥ ÐºÐ°
ĠÐ·Ð°Ð¿ Ð¾Ð²
ĠÑĸÐ½ ÑĪÐµ
ĠÐ£ Ð¶Ðµ
ĠÐ½ÐµÐ´ Ð°Ð²
ĠÐŁÑĢÐ¾ ÑĨÐµÐ½
ĠÐ³Ð¾ÑģÐ¿ Ð¾Ð´Ð¸
ĠÑıÐ½Ð¸Ñĩ Ð°ÑĢ
ĠÐ¡ÑĤÐ°Ð¼Ð±Ñĥ Ð»Ð°
ĠÐ¿ Ð»Ð¾
Ñħ Ð½ÑĥÐ²
ĠÐ¼ Ð¾ÑģÐº
ĠÐ¾ ÑģÑĤÑĢ
Ð¾Ð± Ñĥ
Ð»Ñı Ð²ÑģÑı
Ð¾ÑĤ ÑĸÐ»Ð°
ĠÑģÐ°Ð¼ Ð¸Ð¼
ÐĿ Ñĸ
ĠÐ±ÑĸÐ» Ñĸ
ĠÐ¿Ðµ Ñĩ
ÐĹ Ð°
ĠÐľÑĥ ÑģÑĤÐ°
Ñģ Ð½Ñĥ
Ð´ Ð¾
ĠÑĢÐ¾Ð· Ñģ
Ð½Ðµ Ð½Ñĸ
ĠÐ¼Ñĥ ÑģÐ¸ÑĤÑĮ
ĠÑģÐ»ÑĥÑħ Ð°Ð²
Ð ¨
Ð» Ð°Ð»Ð¸
Ð» Ð°Ð¼Ð¸
Ñħ ÑĸÐ²
ĠÑĥ ÑģÑĮÐ¾Ð³Ð¾
ÑĸÐ½ Ñĥ
ĠÐ» ÑĸÐ¶
ĠÐ¶ Ð°Ð»ÑĮ
ĠÑģÐ¿ ÐµÑĢ
ĠÐ¡ ÑĸÑĢ
Ð»Ð¸Ð² Ð¾Ð³Ð¾
ĠÐ¿Ð¾Ð² Ð¸Ð½
ĠÑĸÐ½ ÑĪÐ¸Ð¹
Ð ĸ
Ð° ÑģÑĤÑĮ
ĠÐ² ÑģÑĮÐ¾Ð¼Ñĥ
ĠÑģ Ð½
Ð± Ð¾Ð½ÑĮ
ĠÐ¼ Ð°ÑİÑĤÑĮ
ÑĹ Ð´
ÑĶ Ð´
ĠÐ» Ð°Ð½
ĠÑģÐ² ÑĸÐ´
ĠÑĪ Ð°ÑĢ
ĠÑĢÑĥ ÑĨÑĸ
ĠÐ§ Ð¾ÑĢ
ĠÑĸÐ½ ÑĪÐ¾Ð³Ð¾
ĠÑĢÐ¾Ð± Ð¾ÑĤÐ¸
ĠÐ´Ð¾ÑĢ Ð¾Ð³
ĠÐ¼Ð¾Ð³ ÑĥÑĤ
ĠÐ²Ð¸Ð³ Ð°Ð´
ĠÐĶÐ¾Ð² Ð±
Ñĥ ÑĢÐ¸
ĠÐ· Ð»ÑıÐº
ÑĸÐ´ Ð½Ð¾
ĠÐŁ Ð¾ÑĢ
Ð°ÑĢÐ¸ Ð½
Ð¡ Ñĥ
ĠÑĤÐ² Ð¾Ñı
ĠÐ±ÑĸÐ»ÑĮ ÑĪ
ĠÐ½Ð°Ð³ Ð»ÑıÐ´
ĠÐļÐ¸ÑĢÐ¸ Ð»Ð¾
Ð² ÑĪÐ¸
Ñı ÑĤÑĮÑģÑı
ĠÑģ ÑĸÐ»ÑĮ
ĠÐ· Ð±ÑĢ
ĠÐ± Ð°Ð·
ĠÐ» Ð°
Ð°Ð¹ ÑģÑı
ĠÑħÐ¾Ñĩ ÐµÑĪ
ĠÐ¿Ð¾Ð±Ð° ÑĩÐ¸Ð»Ð°
ĠÐĽÐ¸ ÑĪÐµ
ĠÐ´Ð·Ð² ÑĸÐ½
Ðµ Ð½Ð¸
ĠÑĤ ÑĸÐ½ÑĮ
ĠÐ± Ð»Ñĥ
Ð¾Ð» Ð¾Ð²
Ð°Ð½ Ñı
ĠÐ²Ð¸ Ð½
ĠÐ³Ð¾Ð» ÑĥÐ±
ĠÐ¿Ð¾Ð» Ñı
Ð¾ÑĢÑĥ Ñĩ
ĠÐ³Ð»Ð¸ Ð±Ð¸
ĠÑģÐ»ÑĮ Ð¾Ð·
ĠÑĶÐ² Ð½Ñĥ
ĠÐĿÑĸÑĩ Ð¾Ð³Ð¾
ĠÐ´ ÑıÐ´ÑĮ
ĠÐ± Ð¾Ð»Ñİ
ÑģÑĤ ÑĸÐ²
ĠÐ³ Ð»Ñĥ
ĠÑģÐ¿ Ð¾
Ð°Ð± Ñĥ
ĠÐĹ Ð°Ð¿
ĠÐ¿Ð¾Ð¿ ÐµÑĢÐµÐ´
ĠÑģÐ¾Ð½ ÑıÑĩ
ĠÑĤÑĢ Ð°Ð¿
ĠÐ´Ð¾Ð» Ñı
ĠÐ³ÑĢÐ¾Ð¼ Ð°Ð´
Ð² ÑĸÑĩ
Ðº ÑĥÐ²
ĠÑĸ ÑīÐµ
ĠÑĤÐ°Ðº Ð¾Ñİ
ĠÐ´ÑĥÐ¼ Ð°Ð»Ð°
ĠÐ¿Ð¾ÑĤ ÑĢÐ°Ð¿
ĠÐ»ÑİÐ´Ð¸ Ð½Ñĥ
ĠÐ´Ð¸ÑĤÐ¸ Ð½
ĠÑĢÐµÐ² Ð¾Ð»Ñİ
ĠÐ¥Ð»Ð¾Ð¿ ÐµÑĨÑĮ
ĠÐľÐµ ÑħÐ¼Ðµ
Ð² Ð°Ð»Ð°
ĠÐ· Ð»Ð¸
ĠÑĤ Ð¸Ð¼Ð¸
ĠÐ´ ÑĸÐ»Ð°
ĠÐ´ ÑĸÑģÑĤ
Ð¶ Ð°Ð²
ĠÐ» Ð°Ð³
Ð»Ñı Ð¼Ð¸
ĠÐ¿Ð¾Ñģ ÐµÑĢÐµÐ´
ĠÐ¿Ð¾Ð¼ Ð¸
ĠÐ³Ð°ÑĢ Ñı
ĠÐ¶ÑĸÐ½ Ð¾Ðº
ĠÐ¿ÑĢÐ¸Ð¹ Ð¼
ĠÐµ Ðº
ĠÐ³ÑĢÐ¾ ÑĪÐµÐ¹
ĠÐ½Ð°Ðº Ð°Ð·
ĠÐ¾Ðº ÑĢÐµÐ¼
ĠÐ¿ÑĢÐ¾ÑĤ Ðµ
ĠÐ½ÐµÑī Ð°Ñģ
Ð² Ð¾ÑĹ
ĠÐ¿ Ð»Ð°Ð²
Ñħ Ð°Ð²
ÑĤÐ¸ Ð¼Ðµ
ĠÐ¼ Ð¸Ð¼
ĠÐ¾ Ð¿Ð¾Ð²ÑĸÐ´
ĠÐ³ Ð½Ñĸ
ĠÐ¿ÑĢÐ¸ Ð·Ð½Ð°
ĠÑģÐ¿ Ð¾Ðº
ĠÐ¿Ð¾Ð² Ð°Ð¶
ĠÐ±ÐµÐ· Ð³
ĠÐºÑĢ Ð°Ð¿
ĠÐºÑĢ Ð°Ñİ
ĠÐ³Ð°ÑĢ ÑıÑĩ
ĠÐ±Ð»Ð¸ Ñģ
ĠÐºÐ¾ÑĤ ÑĢÐ¸Ð¹
ĠÐ¿ÑĢÐ¸Ð³ Ð°Ð´
ĠÐ²Ð¸ÑĤ ÑĢÐ¸Ð¼
ÑĤ ÑĢÐ¸Ð¼
ĠÐ· Ð²Ð¸Ñĩ
ĠÐ± ÐµÑĢÐµÐ·
ĠÐ¼ ÑĸÐ½
ĠÑĥ ÑĢ
Ð¾Ñĩ Ð¾Ðº
ĠÐĨ ÑģÐ»Ð°Ð¼
ĠÐļ ÑĥÐ´Ð¸
Ð»Ð¸Ð² Ð¸Ð¼
Ð½ÑĮ Ð¾
ĠÑĤÐ² ÑĸÐ¹
ĠÐ¼Ð¾Ð²Ñĩ Ð°Ð²
ĠÐŀÑĤ Ð°Ðº
ĠÐĲÐ½Ð´ÑĢÑĸ ÑĶÐ²Ñĸ
ĠÑĤÑİ ÑĢÐµÐ¼
ĠÑĢÐ¸ Ð±
ĠÑģÐ¸Ð´Ñĸ Ð»Ð°
ĠÑıÑģ Ð½Ð¾
ĠÐľÐ°ÑĢÐ¸ Ð½Ð°
ĠÑģ Ð°Ð¼Ð¸
ĠÑĤ ÑĥÐ¿
ĠÐ± Ð°Ð»
ĠÐ± ÑĸÐ¹
ĠÐ¼ Ð¾Ðº
ĠÐ¼ ÑĢÑĸ
ĠÐº Ð¸Ð»Ð¸
Ð³ Ð¾Ñİ
ĠÐ¿ÑĢ Ñı
Ð»Ðµ Ð½Ð¸Ñħ
ĠÐĶ Ð¼Ð¸
ĠÐ·Ð°Ð² Ð¾Ð´
!.. "
Ð¢ Ð¾Ð´Ñĸ
ĠÐ·Ð°Ðº ÑĸÐ½
ĠÑĢÐ°Ð´ ÑĸÑģÑĤÑĮ
ĠÐ¿Ð°ÑĢ ÑĥÐ±
ĠÐ±Ð°ÑĤÑĮ ÐºÑĸÐ²
ĠÐ²ÑĸÐ· Ð¸
" ...
Ð² Ð¸Ñħ
ÐµÑĢ Ð²Ð¾Ð½
ĠÑı ÑĢ
ĠÐ´Ð¾ ÑģÑĤ
ĠÐĴ Ð°ÑģÐ¸
ĠÐ»Ñİ Ð±Ð¸Ð²
ĠÐĹ Ð°Ð²
ĠÑģÑĥÐ»ÑĤÐ°Ð½ Ð¾Ð¼
ĠÐºÐ°Ð¼ ÑĸÐ½ÑĮ
ĠÐ²Ð¿ ÐµÑĢÐµÐ´
ĠÐ»ÐµÐ´ ÑĮ
ĠÐ±Ð°Ð¹Ð´Ñĥ Ð¶Ðµ
Ð¸ Ð½Ñı
Ð½ Ð°ÑĢ
ĠÐ² Ð¾ÑĹ
ĠÐ¾ Ð¿ÑĥÑģÑĤÐ¸
ĠÑĥ ÑıÐ²
ĠÐ¶ Ð°Ð»Ñĸ
ÑĸÐ¹ Ð½Ð¾
ĠÐ²ÑĸÐ´ ÑĩÑĥ
Ð¾Ð´Ð¸ ÑĤÐ¸
ĠÐ´Ñĥ Ð¶ÑĩÐµ
ĠÐ´ÑĥÐ¼ ÐºÑĥ
ĠÑģÐ¼ ÑĥÑĤ
ĠÐ½Ð°ÑĢ Ð¾Ð´Ñĥ
ÑģÑĤÐ² Ð¾Ð¼
ÑĤÐ¸ Ñģ
ĠÐ½Ðµ Ð¼Ð¸
Ð°Ð½ ÑĸÐ²
ÑģÑĤ ÑĢÑĥ
ĠÑĥ Ð¿ÐµÑĢ
ÑĸÐ² ÑģÑı
ÑĢÑĥ ÑĤÐ¸
ĠÐ²Ðµ Ð»ÑĮ
Ð¾Ð´Ð¸ Ð»Ð°
ÑģÐ¸ Ð»Ð¸
ĠÐł ÑĥÑģÑĤ
ĠÑĢÐ°Ð· ÑĸÐ²
ĠÑģÑħ Ð¾Ð²
ĠÐ½Ð°Ð· ÑĥÑģÑĤÑĢÑĸÑĩ
ĠÐ¾Ð· Ð¸ÑĢ
ĠÐ²Ð»Ð°Ñģ Ð½Ðµ
ĠÐ¿Ð¾Ð´Ð¸Ð² Ð¸Ð²ÑģÑı
Ðº Ð»Ð¸
Ðº Ð°Ð»Ð°
Ñı Ð½Ð¸Ð¹
ĠÐ¿ Ð°Ð²
Ð»Ð¸ Ð¶
Ð¾Ð½ Ð¾
Ð°Ð´ ÑĤÐ¾
ĠÐŁ ÐµÑĢ
ÑĪÐµ Ð½Ð¸Ð¹
ĠÐ¿Ð¾Ð² ÐµÐ»Ð¸
ĠÐ±ÐµÐ· Ð½Ð°Ð´
ĠÐ·Ð´ Ð°Ð»Ð¾ÑģÑı
ĠÐ¯Ðº ÑīÐ¾
ĠÑħÐ¾ÑĤ ÑĸÐ»Ð¾ÑģÑı
ĠÐ½ÐµÐ½Ð°Ð² Ð¸
ĠÐ¿Ð¾ÑģÑĤÐ° ÑĤÑĮ
ÑĤ Ð¾Ð³Ð¾
ĠÑĤ Ð¾Ð¿
ĠÐ²ÑĸÐ´ ÐºÑĢÐ¸
ĠÐºÐ¾Ð»Ð¸ ÑĪ
ĠÐ¼Ð¾Ð¶ ÑĥÑĤÑĮ
ĠÐ´ÑĸÐ²Ñĩ Ð°ÑĤ
Ð¼ Ð¾Ð¶
ĠÐ´ ÐµÑĢ
ĠÐ¼ Ð°Ð½Ð´
ĠÐ¿ÑĢÐ¾ Ñī
ĠÐĶ Ñĥ
Ðŀ Ð´
ĠÐ»ÑİÐ´ ÑıÐ¼
ÑħÐ¾Ð´ ÑıÑĩÐ¸
ĠÑĤÐµÐ¼ Ð½Ð¾
ĠÐ´Ð¾Ð¿ Ð¸ÑĤ
ĠÐ¿Ð¸ÑĤ Ð°ÑĶ
I I
Ð½ Ð¾Ð²Ñĥ
ĠÐ² ÑģÑĤÐ°Ð²
ĠÐ½ Ð¾Ð²Ñĸ
Ð± ÑĥÑĤ
ÑĩÐ¸ ÑĤ
ÑĸÐ¹ ÑĪÐ»Ð°
ĠÑĹÑħ Ð½ÑĸÑħ
ĠÑĩÐ¸ Ñģ
Ðĵ ÑĢÐ¸
ĠÐ¾ÑĢ Ð³Ð°Ð½
ĠÐ±ÑĢÑĥ Ð´
ĠÐ² Ð¼ÐµÑĢ
ĠÐ¿ ÑĤÐ°
Ñĩ Ð°ÑĶ
ÑģÑĮ ÐºÐ¾Ñİ
ĠÐ¾ ÑĤÐµ
Ð³ Ð°Ð´
Ð¾Ð½ ÑĸÐ²
ĠÑĩ ÐµÑĤ
ĠÐĴ Ðµ
Ð¾Ñģ Ð¾ÑĦ
ĠÑĪ Ð°Ð±
ĠÐ¾Ð± Ñĸ
ĠÐ¼Ð¾Ð² Ð¸Ð²
ĠÐ²ÑĸÐ· ÑĮ
ĠÑģÐºÐ°Ð¶ Ðµ
ĠÐ¿Ð°Ð»Ð° ÑĨ
ĠÐĹÐ°Ð³ Ð½Ð¸Ð±ÑĸÐ´
ĠÐ·Ðµ Ð»ÐµÐ½
Ðº ÑĥÐ²Ð°ÑĤÐ¸
ĠÐ· Ð°Ð¼Ð¸
Ð°Ð² ÑĪÐ¸ÑģÑĮ
ĠÐ¼ Ð¾Ñİ
ĠÐ¹ ÑĪÐ»Ð°
Ð°ÑĢ Ñĥ
Ð°Ð´ ÑĮ
ĠÐŁ Ñĸ
ÑĸÑģ ÑĸÐ½ÑĮ
ĠÑİ Ð½Ð°Ðº
ĠÐ¡ÐµÐ»Ñĸ Ð¼
Ðº ÑĤÐ¸
Ð¾Ð» ÑĸÐ²
Ð°Ð½ Ð¾Ðº
ĠÑĪ ÑĥÐ¼
ÑĨÑĮ ÐºÐ°
ĠÐŀ ÑĢÐ¸
ĠÐ·Ð²ÑĸÐ´ ÑĤÐ¸
ĠÐ³Ð¾Ð²Ð¾ÑĢÐ¸ ÑĤÐ¸
ĠÑģÐºÑĢÐ¸ ÐºÐ½ÑĥÐ»Ð°
ĠÐ¿Ð°Ð»ÑĮ ÑĨÑĸ
ĠÑħÐ²Ð¸Ð»Ð¸ Ð½Ñĥ
ĠÐ³Ð¾ÑģÐ¿Ð¾Ð´ Ð°ÑĢ
Ðº ÑĢÐ°
ĠÑģ Ð¾Ð»Ð¾Ð¼
ĠÑģÐ¿ ÑĢÐ¾Ð±
ĠÐ¿ÑĸÐ´ Ð²
ĠÐ¾Ð± Ð¸Ð´
ĠÐ¼Ðµ Ð´
ĠÐºÑĢ Ð°Ð¼
ĠÐ¶ÑĸÐ½ ÐºÑĥ
ÑĸÑĶ Ñİ
ÑĩÑĸÐ¿ Ð»ÑıÐ½
ĠÐ² Ð¿ÐµÑĢÑĪÐµ
ĠÐ´ Ð¾Ð¼Ð°
ĠÐ¾ ÑģÐµ
ÑĸÐ» Ð¾ÑģÐ¾ÑĦ
ĠÐ¶ ÑĥÑĢ
ĠÑģÐ² ÑıÑĤ
ĠÐ¡ Ð¾Ð½
Ð²Ð¸ Ñī
ĠÑģÐº ÑĸÐ½
ĠÑģÐ¼ ÐµÑĢÑĤ
ĠÐºÐ¾ÑĢ Ð°Ð±
ĠÐ¡ÑĥÐ»ÐµÐ¹ Ð¼Ð°Ð½Ð°
Ð¾Ð² Ð°Ð½Ð°
Ð· Ñı
ÑĩÐ¸ ÑĪ
ĠÑĩ ÑĥÑĶ
Ð°Ð· Ñĸ
Ð¾ÑĹ Ð²
ĠÐ¿ÑĸÐ´ Ðº
Ð°Ð± Ð¸
ĠÐĶ Ð°Ð½ÑĮÐºÐ¾
ĠÐŀ Ñħ
ĠÐ·Ð¼ Ð°Ð³
ĠÐ·ÑĸÑĤÑħ Ð½ÑĥÐ²
ĠÐ·Ð°Ð· Ð´
Ð½Ð°Ð¹ Ð¾Ð¼
ĠÐºÑĢÑĥÐ³ Ð¾Ð¼
ĠÐ¾ÑģÐ¾Ð± Ð»Ð¸Ð²Ð¾
ĠÐ· ÑĸÐ³
ĠÑĢ Ð¾ÑĤÐ°
ĠÑı ÐºÐ¸Ð¼Ð¸
ÑĶ Ð¼Ð¾
Ð»Ñı Ñħ
ÑĢÐµ Ð²
Ð°Ð»ÑĮ Ð½Ð¸Ð¹
ĠÐ§ ÐµÑĢÐµÐ·
ĠÐ·Ð² Ð°Ð¶
ĠÐ·Ð°Ð³ Ð¾ÑĢ
ĠÐ·Ð½Ð°Ð¹ ÑĪÐ¾Ð²
Ð§ Ð¸
ĠÑħÐ°Ð·Ñı Ð¹
ĠÑĤÐ¸Ð¶ Ð´ÐµÐ½ÑĮ
Ð» ÑĸÐ¹
Ð² Ð°Ð½Ð°
ĠÐ³ Ð°Ñģ
ĠÑħ Ð¸Ð¼
ÑĥÑĤ Ñĥ
ĠÑģÐµ Ð»Ñĸ
ĠÐĽ Ð¾Ð±
ÑĢÑı Ñģ
ĠÐ¿ÑĢÐ¸Ð¹ ÑĪÐ»Ð°
ĠÐ´Ð¾ÑĢ Ð¾Ð³Ð¸
ĠÐ¼Ð°Ð¼ Ð¾
Ðº Ð°Ð¼
Ð¾Ð² Ð¸Ð¼
ĠÐº Ð°Ð±
ĠÐ» Ð¾Ð¶
ĠÐ¿ÑĢ Ðµ
ĠÐ¡ Ð¸Ð½Ð¸
Ð½Ðµ ÑĪ
ÑĢÐ° ÑĦ
ÑĸÐ· Ð°
ĠÐ¼Ð¾Ð² Ð»ÑıÐ²
ĠÐ¿Ð¾Ñģ Ð»ÑĥÑħ
ĠÐ¿Ð¾ÑĤ ÑĢÐµ
ĠÑĩÐ¾ÑĢ ÑĤ
ĠÐ©Ð¾ ÑģÑĮ
ĠÐĿÑĸ ÑħÑĤÐ¾
ĠÐ·Ñĸ Ð±ÑĢ
ĠÑıÐºÐ¾Ð³Ð¾ ÑģÑĮ
Ñĩ ÑĸÐ²
ĠÐ³ Ð°Ð·
ĠÐ³ Ð¾Ð´Ñĸ
Ð½Ðµ Ð½Ð¸Ð¹
Ð»Ð¸Ð² ÑĸÑģÑĤÑĮ
ÑĨÐµ Ð²Ñĸ
ĠÐ´Ð² Ð¾ÑĶ
ĠÐ¿Ð¾Ð¼ Ð°Ð»Ñĥ
ĠÑĨÑĸÐ» ÐºÐ¾Ð¼
ĠÐ²Ð¸Ðº Ð¾Ð½
ĠÐ¼Ð¾Ð» Ð¾Ð´Ñĸ
ĠÐ´ Ð°ÑĤÐ¸
ÑĪ Ð½Ðµ
Ð°Ð½ ÐºÐ¸
Ð· ÐµÐ¼
ĠÐ¾ Ð¿ÐµÑĢ
ĠÐ³ ÐµÐ½ÐµÑĢ
ĠÑĩ Ð¾Ð²
ÑĸÑĤ ÑĤÑı
ĠÐ¿ÑĸÐ´ Ð±
ĠÐ¿ÑĸÐ´ Ð²ÑĸÐ²
ĠÑģÐ°Ð¼ Ð¾ÑĹ
ĠÑģÐ¾ÑĢ Ð¾Ð¼
Ð²ÐµÑĩ ÐµÑĢÑĸ
ĠÐ·Ð°Ð½ Ð°Ð´ÑĤÐ¾
Ð¸ Ðº
ÑĢ Ð¾Ð³Ð¾
ĠÐ¿ ÑĤÐ°Ñħ
ĠÐ· Ð¼Ñĥ
ÑĢÐ¸ Ð´
ĠÐ³ Ð¾Ð´
ĠÐ²Ð¸ ÑģÑĤÑĥÐ¿
Ð»Ñı Ð»Ð°
ÐµÑĢÐµ Ñħ
ĠÐ²ÑĸÐ´ Ðº
ĠÐ´Ð¸Ð² Ð¸Ð»Ð°ÑģÑı
ĠÐ¿Ð¾Ð¿ ÑĸÐ´
ĠÑĤÐ² ÐµÑĢ
ĠÐ¿ÑĢÐ¸Ð¹ Ð´Ðµ
ĠÐ¿Ð¾Ð· Ð°
ĠÐºÑĢÑĥ ÑĤÐ¸
ĠÐ¾Ð´ÐºÐ°Ð· Ð°Ð²
ĠÐ±Ð°Ð¶ Ð°Ð½Ð½Ñı
ĠÐ´Ð¾Ð· Ð²
ĠÐ´ Ð¾Ð½ÑĮ
ĠÐ± Ð¾Ð¼
ĠÐº ÑĸÑģÑĤ
ÑĸÐ½ Ð½Ñĸ
ÐµÐ½ Ð¾ÑĹ
ÐµÐ½ Ð½Ð¸Ð¹
ĠÐ» Ñĸ
ĠÐ²Ð¸ Ð±Ñĥ
ĠÐ±Ñĥ Ð¹
ÑĸÑĤ Ð½Ð¾
ĠÐľ Ð°Ð»
Ð¾Ñĩ Ð½Ð¾
ĠÐ¿ÐµÑĢÐµ ÑģÑĤ
ĠÐĵ Ñĥ
ĠÐ´Ð² Ð¾ÑĢÑĸ
ÐĴ ÑĸÐ´
ĠÐ¿Ð¾Ñģ Ð°Ð´
ĠÐ¿Ð¾Ð¼ ÐµÑĢ
ĠÐ¿Ð°Ð½ Ðµ
ĠÑĪÐ²Ð¸Ð´ ÑĪÐµ
ĠÑģÐ½Ñĸ Ð³Ñĥ
Ñĸ Ð±ÑĢ
ÑĢ Ð°Ð±
ÑĤ Ð°Ð¼Ð¸
ĠÑģ Ð°Ð½
Ð¼ Ð°Ñħ
ĠÑĤ Ð¾ÑĹ
ĠÑģÑĤ Ð°ÑĶ
Ð½Ñı Ð»Ð°
ĠÐŁ ÐµÑĢÐµÐ´
ĠÐŁ ÑĸÑģÐ»Ñı
ĠÐ¯ ÐºÐ¸Ð¹
Ð½ÑĮ Ð¾Ñİ
ĠÐ¼Ð¾Ð³ Ð»Ð¾
ĠÐ±ÑĢÐ°ÑĤ Ð°
ĠÐĳÑĥ Ð»Ð¾
ĠÑħÐ¾ÑĩÐµ ÑĤÑĮÑģÑı
ĠÐ¼Ð¾Ð»Ð¾Ð´Ð¸ Ð¹
ÑĤ ÐºÐ¸
ĠÐ¿ Ð°Ð½Ñĸ
Ð¼ Ð°ÑĤÐ¸
ĠÐ· Ð±Ð¸
Ð¾Ð² ÑĸÐ¹
ĠÐ¼ Ð°Ñİ
Ð¾Ð½ Ð¾Ð¼
ĠÑħ Ð¼Ð°ÑĢÐ¸
ĠÐ²Ð¸ ÑīÐµ
ĠÐ²ÑĸÐ´ Ð´Ð°Ð²
ĠÐ¿ÑĢÐ¸ Ð´
ĠÑģÐ°Ð¼ Ð¸Ñħ
ĠÐŀ Ð½
ĠÐ¼Ð¸ ÑĢ
ĠÐ·Ð°Ð¿ Ð¸Ñģ
ĠÐ²ÐµÐ»Ð¸ ÐºÐ°
ĠÐ´Ð¾Ð± ÑĢÐ¸Ð¹
ĠÐ¶Ð¸ÑĤ ÑĤÑĸ
ĠÐ¼Ð°Ð¹ Ð±ÑĥÑĤ
ĠÑĤÑĥÐ¼ Ð°Ð½
ĠÑģÐ°Ð¼Ð¸ Ð¹
Ð¸ Ð»Ð¾ÑģÑı
ĠÐ· Ð¾ÑĢÑĸ
ĠÐ´ Ñı
ÑĪ ÑĤÐ¾Ð²
Ð¿ ÑĢÐ°Ð²
ĠÐ½Ðµ ÑģÑĤ
Ð»Ñı Ð³
ĠÑģÐ² ÑĸÑĩ
ĠÑģÐ¿ Ð°Ð´
ĠÑĪ Ð°Ð»
ĠÐ¿ÑĸÐ´ Ð²Ðµ
ĠÑģÐº Ð¾ÑĢ
ĠÐ¯ ÐºÐ°
ÑĢÐ¾ ÑĩÐ¸
Ð»Ð¸Ð² Ñĥ
ĠÐ·Ð² Ñĥ
ĠÑĢÐ¾Ð± Ð¾ÑĤÑĥ
ĠÐ·Ð°Ñģ Ð¿Ð¾Ðº
ĠÑĤÐ² ÐµÑĢÐ´
ĠÑģÐ¾Ð½ ÑĨÐµÐ¼
ĠÐ´Ð¾Ð» Ð¾Ð½
ÑĢÐµÑĪ ÑĤÐ¾Ñİ
Ð¾ ÑĨÑĸ
ĠÐ² Ð±
ĠÐ² ÑĤÐµ
ĠÐ± Ð¾ÐºÐ¸
ĠÐº Ð°
ĠÐ½Ð° ÑģÑĤÑĥÐ¿
Ð½Ð° ÑĶ
Ð°Ð± Ð°ÑĢÐ¾Ð¼
ĠÐ¿ÐµÑĢÐµ Ñħ
ĠÐ±ÐµÐ· Ð»ÑĸÑĩ
Ð¢ Ðµ
ĠÐºÐ¸ Ð½ÑĥÐ²
ĠÐ¼Ð¾ÑĢ Ñı
Ðĵ Ñĸ
ĠÐ²Ð¸Ð¹ ÑĪÐ»Ð°
Ðł Ð¾Ð·
ĠÑĩÐµ ÐºÐ°Ð²
ĠÑģÐ¿Ð¸ Ð½Ð¾Ñİ
ĠÐ·Ð°ÑģÐ¼Ñĸ ÑıÐ²ÑģÑı
ÑĢ Ð°Ð¶
ĠÐ½ Ð¸ÑĤ
ĠÑģ Ð»Ñĸ
ÐµÐ½ Ð½Ð¾
ĠÐ¶ Ð´
Ð¸Ð¼ Ð°
ÑĪÐ¸ Ð»Ð°
ĠÐ·Ð½ Ð°Ðº
Ð¾Ð¹ Ð½Ð¾
ĠÐ·Ð´ ÑĢÐ¸Ð³
ĠÐ²Ñĥ ÑħÐ°
ÐºÐ¾Ð² Ð¸Ð¹
ĠÐ»ÑĸÑĤ ÐµÑĢ
ĠÑĤÐ°Ð½ ÑĨÑİ
Ð¸ ÑģÑĮ
Ð² Ð¾Ð³Ð¾
Ñı ÐºÑĸ
ĠÑģ Ð¼Ñĥ
ĠÑĸ ÑģÐ½ÑĥÐ²
ĠÑĢ Ð¾ÐºÑĥ
ĠÑĥ Ñĩ
Ð°ÑĢ Ðµ
ĠÐŀ Ð´Ð¸Ð½
ĠÐ·ÐµÐ¼ Ð»ÐµÑİ
ĠÐ·Ð½Ð° ÑİÑĩÐ¸
ĠÑģÐµÑĢ ÑĨÐµÐ¼
ĠÑĩÑĥ Ð»Ð°
ĠÑģÑĤÐµ Ð¿
ĠÐ·Ð½Ð°ÑĶ ÑĤÐµ
ĠÐºÐ¾Ð¼ Ð°Ð½
ĠÐ¿Ð¾Ð´Ñĸ Ð±
ĠÐ¾Ð´Ð½Ð°Ðº Ð¾Ð²Ð¾
Ñĸ ÑģÑĤÑİ
Ðµ ÑģÑĤÐ¸
ĠÐº Ð½Ñı
ĠÐ½Ðµ Ð±Ðµ
Ð»Ð¸ ÑĤÐ¸
ĠÑĥ Ðº
ĠÐ²ÑĸÐ´ ÑģÑĤÑĥÐ¿
ĠÐŁ Ð¾Ñģ
ĠÐĿ Ð°Ð¹
ĠÐľ Ð°ÑĤ
ĠÐ¿ÑĸÐ´ ÑģÑĤÑĥÐ¿
ÑĢÐ¾ Ñī
Ð¼Ðµ Ð½Ñĸ
ĠÐ¿Ð¾Ð» Ñĸ
ĠÐ´Ð¾Ð± ÑĢÐ¾
ĠÐ¿Ð¸ Ð»ÑĮ
ĠÐ±Ð°ÑĩÐ¸ Ð»Ð¸
ĠÐ»ÐµÐ¶ Ð°Ð»Ð°
ĠÐºÑĥÑĤ ÐºÑĥ
ĠÐ´ÑĸÐ²Ñĩ Ð°ÑĤÐ°
ĠÐ¡ÐµÑĢÐ³ÑĶ ÑĶÐ²
ĠÐ² Ð¼Ð¸ÑĢ
ĠÐ· Ð¾ÑĢ
ĠÑĤ Ð°Ð±
Ð¾Ð² Ð¶
Ð¾Ð² ÑĸÑĢ
ĠÐº Ð°ÑĤ
ĠÐļ Ð°ÑĤ
ĠÐ´Ð² Ð°Ð´ÑĨÑıÑĤÑĮ
ĠÐ¿Ð¾Ð¼ ÑĸÐ¶
ĠÑĩÐ¾ÑĢ Ð½Ð°
ĠÐ¿ÑĸÑģ Ð½Ñı
ĠÐºÑĸÐ½ ÐµÑĨÑĮ
ĠÐ¿Ð¾Ð´ÑĥÐ¼ Ð°Ð»Ð°
ĠÐºÑĢÐ°Ñģ Ñĥ
Ġ1 9
Ñģ Ð²ÑĸÑĤ
ĠÐ´ ÑĸÑı
ÐµÑĢ Ð²
Ð· Ð°Ð´Ðµ
ĠÐ²ÑĸÐ´ ÑĩÐ¸Ð½Ð¸
ĠÐ¿ÑĸÐ´ ÑĸÐ¹Ð¼
ĠÑģÐ¸ Ð½ÑĸÐ²
ÐĴ Ð¾Ð½Ð¸
ÑĢÑĥÐ³ Ðµ
ĠÑĸÐ½ ÑģÑĤÐ¸
ĠÐ·Ð½Ð° ÑĩÐ¸ÑĤÑĮ
ĠÑĤÑĢÐ¸Ð² Ð¾Ð¶
ĠÑħÐ¸Ð¼ ÐµÑĢ
Ð» ÐµÐ½Ðµ
ĠÐ· ÑĢÑĥ
ĠÐ´ Ð¾Ð¼Ñĥ
ÑģÑı ÑĤÑĮ
Ð¾Ð» Ð¾Ð²Ñĸ
ĠÑī Ð¾ÑĢ
Ð½Ñĸ Ð¼Ð¸
ĠÐ» Ð°Ð´
ĠÑħ Ð°
Ð»Ñı ÑİÑĩÐ¸
Ð½Ñı Ð»Ð¸
ĠÐĲ Ð´Ð¶Ðµ
Ð°Ð¶ Ð¸
ĠÐ±ÐµÐ· Ñģ
Ð°ÑĢÐ¸ Ð¹
Ð´Ñĸ ÑĤÑĮ
ĠÐºÐ¸ Ð½ÑĥÐ²ÑģÑı
ĠÑĤÑĢ Ð°Ð³
ĠÑħÐ°ÑĤ Ð°
ĠÐ·Ð°Ð´ Ð¾Ð²Ð¾Ð»
ĠÑħÐ²Ð¸ Ð»Ñĸ
ĠÐºÑĥÐ´Ð¸ ÑģÑĮ
ĠÐ½Ð°Ð²Ñĸ ÐºÐ¸
Ðº ÑĤÐ¾ÑĢ
ĠÐ² Ð°Ð²Ð¸Ð»Ð¾Ð½
ĠÐ± Ð¾Ñİ
Ð± Ð»Ñĥ
ĠÑĸ ÑĤÐ¸
ĠÐ½Ð° Ñħ
ĠÐ¾ ÐºÐ¾Ð¼
ĠÐ¿ÑĢÐ¸ ÑĶÐ¼
ĠÐŁ ÑĢÐ¸Ð¹
ĠÐ¿ÑĸÐ´ Ðµ
ĠÐ¿ÑĸÐ´ ÑģÑĤÐ°Ð²
ĠÐ¿ÐµÑĢÐµ ÐºÐ¾Ð½
ÑĸÐ¼ Ð¾
ĠÑģÐ¸ Ð»ÑĮ
ĠÐł Ð°Ð´
ĠÐ´Ð¸Ð² Ð¸Ð»Ð¸ÑģÑı
ĠÐºÑĥ Ð»ÑĮ
ĠÑĦ ÑĸÐ»Ð¾ÑģÐ¾ÑĦ
ĠÑĢÐµ ÑĪ
Ðľ Ð¸
ĠÐ±Ð°ÑĩÐ¸ ÑĤÑĮ
ĠÐ¿Ð¾Ñħ Ð¼Ñĥ
ÑħÐ¾Ð¿ Ð¸Ð²
ĠÑĪÐº ÑĸÑĢ
ĠÐ±ÐµÐ·Ð³ Ð»Ñĥ
Ð¾ ÑĤÑĮ
Ñĩ Ð½Ð¾Ð³Ð¾
ÑģÑĤ ÑĢÐ¸
Ð¾ÑĢ Ð´
ÑĸÐ½ ÐºÐ¸
ĠÐ¶ ÐµÑĢÑĤ
ĠÐĲ Ð»Ñĸ
Ð¾Ñģ Ð»Ð¾Ð²
Ð¼Ñĸ ÑĪ
Ð¼Ðµ ÑĪ
ĠÐ³Ð¾ÑĢ Ñĥ
ĠÐ¿Ð¾Ð±Ð° ÑĩÐ¸ÑĤÐ¸
ĠÐ²ÐµÑĩ Ð¾ÑĢÐ°
ĠÑģÑĥÐ¼ Ð½Ð¾
ĠÑĪÐ¸ Ñİ
Ð» ÑĥÐ¼
Ñĩ Ð¾Ð¼Ñĥ
ĠÐº ÑĥÐ¼
ĠÐ½Ð° ÑģÑĤÐ°Ð²
Ð½Ð¸ Ñī
Ð¾ÑĢ Ð¾Ð±
ĠÐ¿Ð¾ ÑĢÐ¸Ð²
ĠÐ¢ Ñĸ
ĠÑĪ Ð¸Ð½
Ð´Ñĥ ÑĩÐ¸
ÑĢÑĥÐ³ Ð¸
ĠÐ¿Ð¾Ð· Ð¸
ĠÑĨÑĸÐ» Ñĥ
ĠÐ»ÐµÐ¶ Ð¸ÑĤÑĮ
ÑĥÑĪ Ð½Ñı
ĠÐ·ÐµÐ»Ðµ Ð½Ñĸ
ĠÐĵÐ°Ñģ Ð°Ð½
Ð¼ Ð¾Ðº
Ð»Ð¸ ÑĨÑĸ
ĠÐ¿ÑĢ Ð¾ÐºÐ¸
ĠÐŁ Ð¾Ñĩ
ĠÐ´Ñĥ ÑĪ
ĠÐ±Ð° ÑĩÑĥ
ĠÐ·Ð´ Ð¾ÑĢ
ĠÐł Ð¾Ð¼Ð°Ð½
ĠÐ´Ð¾Ð± ÑĢÑĸ
ĠÑģÑħ ÑĸÐ´
ĠÐ¿Ð¸ ÑĪ
!! .
Ġ *
Ðµ ÑĤÑĥ
Ðº ÑĢÐµÑĤ
ĠÐº Ð¾Ð»Ð¾Ð´
Ð½Ð¸ Ð²ÑģÑı
Ð½Ñĸ Ð¿
ĠÐ¿ÑĢ Ð°Ð³
Ð°Ð± Ð¸ÑĢ
ĠÐ¾Ð± ÐµÑĢÐµÐ¶
ĠÐ¾Ð´ Ð½ÑĸÐ¹
ÑĤÐ¾ ÑĢÐ¸
ĠÐĶ Ð¾Ð½
ĠÐŀ Ð¹
ĠÐ¿Ð¾Ð´ ÑĥÑĪ
ĠÐºÐ¾Ð» ÑĸÐ½
ĠÐĳÑĥ Ð±Ðµ
ĠÑĢÐ¾Ð·Ð³ ÑĥÐ±
ĠÐ¿Ð¾Ð½ Ð°Ð´
ĠÐºÑĸÐ¼ Ð½Ð°ÑĤÐ¸
ĠÐ¼Ð¾Ð»Ð¸ ÑĤ
Ð½ ÐºÐ¸
Ð» Ð°Ð³
ĠÐ· Ð°Ð¶
Ð¿ ÑĢÐ¸
ÐµÑĢ Ñħ
ÐµÑĢ Ð±
ĠÐ½Ð° Ñĥ
Ð³ Ð¾ÑĢÑĸ
ĠÐ» Ð¾Ð²
Ð½Ð¾ ÑĩÐ°Ñģ
ĠÑģÑĤ ÑĸÐ»ÑĮ
Ð½Ñĥ Ð»Ð¸ÑģÑĮ
Ð¶Ðµ Ð½Ð¸Ð¹
ĠÐĶ Ð¶
ĠÐ´ÑĥÐ¼ Ð°ÑĤÐ¸
ÑħÐ¾Ð´Ð¸ ÑĤÐ¸
ĠÐ´ÐµÑĢÐµ Ð²Ð¾
ĠÐ²ÑĥÐ»Ð¸ ÑĨÑİ
ĠÑģÑĤÐ°Ð½ Ð¾Ð²Ð¸
Ð» Ð°Ð»Ð°
Ðº Ð¾Ð²Ñĥ
ĠÐ· Ð¸ÑĢ
ÐµÑĢ ÑĸÐ²
Ð»Ð° ÑĤÐ¸
ĠÑħ ÑĥÑģÑĤ
ĠÑģÑĤ ÑĢÐ¸Ð±
ÐµÑĢÐµ Ð³
ĠÐ¢ Ð¾Ð¼Ñĥ
ÑĸÑĤ Ñĸ
ĠÐŁ Ð¾Ð´
Ð¾Ð´Ð¸ Ð»Ð¸
ĠÑĹÑħ Ð½ÑĸÐ¹
ĠÐ»Ð¸ Ð±Ð¾Ð½ÑĮ
ĠÐ´Ð¸Ð² Ð¸ÑĤÐ¸ÑģÑı
ĠÑĢÐ¾Ð± Ð¸ÑĤÑĮ
ĠÐ´ÑĢÑĥÐ³ Ñĸ
ĠÐºÐ°Ð· Ð°ÑĤÐ¸
ĠÐ²Ð¸ÑģÐ¾Ðº Ð¸Ð¹
ĠÐ¾Ð´ÐºÐ°Ð· Ð°Ð»Ð°
ĠÐ³Ð»Ð¸Ð±Ð¾Ðº Ð¾
ĠÐ½Ð°Ð¹Ð±ÑĸÐ»ÑĮ ÑĪÐµ
ĠÐ·Ð²Ðµ Ð»ÑĸÐ²
ĠÐĵÐ¾ÑģÐ¿ Ð¾Ð´Ð¸
Ñı ÑĤÐ¸ÑģÑı
ĠÐ² ÑĸÑģ
ĠÐ½ Ð¾Ð¶
ĠÐ· Ð°Ð½Ðµ
ĠÑĩ Ð°ÑĢÑĸÐ²
ĠÐ¿Ð¾ ÑĤÑĸ
Ð´Ð¸ Ñħ
ĠÐ½Ñĸ Ñģ
ĠÐ¿ÑĸÐ´ Ð´
ÑĤÑı Ð¼
ĠÑĤÐ¸ ÑĪÐ°
ĠÐ´Ñĥ ÑĪÐµÑİ
ĠÐ¿Ð¾Ð´ Ð°ÑĢ
ĠÑģÐ²ÑĸÑĤ Ð¾Ð¼
ĠÐ³Ð¾ÑĢ Ð±
ĠÐ½Ð°Ð¿ ÑĸÐ²
ĠÐ¥ÑĢÐ¸ ÑģÑĤÐµ
ÐĶ Ð¾
ĠÑģÑħ Ð¾Ð¶
ÑģÐº ÑĢÐ°Ð²
ĠÐ´Ð¾Ð´ Ð°Ð²
ĠÐºÐ¾Ð³Ð¾ ÑģÑĮ
ĠÐ»Ð¸Ñħ Ð¾
ĠÑĤÐµÐ¿ Ð»Ð¾
ĠÐĶÐ¼Ð¸ ÑĤÑĢÐ¸
ĠÐ¾Ð±Ñĸ ÑĨÑı
ĠÐ± ÑĢÐ°Ð²
ĠÐ³ ÑĢÐ¸Ð¼
ĠÐ²Ð¸ ÑıÐ²Ð¸
Ð»Ñı ÑĤÑĮÑģÑı
ĠÐ¶ Ð¸Ð»Ð°
Ð¾Ð¶ Ð¸Ð²
Ð´Ð¸ ÑĤÐ¸
ĠÑĢÑĥ ÐºÐ°Ð²
ĠÑģÐ¸ Ð½Ñĥ
ĠÐ½Ð°Ð¿ Ð¾Ð²
ĠÑģÐ¾Ð± Ð¾ÑĢ
ĠÐ·Ð½Ð°Ð¹ ÑĤÐ¸
ĠÐŁÐµÑĤ ÑĢ
Ð²Ð°ÑĢ Ð´Ð¾Ð²
ĠÐ¿ÐµÐ² Ð½Ð¾
ĠÐ¶Ð¾Ð´ Ð½Ð¾Ð³Ð¾
ĠÐºÑĢÐ¸Ð² Ð°Ð²
ĠÐ¿ ÑĸÑĢ
ĠÑģ Ð»ÑĸÐ¿
Ñĩ Ð°Ñħ
Ð¾Ð² Ð¾Ñİ
ÑĪ Ð¾Ð¼Ñĥ
ÑĤÐ¸ ÑĢ
ĠÐ± Ð¾Ð³Ð°
ĠÑĢ Ð°Ð½ÐºÑĥ
ĠÑı Ð±Ð»Ñĥ
ĠÐ° ÑĢÐµÑĪ
ÐºÐ¾ ÑĩÐ¸Ð²
ĠÑģÐ°Ð¼ Ñĥ
Ð»Ð¸Ð² Ð¸Ñħ
ÑıÐ² Ð¸Ð²ÑģÑı
ĠÐ»Ð¸ ÑģÑĤÑı
ĠÐ´Ð¸Ð² Ð½Ð¾
Ð¼Ðµ ÑĨÑĮ
ÐŁ Ð¾ÑĤ
ĠÑģÑĤÑĢ ÑĸÐ»
ĠÑģÐ»ÑĸÐ´ ÑĩÐ¸Ð¹
ĠÐ±ÑĥÐ´ ÑĸÐ²
Ñģ ÐµÑĢÐ´
ĠÐ² ÑĤÐ¾Ð¼
Ð¾Ð² Ð³Ð¾
ĠÑĢ ÐµÐ¼
ÑĩÐ¸ ÑĤÐµ
ĠÑĨ ÑĸÐ»Ð¸
ĠÐ¿ÑĢÐ¸ ÑģÑĤ
ĠÐŁ Ð¾Ð¼
ĠÑĪ ÑĤÐ°Ð½
ÑĩÐµ Ð½Ð¸Ñħ
ĠÑīÐµ Ð´
ĠÐ·Ð°Ð¿ Ð»Ð°Ðº
ĠÐ¿Ð¾Ð» Ñĥ
ĠÐ¼Ñĥ ÑģÐ¸Ð²
ĠÐ¿Ð¾Ð³ Ð°Ñģ
Ð¼Ð¾Ð² ÑĸÑĢ
ĠÑĤÐµÐ¼ Ð½Ñĸ
Ð§ ÑĸÐ¿
ĠÑģÐºÑĢÐ¸ ÐºÐ½ÑĥÐ²
ÐºÑģ Ð°Ð½Ð´
ĠÐĿÐ°ÑĤ Ð°Ð»ÐºÐ°
ĠÐ¡Ð¾Ðº Ð¾Ð»Ñİ
ĠÐ²ÑĸÐ·Ð¸ ÑĢÐ°
Ðµ Ð»Ñİ
Ð² Ð°Ð»Ð°ÑģÑı
ĠÐ± ÑĸÐ¶
ÐµÑĢ Ð·
ĠÐº Ð»Ð°
Ð°Ð½ Ð¸Ð¼
ĠÐ½Ð° ÑĪÐ°
Ð¾Ð· Ð½Ð°
ĠÑģÐ² Ð¾Ð±
ĠÑģÐ¿ Ð¾Ñģ
Ð´Ðµ ÑģÑı
ÑĸÑĩ Ð½Ð¾
ĠÐºÐ¾Ð» ÑĮ
ĠÐ·Ð°Ðº ÑĢÐ¸Ð²
ĠÐ¥ÑĢÐ¸ ÑģÑĤÑİ
ĠÐ²Ñĸ ÑĩÑĸ
ĠÑĪÐ»Ñı ÑħÑĥ
ĠÐ±Ð»Ð¸Ð·ÑĮ ÐºÐ¾
ĠÐ² Ð°ÑĤ
ĠÑģ Ð¸Ð¼
Ñĩ Ð½Ðµ
ĠÐ¼ Ð°Ð½
ÑĩÐ¸ Ð½Ñĸ
ĠÐľ Ð°Ñħ
ĠÐ¿ÐµÑĢÐµ Ð»ÑıÐº
ĠÑĢÑĥ ÑĹ
ĠÑĤÑĸ Ð½Ñĸ
ĠÑĢÐ¾Ð± Ð¸Ð²
ĠÐ±ÑĢ Ð¾Ð²Ð¸
ĠÑĩÐ¾ÑĢ Ð½Ð¸Ð¹
ĠÐ³Ð°ÑĢ Ð½Ð¾
ĠÐ·Ð³ Ð¾ÑĢ
ÑħÐ¾Ð´ ÑıÑĤÑĮ
ĠÐ¿Ð¾Ð²ÑĸÑĤ ÑĢÑĸ
ĠÑĨÐ¸ Ð³Ð°ÑĢ
ĠÐ°Ð» Ð»Ð°Ñħ
Ġ 2
ĠÐ½Ð° ÑĪÐ¾Ð³Ð¾
Ð· Ð»ÑıÑĢ
Ð¾ÑĢ Ð¾ÑĪ
ĠÑĩ ÑĸÐ¿
ĠÑģÑĤ ÑĢÐ¸Ð¼
ÑĸÐ¹ ÐºÐ°
ÐºÑĥ Ð´Ð¸
ĠÐĲ Ð·
ĠÐĶ ÑĥÐ¼
Ð±Ð¸ ÑĤÐ¸
ĠÑĸÐ½ Ð°Ðº
Ð¢ Ð¾
ĠÐ²Ð¸Ð´ Ð°Ð²
ĠÐºÐ¾Ð¶ Ð½Ð¾Ð¼Ñĥ
ĠÐ½Ð¸ Ð·
ĠÐ¿Ð»Ð° Ñĩ
ĠÐ³ÑĸÑĢ ÐºÐ¾
ĠÐ´Ð¸ÑĤÐ¸ Ð½Ð°
ĠÑīÐ¾Ð´ Ð½Ñı
ĠÐ¿Ð¾Ð¼ÑĸÑĤÐ¸ Ð²
ÑĢ Ð¾Ðº
ĠÐ²Ð¸ Ð½Ð¾
ĠÑģÐ² ÑĸÐ´Ð¾Ð¼
ĠÐĿ Ð°ÑĢÐµÑĪÑĤÑĸ
ĠÐľ Ð¾Ð¶
ĠÐ»Ñİ Ð»ÑĮ
ĠÐ´Ñĥ Ð±
ĠÐ±Ð¾ ÑıÐ²ÑģÑı
ĠÑģÑĤÐ°ÑĢ ÑĪÐ¸
Ðŀ ÑĤ
ĠÐ³Ð¾Ð»Ð¾Ñģ Ð½Ð¾
ÑĥÐ²Ð°Ð»Ð° ÑģÑĮ
ĠÐ¿Ð¸ ÑģÑĮ
ĠÑģÑĤÑĢ Ð°Ð¶
ĠÑģÑĤÐ¾ÑĢ Ð¾Ð¶
ĠÐ²ÑĸÐ´Ð¿ Ð¾Ð²Ñĸ
Ðº Ð°Ð½Ð½Ñı
ĠÐ² ÑĢÑı
ĠÐ² Ð±Ð¸Ð²
Ð´ ÑĸÐ²
Ð°Ð» Ð¾Ð¼
Ð»Ð¸ Ð¿
Ð½Ð¸ ÑĨÐµÑİ
Ð½Ñĸ ÑĪÐ¸Ð¹
ĠÑĥ Ð»ÑİÐ±
Ð°Ð¹ Ð½Ð¾
Ð°Ð¿ Ð¸
Ð²Ð¸ Ð½
Ð»Ñĥ Ð¶
ÑĤÑı ÑĤÑĮ
ĠÐ¼Ð¸ Ð½Ñĥ
ĠÐ±ÑĥÐ² Ð°ÑĶ
ĠÐ´ÑĥÐ¼ Ð°ÑĶ
ĠÑĩÐµÑĢ Ð³
ĠÐ½Ð°ÑĢ Ð¾Ð´Ð¶
ĠÐ¿Ð»Ðµ ÑĩÐµ
ÑİÐ² Ð°ÑĤÐ¸
ÑĥÐ½ Ð¾Ðº
ĠÐ½ ÑĥÐ´ÑĮ
ĠÐ´ Ð°ÑĶ
Ð¾Ð» Ðµ
ÑĸÐ» Ðµ
ĠÐ·Ð° ÑĤÐµ
ĠÐŁ Ð°ÑĢ
ĠÐ¿Ð¾Ð» Ñİ
ÐºÐ¾Ð² Ðµ
Ð»Ð¸Ð²Ð¾ ÑģÑĤÑĸ
ĠÐºÐ°ÑĢ Ð±
ĠÑıÐºÐµ ÑģÑĮ
ĠÐ½Ð°ÑĩÐ°Ð»ÑĮ Ð½Ð¸Ðº
ĠÑĤÐµÐ¼ÑĢÑıÐ² Ñĸ
ĠÐŁÑĢÐ¾ÑĨÐµÐ½ ÐºÐ¾
ĠÐ´ ÑĸÐ¼
ĠÐº Ð°Ð»
ĠÑĸ ÑĢ
Ð½Ñĸ ÑĪÑĸ
ĠÐ¿Ð¾ ÑħÐ¾Ð´
ĠÐ¶ Ð¸Ð»Ð¸
Ð¸Ð¼ Ð¸ÑĢ
ĠÐ¿ÑĢÐ¸ ÑĤÑĥ
ĠÐ¡ Ð°Ð²
ĠÐ¿Ð¾Ð² Ð¾Ð»Ñĸ
Ð¸ÑĤÐ¸ Ð¹
ĠÐ²ÐµÐ»Ð¸ ÐºÑĥ
ĠÐ´ÑĢÑĥÐ³ Ñĥ
ĠÐ¿Ðµ Ðº
ÑħÐ¾Ð´Ð¸ Ð»Ð¾
ĠÐ½Ð¾Ð² Ð¾Ð³Ð¾
ĠÐ·Ð³Ð°Ð´ Ð°Ð²
ĠÑĥÑģÑĸÐ¼ Ð°
ĠÑģ Ð¾Ðº
ĠÐ· Ð»Ñĸ
ÑĢÐ¸ ÑģÑĤ
ĠÐ³ Ð°Ð½
ĠÑĥ ÑĢÐ¾ÑĩÐ¸
ÑĸÐ² Ð½Ð°
ĠÑĩ Ð°Ð¹
ĠÑħ Ð°Ð»
Ð»Ñı ÑİÑĤÑĮ
ĠÐ·Ð° ÑģÑĤÑĥÐ¿
ÐºÐ¾ Ñħ
ĠÐĲ ÑħÐ¼Ðµ
ĠÐ²ÑĸÐ´ Ñģ
Ð¾ÑĤ ÑĸÐ»Ð¸
ĠÑģÐ¿ ÑĸÐ´
ĠÐ¾Ð± ÐµÑĢÑĤ
ĠÐ·Ð½Ð° ÑİÑĤÑĮ
ĠÐ´Ð¾Ð² ÑĸÐ´
ÑĥÐ²Ð°Ð»Ð¸ ÑģÑĮ
ĠÐ¼Ð¾ÑĢ Ð¾Ð·
ĠÐ¼Ð°ÑĶ ÑĪ
ĠÐ²Ð¾Ð³ Ð½ÐµÐ¼
ĠÑĥÐ· ÑıÐ²
ĠÐ·ÑĢÐ¾Ð·ÑĥÐ¼ ÑĸÐ²
ĠÐ¯Ð²ÑĤÑĥ ÑĪÐ¾Ðº
ÑĨÑĤ Ð²Ð¾
ĠÑĨÐµÑĢÐº Ð²Ð¸
Ð° ÑĩÑĸ
ÑĢ Ð°Ð¼Ð¸
Ðº ÑĸÑĤ
ĠÐ² Ð°Ð¼Ð¸
ĠÐ½ Ð°Ð»Ð¸Ð²
ÑĪ ÐºÐ¾Ð¼
Ð· Ð²Ð¸ÑĩÐ°Ð¹
ĠÑı ÑģÐºÑĢÐ°Ð²
ĠÐ²ÑĸÐ´ ÑĢÐ°Ð·Ñĥ
ĠÐŁ Ð¾Ð¿
ĠÐ¾Ð± Ð´
ĠÐĶ Ð°Ð½ÑĮ
ĠÐĶ Ð½ÑĸÐ¿
ĠÐĵ Ð¾Ð»
ĠÐĽ Ðµ
ĠÐ¿Ð¾Ð¿ ÑĢÐ¾Ñģ
ĠÑĤÐ² Ð¾ÑĢ
ĠÐĶÐµ ÑģÑĮ
ĠÐ½Ð°Ð²Ñĸ ÑīÐ¾
Ð¸ Ð¿
ĠÐ² Ð¾Ð´Ñĸ
ĠÑģ Ð»ÑĸÐ·
ĠÐ· Ñĥ
Ñĩ Ð½Ð¸Ñħ
ĠÐº Ð¾ÑĤÐ¸
Ð³ ÑĸÑĢ
ĠÑģÑĤ ÑĥÐ´
ĠÑĨ Ð²ÑĸÑĤ
ĠÑģÐ¿ Ð°Ð²
ĠÑģÐ¿ ÑĥÑģÑĤÐ¸
ĠÐ²Ñģ Ð¼ÑĸÑħ
ĠÑģÐº Ð°ÑĢ
ĠÐ³Ð¾ÑĢ Ñĸ
ĠÐ¿Ð¾Ð» ÑĮ
ĠÐ´ÑĥÐ¼ Ð°Ñİ
ĠÐ½Ð°Ð¹ Ð¼ÐµÐ½
ĠÐ¿ÐµÑĢ ÑĪÐ¾Ð³Ð¾
ĠÑĤÑĢÐµ ÑĤÑĸÐ¹
ĠÐ²ÐµÑĢ Ð±
ĠÐ³ÑĢÑĸ Ð·
ĠÑĢÐ¾Ð·Ð³ Ð»ÑıÐ´
ÑĸÑĢÑĥ Ð½ÑĮ
ĠÐ½Ð°Ð¿ÐµÐ² Ð½Ð¾
ÑĤ ÑĥÐ²Ð°Ð²
Ñĩ Ð½Ð°
ÐµÐ½ ÐºÐ¾
ĠÐ²Ð¸ ÑģÑĤÐ°Ð²
ĠÐĴ Ð¾Ð½Ð¾
ĠÐ¢ Ð¸Ñħ
ĠÑĤÐ°Ðº Ð¾Ð¼Ñĥ
ÑĢÑĥ Ð±
ĠÐ¼Ñĸ ÑģÑĤ
ÑĤÑĥ ÑĶ
ĠÑĤÑĸ ÑĶÑİ
ĠÐ¿ÐµÑĢ ÑĪÐµ
ĠÐ´ÑĢÑĥÐ³ Ðµ
Ð»ÐµÐ½ Ð¾Ð³Ð¾
ÐºÐ¾Ð² Ð¾Ð³Ð¾
ĠÐ½ÐµÐ¿ Ð¾Ð¼
ĠÐľÐ°ÐºÑģÐ¸Ð¼ Ð¾Ð²Ñĸ
ĠÑģÑĤÑĢ Ð°ÑħÑĥ
ĠÑĥÑģ Ñİ
ĠÐ²ÑĸÐ´Ñĩ ÑĥÐ²Ð°Ð²
ĠÑģÑĥÐ¿ ÑĢÐ¾Ð²
ĠÐºÐ¾Ð·Ð° ÑĨÑĮ
ĠÐ½ÐµÐ´Ð°Ð² Ð½Ð¾
ĠÐŀÑĢÐ¸ ÑĪÐºÐ°
Ñħ ÑĸÐ´
ÑĪ Ð°Ð²
Ð¿ ÐµÑĤ
ĠÐ¹ Ð´ÑĥÑĤÑĮ
Ð¾Ð´ ÑĮ
Ð¾Ðº Ð¾
ĠÐ·Ð° ÑĤÑĥ
ĠÐ¢ Ð²Ð°ÑĢÐ´Ð¾Ð²
ĠÐ¡ ÐºÐ°Ð·
ĠÑĪ ÐºÑĸ
Ð¾Ñĩ ÑĨÑĸ
ĠÐ½Ð°Ð´ ÑĸÑĹ
ĠÐĽ ÑĥÑĪÐ½Ñı
ÐŁ ÑĸÐ´
Ð¢ Ð¸
ĠÐ¿Ð¾Ð¿ ÐµÑĢÐµÐ´Ñĥ
ĠÑĢÐ°Ð´ Ð¾ÑģÑĤÑĸ
ĠÐ±Ð»Ð¸ Ð¶ÑĩÐµ
ĠÐľÐ¸ ÐºÐ¾Ð»
ĠÐ½Ð¸ Ð·ÑĮ
ĠÐ»ÑİÐ± Ð¾Ð²Ñĸ
ĠÐ»Ð¸Ñħ Ð°
ÑĹÑħ Ð°Ð»Ð¸
ĠÐ¿Ð¾ÐºÐ°Ð· Ð°Ð²
ĠÐ´Ñĸ ÑģÑĤÐ°Ð²
ÑĤ Ð¾Ðº
Ð² Ð¾Ñħ
Ñĩ ÐºÐ¾Ñİ
Ð»Ð¸ Ð½Ð°
ĠÑĥ ÑģÑı
ĠÑĨ ÑĸÐ¼
ĠÐĴ Ð°ÑĢ
Ð°Ð³ Ð°ÑĤÐ¾
ĠÐŁ Ð¾Ðº
ĠÑĢÐ¾Ð· ÐºÑĸ
ĠÐ¿ÑĢÐ¾ ÑĪÐµÐ¿
Ð°Ð¶ Ñĥ
ĠÐ¿Ð¾Ð² ÑĸÐ»ÑĮÐ½Ð¾
ĠÐĿÐµ Ð²Ð¶Ðµ
Ð²Ñĸ ÑģÑĤ
ĠÐ¼Ñĥ Ð¶
ĠÐ·Ð± ÑĥÐ´
ĠÑģÐ¾Ð± Ð¾ÑĢÑĥ
ĠÐ»ÑİÐ´ ÑģÑĮÐºÐ¾Ð³Ð¾
ĠÑĨÑĸÐ» Ñĸ
ĠÐ±Ð» Ð°Ðº
ĠÐ²Ð¾Ð´ Ð½Ð¾ÑĩÐ°Ñģ
ĠÑħÐ¾Ð´Ð¸ ÑĤÑĮ
ĠÑĤÐ¸ÑģÑı ÑĩÑĸ
ĠÐºÐ² Ð°Ð¿
ĠÐ¿Ð¾Ð½Ñĥ ÑĢÐ¾
Ð§ÑĸÐ¿ ÐºÐ°
Ñı Ð½Ð°
Ñı ÑĤÑĥ
Ð³ Ðµ
Ð³ Ð°Ð²
Ð³ Ð¾Ð´Ð¸
ĠÐ¿ÑĢÐ¸ Ð²Ðµ
ĠÑģÐ¿ Ð¾ÑģÑĤ
ÑĢÑĸ Ð¿
ĠÐ¿ÐµÑĢÐµ ÑģÑĤÑĥÐ¿
ĠÑģÐ¸ Ð»Ð¾Ñİ
ĠÐ§ Ð°Ñģ
Ð±Ð° Ñĩ
Ð½Ð¸Ðº Ð°Ð¼Ð¸
ÐŁ Ð¾
ĠÑģÑĥÐ»ÑĤÐ°Ð½ ÑĪÑĸ
Ð¾ÑĢÑĥ ÑĪ
ĠÐ·Ð³ Ð¾Ð´Ð¾Ð¼
ĠÐ²Ð¾Ð» Ñı
ĠÑħÐ²Ð¸ Ð»Ñİ
ÑģÑĤÑĢ ÑĸÐ»
ĠÐ²Ð¸Ð¹ ÑĪÐ»Ð¸
ĠÐ´Ð¾Ð» Ñĸ
ĠÑĥÐ¿ ÑĢÐ°Ð²
ĠÑģÑĤÐ¸ Ñģ
ĠÐ¿Ð¸Ñģ Ð°Ð²
ĠÑĢÐ¾Ð·Ð¼ Ð¾Ð²Ñĥ
ĠÐ· Ð¾
ÑĢÐ¸ Ð¼Ð¸
Ð½Ð¸ ÐºÑĥ
ĠÑĥ Ð¼Ð¾Ð²
Ð°Ðº ÑĤ
ĠÐ¿Ð¾ ÑĤÐ¸
ĠÐ¿ÑĢÐ¸ ÑħÐ¸
Ð¶Ðµ Ð½Ñĸ
ĠÑĪ Ð°Ð½
ĠÐ¿ÐµÑĢÐµ ÑĤ
ĠÐĵ Ð»Ñı
ÐµÐ½ÑĮ ÐºÑĸ
ĠÐ¿Ð¾Ðº ÑĸÑĢ
ĠÐ´ÑĸÐ² ÑĩÐ¸Ð½Ñĥ
Ð¾Ð½Ñĸ ÑĦÐ°
Ð¾Ð²Ð°Ð½ Ð¸Ñħ
ĠÐ¡Ðº ÑĸÐ»ÑĮÐºÐ¸
ĠÐ½Ð¾Ð³ Ð°Ñħ
ĠÐ¿ÑĸÐ´Ð¿ Ð¸Ñģ
ĠÑĥÐ³ Ð¾ÑĢÑĥ
ĠÐ¼ÑĸÑĨ Ð½Ð¾
ĠÐ±ÑĸÐ»Ð¸ Ñħ
ĠÐ² ÑģÑĤÑĥÐ¿
ĠÐ¿ Ð°ÑĤ
Ð´ ÑĮ
ĠÑģ ÐºÑĥ
ĠÑĢ Ð¾ÑĤ
ÑģÑĮ ÐºÐ¸
ĠÐ¾ ÑĤÐ¾
ÑĥÐ² Ð°Ð»Ð¾ÑģÑı
ĠÑĥ ÑģÑĤÐ°
ĠÐ¿ÑĢÐ¸ ÑĢ
ĠÑģÐ°Ð¼ ÑĸÐ¹
ÐŁ ÑĸÑģÐ»Ñı
ĠÐ¿Ð¾Ð» Ð¾ÑĤ
ĠÑĢÐ¾Ð± Ð¾ÑĤÐ°
ĠÐ²Ñĥ Ð·
ĠÐ±ÑĥÐ´Ðµ ÑĪ
ĠÐ½Ð°Ð¼ ÑĸÑĢ
ĠÑħÐ²Ð¸ Ð»Ð¸Ð½
ĠÐ¿Ð°Ð»ÑĮ ÑĨÐµÐ¼
Ð© Ðµ
ĠÐ²Ð¸Ð¼ Ð°Ð³
ĠÐ°Ð² ÑĤÐ¾Ð¼
ĠÑħÐ²Ð¸Ð»Ð¸ Ð½Ð¸
ĠÑĤÐ°ÑĤ Ð°ÑĢ
ĠÐŀÐ»Ðµ ÐºÑģÐ°Ð½Ð´
Ð¾ ÑģÑĤÑı
Ð´ ÐµÐ½
ĠÐ½Ðµ Ð¹
ĠÐ¾ Ð³Ð¾ÑĢ
Ð¸Ð² Ð»Ñı
ĠÐ²Ð¸ ÑĢÐ°Ð·
ĠÐ²Ð¸ Ð±Ð¸ÑĢ
Ñī Ð°Ð»Ð¸
Ð¸ÑĤ ÑĤÑı
ĠÐļ Ñĥ
ĠÐ¿Ð¾Ð² ÑĤÐ¾ÑĢ
Ð°Ð»ÑĮ Ð½Ð¾Ð³Ð¾
ĠÐ§ Ñĥ
ĠÑĸÐ½ ÑĪÐ¸Ð¼
ĠÐ½Ð°Ð¹ Ð¼Ð¸
ĠÑĢÐ¾Ð± ÑĸÑĤ
ĠÐ´Ð¾Ð» Ð¾Ð½Ñĸ
ĠÑģÐ¸Ð´Ñĸ ÑĤÐ¸
ĠÑĩÐ° ÑģÑĤ
ĠÐ¼Ð¾ÑĹ Ñħ
Ñģ Ð¾Ð¼
Ð¾Ð³ Ð»ÑıÐ´
ĠÐ½Ðµ Ð½Ð°ÑĩÐµ
Ð°Ð½ Ð¾Ñİ
Ð¾Ð´ Ð¸Ð²ÑģÑı
ĠÐ³ Ð¾Ð½
ÑĥÐ² ÑģÑı
Ð°ÑĢ Ð½Ñĸ
Ð»Ðµ Ð¼
ĠÑĪ ÐµÐ»Ðµ
ĠÐ¿ÐµÑĢÐµ Ð³
ĠÑģÐ¸ Ð»
ÑĦ Ñĥ
ÑĢÑı Ð¼
ĠÑĤÑĥ ÑĢÐµÑĨÑĮ
Ð»ÐµÐ½ Ñĥ
ĠÐ²Ð· ÑıÑĤÐ¸
ĠÐ¿Ð¾Ð²ÐµÑĢ Ñħ
ĠÐ¿Ð»Ðµ ÑĩÐ¸Ð¼Ð°
Ð¥ ÑĤÐ¾
ĠÐ²ÑĸÐ¹ ÑģÑĮÐºÐ¾
ĠÑĤÑĢÑĥ Ð´
ÐµÐ³ Ð¾ÑĤ
ĠÐ²Ð»Ð°Ð´ Ð¸
ĠÐ¼Ð¸Ð¼ Ð¾Ð²
Ð» Ð°Ð·
Ð» ÑĥÑĤ
ĠÐ² ÑĤÑĢÐ°
ĠÑģ Ð½Ð¸
ĠÐ¼ Ð¾Ð·
Ð»Ð¸ Ð¼Ð¸
Ð»Ð¸ ÑĨÑİ
ĠÑī Ð¾Ð¹Ð½Ð¾
ĠÐ³ Ð°
ĠÑĩ ÐµÑģ
ÐºÑĥ ÑİÑĩÐ¸
ĠÐĴ ÑĸÑĢÑĥÐ½ÑĮ
Ð´Ð¸ Ð¹
ĠÐ¡ ÑĤÐ¾
ĠÐ¡ ÐµÐ²
ĠÑĪ Ð¿
ĠÐ¿ÑĢÐ¾ ÑĦÐµÑģ
ĠÑģÐº Ð°ÑĢÐ±
ĠÐĵ Ð°ÑĢ
ĠÐ½Ð°Ð´ Ð·Ð²Ð¸ÑĩÐ°Ð¹
ĠÐ¿Ð¾Ñĩ ÑĥÐ²Ð°Ð²
ĠÐ²ÐµÐ»Ð¸ ÐºÐµ
ĠÐ½Ð°Ð¹ ÐºÑĢÐ°
ĠÐ³ÑĢÑĥ Ð´ÐµÐ¹
ĠÐ½Ð¸ Ð½Ñĸ
ĠÑģÑĤÐ¸ Ñħ
ĠÑģÑı Ð¹
ĠÐºÑĸÐ¼Ð½Ð° ÑĤÑĸ
.... ....
ĠÑģÐ¿ÐµÑĢ ÑĪÑĥ
ĠÐ¿ÑĢÑı Ð¼Ð¾
Ð¸ Ð³
ÑĢ Ñİ
Ðº Ð½ÑĥÐ²ÑģÑı
ĠÐ¿ ÑĸÑĩ
ĠÐº ÑĢÑĥÐ¶
Ð°Ð½ ÑĨÑĸ
Ð¾ÑĢ ÑıÐ´
Ð¶ Ð½Ð¾
ĠÑĥ ÑĤ
ÑĸÐ½ ÐºÐ°
ĠÑħ Ð²Ð¾ÑĢ
ĠÑģÑĤ Ð¾Ð»Ñĸ
ĠÐ¶ Ð°Ð»Ñİ
ÐºÑĥ ÑĶ
Ð½Ñı ÑĤ
Ð½Ñı Ð¼Ð¸
ĠÑģÐ² ÑıÑĤÐ¸
Ð½Ðµ ÑĨÑĮ
ĠÐ¿ÑĸÐ´ Ð½ÑıÐ²
Ð²Ð¸ ÑīÐµ
ĠÐļ Ð½Ð¸
ĠÑģÑĥ Ðº
ĠÐ¿ÐµÑĢ ÐµÑĢ
ĠÑģÑĤÐ°ÑĢ Ñĸ
ĠÑģÐ¿ÑĢÐ°Ð² Ð¸
ĠÐ¯Ðº Ð±Ð¸
ĠÐ¶Ð¸Ð² Ð¸Ð¹
ĠÑħÐ¾ÑĤ ÑĸÐ»Ð¸
ĠÐ¼Ð¾Ð²Ñĩ Ð°Ð»Ð°
ĠÐ·Ð°Ð» Ð¸Ð²
ĠÑĤÑĢÐ¸Ð¼ Ð°Ð²
ĠÑĤÑĢÐ°Ð² Ð¸
ĠÑħÐ°Ð·ÑıÑĹ Ð½
ĠÐłÑĥÑģÑĤ ÐµÐ¼
ĠÑĸÐ½Ð°Ðº ÑĪÐµ
Ð´ ÑĨÑı
Ð¼ Ð¾Ð¼
Ð°Ð¼ Ð°
Ð°Ð¼ Ð°Ð½
ÑĥÐ² Ð°Ð¶
ÑĩÐ¸ Ð¼Ð¸
ĠÐ²Ð¸ Ð·Ð½Ð°
ĠÐŁ Ð°Ð»
ĠÐŁ ÑĸÑģ
ĠÐŁ Ð¾ÑģÑĤ
ĠÐĿ ÑĸÐº
ĠÑģÐº ÑĢÑĸÐ·ÑĮ
ĠÐĹ Ð°ÑĢ
ĠÐ¥ Ð¾Ð´
ÑĥÐ²Ð°ÑĤÐ¸ ÑģÑĮ
ĠÑģÑĥÐ»ÑĤÐ°Ð½ ÑģÑĮÐºÐ¾Ð³Ð¾
ÐµÐ½Ð½Ñı Ð¼
ĠÐ½Ð°Ð¿ ÑĢÑĥÐ¶
ĠÐºÑĢÐ¸ Ð»Ð°
ĠÐ½Ð°Ñģ ÑĥÐ¿
ÐĶ Ðµ
ĠÐ´Ð°Ð² Ð°Ð¹
ĠÐ²ÑĸÐ¹ ÑģÑĮÐºÐ°
ĠÐ¼ÐµÑĤ Ð°Ð»
ĠÐ½Ð°Ð¼Ð°Ð³ Ð°Ð²ÑģÑı
ĠÐ¿Ð¾ÑģÐ¼ÑĸÑħ Ð½ÑĥÐ²ÑģÑı
ĠÐĴÐ° ÑĪÐ°
ĠÐĵÑĢ ÑĸÑĤÑĸ
Ðº Ð½ÑĥÑĤÐ¸
ĠÐ½ Ð¾Ð³Ñĥ
ĠÐ· Ð·
ĠÐº Ð»Ð°Ð´
ĠÐº Ð°ÑĪ
ĠÑĢ Ð¾Ð¶Ðµ
ÑĨ ÐµÑĢ
ĠÐ²Ð¸ Ð±ÑĢ
ĠÐ¿ÑĢÐ¸ Ð¼Ñĥ
ĠÐ¿ÑĢÐ¸ Ð½ÐµÑģ
ĠÐ¾Ð± Ð¾Ð²
Ð°Ð¶ Ðµ
ĠÐĶ ÑĸÐ²
ĠÐĹ Ð²ÑĸÐ´
ĠÐĳ Ð¾Ð½ÑĸÑĦÐ°
ĠÐ¿Ñĸ ÑĤÐ¸
ĠÑĢÐ°Ð´ ÑĸÑģÐ½Ð¾
ĠÐ¿Ð°ÑĢ Ð°
ĠÐ¿Ð°ÑĢ Ñĥ
ĠÐ²ÐµÑĢ Ñħ
ĠÐ²Ð¾Ð³ Ð½Ñİ
ĠÑģÐ»ÑĥÑħ Ð°ÑĤÐ¸
ĠÑĥÐ´ Ð°ÑĢÐ¸
ĠÐ½ÑĸÑı ÐºÐ¸Ñħ
ĠÑģÐ¿Ð¸ Ð½Ñĥ
ĠÐ´Ð¸Ð¼ Ñĥ
ĠÐ¿ÑĢÐ¾Ð¹ ÑĪÐ¾Ð²
ĠÑģÐ»Ð¾Ð² Ð¾Ð¼
ĠÐ³Ð¾Ð¼ ÑĸÐ½
ĠÐ½ÐµÑģÐ°Ð¼Ð¾Ð² Ð¸ÑĤÐ¾
ĠÐĶÐ¾Ð²Ð± Ð½Ñı
Ðº Ð¾Ð²Ð°
Ð´ ÐµÐ¼Ð¾
ĠÐ´ Ð¾Ð»Ñİ
ĠÐº Ð¸Ð²
ÐµÐ½ Ð¾Ñİ
ĠÐ» Ð¾Ð¿
ĠÐ° Ð´
ĠÐ½Ñĸ ÑīÐ¾
Ñī Ð¸Ð¹
ĠÐĿ Ð°Ñģ
ÑĢÑĸ ÑģÑĤÑĮ
ÑĨÑı Ð¼
ĠÐ±ÐµÐ· Ð¶
ĠÐ·Ð°Ð¿ ÐµÑĢÐµ
ĠÑģÐ» Ð°Ð±
ĠÐ²ÐµÐ»Ð¸ ÐºÐ¾ÑĹ
ĠÐºÑĢÐ¸ ÑĩÐ°Ð²
Ðŀ ÑģÑĮ
ĠÐ²Ð¾ÑĢ Ð¾Ð³Ð°
ĠÐĵÑĢÐ¸ Ð³Ð¾ÑĢÑĸ
?! .
ĠÐ¿ÑĸÐ² Ð½Ñĸ
ĠÐ·Ð´Ð°Ð² Ð°Ð»Ð¾ÑģÑĮ
ĠÐ·Ð¼Ñĸ Ð½Ð¸
ĠÑĢÐ¾Ð·Ð¼ Ð¾Ð²Ð¸
ĠÐ¿Ð°Ð¿ ÑĸÑĢ
ĠÑıÑĢ Ð¼Ð°ÑĢ
ÑĢ Ð°Ð¹
ĠÐ½ ÑĸÐ´Ðµ
ÑĪ Ð»Ð¾ÑģÑı
Ð°Ð» ÑĸÐ²
ÑĤÐ¸ Ðº
ĠÐ± ÑĸÐ»Ð¸Ð¹
Ð¾Ð³ ÑĥÑĤ
ĠÐ» ÑĮ
ĠÐ¿Ð¾ ÑģÑĤÑĥÐ¿
ĠÐĴ Ð°Ñģ
ĠÑĢÐ¾Ð· Ð³Ð¾ÑĢ
ĠÐĿ Ð°Ð¿
Ð¸ÑĤ Ð°Ð²
ÑĪÐµ Ð²
ĠÐĨ Ð²Ð°Ð½Ð°
ĠÐ²ÐµÐ»Ð¸ ÐºÐ¸Ð¼
ĠÐ¿Ð¾ÑĢ Ð¾Ñħ
ĠÐ¢Ð¸ ÑĩÐ¸Ð½Ð¸
ĠÐ²ÑĸÐ¹ Ð½Ð¸
ĠÐºÐ¾ÑĤ ÑĢÑĸ
ĠÐ·Ð°Ð»Ð¸ ÑĪÐ¸
ĠÐ¿ÑĢÐ° ÑĨÑĸ
ĠÐ·ÑĥÐ± Ð°Ð¼Ð¸
Ð°Ð±Ð¸ÑĢ Ð»Ð¸
Ð» ÑĸÐ½Ð½Ñı
Ñı ÑĢ
ĠÐ² Ð¿ÐµÑĢ
Ð°Ð» ÑĸÐ·
ĠÐ³ ÐµÐ½Ñĸ
ĠÐ¿ÑĢÐ¸ ÑĹ
ĠÐ¡ Ð¸Ð´
Ð°Ñģ Ðµ
ĠÑģÐ²ÑĸÑĤ Ð»Ð°
ĠÐĿÐµ ÑħÐ°Ð¹
ÑĢÑı Ð·
ĠÐ·Ð°ÑĢ ÐµÐ³Ð¾ÑĤ
ĠÐ³ÑĢ Ð°Ð±
ĠÐ±Ð¾ÑĢ Ð¾ÑĤÑĮ
ĠÑĤÐ¾ÑĢ Ð³
Ð°ÑģÐ¸ Ð±Ñĸ
ĠÑĪÑĥ ÐºÐ°ÑĤÐ¸
ĠÐ½ÐµÐ± ÐµÐ·
ĠÑģÐ²Ñı ÑĤÐ¾
ĠÐ·Ð²Ð¸ÑĩÐ°Ð¹ Ð½Ð¾
ÑĨÑĤ Ð²Ð°
ĠÐ³Ð°ÑĢÐµÐ¼ Ñĥ
ĠÑĢÑı ÑĤÑĥ
ĠÐ½Ð°Ð³Ð»ÑıÐ´ Ð°Ñĩ
ĠÐ½ÐµÐ¹ Ð¼Ð¾Ð²ÑĸÑĢ
Ðµ ÑĤÐ¸
Ð² ÐµÑĢÑĤ
ĠÑĤ Ð°Ð¹
ÑĪ Ð¸Ð¼Ð¸
Ð± Ð°Ð³
Ð± ÑĥÑĢ
ĠÐ¼ ÐµÑĢÐµÑħ
Ð¾Ð´ Ð¾Ð±
Ð¾Ð´ ÑıÑĩÐ¸
ĠÑī ÐµÐ·
ĠÐ¿ÑĢ Ð¾Ð½Ð¸
ĠÐĲ Ð±Ð¾
ĠÐľ Ð°Ð½
Ð°Ð± ÑĢÐ¸
ĠÐĶ Ð¶Ñĥ
ĠÑģÐ¸ Ð¿
ĠÐ·Ð² ÑĸÐ»ÑĮ
ĠÐ·Ð² ÐµÑĢÑĤ
ĠÐ·Ð´ ÑĸÐ¹Ð¼
Ð¼Ðµ Ð»ÑĮ
Ð¥ Ð»Ð¾Ð¿
ĠÐ½ÑĸÑı ÐºÐ¾Ð³Ð¾
ĠÐ´Ð¾Ð±ÑĢ Ð¾Ð³Ð¾
Ð¸ Ð½Ñĸ
ÑĤ Ð¾ÑĹ
Ð½Ñĸ Ð»Ð¾
ÑĩÐ¸ Ñģ
ĠÐ° Ðº
ĠÑıÐº ÑĢÐ°Ð·
ĠÐ´Ð¾ ÑĩÐºÐ°
ĠÐ²ÑĸÐ´ Ð¾Ð¼
ĠÐĿ ÐµÐ¼Ð°
ĠÐĹ Ð°Ðº
ĠÐ·Ð½ Ð°Ð¼
ĠÐ¿Ð¾Ðº ÑĢÐ¸
ĠÐ·Ð´ Ð¾Ð±
ĠÐ¿Ð¾Ñģ Ñĥ
ÑĸÑĤÑĮ Ð¼Ð¸
ĠÐ¿ÑĢÐ¸Ð¹ ÑĪÐ»Ð¸
ĠÑģÐ¾Ð± Ð°ÐºÐ¸
ĠÐ¿ÑĢÐ°Ð² Ð´Ñĥ
ĠÐ¾Ð±Ð»Ð¸Ñĩ ÑĩÑĸ
ĠÑħÐ²Ð¸ Ð»ÑİÐ²
ÑİÐ² Ð°Ð»Ð¸
ĠÐ½Ð¾Ð² Ð¸Ð¹
ĠÐ·Ð²ÑĸÐ´ ÑģÐ¸
ĠÐ¿ÑĢÐ¸Ñģ Ð»ÑĥÑħ
ĠÐ·Ð°Ð¹ ÑĪÐ¾Ð²
ĠÐ¾Ð³ Ð»Ñı
ĠÑģÐ»Ð¾Ð² Ð°Ð¼Ð¸
ĠÑĩÐµÑĢÐµ Ð²Ð¸
ĠÐ·ÑĥÐ¿Ð¸Ð½Ð¸ Ð²ÑģÑı
ĠÐ³ÑĢÐµ Ð±
ĠÑĢÐ°Ð½ Ð¾Ðº
ĠÑīÐ¸ ÑĢÐ¾
ÑĤ ÑĸÐ»Ð¾
Ðº ÑĩÐµÐ¼
ĠÐ² ÑħÐ¾Ð¿
ĠÐ± ÑĸÑģ
ĠÐ± Ð¸Ð»Ð¸
Ð¾Ð³ ÑĤÐ¸
ĠÐ¼ Ð¸ÑĤ
ĠÐº Ð»Ñİ
Ð»Ð¸ Ð½Ð¸
ÑĸÐ´ ÑĮ
ÑĸÐ´ Ð½Ð¸Ð¹
ĠÐ¾ ÐºÑĥ
ÑĶ ÑĢ
ĠÐ¿Ð¾ ÑĤÑĥ
Ð¾Ñģ Ñĸ
ÑĢÑĸ ÑĪ
Ð¾Ñĩ Ð°ÑĤÐºÑĥ
ĠÐ¾Ð± Ð¾Ñħ
ĠÑģÐ¸ ÑĢ
ĠÐ»Ð¸ ÑĨÐµÐ¼
ĠÐ·Ð² Ð°Ð»Ð¸
ĠÐºÑĥ Ð»Ð°Ðº
ĠÐ½Ð°Ð¿ ÐµÑĢÐµÐ´
ĠÐ²ÐµÑĢ ÑĪ
ĠÐ¿Ð¾Ð²ÐµÑĢ Ð½ÑĥÐ²
ĠÐ¼Ð¾Ð²Ñĩ Ð°Ð·
ĠÐ¿ÑĢÐ¸Ñģ ÑĥÑĤ
ĠÑĩÐµÑĢÐ²Ð¾Ð½ Ñĸ
ÑĩÐµÐ½ ÐºÐ¾
ĠÐ±Ð°Ð± Ð°
ĠÐ¿Ð¸Ñģ Ð°ÑĤÐ¸
ĠÐ·Ð°Ð¿Ð¸ÑĤ Ð°Ð½Ð½Ñı
ĠÐŁÑĢ Ð¾Ðº
ĠÑħÑĢÐµ ÑģÑĤÐ¸
ĠÐ¼Ð°ÑĪÐ¸ Ð½Ð¸
ĠÐ¼ÐµÐ½ ÑĪÐµ
ĠÐ¾Ð¿Ð¸Ð½Ð¸ Ð²ÑģÑı
ÐŁÐ¾ÑĤ ÑĸÐ¼
Ñĸ ÑīÐ¾
Ð² Ð¾ÑĢÑĸ
ĠÐ¿ Ð¸ÑĤÐ¸
Ð´ Ð°Ð»Ñĸ
Ñİ ÑĢ
ĠÐº Ð¾ÑģÑĤ
ĠÐ½Ðµ ÑħÐ°Ð¹
ĠÐ½Ð° ÑĤÐ¾Ð²
ĠÐ³ Ð¸
Ð°Ðº Ð¾Ð¼
ĠÐ¶ Ð¸
ĠÐ´Ð¾ ÑģÑıÐ³
Ð½Ñĥ Ð»Ð¾ÑģÑı
ĠÐŁ Ð¾ÐºÐ¸
ĠÑģÐ¿ Ñĥ
ĠÑĢÐ¾Ð· ÐºÐ¾
ÑĢÐ¾ ÑĶ
ĠÑĩÐ¸ ÑģÑĤ
ĠÐ²ÐµÐ»Ð¸ ÐºÐ¸Ñħ
ÐŁ ÑĢÐ¾
ĠÐºÐ¸ Ð·Ð»ÑıÑĢ
ĠÐ¿Ð¾Ð· Ð¸ÑĢ
ÑģÑĤÑĢ Ð¾Ð¼
ĠÐºÐ¾Ð¼ Ð¿
ĠÐ²Ð¸Ðº Ð»Ð¸Ðº
ĠÐ¿ÑĢÐ¾Ð´ Ð°Ð²
ĠÐ±ÐµÑĢÐµÐ· Ñĸ
ĠÐ½ÐµÐ±Ðµ Ñģ
ĠÐºÐ°ÑĢÐ± Ð¾Ð²Ð°Ð½
Ð½ ÐºÐ°
Ñģ ÑĸÐ²
ĠÐ¿ Ð»Ð¸
ĠÑĤ Ð¾Ð¶
Ñİ Ñģ
Ð°Ð² ÑĢÐ¸
ĠÐ¼ Ð¾Ð²Ð¸
ĠÐº Ð¾
ĠÐ½Ð° ÑĪÐ¸Ñħ
Ð°ÑĤ ÐºÐ¸
Ð»Ð¸Ð² Ð¾Ñİ
ĠÐ¿Ð¾Ðº Ð»Ð¸Ðº
ĠÐ¼Ðµ ÑĩÐµ
ĠÐ´Ð¸Ð² Ð¾
ĠÑģÑĥÐ»ÑĤÐ°Ð½ ÑĪÐ°
ĠÐ´ÑĥÐ¼ Ð¾Ðº
ĠÐ·Ð°Ð± Ð¾ÑĢÐ¾Ð½
ĠÑģÐ¿ÑĢÐ°Ð² Ð°
ĠÐ²Ð¸Ð¿ ÑĢÐ°Ð²
ĠÐ²Ð¾Ð³ Ð½ÐµÐ½
ĠÐ²Ð¸Ðº Ð»Ð¸
ĠÐ¿Ð»Ð° ÑĩÐµ
ÑĥÐ½ ÐºÐ¸
ĠÐ²ÐµÑĩ ÐµÑĢ
ĠÐ¾ÑģÑĤÐ°Ð½ Ð½ÑĸÐ¹
ĠÐ±Ð°Ð¹Ð´Ñĥ Ð¶
ĠÑĩÐ¾Ð± Ð¾ÑĤÐ¸
ĠÐºÐ¾ÑĪ ÑĤÐ¾Ð²
ĠÑħÑĢÐ¸ ÑģÑĤÐ¸
ÑĤ Ð°Ð»Ð°
Ñı Ð½Ð¸Ñħ
ĠÐ· ÑĸÐ¹
ĠÐ¼ Ð°ÑİÑĩÐ¸
ĠÐº Ð°Ð´
ĠÐ½Ðµ Ð¾Ð±
Ð¾ÑĢ Ð¾Ð·
ĠÐ» ÑĸÐ³
ĠÐ¿ÑĢ ÐµÐ·
ÐµÐ¼ Ð½Ð¾
ĠÐ½Ñĸ Ð¼ÐµÑĨÑĮ
ĠÐ½Ñĸ ÐºÑĩÐµÐ¼
ĠÐ¡ Ð»ÑĥÑħ
ÑĨÑĸ Ð¿
ĠÐ¿ÑĸÐ´ Ñĥ
ĠÐ±ÐµÐ· ÑģÐ¸
ĠÐ¿Ð¾ÑĢ Ð°
ĠÐºÐ¾Ð» ÐµÑģ
ÐºÑĸ ÑģÑĤÑĮ
ĠÐ½Ð°Ð¹ Ð´
ĠÐ»ÑİÐ´Ð¸ Ð½Ñĸ
ĠÐ¿Ðµ Ñģ
ĠÐ³Ð°ÑĢ ÑıÑĩÐ¸
ĠÑģÐ¿ÑĢÐ°Ð² Ñĥ
ĠÐ¿ÑĸÑģ Ð½Ñĸ
ĠÐ¶Ð¸ÑĤÑĤÑı Ð¼
ĠÐ¾Ñģ Ð¼Ð°Ð½
ĠÐĹÐ° ÑĩÑĸÐ¿Ð»ÑıÐ½
Ð²ÑĸÐ´ Ð¾Ð¼
ĠÐ²Ð¸ÑģÐ¾Ðº Ð¾
ĠÐ¥ÑĤÐ¾ ÑģÑĮ
ĠÑĢÑĸÑĩ ÐºÐ¸
ĠÐ¿Ð¾Ð³Ð»Ñı Ð´Ñĥ
ĠÐ¤Ð°Ð±ÑĸÑı Ð½
Ð¢Ðµ Ð¿ÐµÑĢ
Ñĩ Ð¾ÑĹ
ĠÐ± Ð¸Ð²
ĠÐ± Ð¾ÑĹ
Ð»Ð¸ Ð»Ð°
ĠÐ½Ð° ÑģÐ¸
ĠÐ» Ð°Ð¹
ÑĸÐ»ÑĮ Ð¹
ÑĨÑĸ ÐºÐ°Ð²
ĠÑģÐµ ÐºÑĢÐµÑĤ
ĠÐ·Ð°Ð¿ Ð»ÑİÑī
ĠÐºÐ°Ð¼ ÑĸÐ½Ð½Ñı
ĠÐ¿ÑĸÑģ Ð½Ñİ
ĠÐ¾Ð³ Ð»ÑıÐ´
ĠÐ¿Ð¾Ðµ ÑĤÐ°
ĠÐ¿Ð¾ÑģÑĤÐ°Ð² Ð¸Ð²
ĠÑģÑĤÐ¾Ð»Ð¸ ÑĨÑĸ
ĠÐŁÐ°Ð½ Ð°Ñģ
ĠÐĴÐ¾Ð»Ð¾Ð´ Ð¸Ð¼Ð¸ÑĢ
Ð¡Ñĥ Ð»ÑĤÐ°Ð½
Ð± Ð¸ÑĤÐ¾
Ð°Ð½ Ð¾ÑĹ
Ð¾ÑĢ Ð°Ð¼Ð¸
Ð³ Ð°Ð¹
ĠÐ³ Ð¾ÑģÑĤÐ¸
ÑĸÐ² ÑĪÐ¸
ĠÐ° Ð±
ĠÐ²ÑĸÐ´ ÑĤ
ĠÐ²ÑĸÐ´ Ð¼Ð¾Ð²
ÐµÐ¼ ÐµÐ½
ÑĢÑĥ Ð´
ĠÐŁ Ð¸
ĠÑģÐº Ð¾ÑĢÐ¾
ĠÐĹ Ð°Ð±
ĠÑĹÑħ Ð½ÑĮÐ¾Ð³Ð¾
ĠÐ·Ð´ Ð¾Ð³Ð°Ð´
ĠÐ£ ÑģÑĸ
ĠÐ¢Ð°Ðº Ð°
ĠÐ²Ñĸ ÐºÑĥ
ĠÐ½ÐµÐ´ Ð¾Ð±
ĠÑĤÑĢÐ¸ Ð´ÑĨÑı
ĠÐŀÐ´ Ð°ÑĢÐºÐ°
ĠÐ´Ð¸ÑĤÐ¸ Ð½Ñĥ
ĠÐ±Ð°Ð± Ñĥ
ĠÑħÐ¾Ð´Ð¸ ÑĤÐ¸
ĠÐ·Ð°Ð· Ð¸ÑĢ
ĠÑĤÑİÑĢ Ð¼Ð¸
ĠÐ±Ð»Ð°Ðº Ð¸ÑĤ
Ð°ÑģÐµ ÐºÑĸ
Ñģ Ð°Ð¼Ð¸
Ð» ÑĸÐ½
Ð» Ð»Ñı
Ðº Ð°ÑĢ
ĠÐ¿ Ð¾Ð¶Ðµ
Ð¾Ð³ Ð°ÑĤÐ¸
ĠÐ³ Ð»Ð°Ð´
Ð¾Ð¿ Ð¸
ĠÐ¥ Ð°ÑģÐµÐºÑĸ
ĠÐ¦ ÐµÐ¹
ÐµÑĤ Ð°
ĠÐ¿Ð¾Ð¿ Ð°Ð´
ÑĩÑĥ Ðº
ĠÐ²Ð¾Ð» Ð¾
ĠÑĢÐ°Ð´ ÑĸÑģ
ĠÐ²Ð· ÑıÐ»Ð°
ĠÐ´Ð¾ÑĢ Ð¾Ð³Ð°
ĠÑħÐ»Ð¾Ð¿ ÑĨÑĸÐ²
ĠÑĩÐµ ÑģÑĤÑĮ
ĠÑħÐ¾Ð´Ð¸ Ð»Ð¸
ĠÐ²Ð¸ÑĢÑĸ ÑĪÐ¸Ð²
ĠÑģÐ¿Ð°Ð»Ð° Ñħ
ĠÐ´Ð¸ÑĤ Ñı
ĠÐĴÐ°ÑģÐ¸ Ð»ÑĮ
ÑĤ ÑĥÐ²Ð°ÑĤÐ¸
Ð² Ñı
Ðº ÑĥÐ²Ð°Ð»Ð¸
ĠÑģ Ð°Ð»
ĠÑģ Ð½Ñĥ
ĠÑģ ÐºÐ¸Ð´
Ñİ Ðº
ĠÐ± Ð¾Ð¶
ĠÐ½Ð° ÑĤÑı
Ð³ Ð¾Ð¼
ĠÐ¿ÑĢÐ¸ Ñħ
ĠÐ¿ÑĢÐ¸ Ð¼Ñĸ
ÑĸÑĤ Ð½Ñĸ
ĠÑĤÐ°Ðº Ð¸Ð¼Ð¸
ĠÐ¡ Ð¾Ð»Ð¾Ð¼
Ð¾Ñĩ ÐºÐ¾
ÑĥÑĤ Ñĸ
Ð±Ðµ ÑĨÑĮ
ÑģÑĤÐ¸ Ð³
ĠÐ´Ñĥ ÑħÑĥ
ĠÐ¼Ðµ ÑĤÐµ
ĠÐĽ Ñĥ
Ð´Ñĸ Ð»Ð°
ĠÐ¿Ð¾ÑĢ Ð°Ð´
ÐŁ ÐµÑĤ
ĠÐ¿ÐµÑĢ ÑĪÐ°
ĠÐ±ÑĢ Ð°Ðº
ĠÐ²Ñĥ ÑģÑĤÐ°
ĠÐĿÐ° ÑģÑĤ
ĠÑģÑĤÐµ Ð¿Ñĥ
ĠÐ·Ð¼ Ð¾ÑĢ
ĠÐ±ÑĢÐ°ÑĤ ÑĸÐ²
ĠÐ»ÑĸÑģ Ñĥ
ĠÐ´Ð· Ð²Ð¾Ð½
ĠÑĪÐ¸ ÑĹ
ĠÐ±Ð»Ð°Ð³ Ð¾ÑģÐ»Ð¾Ð²
ĠÐ²Ð¾Ð· Ð°
ĠÐłÑĥÐ± Ð°Ð½
ĠÑģÐ¿Ð¾ÑģÑĤ ÐµÑĢÑĸÐ³
Ġ 3
Ñĸ ÑĢÐ¸
Ðµ Ð´Ðµ
ĠÐ² ÐµÑĢÐµ
Ñĩ Ð½Ð¾ÑĹ
ÑĤÐ¸ Ð¼Ð¸
ĠÐ± Ð°Ð½
Ð»Ð¸ Ð±
Ð°Ð½ Ð¸Ð¼Ð¸
Ð¾ÑĢ ÑĸÐ´
Ð¾ÑĢ Ð°Ñħ
Ð½Ñĸ Ð»Ð¸
ĠÐ° Ð´Ð¶Ðµ
Ð»Ðµ Ð¿
ĠÑģÐ¿ ÑĸÐ»ÑĮ
ĠÑģÐ¿ Ð¸Ñģ
Ð°Ð± Ð°Ð½
ĠÐĹ Ð°ÑĤÐµ
ĠÐŀ ÑĩÑĸ
ĠÐ·Ð°Ð² ÑĪÐµ
ĠÐ·Ð°Ð² Ð¼ÐµÑĢ
Ð´Ñĸ ÑĤÐ¸
ĠÐºÑĢÐ¸ Ñħ
ĠÐ´Ð°Ð² Ð°Ð²
ĠÐºÐ¸ Ð¿
ĠÑĤÑĢ ÑĮÐ¾Ñħ
ĠÐ»ÑİÐ´ ÑģÑĮÐºÑĸ
ĠÐµ Ð¿
ĠÐ·Ð¼ Ð¾Ð¶Ðµ
ĠÑĥÑģ Ð¼Ñĸ
ĠÐ¿Ð°Ð»ÑĮ ÑĨÑıÐ¼Ð¸
ĠÐ±ÐµÑĢÐµ Ð³Ð°
ĠÐ´ÑĸÐ´ Ð°
ĠÐ¼Ð¾ÑĶ ÑĹ
ĠÐ¼Ð¸Ñģ Ð»Ð¸Ð²
ĠÐĵÐ¾ÑĢ Ð¿Ð¸
ĠÐºÐ»Ñĥ Ð±
Ð» Ð¾Ð½Ð°
Ñĩ ÐµÐ½Ð¾
ĠÑĸ ÑĢÐ¾Ð½
ĠÐ½Ðµ Ð²Ð¸Ð´
ĠÐ½Ð° ÑĤ
ĠÐ³ Ð°Ð»
ÐºÐ¸ Ð½ÑĥÐ²
ĠÑĥ Ð±Ð¸Ð²
ĠÐ²Ð¸ Ð¼Ð¾Ð²
ĠÐĨ Ð·
ĠÐ²Ðµ Ð´
ĠÐ²Ðµ Ð·
ĠÐŀ ÐºÑģ
ĠÐµ Ð½
ĠÐ²Ð´ Ð¾Ð¼Ð°
ĠÐ²ÑĸÑĤ ÑĢÑı
Ð°ÑĶÑĪ ÑģÑı
ĠÐ·Ð¾Ð»Ð¾ÑĤ Ñĸ
ĠÐ²Ð¸Ð± ÑĸÐ³
ĠÐ»ÑĸÐ¿ ÑĪÐµ
ĠÑģÐ¼ÐµÑĢÑĤ Ñİ
Ð´ÐµÑģÑı ÑĤ
Ñı Ð½ÑĸÐ²
ĠÐ² Ð½Ñĥ
Ñĩ Ð¾Ñİ
Ð¾Ð² Ð¾Ð¼Ñĥ
Ð¾Ð² Ð¸Ð¼Ð¸
ÑĢÐ¸ Ð¼Ñĸ
ÑĢÐ¸ Ð¼Ñĥ
ĠÑı Ð²
ÐµÐ½ ÑĤÐ¸
ĠÑħ Ð²ÑĸÑĢ
ĠÐ²Ð¸ ÑģÑĤ
Ð½Ð° ÑĤ
Ð´Ð¸ ÑĢ
ĠÑģÐ¿ Ð°Ð»Ð¸
ÑĢÐ°Ð² Ð¸
ÑĸÐ· Ð¸
ĠÐ´Ð² Ð¾Ð¼Ð°
Ð¾ÑĢÐ¸ Ð¹
ĠÐ¿Ð¾Ñģ Ð¼Ñĸ
ĠÐ¿Ð¾Ð» ÑĥÐ¼
ÐĿ Ñĥ
ÑĩÐ¸Ð² ÑĪÐ¸
ĠÐ¾ÑĤ Ð¾Ñĩ
ÑħÐ¾Ð´ ÑĮ
ĠÑĩÐµÑĢ Ð²
ĠÐ¿Ñĥ Ñģ
Ð»ÑİÐ² Ð°Ð²
ĠÐ·Ð» Ð°Ð¼
ĠÐ³Ð¾Ð´Ð¸ Ð½Ñĥ
ĠÑĩÑĥÑĤ Ð½Ð¾
ĠÐ¿Ð°Ð´Ð¸ÑĪÐ°Ñħ Ð°
ĠÐ² ÑĢÐ°Ð½ÑĨÑĸ
Ð´ Ð°ÑĤÐ¸
ĠÐ· ÑĥÑģÑĤ
Ñĩ Ð°Ð»Ð¾
ĠÐ´ Ð°Ð¼
Ð¿ ÐµÑĢÐµÐ´
ĠÐº Ð²Ð°ÑĢ
ĠÑĢ Ð¾ÑģÑĤ
Ð¶ Ð´Ð¶
Ð½Ñĸ Ð»Ð°
ĠÑĥ Ð½Ð¸Ð·
ÑĩÐ¸ ÐºÐ°
ÑĩÐ¸ Ð»Ð¾
ÐµÐ½ ÑĤÐµ
ÐµÑĢÐµ Ðº
ĠÐĴ Ð¸Ð´
ÑĸÑĤ ÐµÑĢ
ĠÐĨ Ð´Ð¸
ĠÐĶ Ð°Ð»Ñĸ
ĠÐ¿Ð¾ÑĢ ÑĤ
ĠÐ¿Ð¾ÑĢ Ñĥ
ĠÐºÑĢÐ¸ ÑĩÐ¸ÑĤÑĮ
ĠÐ¿Ñĸ Ñī
Ð½ÑĥÑĤÐ¸ Ð¹
ĠÐºÐ¸ ÑĪÐµÐ½Ñĸ
ĠÐ¿ÑĢÐ°Ð² Ð¾
ĠÐ¿ÑĢÐ¾Ð¼ Ð¾Ð²Ð¸Ð»Ð°
ĠÐ³Ð»Ñı Ð½ÑĥÐ»Ð°
ĠÐ¡ÑĤÐ°Ð¼Ð±Ñĥ Ð»Ñĸ
ĠÐ³Ð»Ñĥ Ð·
ĠÐĽÐ¾Ð± Ð¾Ð´Ð°
ĠÐ· Ð½Ñĸ
ĠÑĤ ÑĸÐ»Ð¾Ð¼
ĠÐ´ Ð°ÑģÑĤÑĮ
Ð¿ Ð°Ð²
ÐµÑĢ ÑĨÐµ
ĠÑĢ ÑıÑģ
ĠÐ¾ ÑĤÑĸ
ÑĶ ÑĤÐµ
ĠÐ¿ÑĢ Ð°Ð¿
ĠÐ·Ð° ÑĪ
Ð½Ñĥ ÑĤÐ¾
ĠÐ¢ ÐµÑģ
ĠÐ½Ñĸ ÐºÑĥÐ´Ð¸
ĠÐ¿ÑĸÐ´ Ð½ÑĸÐ¼
ĠÐĳ Ð¾Ð¶
ĠÐ¯ Ð³Ð¾ÑĢ
ĠÐ¼Ñĸ ÑģÑĤÑĸ
ĠÑĤÑĥ Ð³Ð°
ĠÐ³Ð¾Ð»Ð¾Ñģ Ð¸
ĠÑĢÐ¾Ð·Ð¿ Ð°Ñĩ
Ð»Ð°Ñģ Ð½Ðµ
ĠÑģÐ»ÑĸÐ´ Ð¾Ð¼
ĠÐ»ÐµÐ¶ Ð°Ð»Ð¸
ĠÐ¿Ð» Ð°Ð½
ĠÐ¼Ð¾Ð»Ð¾Ð´ Ð°
ĠÐ³Ð¾Ð²Ð¾ÑĢÐ¸ ÑĤÑĮ
ĠÑĪÐº Ð¾Ð´Ð°
ĠÑĨÑĸÑĶ Ñİ
ĠÐ´Ð²Ñĸ ÑĩÑĸ
ĠÐ·ÑĥÐ¿ Ð¸Ð½Ñı
ĠÑıÐ½Ð¸Ñĩ Ð°ÑĢÐ¸
ĠÐ½Ð°Ð»ÐµÐ¶ Ð¸ÑĤÑĮ
ĠÐļÐ°ÑĢ Ð¿Ð¾
ĠÑĪÐ°Ð¿ ÐºÑĥ
ĠÐ´Ð²ÐµÑĢ ÑıÑħ
ĠÑĩÐµÑĤ Ð²ÐµÑĢ
ĠÐ¾Ð±Ð¸Ð´ Ð²Ð°
ĠÐ°ÑĢÐµÑĪ ÑĤÐ°Ð½
Ð° ÑĩÑĥ
Ð¼ Ð¾Ð½
ĠÐ· Ð½ÑĸÐ¼
ĠÐ´ Ð°Ð»Ð°
ĠÐ± Ð¸ÑĤÐ¸
ĠÐ½Ð° ÑĹÐ²
Ð¾ÑĢ Ð¾ÑĤ
ĠÐ²Ð¸ ÑħÐ¾Ð´Ð¸ÑĤÑĮ
ĠÐ¶ Ñĥ
Ñī Ð°Ð²
Ð¾Ñģ Ð¸
ĠÐ¿ÑĢÐ¾ ÑĨÐµ
ÑĥÑĤ Ð°
Ð»Ñĸ Ð³
Ð¾Ð²Ð¸ Ð½Ñĥ
ĠÐ¿Ð¾Ð´ Ð¾Ð±
ĠÐ·Ð°Ð¿ Ð°Ð»
ĠÐºÑĢ Ð¾Ðº
ĠÐ¿Ð¾Ñģ Ð»Ð°Ð²
ĠÐºÐ°Ð¼ ÐµÑĢÑĥ
ĠÐ½Ð°Ð· Ð°Ð²
ĠÐºÐ°Ð· Ð°Ð»Ð°
ĠÑĪÐ¸ Ð±
ĠÐ¿ÑĸÐ· Ð½Ð¾
ĠÑĤÐ¾Ð± ÑĤÐ¾
ĠÐ²Ð¸Ð¿Ð°Ð´ Ð¾Ðº
ĠÐ¿ÑĸÐ´Ð» Ð¾Ð³Ñĥ
ĠÐ£ÐºÑĢÐ°ÑĹ Ð½Ð¸
ĠÐ²ÑĸÐ´Ðº ÑĢÐ¸Ð²
ĠÐ¿ÑĢÐµÐ· Ð¸ÑĢ
ÑĢ Ð¾Ð·ÑĥÐ¼
ĠÐ¿ Ð»Ñİ
ĠÐ· Ð½Ñı
ĠÐ· ÑĥÑħ
ĠÐ´ Ð°Ð»Ð¸
ĠÐ´ Ð°Ð¹
ĠÐ´ ÑĸÑĢ
ĠÐ´ ÑĸÐ¶
ĠÑĢ Ð°Ð½Ð¾
ĠÐ» Ð¾Ð²Ð¸
Ð»Ðµ Ð½Ð¸Ð¼
ĠÐĴ Ð°Ð²Ð¸
ĠÑĢÐ¾Ð· Ð±Ð¸
ĠÐľ ÐµÐ½Ðµ
ĠÐľ Ð°Ð±ÑĥÑĤÑĮ
ÑĢÐµ ÑģÑĤÐ¸
Ð°Ñİ ÑģÑı
ÑģÑĤÐ¸ Ð¼
ĠÐ¼Ðµ Ð¶Ð¸
ĠÐ·Ð°Ð³ Ð¾Ð²Ð¾ÑĢÐ¸
ĠÑĩÐ¾ÑĢ Ð½Ñĥ
ĠÑĢÐ°Ð´ Ð¸
Ð°Ñĩ ÐµÐ½Ð½Ñı
ĠÐ½Ð°Ð³ Ð»Ð¾
ĠÐ·Ð°Ñħ ÑĸÐ´
ĠÐ½Ð°Ð± Ð»Ð¸Ð¶
ĠÑģÐ¾ÑĢ Ð¾ÑĩÐºÑĥ
ĠÑģÑĤÐ¾ÑĢ Ð¾Ð½
ĠÐĿÐ°Ð² ÑĸÑīÐ¾
ĠÐ´Ð²ÐµÑĢ Ð¸Ð¼Ð°
ĠÐ¡ÑĸÑĢ ÐºÐ¾
ĠÑĢÐ¾Ð·ÐºÑĸ ÑĪ
Ð½ Ð°Ð½Ð½Ñı
Ñģ Ð¾ÑĤ
Ñģ Ð¸ÑĤÐ¸
Ñı ÐºÑĥ
ĠÐ½ Ð¾ÑĢ
Ð°Ð» ÐºÐ¸
ĠÐ¼ ÑĸÐ·
Ð· ÑĸÐ²
ÑĨ ÑĸÐ»ÑĮ
ÑĩÐ¸ Ð½Ðµ
ÑĸÐ½ Ð¾Ðº
ĠÐ» Ð°Ð¿
ĠÐ¿ÑĢ ÑĸÐ·
ĠÐ²Ð¸ ÐºÐ°Ð·
ĠÐ·Ð° ÑģÑĤÐ°Ð²
Ð»Ðµ Ðº
ĠÐ¢ Ñĥ
Ð¾ÑĤ Ð¾Ñİ
ĠÑģÐ¿ Ð¸ÑĤÑĮ
ĠÑĢÐ¾Ð· Ð·
ĠÑĢÐ¾Ð· ÑģÐ¸Ð¿
ĠÑĪ ÐºÑĥ
ĠÐ¿ÑĸÐ´ Ð¾Ð·
Ð¾Ð²Ñĸ ÑģÑĤÐ¸
Ð¾Ð´Ð¸ ÑĤÑĮÑģÑı
ĠÐ´Ðµ Ð´Ð°Ð»Ñĸ
ĠÐ·Ð´ Ð°Ð»Ðµ
ĠÐł Ð°Ð·
ĠÑĩÐ°Ñģ Ð¸
Ð°Ð»Ðµ ÐºÐ¾
ĠÐ·Ð°Ðº Ñĥ
ĠÐºÐ¾ÑĢ Ð¾Ð»Ñı
ĠÐ²Ñĥ Ð·ÑĮ
ĠÐ¾Ñģ Ð¾Ð±Ð¸
ĠÑģÑĤÐ¾Ñı ÑĤÑĮ
ĠÐ´Ð¾Ð» ÑĸÐ²
ĠÐĸ Ð¸Ð²
ĠÑģÑĥÐ¼ Ð½ÑĸÐ²
ĠÐĳÑĥ Ð»Ð°
ĠÐ³ÑĸÑĢ ÑĪÐµ
ÑĩÐµÐ½ Ñı
ĠÐ¿Ð¾Ðµ Ð·
ĠÐ³ÑĢÑĸ Ñħ
ÑĩÐ°Ñģ Ð½Ð¾
ĠÑıÐºÐ¾ÑĹ ÑģÑĮ
ĠÑĤÐ°ÑĶÐ¼ Ð½Ð¸
ĠÐºÑĥÑħ Ð½Ñĸ
ĠÐ²ÑĤÑĢ Ð°ÑĤÐ¸
ĠÐŀÑģ Ð¼Ð°Ð½
ĠÐ»Ð°Ð½ ÑĨÑİ
ĠÐ¢Ð²Ð°ÑĢÐ´Ð¾Ð² ÑģÑĮÐºÐ¸Ð¹
Ð ¤
Ñı Ð»Ð°ÑģÑĮ
ĠÐ² Ð»Ð°
ĠÐ½ Ð°Ð»Ð¸
ĠÐ´ Ð¾Ð¶
Ð°Ð» ÑĸÑģ
ĠÐ» ÑĸÐ·
ĠÐ²Ð¸ Ð½ÑĥÐ²
ĠÐ²Ð¸ ÑıÐ²
ĠÐ·Ð° ÑĥÐ²Ð°Ð¶
ĠÐĲ Ñħ
ĠÐĲ Ð½Ñĥ
Ñī Ð°Ñħ
ĠÐļ ÑĸÐ½
ĠÐ¯ ÐºÑĸÐ²
ĠÐ´Ðµ Ð²
ĠÐ»Ð¸ ÑģÑĤÐ°
Ð¾Ð²Ð¸ Ð½
ĠÐł Ð¾Ð¼
ĠÐ²Ð¸Ñģ Ð»Ð¾Ð²
ÐºÐ¾Ð² Ð¸Ñħ
ĠÐ³Ð¾Ð»Ð¾Ñģ Ñĥ
ĠÐŀÑĤ Ð¶Ðµ
ĠÐ¾Ð±Ð»Ð¸ÑĩÑĩÑı Ð¼
ĠÐ²Ð¸ÑģÐ¾Ðº Ñĸ
ĠÑĤÑĢÐ°Ð² Ñĥ
ĠÑĩÑĥÐ¶ Ð¸Ñħ
ĠÐĦÐ»ÑĮ ÐºÐ°
ĠÐ¿Ð¾ÑĩÑĥ Ð»Ð°
ĠÑģÐ¿Ð¾Ðº Ð¾Ñİ
ĠÐ½ÐµÐ¼Ð¸ Ð½Ñĥ
ĠÑĥÐ¿ÐµÑĢ ÑĤÐ¾
Ð° ÑĩÐ°
ÑĤ ÐºÑĥ
Ñģ Ñİ
Ñı Ð½Ðµ
ĠÐ² Ð¾Ñı
ĠÑģ Ð¾Ð¿
ĠÐ· ÑĸÐ»Ð»Ñı
ĠÐ´ Ð¾Ð²Ñĸ
ĠÐ¼ Ð¾ÑĤÑĥ
ĠÐ¾ Ð½Ñĥ
Ð¾Ð´ ÑĸÐ¹
ĠÑı Ð³
ÑĩÐ¸ ÑĤÑĮÑģÑı
Ð°Ð´ Ð¶
ĠÐ²ÑĸÐ´ ÑģÑĤ
ĠÐ¿ÑĢÐ¸ Ð½Ð¾
Ð°Ð³ Ð¾Ñİ
ĠÐŁ ÑĢÐ°Ð²Ð´Ð°
ĠÑģÐ¿ Ð¾ÑĢ
Ð°Ð± Ð°
ĠÐĹ ÐµÐ¼
ĠÐĳ Ð°ÑĤÑĮ
ĠÐ¿Ð¾Ð² Ð½Ñĸ
ĠÐ¿Ð¾Ð² ÑĸÐ²
Ð´Ñĸ Ð»Ð¸
ĠÑģÐºÐ°Ð· Ð°Ð½Ð¾
ĠÑĦ ÑĢÐ¾Ð½
ĠÐ¿Ð¾Ð¿ ÑĢÐ¸
ĠÐ³Ð°ÑĢ Ð°Ð·Ð´
ÑıÑĤ ÑĤÑı
ĠÐºÐ°Ð¼ ÐµÑĢÐ°
ĠÐ½Ð°ÑĩÐµ Ð±ÑĤÐ¾
ĠÑħÐ²Ð¸ Ð»Ñı
ĠÐ²ÑĸÑĤ ÑĢÐ¸
ÑİÐ² Ð°Ð½Ð½Ñı
ĠÐ¿Ñĥ Ñħ
ĠÐ²Ð¸Ðº ÑĢÐ¸
ĠÐ½Ð¾Ð² Ðµ
ĠÑĥÐ² Ð°Ð³Ð¸
ĠÑģÑĤÑĢÑĥ Ð¼
ĠÐ¼Ð°Ñħ Ð½ÑĥÐ²
ĠÐ²Ñĩ Ð¾ÑĢÐ°
ĠÐ¤ÐµÐ´ ÑĸÑĢ
ĠÑīÐ¾ÑĢ Ð°Ð·Ñĥ
ĠÐ·Ð· Ð°Ð´Ñĥ
ÑĤ Ð°Ð»Ð¸
Ñĩ Ð°Ð¼Ð¸
Ð± Ð½Ð¾
ĠÐ¼ Ð¾Ð¼
ĠÐº ÐµÑĢ
ĠÑĢ Ð¾Ð´Ñĥ
ĠÐ²Ð¸ Ñĩ
ĠÐ·Ð° ÑĤÑı
ÐºÑĥ Ð½
ĠÐľ Ð°Ð¹
ÑĨÑĸ ÑĶÑİ
ĠÐĶ ÑĢÑĥÐ³
ĠÐ¥ Ð°
ĠÐ³Ð¾Ð» ÑĸÐ²
ÐµÐ½ÑĮ ÐºÑĥ
ĠÐ¿Ð¾Ðº Ð»Ð°Ð´
ĠÐ´Ð¸Ð² ÑĸÐ·
ĠÐ³Ñĥ ÑģÑĤÐ¾
Ð¡ Ð¾Ð½
ĠÐ¾ÑĤ ÑĢÑĥ
ĠÐ¿ÐµÑĢ ÑĪÑĸ
ĠÐ³Ð°ÑĢ Ð¼Ð°ÑĤ
ĠÐ·Ð± Ð¾ÐºÑĥ
ĠÐ´ÑĸÐ² ÑĩÐ¸Ð½
ĠÐ²ÐµÑĢ Ð½ÑĥÐ²ÑģÑı
ÑģÑĥ Ð»ÑĮ
Ðĳ Ñĥ
ĠÐ¿ÑĢÐ¾ÑĤ ÑıÐ³
ĠÐ½ÐµÑĢ Ð²
ĠÐ½Ð°Ð²Ð¿ Ð°ÐºÐ¸
ĠÐºÐ¾Ñħ Ð°Ð½Ð½Ñı
ĠÑħÐ¸ Ð¶
ĠÑĸÑģÑĤÐ¾ÑĢÑĸ ÑĹ
ĠÐ¿Ð¾Ð²ÐµÐ»Ð¸ ÑĤÐµ
ÑĪ ÑĸÐ²
Ð¹ Ð¾Ð·
ÐµÑĢ Ð½Ñĸ
ĠÑĢ ÑıÑĤ
ĠÐ³ Ð¾ÑģÑĤÑĸ
Ð¾Ð½ Ðµ
ÑĩÐ¸ Ð½Ñı
Ð¾Ðº Ð°Ñħ
ĠÐ²Ð¸ ÑĢÑĥ
ĠÐ¢ Ð¾Ð¿
Ñī ÐµÐ½
ĠÑĢÐ¾Ð· Ð»Ñĥ
Ð¼Ð¸ ÑĤÑĮ
ÑĩÐµ Ð²Ð¸Ð´
ĠÐĹ Ð½Ð¾Ð²Ñĥ
ĠÐĳ Ð°Ñĩ
ĠÐ§ ÑĥÐ¼
ĠÐ¿Ð¾Ð´ Ð°Ð²ÑģÑı
Ð°Ð»Ðµ Ð½Ð¸Ð¹
ĠÑĤÐ¸Ñħ ÐµÐ½ÑĮÐºÐ¾
ĠÑĤÐ² Ð¾ÑĢÐ¸
ĠÑĩÑĥ Ð¶Ñĸ
ĠÐ¾Ð¿ Ð°Ð½
ĠÑģÑĤÑĢÐ°ÑĪ ÐµÐ½Ð½Ð¾
ÐºÐ¾Ð½ ÐµÑĩ
ĠÑĪÐ¸ÑĢÐ¾Ðº Ð¾
ÑĸÑħ ÑĤ
ĠÐ»ÑİÐ±Ð¸ ÑĤÑĮ
ĠÐ¾Ð±ÑĸÐ· Ð²Ð°Ð²ÑģÑı
ĠÐ·Ð±ÑĢ Ð¾ÑĹ
ĠÐ±Ð¾Ð¼ Ð±
ĠÐ¼Ð¸Ð¼Ð¾Ð² Ð¾Ð»Ñĸ
Ð» Ð¾Ð²Ñĸ
Ðº Ð¾Ð¿
Ñı ÑĪ
ĠÐ¿ Ð°ÑĢÐ¸
ĠÑĤ Ð°ÑĢ
ÑĤÐ¸ Ð½
ĠÐ¼ ÑĸÐ´
ĠÐº Ð°Ð»Ñİ
ĠÑĸ ÑģÐ½Ñĥ
Ð¾Ð» Ð¾
ÑģÑĤ Ð°ÑĢ
ĠÐ³ ÑĸÐ»Ð»Ñı
ĠÑģÑĤ Ð¾Ð»Ð¾Ð¼
ĠÑĨ ÑĸÐ½
ĠÐ¿ÐµÑĢÐµ ÑģÑĤÐ°Ð²
ÑĥÐ¿ Ð¸
Ð°Ð»ÑĮ Ð½Ð¾ÑĹ
ÑĦ ÐµÑĢ
ĠÐ»Ðµ Ð²
ĠÐ¿Ð¾Ð» ÐµÐ³
ĠÐºÐ¾Ð½ ÑĤÑĢ
ĠÐ¢Ð¸ ÑĩÐ¸Ð½Ð°
ĠÐ¼Ð°ÑĤ ÐµÑĢÐ¸
ĠÐ²Ð¾ÑĢ Ð¾ÑĤÐ°
ĠÐ·Ð¼ ÑĸÐ½
ĠÑģÐºÐ°Ð¶ Ñĥ
ĠÑĢÑĸÐ· Ð½Ñĸ
ĠÐ¿ÑĢÐ¸Ð² ÐµÐ·
ĠÐ¼Ð°ÑĢ Ð½Ð¾
ĠÐ¡Ð¿ ÑĢÐ°Ð²
ĠÐ¼ÐµÑĢ Ð·
ĠÐ½Ð°Ð¼Ð°Ð³ Ð°ÑİÑĩÐ¸ÑģÑĮ
ĠÐĹÐ°Ð³Ð½Ð¸Ð±ÑĸÐ´ Ð°
ĠÐ¡Ð¾Ð½ ÑĨÐµ
ÑģÑĥÐ»ÑĮ Ð¼Ð°Ð½
Ð½ Ð¾Ð±
ĠÐ· ÐµÑĢ
Ñĩ Ð½Ð¸Ð¼
Ñĩ ÐµÐ½Ð°
Ð¿ ÑĢ
ĠÐ½Ðµ ÑīÐ°
ÑģÑĤ ÐµÐ¹
ÑĥÐ² Ð°ÑĶÑĤÑĮÑģÑı
ÑĸÐ½ ÐºÑĥ
ĠÑĨ ÑĥÐº
Ð»Ðµ Ñģ
ĠÐ¿ÑĢÐ¸ Ð½ÑĸÑģ
Ð¸Ñħ Ð°
ĠÐĿ ÐµÐ·
ĠÐ¡ ÑĸÐ½
ÑĪÐ¸ ÑĤÑĮ
Ð½Ðµ ÑģÐµ
ĠÐ¾Ð± ÑĸÐ¹Ð¼
ÑģÑĤÐ¸ Ñħ
ÑĦ Ð¸
ĠÐ¿Ð¾Ðº Ð¸Ð´
ĠÐ¿Ð¾ÑĢ Ð¾Ð·
ĠÐ¿Ð¾ÑĢ Ð¾Ð·Ñĸ
ÐºÐ¾Ð¼ Ð°
ĠÐ¿Ð¾Ð¼ Ð°Ð³
ĠÐ·Ð°Ðº Ð¾Ñħ
ĠÐ·Ð°Ð³ ÑĢ
ĠÐ±ÑĢ Ð°Ð¼
ÑīÐµ Ð½Ñĸ
ĠÐĿÐ° ÑīÐ¾
ĠÐ¶ÑĸÐ½ ÐºÐ¾Ñİ
ĠÐ²Ð¸Ð¿ Ð¸Ð²
ĠÑĢÐ¾Ð·Ð¿ Ð¸ÑĤ
ĠÑħÐ»Ð¾Ð¿ ÑĨÑı
ĠÐ§ÑĸÐ¿ ÐºÑĥ
ĠÑĩÐµ ÐºÐ°ÑĶ
ĠÐ³ÐµÑĤÑĮ Ð¼Ð°Ð½
ĠÐ¿ÑĢÐ¸Ðº Ð»Ð°Ð´
ĠÐŁÑĢ Ð¾ÑĤÐµ
ĠÑģÑĤÑĸÐ½ Ñĥ
Ð²ÐµÑĩ ÑĸÑĢ
ĠÐ·Ð½Ðµ Ð²Ð°Ð¶
ĠÐ²ÐµÐ»ÑĮ Ð¼Ð¾Ð¶
ÐĵÑĸ ÑĢÐµÐ¹
ĠÐ¾Ð±ÐµÑĢÐµÐ¶ Ð½Ð¾
Ðµ Ð»Ñı
ĠÐ½ Ð¾Ð²Ñĥ
Ð´ Ð°Ð½Ð½Ñı
Ñĩ Ð½Ñĥ
ĠÑĤ Ð¾Ñĩ
Ð± ÑĸÑĢ
ĠÐº Ð°ÑĤÐ¾ÑĢ
ĠÐ½Ðµ Ð¾Ð´
Ð¾Ð» Ð¾Ð´Ð¸
Ð¾ÑĢ Ð³
ÑĸÐ² Ð½Ñı
ĠÐ» ÑĸÐ½Ñĸ
ĠÑģÑĤ ÑıÐ³
ĠÑĨ ÑĸÐ»Ð°
ĠÐ¿ÑĢÐ¸ ÑħÐ¾Ð´Ð¸ÑĤÑĮ
ĠÐĹ Ð°Ð¼
ĠÐ¥ Ð¼ÐµÐ»ÑĮ
ĠÐĳ ÑĥÐ´ÑĮ
Ð´Ñĥ Ð¶
ĠÐĽ ÐµÐ²
ĠÑģÑĥÐ»ÑĤÐ°Ð½ ÑģÑĮÐºÐ¸Ñħ
ĠÐ¿Ð¾ÑĤ Ð¾Ð¼
ĠÐºÐ°Ð¼ ÐµÐ½
ĠÐ¶Ð¸Ð² ÑĥÑĤÑĮ
ÑģÐº Ð°Ð»Ð¸
ĠÐ¡ÑĤ Ð°ÑĢÐ¸Ð¹
ĠÐ²Ð´ ÐµÐ½ÑĮ
ĠÐ»ÑĸÑģ Ñĸ
ĠÑħÐ¾Ð´Ð¸ Ð»Ð°
ĠÐ¶Ð¾Ð´ Ð½Ð¾ÑĹ
ĠÑĤÑĥÑĢ Ð±
ĠÐĴÐµÐ»Ð¸ ÐºÑĸÐ½
ĠÐľÑĥÑģÑĤÐ° ÑĦÐ°
ĠÑģÐ»Ñĸ Ð¿Ñĥ
ĠÐ±ÐµÐ·Ð³Ð»Ñĥ Ð·Ð´
ĠÐ²ÑĸÑģ ÑĸÐ¼
Ðµ Ð´Ñĸ
ĠÐ² ÐºÑĢÐ¸
Ñĩ ÑĸÑĢ
Ñħ Ð°Ð½
ÑĤÐ¸ ÐºÐ¸
ĠÐ¼ ÑĸÐ»Ñĸ
ĠÐº Ð»Ñı
ÑĨ Ñĥ
ĠÐ³ Ð°Ð²
ÑĶ Ð²Ð°
ĠÐ» ÑĸÑħÑĤ
ĠÐ²Ð¸ ÐºÐ¾
ĠÑģÑĤ ÑĸÐ½Ñĸ
ĠÐ¿ÑĢÐ¸ ÑģÑĤÑĢÐ°
ÐµÐ¼ Ð¾Ð³ÑĥÑĤ
ĠÐ½Ñĸ ÑĩÐ¸Ð¼
Ñī Ð°Ð¼Ð¸
ÑĢÑĸ Ð»Ð°
ĠÐ²Ñģ ÑİÐ´Ð¸
ÐŁ ÑĢ
ĠÐºÑĥ Ñĩ
ĠÐ¿Ð¾ÑĤ Ð¾Ð¿
ĠÐ½Ð°Ð¹ Ð±
ĠÑĢÐµ ÑĪÑĤ
ĠÑģÐ¼ Ð°Ðº
ĠÑĤÐ² Ð¾Ð³Ð¾
ĠÐ¿ÑĢÐ°Ð² Ð°
ĠÐºÐ¾Ð¶ Ð½Ð°
ĠÐ²Ð¿ ÑĸÐ·
ĠÐ¿Ð»Ð° ÑĤÐ¸
ĠÐ½ÑĸÑı ÐºÐ¾ÑĹ
ĠÑĨÐ¸ Ð³Ð°Ð½
ĠÐ·Ð´Ð¸Ð² ÑĥÐ²Ð°Ð²ÑģÑı
ĠÐºÑĸÐ¼Ð½Ð° ÑĤÑĥ
ĠÐĵÐ»Ð¸Ð½ ÑģÑĮÐºÐ°
ĠÐŁÐ¾ÑĢ Ð¾Ñħ
Ð½ Ð°Ð²ÑģÑı
Ð½ ÐµÐ½Ð°
Ñı Ð½Ñĥ
ĠÐ² ÑĸÐ»ÑĮÐ½Ð¾
ĠÐ½ ÑĥÐ´
ĠÑģ Ð¾Ñģ
ĠÐ´ Ð°Ñħ
ĠÐ´ Ð°ÑİÑĤÑĮ
ĠÐº Ð°Ñĩ
ĠÐ³ Ð°Ð¼
ÑĩÐ¸ ÐºÐ¸
ĠÐ» Ð°Ð²Ð¸
Ð°Ð´ Ð°Ð²
ĠÐ±Ñĥ ÑĢÑı
ĠÐĲ Ð³Ð°
ÑĢÑĥ ÑĤ
ĠÐ½Ñĸ Ð±Ð¸ÑĤÐ¾
ĠÐľ Ñĸ
ĠÐ¾Ð± Ð²Ð¸
ĠÐĹ Ð´Ð°Ð²
ÑĤÐµ ÑģÑĮ
ĠÑģÐ¸ Ð»Ñĸ
ÑĨÑĮ ÐºÐ¾
ĠÑĤÐ¸ ÑĪÑĸ
ĠÑģÑĥ Ð´Ð¸
Ð°Ð»ÑĮ Ð½Ð¸Ñħ
ĠÐ±ÑĥÐ² Ð°
ÐĴ Ð¸
ÑĪÑĥ ÑİÑĩÐ¸
ĠÐ·Ð°Ð± Ð¸ÑĢ
ĠÐ·Ð°Ñģ Ð¿ÑĸÐ²
ĠÐºÐ¾Ð¶ Ð½Ð¸Ð¼
ÐµÑģ ÑĸÐ´
ĠÐ²Ð¾Ð³ Ð½Ð¸
Ð¾ÑĪ Ð°Ðº
ĠÐ»ÑĸÑĤ Ð°
ĠÐ»ÐµÐ³ ÑĪÐµ
ĠÐ°Ð½Ñĸ Ð¶
ĠÑĢÑĸ ÑĪÑĥ
ĠÐ»Ð°Ñģ ÐºÐ°Ð²
ĠÑĸÑģÐº ÑĢÐ¸
ĠÐ¿Ð¸ÑģÑĮ Ð¼ÐµÐ½
Ðµ Ð»Ð°
Ð² Ð¸Ð¼
Ðº Ð²
ĠÐ¿ ÑĸÑĤ
ĠÐ½ Ð¾Ð³Ð¾Ñİ
Ð¼ Ð°Ð³
ĠÐ· Ð°Ð»ÐµÐ¶
ĠÐ± ÐµÑĢ
ĠÑī ÑĸÐ»Ð¸
ĠÑĥ Ð²Ð°Ð¶
ÐºÐ° ÑĶÑĤÑĮÑģÑı
ĠÐ¿ÑĢ ÑĸÑĢ
ĠÐ¿ÑĢÐ¸ ÑĤ
ĠÑģÐ¿ Ð¾Ð³Ð°Ð´
ÑĢÑĸ Ð»Ð¸
ĠÐĳ ÑĸÐ»Ñı
ĠÐĵ Ð°
ĠÐĵ Ð°Ð»Ñİ
ĠÐ±ÐµÐ· Ð´
ĠÐ§ Ð¾Ð»Ð¾Ð²Ñĸ
ĠÐ£ ÑģÐµ
ÐµÑĤ ÑĸÐ²
ĠÐºÑĢÐ¸ ÐºÐ½ÑĥÐ²
ĠÑĩÐ¾ÑĢ Ð½Ð¸Ñħ
ĠÑĩÐ¾ÑĢ Ð½Ð¸Ð¼Ð¸
ÐĨ Ð²Ð°Ð½
ÑĩÐ° ÑĹ
ĠÑĩÐ¾Ð»Ð¾Ð²Ñĸ ÐºÐ¸
ĠÐ½ÐµÐ· Ð²Ð¸ÑĩÐ°Ð¹
ĠÐ²Ð¿ ÑĢÐ°Ð²
ĠÐ²Ð¾ÑĢ ÑĸÑĤ
ĠÐºÐ°Ð· Ð°Ð»Ð¸
ĠÐ¤ Ð°ÑĤÑĸ
ĠÑĥÐ¿ Ð°Ð²
ĠÐĦ Ð²
ĠÐ±Ð°ÑĢ Ð²Ð¸
ĠÐ³Ð»ÑĥÑħ Ð¾
ĠÐ·Ð»Ð¾ ÑĩÐ¸Ð½
ĠÐ¾ÑĢÐ³Ð°Ð½ ÑĸÐ·Ð°
ĠÐ³Ð°Ð½ ÑĩÑĸÑĢ
ĠÐ¿ Ð°Ðº
ĠÐ¿ Ð°Ð¹
ĠÐ· Ð±Ñĥ
Ñĩ Ð°ÑĢ
Ñİ ÑģÑı
Ð¿ Ð°ÑĤÐ¸
Ð± Ð»Ñĸ
ĠÐ²Ð¸ ÑĢÐ¾Ð±
Ð¾Ð· Ñĥ
ĠÐ·Ð° ÑĩÐµÐ¿
Ð¾ÑĤ ÑĸÐ»Ð¾
ÑĢÑĸ ÑĹ
ĠÑĪ ÑĥÐº
Ð½Ðµ ÑģÑĤÐ¸
ĠÐĹ Ð°Ñħ
ĠÑģÐ¸ Ð½Ð¸
ÑĥÑĢ Ð³
ĠÑĹÑħ Ð½Ñİ
ĠÑģÐµ Ð¹
ĠÐ»Ð¸ ÑĨ
ÐĴ ÐĶ
ĠÐ²ÐµÐ»Ð¸ ÐºÐ¸Ð¼Ð¸
ĠÑĦ Ð°Ð½ÑĤ
ĠÐ¾ÑĤ Ð¾Ð¹
Ð½ÑĥÑĤÐ¸ ÑģÑĮ
Ðŀ Ð¹
ĠÐ´ÑĸÐ² ÑĩÐ¸Ð½Ð¸
ĠÐ¡ÑĤ Ð°ÑĢ
ĠÑĥÑģÑĸ ÑĶÑĹ
ĠÐ²ÑĸÑĤ ÑĢÑĥ
ĠÑĢÐ¾Ð·ÑĥÐ¼ Ñĥ
ĠÐ²ÑĸÑĢ ÑĪÑĸ
ĠÐ¼Ð¾Ð»Ð¾Ð´ Ð¾Ð³Ð¾
Ð¿Ð° ÑĪÑĥ
ĠÑħÐ¾Ð»Ð¾Ð´ Ð½Ð¾
ĠÑģÐ¾ÑĢ Ð¾Ðº
ĠÐ´Ð· ÐµÑĢÐº
ĠÐ²ÑĸÑĩ Ð½Ð¾
ĠÐłÐ¾ÐºÑģÐ¾Ð» Ð°Ð½Ð¸
ĠÐ´Ð¾Ð· Ð²Ð¾Ð»
ĠÐ¿Ð¾ÑĩÐ¸Ð½Ð° ÑĶ
ĠÐ³ÐµÑĢ Ð¾ÑĹ
ĠÐ·Ð¸Ð¼ Ñĥ
ĠÐ³Ð¾ÑĢÑĸÐ» ÐºÐ¸
ĠÐ±Ð°Ð· Ð°ÑĢ
ĠÐľÐµÑħÐ¼Ðµ Ð´Ð°
ĠÐ±Ð»Ð¸Ñģ ÐºÐ°Ð²
! )
Ð ĩ
ÑĤ Ð¾Ð²Ñĸ
ĠÐ· ÑĢÐ¸
ĠÐ± Ð¾Ð»Ð¾ÑĤ
ĠÑĢ Ð¾Ð¼Ð°Ð½
Ð¾ÑĢ Ð°Ð´
Ð¸Ð² Ð°Ð²ÑģÑı
ĠÐ²Ð¸ Ð½Ð°
ĠÐ²Ð¸ ÑģÑĤÐ°
Ð»Ñı ÑĶÑĤÑĮÑģÑı
Ð½Ð° ÑİÑĩÐ¸
ÑĸÐ¹ ÑĪÐ»Ð¸
ĠÐĿ Ð°ÑĢ
ĠÐ¿ÐµÑĢÐµ Ð²ÐµÑĢ
ĠÐĳ Ð¾Ð³Ð°
Ð»Ñİ ÑĶ
ĠÐ±ÐµÐ· ÐºÐ¾Ð½ÐµÑĩ
ÑģÑĤÑĸ ÑĪÐµ
ĠÐ½Ð°Ð´ ÑĸÑı
ĠÐł Ð¸
ĠÐ³Ð¾ÑĢ ÑĸÐ»Ð¸
ĠÑĸÐ½ ÑĤ
ĠÑĢÐ¾Ð± Ð¸Ð»Ð¸
ĠÐ½ÐµÐ¿ ÐµÐ²
ĠÐ±Ð°ÑĤÑĮ ÐºÐ¾Ð²Ñĸ
ĠÐ½ÐµÐ² ÑĸÐ´
ĠÐ½Ð¸ ÑĪÐºÐ¾Ð¼
ĠÐ½Ð¾Ð² Ð¸Ñħ
ĠÐ²ÑĸÐ´Ð¿Ð¾Ð²ÑĸÐ´ ÑĮ
ĠÐ´Ð¾Ð¿Ð¾Ð¼ Ð°Ð³
ĠÐ¿Ð°Ð½Ð¸ Ñĩ
ĠÐ¶Ð°Ð´ ÑĸÐ±
ĠÐ¡Ð¸Ð½Ð¸ ÑĨÑı
ĠÐĴÐ°Ð²Ð¸ Ð»Ð¾Ð½Ð°
Ð¸ Ð½Ñĥ
ÑĢ Ð¾Ñİ
Ð½ Ðº
ĠÐ· ÑĢÐµÑĪÑĤÐ¾Ñİ
ĠÐ· Ð½Ð¸Ñī
Ñĩ ÑĥÑĤÑĤÑı
ĠÐ± Ð¸ÑĤ
Ð¾Ð³ Ð»Ð¸
ÐµÑĢ Ð¾
ÑĨ ÑĸÐ½
ĠÐ³ Ð°Ð½ÑĮ
ÑĩÐ¸ ÑģÑĮ
ĠÐ²ÑĸÐ´ Ð¾Ð¼Ð¾
Ð°Ð³ Ð¾Ð¼
ĠÐŁ Ð¾Ð·
ĠÐŁ Ð¾Ð±Ð°
ĠÑģÐ¿ Ð»Ñİ
Ñī ÐµÐ½Ð½Ñı
Ð»Ñĸ ÑģÑĤÑĮ
Ð»Ð¸Ð² ÑĪÐ¸ÑģÑĮ
ĠÑĹÑħ Ð½Ñı
ĠÐ´Ñĥ ÑĪÐµÐ²
ĠÐ·Ð´ ÑĸÐ¹
ÐĴ ÑģÐµ
ĠÐ¿Ð¾Ð» ÑĸÑĤÐ¸
ĠÐ¦ Ñı
Ð½Ñİ Ð¿
ĠÐ²Ñĥ Ð»Ð¸Ñĩ
Ð¾ÑĢÑĸ ÑĪÐµ
ĠÑģÐ¿ÑĢÐ°Ð² ÐµÐ´
Ðľ Ð°ÑĢ
Ð»Ð°Ð² Ð°
ĠÐ»ÑİÐ´ ÑģÑĮÐºÐ¸Ñħ
Ðļ ÐĴÐĶ
ĠÐ²Ð¿ Ð°Ð»Ð°
ĠÑģÑĤÐ¾Ñı Ð»Ð¾
ĠÐ±Ð°ÑĩÐ¸ ÑĪ
ĠÐºÑĢÑĸ Ð¿
ĠÑĢÐµÐ³ ÑĸÑĤ
ĠÐ¿Ð»Ð°Ðº Ð°Ð»Ð°
ĠÐ·Ð°ÐºÑĢÐ¸ ÑĩÐ°Ð²
ÑĸÐ»Ð¾Ð¼ ÐµÑĤ
ĠÑģÐ»ÑĮÐ¾Ð· Ð°Ð¼Ð¸
ĠÐ² Ð°ÑĢÐ¸
ĠÑģ Ð»Ð¸
ĠÑĤ Ð°Ð»
Ð¾Ð² Ð½Ñĸ
ĠÐ± Ð¾ÐºÑĸÐ²
ĠÐ± Ð´Ð¶
ĠÐ¼ ÑĸÐ»ÑĮÐ¹
ĠÐº ÑĸÐ»Ð¾Ð¼ÐµÑĤ
ĠÐ¿Ð¾ ÑĩÐµ
ĠÐ´Ð¾ ÑĤÐµ
ĠÐ¿ÑĢÐ¸ ÑĢÐµ
Ð¾ÑĤ ÑĸÐ»Ð¾ÑģÑı
ÐµÐ¼ ÐµÐ½ÑĤ
ĠÑĤÐ°Ðº ÑĸÐ¹
ĠÐ¿ÐµÑĢÐµ ÐºÐ¸
ĠÐļ Ð°Ð·
ĠÐĵ Ð¼
ĠÐ±ÐµÐ· Ð·
Ð¢ ÑĥÑĤ
ĠÑĢÐµ ÑĩÐµÐ¹
ĠÐ¿Ð¾Ð³ Ð°Ð½Ð¾
Ð¡ ÑĤÐµ
ĠÑģÑĤÐ°ÑĢ Ñĥ
ĠÐ²Ñĥ ÑģÑĤ
ĠÐ²Ñĸ ÑĢÑĥ
ĠÐ½ÐµÐ² Ð´Ð¾Ð²
ĠÐºÑĸÐ½ ÑĨÑĸ
ĠÐ±Ð¾ÑĢ Ð¾Ð´
ĠÑĥÐ² ÑĸÐ¹ÑĪÐ¾Ð²
ĠÑĤÑİÑĢ Ð¼Ñĸ
ĠÐ²ÑĸÐ´ÑĩÑĥ Ð»Ð°
ĠÐĹÐ°ÑĢ Ð°Ð·
ĠÐĵÐ¾ÑĢÐ¿Ð¸ Ð½Ð°
Ñĥ Ñİ
ĠÐ¿ ÑĪÐµ
ĠÑģ ÑĸÐ»Ð°
ĠÐ± ÐµÑģÑĸÐ´
ÑģÑĤ ÑĢÐ¾
Ð· Ð°Ð²
Ð¾ÑĢ Ð¾Ð´
Ð¶ Ñı
Ð¾Ðº Ð¸Ð¹
ĠÐ¿Ð¾ ÑĩÐ¸
ĠÐ²Ð¸ ÑĢÑı
ÐºÐ¾ ÑĩÐ¸Ð»Ð°
Ð°Ð³ Ð°Ð½
ĠÐŁ Ð¾Ð³
ĠÐ¾Ð´ Ð²ÐµÑĢ
ĠÑģÐº ÑĢÐ¸Ð²
ĠÐĵ Ð°Ð²ÑĢÐ¸
Ð¿ÐµÑĢ ÑĪÑĥ
ÑĪÑĥ ÑĶ
ĠÐ½Ð°Ð¹ Ð¼
Ð¾ÑģÑĤ Ð°
ĠÐ¼Ñĥ ÑģÑĥÐ»ÑĮÐ¼Ð°Ð½
ĠÐ±ÑĸÐ» Ð¾Ð¼Ñĥ
ĠÐ½ÐµÐ· Ð²Ð¸Ñĩ
ĠÐ²Ð¿ ÑĸÐ·Ð½Ð°Ð²
ĠÐ±Ð°Ð³ Ð°ÑĤÑĮ
ĠÐ¿Ð»Ð° ÑĤ
ĠÐŁÐµÑĤ ÑĢÑĥ
ĠÐ·Ð¾Ð»Ð¾ÑĤ Ð¾
ÐµÑĢÐµÐ´Ð¸ Ð½Ð¸
ĠÐºÐ°Ð¿ ÑĸÑĤ
ĠÐ½ÐµÐ¿ÑĢÐ¸ ÑĶÐ¼
ĠÐ¾Ð´Ðµ Ð¶Ñĥ
ĠÐ¾Ð´Ðµ Ð¶Ñĸ
ĠÐ½ÐµÐ³ Ð°Ð¹Ð½Ð¾
ĠÑĸÐ¼Ð¿ÐµÑĢ ÑĸÑĹ
ĠÐ³Ð°ÑĢÑı ÑĩÐµ
ÐĵÑĢÐ¸ Ð³Ð¾ÑĢÑĸÐ¹
ĠÐĴÐµ ÑģÐµ
Ð±Ð°Ð³ Ð½ÐµÐ½
ĠÐ¼Ð¾ÑĤÑĥ Ð·
ĠÐ¥Ð¼ÐµÐ»ÑĮ Ð½Ð¸ÑĨÑĮ
Ð¾ ÑĩÐ¸Ð¹
Ð½ Ð°Ð´ÑĨÑıÑĤÑĮ
Ð´ Ð¾Ñİ
ĠÐ· Ð»Ðµ
ĠÑĤ ÑĮ
Ñħ Ð°Ð»Ð¸
Ñİ ÑĶ
Ð¾Ð² ÑĥÐ²Ð°Ð²
Ð°Ð» ÐºÑĥ
ĠÐ½Ð° ÑĪÐµ
ĠÐ¾ ÑĨÑĸ
ĠÐ³ ÑĸÐ´
ĠÐ³ Ð°Ð»Ð°
ĠÐ³ Ð¾Ð²Ð¾ÑĢ
ÑĸÐ½ Ð½Ñİ
ÐµÐ½ Ð¾Ð¼Ñĥ
ĠÐ¿Ð¾ ÑģÑĤÐµ
Ð°ÑĤ Ð¾Ðº
ĠÐŁ Ð°
ĠÑĢÐ¾Ð· Ð²Ð°Ð¶
ĠÐĶ Ð¸
Ð»Ñİ ÑİÑĩÐ¸
ĠÑĢÐµ Ð¿
ĠÑĤÐ¸Ñħ Ð¸Ð¹
ĠÐ·Ð°Ð³ ÑĢÐ¾Ð·
ĠÑģÑĤÐ°ÑĢ Ðµ
ÐºÐ¾Ð² Ð¾ÑĹ
ĠÑĩÑĥ Ñİ
ĠÐ¶Ð¸Ð² Ñĥ
ĠÑģÑĤÐ°Ð² Ð°Ð»Ð¾
ĠÐ½ÐµÐ· Ð°Ð±Ð°ÑĢÐ¾Ð¼
ĠÐ¾Ñģ Ð²ÑĸÑĤ
ĠÐ³ÑĢÑĥ Ð±
ĠÐ´Ð¾Ð²Ð³ Ñĸ
ÑģÑĤÐ°Ð½ Ð¾Ð²
ĠÑģÐ»ÑĸÐ´ ÑĩÐ¾Ð³Ð¾
Ð¿Ð° ÑĪÑĸ
Ð·Ð´ Ð¸Ð²
ĠÐ¿Ð¾Ð´ÑĥÐ¼ Ð°ÑĤÐ¸
ĠÐºÐ¾ÑĢÐ¸ ÑģÑĤ
ĠÐ´Ð¾Ð¼ Ð¾Ð²Ð¸
ĠÑĩÐ¸ÑĤ Ð°ÑĤÐ¸
ĠÐ¿ÐµÑĢÐµÐ¼ Ð¾Ð¶
ĠÐ´Ð¾Ñģ Ð»ÑĥÑħ
ĠÐ°Ð» Ð»Ð°
ĠÑıÐ·Ð¸ Ðº
ĠÐ½ÐµÑĤ ÐµÑĢÐ¿
ĠÐ¼Ð°Ð½Ð´ ÑĢÑĸÐ²
Ð¿ÑĢÐ°Ð² Ð´Ñĸ
ĠÐļÐ½Ð¸ ÑĪ
Ñĸ ÑĪÐµ
ÑĢ Ð½Ðµ
Ð½ Ð°Ð´ÑĨÑı
Ð² Ð¾Ð¼
Ðº ÑĢÑĥÐ³Ð¸
ĠÑģ Ð°Ð´Ñĥ
Ñİ ÑİÑĩÐ¸
Ð¾Ð² Ð¾Ð»ÑĮ
Ð°Ð» ÑĸÐº
Ð± ÐµÑĢ
ĠÐº Ð°Ð²
ĠÑĸ Ð¼ÐµÐ½
Ð¾Ð» Ð¾Ñĩ
Ð³ Ð°Ð¼Ð¸
ĠÐ³ ÐµÐ½
ĠÐ³ ÑĸÐ»
ĠÑĥ Ð¼ÐµÑĢ
ĠÐ» ÑıÐº
ĠÐ° Ð½
ĠÐ²Ð¸ Ð´Ñĥ
Ð»Ð¾ ÑĹ
Ð½Ñĥ ÑĤÑĸ
Ð½Ñĥ ÑĤÐ°
Ð°Ð¹ Ð²Ð¾ÑĢ
ĠÐ²ÑĸÐ´ Ð²
ĠÐ²ÑĸÐ´ ÑĮ
ĠÐľ Ð°ÑĤÐ¸
ĠÑĪ ÑĤÐ¾Ð²
ĠÐ²Ñģ ÐµÐ¼Ð¾Ð³ÑĥÑĤ
ĠÐ¿ÑĸÐ´ Ð½ÐµÑģ
ĠÐ¾Ð± Ð¿
Ð±Ð¸ Ð»Ð¸
ĠÐļ Ð¾Ð¼Ñĥ
ÑĥÑĢ Ð±
ĠÐ¿Ð¾Ðº ÑĸÐ¹
Ð¼Ðµ ÑĤ
Ð¼Ðµ ÑĤÑĮÑģÑı
ĠÐ³Ð¾ÑĢ Ð»Ð¾
ĠÐĽ Ð¾ÑĪÐ°Ðº
ÐŁ ÑĢÐ¸
ĠÐ¿Ð¾ÑĤ Ð°Ð¹
ĠÐ·Ð°Ð± ÑĢÐ°Ð»Ð¸
ĠÑĢÐ¾Ð± Ð»ÑıÑĤÑĮ
ĠÐ²Ð¸Ñģ Ð¾Ñĩ
ĠÐ´ÑĢÑĥÐ³ Ð¸Ð¼
ĠÑģÑħ Ð¾Ð´
ĠÐ·Ð± ÑĸÑĢ
ĠÐ²Ð· ÑıÐ»Ð¸
ĠÐ²Ð¾ÑĢ Ð¾Ð½
ĠÐ³Ð¾Ð»Ð¾Ð² Ð½Ðµ
ĠÑĩÐµ ÐºÐ°ÑĤÐ¸
ĠÐ»Ð¸ÑĪ Ð¸Ð²ÑģÑı
!! !
ĠÐ´Ð¾Ðº ÑĥÐ¼
ĠÑĪÑĥ ÐºÐ°ÑİÑĩÐ¸
Ð¿ÑĥÑģÑĤÐ¸ Ð²
ĠÐ´ÑĥÑħ Ð¾Ð¼
ĠÐ³Ð¾ÑĢÐ¸ ÑĤÑĮ
ĠÑıÐ½Ð¸Ñĩ Ð°ÑĢÑĸÐ²
ĠÐĶÐ¾Ð² Ð³Ð¾
ĠÐ·Ð²Ð¸ Ðº
ĠÐ·Ð°ÑģÐ¼Ñĸ ÑıÐ»Ð°ÑģÑı
ĠÑģÑĥÐ² Ð¾ÑĢÐ¾
ĠÐ² Ð¾Ñİ
ĠÐ· Ð´Ð¸
ĠÐ· Ð¼Ð¸
Ñĩ ÐºÐ°Ð¼Ð¸
Ñħ Ð¾Ð¼
Ð¹ ÑģÑı
ĠÑĢ ÑĥÐ¼
Ð½Ð¸ ÑĤÑĮ
ĠÐ¾ ÑĦÑĸ
ĠÑĥ ÑģÑĤÐ°Ð²
ÑĩÐ¸ Ð»Ð°ÑģÑı
Ð¸Ð² Ð°ÑĶÑĤÑĮÑģÑı
ĠÐ·Ð° ÑģÐ¸
ĠÐ·Ð° ÑĩÐ¸Ð½Ð¸
ĠÐĴ Ð¸Ñģ
ĠÐ¡ Ð²ÑĸÑĤ
ĠÐ¡ Ð°Ð½ÑĮÐºÐ¾
ĠÑĪ ÑĤÑĥ
ĠÑĹÑħ Ð½ÑĮÐ¾ÑĹ
Ð¾Ð²Ñĥ ÑĶ
ĠÐ¿Ð¾Ðº Ð°ÑĢ
ĠÐ·Ð´ ÑĸÐ±
ĠÐ³Ð¾ÑĢ Ðµ
ĠÐºÑĥ ÑĢÐ¸
ĠÑĦ Ð°Ð±ÑĢÐ¸
ĠÑĤÑĢÐµ ÑĤÑĮ
Ð¸Ð½ ÐºÑĥ
ÑģÐ¿ ÐµÐº
ĠÑģÑĤÐ¾Ñı ÑĤÐ¸
ĠÐĿÑĸ Ð±Ð¸
ĠÑĨÑĸÐ» Ðµ
ĠÑģÑĤÑĢÐ°ÑĪ Ð½Ð¸Ð¹
ĠÑĢÐ¾Ð·ÑĥÐ¼ ÑĸÐ²
ĠÐºÑĸÐ»ÑĮ ÐºÐ¾Ñħ
ĠÑĤÑİ ÑĤÑİ
ĠÑĩÐ¾Ð»Ð¾Ð²ÑĸÐº Ð¾Ð²Ñĸ
ĠÑıÐºÐ¸Ñħ Ð¾ÑģÑĮ
Ð´Ð¾Ð² Ð¶
ĠÐ¿ÑĸÐ· Ð½Ð°Ð²
ĠÐ½Ð°ÑģÑĤ ÑĢÑĸÐ¹
ĠÑĪÐ¼Ð°ÑĤ Ð¾Ðº
ĠÑģÑĤÐ¾Ð² Ð¿
ĠÐºÐ½Ð¸Ð¶ ÐºÐ¸
ĠÑĢÐµÐ²Ð¾Ð»Ñİ ÑĨÑĸÑĹ
Ð¾ ÑīÑĸ
Ð° ÑĨÑĸÑĹ
Ð½ ÑģÑĮÐºÐ¸Ð¹
Ð» Ð°Ð¹
Ðº ÐµÑĤ
ĠÐ² Ð¾ÑĶ
ĠÐ² Ð´Ð°
Ð´ Ñİ
ÑĪ ÐµÐ½Ð¾
Ð°Ð» Ð¸Ð²ÑģÑı
Ð± ÑĸÐ³
ĠÑĸ Ð³
ĠÑĸ ÑģÐ¿
ÑĢÐ¸ Ð¶
ÑĥÐ² Ð°ÑĶ
Ð°Ðº ÑĤÐ¸
Ð°Ðº Ð°Ð¼Ð¸
ÑĩÐ¸ ÑĤÐµÐ»ÑĮ
ĠÑħ Ð°Ð½Ð°
ĠÑħ Ð¾Ð´Ñĥ
ĠÐ¶ ÑĥÑĢÐ¸
ÑĸÑĤ ÐºÐ¾
ĠÐĿ ÐļÐĴÐĶ
ĠÑĪ ÐºÐ¾Ð»
ĠÑĪ Ð¿Ð¸
ĠÑĪ Ð²ÐµÑĨÑĮ
ĠÐ¾Ð´ Ñĩ
ĠÐ²Ðµ Ð´Ðµ
ĠÐ¯ ÐºÑĸ
Ð°Ð»ÑĮ Ð½Ð°
ĠÐ¼Ð¸ ÑģÑĤÐµ
ÑĥÐ²Ð°Ð² ÑĪÐ¸
ĠÐ¿ÐµÑĢ ÑĪÑĥ
ĠÐºÐ°Ð¼ ÑĸÐ½
ĠÐ·Ð°Ð¼ Ðº
ĠÐ½ÐµÐ· Ð±Ð°Ð³Ð½ÐµÐ½
ĠÐ²Ð¿ Ð°Ð²
ĠÐ·Ð°Ð´ Ñĥ
ĠÐļÐ¾Ð»Ð¸ ÑģÑĮ
ĠÑģÐ¿ÑĸÐ² Ð°Ð»Ð¸
ĠÑĢÐ¸ Ð¿
ĠÐ¾Ðº ÑĢÑĸÐ¼
ĠÑĩÐ¸ÑĤ Ð°Ð²
ĠÑħÑĢÐµ ÑģÑĤ
ĠÐ²ÑģÑĸÐ¼ Ð°
ĠÐ»Ð°Ñģ ÐºÐ°
ĠÐ¿Ñģ Ð¸Ñħ
ĠÑģÐ¿Ðµ ÑĨÑĸ
ĠÐ¾ÑģÑĤ Ð°ÑĤ
ĠÑħÑĢÐ¸ Ð¿
ĠÑĪÐ°ÑĢ Ð¿
ĠÐ¿ÑĢÐµ ÑģÑĤ
Ð° ÑĹ
ÑĤ ÐµÐ¼
Ðº Ð°Ð¿Ð¸
ĠÑģ ÑĮÐ¾Ð³Ð¾
ĠÐ· Ð½Ð¸Ð·
Ñĩ ÑĨÑĸ
ĠÑĤ ÑĸÐ»
ÑĪ Ð½Ð¸Ð¹
Ð¿ ÐµÑĩ
Ð¾Ð» Ð¾Ñħ
ĠÐ¾ Ð²ÐµÑĨÑĮ
Ð½Ñĸ Ð¶
ÑĩÐ¸ ÑĤÐ°Ð²
ĠÐ´Ð¾ ÑĩÐºÑĥ
ĠÑĨ ÑĸÐ½Ñĥ
Ð½Ñĥ ÑĤÑĮÑģÑı
ĠÐĴ Ð»Ð°ÑģÐ½Ðµ
Ð¾Ñģ Ñĥ
ĠÐĵ Ð°ÑĦ
ĠÐ´Ðµ ÑīÐ¾
ÑģÑĤÐ¸ Ð½Ð°
ĠÐ´Ð¸Ð² Ð¾Ð²Ð¸
ĠÐ¿Ð¾ÑĢ ÑĸÐ³
ĠÐ¿Ð¾Ñģ ÐµÑĢÐµÐ´Ð¸Ð½Ñĸ
ÐĿ Ð°ÑĢÐµÑĪÑĤÑĸ
ĠÐ·Ð°Ñģ Ð²ÑĸÑĤÐ¸
ĠÐºÐ°Ð¼ ÐµÑĢ
ĠÑĩÐ¾Ð»Ð¾Ð²Ñĸ ÐºÐ¾Ð¼
ĠÐ¿Ð¾Ð· Ð°Ð´Ñĥ
ĠÐ¿Ð°ÑĢ ÑĤÑĸ
ĠÑģÑĤÑĢ ÑĸÐ»Ñı
ĠÐºÑĥÐ¿ Ð¸
ĠÐ·Ñĸ Ð±
ĠÑģÐ¸Ð´ ÑıÑĤÑĮ
ĠÐ³Ð¾Ð²Ð¾ÑĢÐ¸ Ð»Ð¸
ĠÑĥÐ² Ð°Ð³Ñĥ
ĠÐ½ÐµÑģÐ¿ Ð¾ÐºÑĸÐ¹
ĠÐ·ÑĸÑĤÑħ Ð½ÑĥÐ²ÑĪÐ¸
ĠÐ²ÐµÑģ ÑĸÐ»Ð»Ñı
ĠÐĽÐ¸ ÑĪ
ĠÐ²Ð¾ÑĢÐ¾Ð³ ÑĸÐ²
ÑĢÐµÐ² Ð¾Ð»Ñİ
ĠÑĪÑĤÐ°Ð½ Ð¸
ĠÐ²ÑĸÐ´Ð¿Ð¾Ð²Ñĸ Ð»Ð°
ĠÐ½Ð°Ð·Ð°Ð² Ð¶Ð´Ð¸
ÑĢ ÑĸÐ´
Ð½ Ð¾Ð³
Ðº Ð°Ð²ÑģÑı
ĠÑĤ ÑĸÑģ
Ð°Ð» ÑĸÐ¹
Ð¾Ð³ Ð¾Ð¼
ĠÐ¼ Ð¾Ð²Ñĥ
ĠÐ¼ Ð¾ÑĢÑĸ
ĠÐº Ð»Ð¸
ĠÐº ÑĸÑĪ
Ð»Ð¸ ÐºÐ¸
ĠÐ½Ð° ÑħÐ¸
ĠÑĢ Ð¸Ñģ
ĠÑĥ Ð¿ÐµÑĢÑĪÐµ
ÐºÐ° ÑİÑĩÐ¸ÑģÑĮ
ĠÐ¿ÑĢ Ñĥ
ĠÐ¿ÑĢ ÑıÐ¼
ĠÑģÐ¿ ÑĢ
Ñī ÐµÐ¼
ĠÐ¡ Ð°Ð±Ð¸ÑĢÐ»Ð¸
ĠÑģÐ°Ð¼ ÑĸÑģÑĸÐ½ÑĮ
ĠÐļ Ð¾ÑĢ
Ð»Ð¸Ð² ÑĪÐ¸
ĠÐĵ ÐµÑĤÑĮ
Ð¾Ð¹ Ð¾Ð²
Ð¾ÑĶ Ð¼
ĠÐ¼Ð¾Ð² Ð¾Ñİ
ĠÑħÐ¾Ñĩ Ð°
ĠÐ¿Ð¾Ð± Ð»Ð¸
ĠÑĩÐ¾Ð» Ð¾
ĠÐľÐ°ÑĢ ÑĸÑĹ
ĠÐ»ÐµÐ³ ÐµÐ½
ĠÐ±ÑĥÐ´ ÐµÐ¼Ð¾
ĠÐĸ Ð¸
ĠÐ²ÐµÑģÐµ Ð»Ð¸Ð¹
ĠÑĩÐµÑĢÐ²Ð¾Ð½ Ð¸Ð¹
ÑĥÑģ Ñİ
ĠÐ·ÑĸÑĤÑħ Ð½ÑĥÐ»Ð°
ĠÐ´Ð¸Ð¼ Ð¾Ð¼
ĠÐ³Ð¾Ð´Ð¸ Ð½
ĠÐ³Ð¾Ð´Ð¸ Ð½Ð¸
ĠÐ²ÐµÑģ Ð½Ñı
ĠÐ·ÑĢÐ¾Ð·ÑĥÐ¼ ÑĸÑĤÐ¸
ĠÐĩ ÑĹ
ĠÐ·Ð°Ð±Ñĥ Ð»Ð°
ĠÐ²Ð¾Ð»Ð¾Ð´ Ð°ÑĢ
ĠÐľÐµÑħÐ¼Ðµ Ð´
Ñı Ð»Ð¾
ĠÐ¿ ÑģÐ¸
Ð´ Ð¾Ð±
Ð¼ Ð°Ð¼Ð¸
ĠÐ± ÑĸÐ±
ÐµÑĢ Ð¾Ð¼
ĠÐº Ð»ÑĸÑĤ
ĠÐº Ð°ÑĦ
ĠÑĢ Ð¸Ð´
Ð³ ÑĢÐ°Ð´
Ð½Ñĸ ÑĪÐ°
ÑĸÐ» Ñİ
ĠÐĲ Ð²
ĠÐ¿ÑĢÐ¸ ÑģÑĤÑĥÐ¿
ĠÐ¿ÑĢÐ¸ Ð³Ð¾ÑĢ
Ñī Ð¾Ð³Ð¾
Ñī ÑĸÐ²
Ð¾Ð»Ð¸ ÑĤÑĮ
Ð¶Ðµ Ð½Ð¸Ñħ
ÑĢÐµ ÐºÑĤÐ¾ÑĢ
ĠÐ¾Ð± Ð¼Ð¸
ĠÐŀ ÑĤÐ¾
Ð°Ð»ÑĮ Ð½Ð¸Ð¼
ĠÑĹÑħ Ð½ÑĶ
ĠÐ¼Ð¸ Ð³
ĠÐ·Ð´ Ð°ÑĤ
ĠÐ¼Ð¾Ð² ÑĩÐ¸ÑĤÑĮ
ĠÑħÐ¾Ñĩ ÑĥÑĤÑĮ
ÑģÑĸ Ð±
ĠÑĦ Ð°ÑĢ
ÐĨ Ð±ÑĢÐ°Ð³ÑĸÐ¼
ĠÐ·Ð± Ð¸Ð²
ĠÐ·Ð± ÑĸÐ³
Ðľ Ð¾Ð²
ĠÐ¶Ð¸Ð² Ð¾Ð³Ð¾
ĠÐ³Ð¾Ð»Ð¾Ñģ Ñĸ
ĠÐ½ÐµÐ· Ð½Ð°Ð¹Ð¾Ð¼
ĠÐ²ÑĸÑĤ ÑĢÐ¾Ð¼
ĠÐ²Ð¸Ð¹ ÑĤÐ¸
ĠÐĲÐ½Ð´ÑĢÑĸ ÑĶÐ²
ĠÐ´Ð¸ ÑıÐ²
ĠÑģÐºÑĢÐ¸ Ð¿
ĠÑħÐ¾ÑĩÐµ ÑĤÐµ
ĠÐ²Ð°ÑĢ ÑĤÐ¾Ð²
ĠÐ·Ð´Ð¸Ð² Ð¾Ð²Ð°Ð½Ð¾
ĠÐ²Ðº Ð»Ð¾Ð½
ĠÐºÐ°Ð¿ ÐµÐ»Ñİ
ĠÐ³Ð¾Ð¼ Ð¾Ð½
ĠÐĳÐ°Ð³ Ð»Ð°
ĠÐ½Ð°Ð¿ÐµÐ² Ð½Ðµ
ĠÐ²ÑĥÑħ Ð¾
ĠÐľÐ°Ð» Ð°Ð½ÐºÐ°
ĠÐ½ÐµÑģÑĤ ÐµÑĢÐ¿
ĠÐĳÑĥÐ±Ðµ Ð»Ð°
ĠÑĤÑĢÐ¸Ð´ÑĨÑı ÑĤÑĮ
Ð Ħ
Ñģ Ð¾Ð½
Ð² Ð°Ð»Ð¾
ĠÐ´ Ð±
ĠÐ´ Ð¾Ð³Ð¾
Ð¾Ð² ÑĤ
ĠÐ¼ Ð¾Ð²Ð¸Ð»Ð°
ĠÐº ÐµÐ¿
ĠÐ½Ðµ ÑģÐµ
ĠÑĥ ÑĤÐ¾Ð¼
ÑĩÐ¸ Ð½Ð¾Ñİ
ĠÐ¿Ð¾ ÑĢÐ¸
ĠÐ²Ð¸ Ð»ÑĸÐ·
ĠÐ´Ð¾ ÑĤÐ¸
ĠÐ¿ÑĢÐ¸ Ð½
ÑĸÐ»ÑĮ ÐºÐ°
Ð¸Ñħ Ð°Ð½
ĠÑĢÐ¾Ð· Ñħ
Ð¾Ñģ ÐµÑĢÐµÐ´
Ð¸ÑĤ ÐµÐ»ÑĮ
ĠÐĹ Ð°Ñģ
ĠÐļ Ð»Ð¸
ÑĤÑı Ð¼Ð¸
ÐµÐ½ÑĮ ÐºÐ¸Ñħ
ÑİÑĩÐ¸ Ð¹
ĠÐ½Ð°Ð´ ÑĸÐ¹
ÐµÐ½Ðµ ÑĨÑĸ
ĠÐł Ð¾Ð´
ĠÐł Ð¾Ð³Ð°ÑĤÐ¸
ĠÐ³Ð¾ÑĢ Ð´Ð¾
ĠÐĽ ÑĮ
Ð²Ðµ Ð»Ð¸
ĠÑĸÐ½ Ð¶
ÐĿ Ð°Ð´
ĠÐ±ÑĸÐ» Ð¾Ð³Ð¾
ĠÑĩÐ¾Ð»Ð¾Ð²Ñĸ ÐºÑĸÐ²
ĠÐ¿ÑĢÐ¸Ð¹ ÑĤÐ¸
ĠÐ¶Ð¸Ð² Ñĸ
ĠÐºÐ¾Ð¶ Ð½Ð¾ÑĹ
Ġ( "
ĠÐ¿ÑĢÐ¾Ñģ ÑĤÐ¸
ĠÐ¿ÑĢÐ¾ÑģÑĤ ÑĸÑĢ
ĠÐ½ÐµÑĢ ÑĥÑħ
ĠÑĢÐ°Ð± Ð¸
ĠÑģÐ¾ÑĤ Ð½Ñĸ
ĠÑħÐ°Ð·ÑıÑĹ Ð½Ð°
ĠÑĩÐ°ÑĢ ÐºÑĥ
ĠÐ±ÑĢÐµ Ñħ
ĠÑĸÐ½ÑģÑĤÐ¸ ÑĤ
ÑĤ ÑĢÑĸÑĪ
Ð´ Ð°Ð½Ñĸ
ĠÑģ Ð¼Ð°
Ð¼ Ð°Ðº
Ð¼ ÐµÑĢÑĤ
ĠÐ± ÑĸÐ»Ð°
Ð°Ð½ ÑĸÐ¹
ÑģÑĤ Ð²Ñĥ
ĠÐ½Ð° ÑĨÑĸÐ¾Ð½
Ð· Ðµ
ÑĥÐ² ÑĪÐ¸
ĠÑĥ ÑıÐ²Ð¸
Ð°Ð´ Ñĸ
ĠÐ¿ÑĢ Ð¾Ð¶
ĠÐ²Ð¸ ÑħÐ¾Ð´Ð¸Ð²
ĠÐ¿ÑĢÐ¸ Ð½Ð¸
ĠÐ¿ÑĢÐ¸ ÑĤÐ¸Ñģ
ĠÐŁ Ð¸Ð»Ð¸
Ñī Ð¸Ñħ
Ð¸ÑĤ Ð°Ð¹
Ð²Ð¸ Ð³
ĠÐĹ Ð²
ĠÐļ Ð»Ð¸Ð¼
ÑĢÐ¾ ÑħÐ¸
ĠÑĹÑħ Ð°ÑĤÐ¸
ÐµÐ½ÑĮ ÐºÐ¸
ĠÐ·Ð² ÑĸÐ²ÑģÑı
ĠÐ¿Ð¾Ðº Ð»Ð¾Ð½
ĠÑģÐ²ÑĸÑĤ Ð»Ñĸ
ĠÐ²ÐµÐ»Ð¸ ÐºÐ¾Ð¼Ñĥ
ÑģÑĤÑı Ð¼
ĠÐ´Ð°Ð² Ð°Ð»Ð¸
ĠÑģÑĤÐ°Ð² Ð°Ð²
ÐºÐ°Ð· Ð°Ð²
ĠÐ¿Ð¸ ÑĪÐµ
ĠÐºÐ°ÑĢ ÑĤÐ¾Ð¿
ĠÐ¿Ð¾Ð²ÐµÑĢ Ð½ÑĥÐ»Ð°ÑģÑı
ĠÐºÑĥÐ¿ Ð¸Ð²
ĠÑģÐ»ÑĸÐ´ Ð¸
ÐµÑĩ ÐºÐ¾
ĠÐĨÐ²Ð°Ð½ ÑĸÐ²Ð½Ð°
ĠÑģÐºÐ°Ð¶ Ð¸
ÐĽ ÑİÐ´Ð¸
Ð¾Ð²Ð°Ð½ Ð¾Ð³Ð¾
ĠÐ´Ð¾Ðº Ð°Ð·
ĠÐľÐ°Ð»ÑĮ Ð²Ñĥ
ĠÐ¡ÑĤÐ°Ð¼Ð±Ñĥ Ð»
ĠÑĶÐ´Ð¸ Ð½Ð¸Ð¹
ĠÐ½Ð°Ð¿Ð¸Ñģ Ð°Ð²
ĠÑĦÐ¾ÑĢ ÑĤÐµ
ĠÑĨÐ°Ð¿ Ð°
ĠÑĤÐ¾Ð²Ð°ÑĢÐ¸ÑĪ ÑĸÐ²
ĠÐ´Ð¸ÑĤÐ¸Ð½ ÑģÑĤÐ²Ð°
ĠÐ·Ð»Ð¸ Ð´
ĠÐ½ÐµÐ¿Ð¾Ð¼ ÑĸÑĤÐ½Ð¾
ĠÑħÑĢÐ¸ÑģÑĤÐ¸ ÑıÐ½
ĠÑĤ Ð»Ñĸ
ĠÐ´ Ð°
ÑĪ Ð¾Ñİ
Ð°Ð» Ð°Ðº
ĠÐº ÑĢÐ¸Ð¼
ĠÐ¾ Ð¿Ñĥ
ĠÐ¾ ÑĩÐµÐ²Ð¸Ð´
Ð½Ñĸ ÑĪÐ¸Ñħ
ĠÑĥ Ð³Ð¾ÑĢ
ĠÑĩ Ð°Ñİ
ĠÐ±Ñĥ Ð±
ĠÐ²ÑĸÐ´ Ð·Ð½Ð°
ĠÐ¿ÑĢÐ¸ Ð´Ð¸Ð²
ĠÑĢÐ¾Ð· Ð¿Ñĥ
ĠÑĪ ÑĸÑģÑĤÑĮ
Ð¾Ñĩ ÐºÐ°Ð¼Ð¸
ĠÐ¿ÐµÑĢÐµ Ð¶Ð¸Ð²
ĠÐļ Ð¾ÑģÑĤÐ¸
ĠÐ·Ð½ ÐµÐ½Ð°
Ð»Ñİ Ð¿
ĠÐ§ Ð¸Ð¼
ĠÐ»Ð¸ ÑĨÑı
ĠÐ¼Ðµ ÑĤÑĥ
ĠÐ³Ð¾ÑĢ Ñı
Ð²Ðµ Ð¹
ĠÐ¿Ð¾ÑĢ ÑıÑĤÑĥ
ĠÐ¿Ð¾Ñģ Ð»
ĠÐ½Ð°Ð¿ ÑĢÑıÐ¼
ĠÐ·Ð°Ð± ÑĢ
ĠÑģÑĤÐ°ÑĢ Ð¾ÑĹ
ĠÐ½Ð°Ñģ Ð¼Ñĸ
ĠÐ¶ÑĸÐ½ Ð¾Ñĩ
ĠÐ½ÐµÐ¿ ÐµÑĢÐµ
ĠÐ»ÑİÐ´ ÑģÑĮÐºÐ°
ĠÐ¿Ð¾Ð· ÑĸÑħ
ĠÐ²ÐµÑĢ ÑĪÐ¸
Ð²Ð¸Ð´ ÐºÐ¾
ĠÐ²Ð¸Ð³ Ð»Ñı
ĠÐ¿Ð¾Ñħ ÑĸÐ´
ĠÐ¿Ð¾Ñħ Ð½ÑİÐ¿
ĠÑĤÑĢÐ¸Ð¼ Ð°ÑİÑĩÐ¸
ĠÐ»ÑİÐ± Ð»Ñİ
ĠÑĢÑĸÐ· Ð½Ð¸Ñħ
ĠÐ¼Ð°ÑĢ Ð¼ÑĥÑĢ
ĠÐ¿Ð¾ÑģÑĤÐ°Ð² Ð¸ÑĤÐ¸
Ð°Ð½ÑĤ Ð°Ð¶
ĠÑĩÐ¾ÑĤÐ¸ ÑĢ
ĠÐ´Ð¾Ð²Ðµ Ð»Ð¾ÑģÑı
ĠÐ±ÑĥÐ´Ð¸Ð½ ÐºÑĥ
ĠÑģÐµÑĢÐ´Ð¸ ÑĤÐ¾
ĠÐ¿Ð¾ÑĤÑĢÐµ Ð±Ñĥ
ĠÐ§Ð°Ñģ Ð¾Ð¼
ĠÐµÐ½ ÐµÑĢÐ³
ĠÐ·Ð½ÐµÐ½Ð° ÑĨÑĮÐºÐ°
Ð½ Ð°Ð¶
Ð² Ð°ÑĤ
Ñı ÑĤÐµ
ĠÐ¿ ÑĤÐ¸
ĠÐ¿ Ð°Ð·Ñĥ
ĠÐ½ Ð¾ÑĤ
Ð´ ÑĸÐ¹
Ð¼ Ð¾ÑĤÑĸÐ²
ĠÐ· Ð¾Ð¹
ĠÐ· Ð°Ð»Ñĸ
Ñĩ Ð°ÑĤÐ°
ĠÐ´ ÑĸÑĶ
ĠÐ´ ÑĢÑĸÐ¼
ÑĢÐ¸ Ð»Ð°
ĠÐ½Ð° ÑīÐ¾
ĠÑĢ Ð¾Ð´
ĠÐ¾ ÑĤÑĥ
ĠÐ³ ÑĢÐ¸Ð·
ĠÑĩ Ð°Ð´
Ð¾Ð± Ð¸Ð²
ĠÐ° Ð³
ĠÑħ Ð¾ÑĢÐ¾
Ð°Ð´ ÑĥÑĤÑĮ
ÐºÑĥ ÑİÑĤÑĮ
ĠÐ¢ Ð°Ð¹
Ð¾Ñģ ÐºÐ¾Ð²
ĠÐĿ ÐµÐ¼
ĠÐ¿ÑĸÐ´ Ð½Ð¾
ĠÐ¾Ð± Ð¾ÑĶ
Ð¾Ð´Ð¸ Ð»Ð°ÑģÑı
ÑĢÐ¾ ÑģÑĤÑĸ
ÑĨÑĮ ÐºÑĸ
Ð»Ñİ ÑģÑı
ĠÑģÑĥ ÑĨÑĸÐ»ÑĮ
Ð¾Ð²Ð¸ ÑīÐµ
ĠÐ»ÑİÐ´Ð¸ Ð½Ð¾Ñİ
ĠÐ¼Ñĥ ÑĦ
ĠÐ³Ñĥ Ð»ÑĮ
ĠÐ¾ÑĤ Ð°
ĠÑĤÐ² Ð¾Ñİ
ÐĶ Ð¸Ð²
ĠÐ·Ð± ÐµÑĢÑĸÐ³
ĠÐ½ÐµÐ¿ Ð¾Ðº
ĠÐ¡ÑĤ ÑĢÐ°ÑĤ
ĠÐ¿Ð°ÑĢ ÐºÐ°Ð½
Ðĵ Ð°Ð»Ñı
ĠÐºÑĸÐ½ Ñĩ
ĠÐ½Ð¾Ñģ Ð¾Ð¼
ÑĶÑĪ ÑģÑı
ĠÐ²Ð° ÑĪÑĸ
ĠÐ¿Ð°Ð´ Ð°Ð»Ð¸
ĠÑĪÐ»ÑıÑħ Ð¾Ð¼
ĠÐ¿Ð¾ÑĤÑĢÑĸÐ± Ð½Ñĸ
ĠÐºÐ¾ÑĢÐ¾ÑĤ ÐºÐ¾
ĠÐ½Ñĥ Ð¶
ĠÐ·Ð°ÑĤÐ¸ Ñħ
ĠÐ´Ð¾Ð²Ðµ Ð´ÐµÑĤÑĮÑģÑı
ĠÐ¢Ð¾Ð¿ ÐºÐ°Ð¿Ð¸
ÑĤ Ð½Ð¾
ÑĤ Ð¾Ð¼Ñĥ
Ð» Ð¾Ð¼Ñĥ
Ð² Ð°ÑĤÐ¸ÑģÑı
ĠÐ² Ð¾ÑģÐº
ĠÐ¿ Ð¸Ð»Ð¸
ĠÑģ Ð¼Ð¸
ĠÑģ ÑĸÐ½Ð¸
ĠÑģ Ð¸ÑĤÑĥ
Ñĩ ÑĥÑĤ
Ñĩ ÑĥÑĤÑĮ
ĠÐ´ ÑĸÑĤÑĮÐ¼Ð¸
Ð¾Ð³ ÑĢÐ°ÑĦ
Ð¿ Ñĸ
Ð± Ð°Ð½
ĠÐº Ð»
ÑĢÐ¸ Ð¿
Ð¾Ð» Ð¾ÑĪ
ÑģÑĤ Ð¾Ñİ
ĠÐ° Ð½Ð³
ĠÐ²Ð¸ Ð±Ð¸Ð²
ĠÑģÑĤ Ð°ÑĤ
Ð°ÑĤ Ð¾Ð³Ð¾
ĠÐ¿ÑĢÐ¸ ÑħÐ¾Ð´Ð¸Ð²
ĠÐĿ Ð°Ð¼
Ð»Ð¸Ð² Ð¾ÑĹ
Ð»Ð¸Ð² Ð¸Ð¼Ð¸
ĠÑģÐ¸ Ð½Ñĸ
ĠÐ¿Ð¾Ð² Ð¸
ÑĥÑĢ Ñħ
Ð¾Ð²Ñĥ ÑİÑĩÐ¸
ĠÐ·Ð°Ð¿ Ð»Ð°
ĠÐºÐ¾Ð» Ð¾Ñģ
ĠÐ¼Ð¾Ð¶Ðµ ÑĪ
ĠÐ·Ð°Ð³ ÑĥÐ±
ĠÐ±ÑĢ Ð°Ð»Ð¸
ĠÐºÑĢÐ¸ ÑĩÐ°Ð»Ð¸
ĠÐ¿Ð°Ð½ ÑĸÐ²
ÐºÐ¾Ð² Ð¸Ð¼
ĠÐ»ÑİÐ´ ÑģÑĮÐºÐ¾ÑĹ
ĠÐ·Ð°Ñħ Ð¾Ð²
ĠÐ¿Ð¾ÐºÐ¸ Ð½ÑĥÐ²
ĠÑĢÐ°Ð¿ ÑĤÐ¾Ð²
ĠÐ½ÐµÐ¼ Ð¾Ð¶
ÑĥÐ²Ð°Ð½Ð½Ñı Ð¼
Ð»ÑİÐ² Ð°Ð»Ð¸
ĠÐ¡Ðº Ð°ÑĢÐ±
ĠÐ¿Ð¾Ð±Ð°ÑĩÐ¸Ð² ÑĪÐ¸
ĠÐ³Ð¾ÑģÑĤ ÑĢÐ¾
Ð½Ð°Ð¹ Ð¼
ĠÐ²Ð»Ð°Ð´ Ñĥ
ĠÐ²Ð°ÑĪ Ð¾Ð³Ð¾
Ð¼ÑĸÐ½ Ð½Ð¾
ĠÐłÑĥ Ð±ÐµÑĨÑĮ
ĠÑĩÐ¾Ð± ÑĸÑĤ
ĠÑĢÐ¾Ð·Ð¿Ð¾Ð²ÑĸÐ´ Ð°Ð²
ĠÐ¿Ð¾Ð¼Ð¸ Ð»
ĠÑĤÐ²ÐµÑĢÐ´ Ð¾
ĠÑĸÑģÐ½ÑĥÐ² Ð°Ð½Ð½Ñı
ĠÐĶÐ¶ Ð¸ÑħÐ°Ð½
ĠÐºÐ»Ð° ÑĢÐ½Ðµ
ĠÐĿÑĸÐº Ð¾Ð»Ð¸
ĠÐ·Ð½Ð°Ð¼ ÐµÐ½Ð¸
] ,
ĠÐ¿ Ð¾Ð³Ð¾
Ñĩ Ð¾ÑĢ
ĠÑĤ ÑĸÐ»Ñĸ
ĠÐ´ Ð¸Ñģ
ĠÐ½Ð° ÑĪÑĥ
Ð¶ ÐµÐ½Ð¾
ĠÐ³ Ð½Ð¸
ĠÐ³ ÑĥÐ¼
ĠÐ³ ÑĥÐ´
Ð¾Ð½ Ð½Ñı
Ð¾Ð½ Ð°Ð¼Ð¸
Ð¾Ð± Ð»Ð¸Ð²Ð¾
ÐºÐ° Ñİ
Ð¾Ðº Ð°Ð¼Ð¸
ĠÑĨ ÑĸÐ¿
ĠÑĹ Ð·Ð´Ð¸
Ð»Ðµ Ð½Ð¸Ð¼Ð¸
ĠÐĲ Ð±Ð¸
ĠÑģÐ¿ ÑĥÑģ
ĠÐ¡ ÐµÑĢÑĨÐµ
Ð¾Ð»Ð¸ Ð¹
ĠÑĪ Ð°ÑĤ
ĠÐ¿ÑĸÐ´ Ð³
ĠÐ¿ÑĸÐ´ ÑħÐ¾Ð¿
Ð±Ð¸ ÑĢÐ°Ð²
ĠÑĢÑĥ Ð¹
ĠÐŀ ÑĢ
Ð°Ð»ÑĮ Ð½Ðµ
ĠÑģÐµ Ð»ÑıÐ½
ĠÐ´Ð² Ð¾ÑĢÐ¸
ĠÐ¿Ð¾Ðº Ð¾ÑĤÐ¸
ĠÐ¿Ð¾Ðº Ð°Ð·Ñĥ
ĠÐ¼Ðµ Ð»
ĠÐ¼Ð¾Ð² Ð°
Ð¢ ÑĸÐ»ÑĮÐºÐ¸
ĠÐ½Ð°Ð¹ Ð²Ð¸Ñī
ĠÐ·Ð°Ð³ Ð»ÑıÐ´
ĠÑģÑĤÐ°ÑĢ ÑĪÐ¸Ð¹
ĠÐºÐ¾ÑĢ Ð¾Ð»ÑĮ
ĠÐ´ÑĢÑĥÐ³ Ð¾Ð¼Ñĥ
ĠÐ¢Ð°Ðº Ð¸Ð¹
ĠÐ·Ð³ Ð¾ÑĢÐ¸
ĠÑĩÑĥ Ð¶Ðµ
ĠÐ¼Ð¾Ð¶ Ð»Ð¸Ð²Ð¾
ĠÐ·Ð± ÑĢÐ¾
ĠÑĤÑĢ Ð°Ð¼
ĠÐ²Ð· Ð´Ð¾Ð²Ð¶
ĠÐ²Ñĸ ÑĢÐ¸Ð²
ĠÐ¿Ð»Ðµ ÑĩÐ°Ñħ
ĠÑģÐ¿Ð¸ÑĤ Ð°Ð²ÑģÑı
ĠÑģÐ¼Ñĸ ÑĶÑĤÑĮÑģÑı
ĠÑĢÑĸÐ´ Ð½Ð¾Ð³Ð¾
ĠÐºÐ¾ÑĤ ÑĢÐ°
ĠÐĳÑĥ Ð»Ð¸
ĠÐ²Ð¸ÑĤ ÑĢÑĸ
ĠÐ´ÑĥÑĢ Ð½Ð°
ÑīÐ¸ Ð½Ñĥ
ĠÐ½Ð¾Ñģ Ð°
ĠÐ¿Ð°Ð¿ ÐµÑĢÑĥ
ĠÐľÐ°Ð»ÑĮ Ð²Ð¸
ĠÑĤÑĢÐµÐ¼ ÑĤÑı
ĠÐľÐ°ÑĢÐ¸ Ð½ÑĮ
ĠÑĢÑĸ ÐºÐ¸
ĠÐ³Ð¾ÑĤ Ð¾Ð²Ð¸Ð¹
ĠÑħÐ¾Ð´ ÑıÑĤÑĮ
ĠÐ¡ÐµÐ»Ñĸ Ð¼Ð°
ĠÐ²Ð´Ð°ÑĢÐ¸ Ð²
ĠÐĶÐ¾Ð½ ÐµÑĨÑĮ
ĠÐºÐ°Ð» Ð°Ð¼
ĠÐ¿ÑĢÐ¾ÑĪÐµÐ¿ Ð¾ÑĤÑĸÐ²
ÑĢ Ð¾Ð¼Ñĥ
Ð½ Ð°Ð¼
ĠÐ½ Ð°ÐºÐ¸
ĠÑģ ÑıÐ³
ĠÐ· Ñģ
ĠÐ· Ð¾Ð±
ĠÐ· ÑĸÐ¿
ĠÐ± Ð°Ð¹
ĠÐ¹ Ð´Ð¸
ĠÑĢ Ð°Ñħ
Ð³ Ð¾ÑģÐ¿
ĠÑĥ Ð·Ð´
ĠÐ²Ð¸ Ð¼Ñĥ
ĠÑģÑĤ Ð¾Ð»
ĠÐ·Ð° ÑħÐ¾Ð´
ĠÐĲ ÑĤ
ĠÐ¿ÑĢÐ¸ ÑģÑĤÐ°Ð²
Ð´Ð¸ ÑĪ
Ð°ÑĶ ÑĨÑĮ
ĠÐľ ÑĸÐ¹
ÑĢÐµ Ð±
ÑĥÐ¼ Ð°Ð²
ĠÐ¾Ð´ Ð´
ĠÐ¾Ð´ Ð°Ð»ÑĸÑģ
Ð±Ð¸ Ð»Ð°
ĠÐĳ ÐµÐ»
ĠÐ¿Ð¾Ð² Ð½Ð¾
ĠÑģÐµ ÑģÑĤÑĢÐ¸
ĠÐ¿Ð¾Ðº ÑĢÐ¸Ð²
Ð¾Ð²Ð¸ ÑĩÐ°
ĠÐ·Ð°Ð² Ð°Ð¶
ĠÐ¦ ÑĮÐ¾Ð³Ð¾
ĠÐºÐ¾ÑĢ Ð¾Ð»ÑĸÐ²
ĠÑĩÐ¾ÑĢ Ð½Ð¾
ĠÐºÐ¾Ð¶ Ð½Ñĥ
Ðł Ð¾ÐºÑģÐ¾Ð»
ĠÑģÑĤÐ¸ ÑħÐ°
ĠÑģÐ¾ÑĢ Ð¾ÑĩÐºÐ¸
ĠÐ½Ð°ÑĪ Ð¾ÑĹ
ĠÐ¼Ð°Ð»Ð¸ Ð¹
ĠÐ¼Ð¾ÑĹ Ð¼
ĠÐ²Ð°ÑĢ ÑĤÐ¾
ĠÐ´ÑĸÐ¹ Ñģ
ĠÒĳ Ð°Ð½ÐºÑĥ
ĠÑģÐ¿Ð¾Ð´ÑĸÐ² Ð°Ð²ÑģÑı
ĠÐ»Ð°Ð² Ñĸ
ĠÐ²ÑĤÑĢ Ð°ÑĤÐ¸Ð²
ĠÐ²Ð¾ÑĢÑĥ ÑĪÐ¸
ĠÐºÐ»Ðµ ÐºÐ¾
ĠÐ´Ð¶ ÐµÑĢÐµ
ĠÐ¿Ð¾Ð²Ð¸Ð½ ÐµÐ½
ĠÐ²ÐµÐ»ÑĮ Ð¼Ð¸
ĠÐ¿ÑĸÐ´Ð²ÑĸÐ² ÑģÑı
ĠÐ²Ð½Ñĥ ÑĤÑĢÑĸÑĪ
ĠÐ°Ð»Ð»Ð° ÑħÐ°
Ð° ÑĩÐ¸
Ñĸ ÑĤÑĮÑģÑı
ÑĤ ÐµÐ½
ÑĤ Ð²ÐµÑĢ
Ñĥ Ð·
Ñģ ÐºÐ¸
ĠÐ· Ð»Ð°
ĠÐ· Ð»ÐµÐ³
Ð¾Ð² Ð°ÑĢ
ĠÐ¼ Ð°Ð³
ĠÐ¼ Ð¾Ð³Ð¸
ĠÐº ÑĢÐµÐ¹
ĠÐº Ð²ÑĸÑĤÐ¸
Ð¾Ð¼ Ð¸
Ð¾Ð» Ð¾Ð³
Ð¾Ð» Ð°ÑĪ
ĠÐ¾ ÑħÐ¾Ð¿
ÑĩÐ¸ ÑĤÐ¸ÑģÑı
ĠÑģÑĤ Ð°Ð¼Ð±Ñĥ
Ð¸Ð¼ Ñĸ
ÐºÐ¾ ÑģÑĮ
ĠÐĲ Ñģ
Ð°ÑĤ ÑĥÑĢ
ĠÐ¿ÑĢÐ¸ Ð±ÑĢ
Ð°Ð¿ ÑĤÐ¾Ð¼
ĠÑģÐ¿ ÑĢÐ¸
ĠÐ¡ ÑĮÐ¾Ð³Ð¾Ð´Ð½Ñĸ
ĠÑĪ ÑĤÑĥÑĢ
ĠÐ¾Ð± Ð¼
ĠÐ¾Ð´ ÐµÑĢÐ¶
ĠÐĶ ÑĸÐ´
ĠÐĶ Ð°ÑĢÐ¸Ð½
ÑĢÐ¾ Ñħ
ĠÑģÐ¸ ÑģÑĤ
ÑĤÑĸ ÑĤÐ¸
ĠÐ´Ðµ ÑıÐºÑĸ
ÑģÑĤÐ¸ Ð¼Ð¸
ÑıÐ² Ñĥ
ĠÐ·Ð°Ð¿ Ð°Ð¼
ĠÐ¼Ñĥ ÑĢÐ¸
ĠÐ³Ñĥ Ðº
ĠÐ½Ð°Ñģ Ðº
ÑģÑĤÐ° ÑģÑı
ĠÑĩÑĥ Ð»Ð¸
ĠÐ·Ð°Ð¼ Ð°Ñħ
ĠÐ¼Ð°ÑĤ ÐµÑĢ
ĠÐ´Ð¾Ð²Ð³ Ð¸Ð¹
ĠÐ±Ð°Ð³ Ð°ÑĤÐ¸
ĠÐ¼Ð¾ÑĢ ÐµÐ¼
Ð¶Ñĥ ÑİÑĩÐ¸
ĠÐ³Ð¾Ð»Ð¾Ð² Ð°Ð¼Ð¸
ĠÐ¿Ð¾Ñħ Ð¸ÑĤ
ÑİÐ² Ð°Ð²ÑģÑı
ĠÐ§ÑĸÐ¿ ÐºÐ¾
ĠÑĩÐµ ÐºÐ°ÑİÑĩÐ¸
ĠÐ¼Ð¾Ð» Ð¾ÐºÐ¾
Ð°Ð´Ñĥ ÑİÑĩÐ¸
ĠÑģÐ¸Ð´ ÑıÑĩÐ¸
ĠÑĤÐ¾ÑĢ Ð±Ð¸
ÑĩÐµÐ½ Ð¾Ð³Ð¾
ĠÐ²Ð³ Ð°Ð´
ĠÐ¡Ð¿ Ð°ÑģÐ¸Ð±Ñĸ
ĠÐ¼Ð°Ð»ÐµÐ½ÑĮ ÐºÐ¸Ð¹
ĠÑģÑĤÑĸÐ½ Ð¾Ñİ
ĠÐĶÐ¸Ð² Ð¸Ð²ÑģÑı
ĠÐ¿Ð»Ð°Ðº Ð°ÑĤÐ¸
ĠÐ·Ð°Ð±Ñĥ Ð»Ð¸
ĠÐ¿ÑĸÐ´Ð» Ð¾Ð·Ñĸ
ĠÐ´Ð·Ð² Ð¾Ð½Ð¸
ĠÐ¾Ð´Ð½Ñĸ ÑĶÑĹ
ĠÐ½ÐµÐ²ÑĸÐ´Ð¾Ð¼ Ð¾
ĠÐ³Ð½ÑĸÐ² Ñĥ
ĠÑģÐ¿Ð¾Ñģ ÑĸÐ±
ĠÐĴÐ¸Ð´ Ð½Ð¾
Ð½Ð°Ð¹Ð¼ Ð½Ñĸ
ĠÑģÑĤÐ°Ð¼Ð±Ñĥ Ð»ÑĮ
Ð° ÑĪÐ¸
Ð² Ð¾Ð´
ĠÐ¼ Ð°Ð»Ðµ
ĠÐº Ð»Ð¸Ðº
ĠÐ½Ð° ÑĤÑĥ
ÑĸÐ´ Ð°ÑĤÐ¸
Ð¾Ð´ Ð½Ð¾
ĠÑī Ð¾Ð½
ÐµÐ½ Ð´Ñĸ
ÐµÐ½ ÑıÑĤ
ĠÐ¿Ð¾ Ñī
ĠÐ¿Ð¾ ÑģÐ¸Ð»Ð°
ĠÑģÑĤ ÐµÑĢ
Ð»Ñı Ð»Ð¸ÑģÑı
ĠÑĢÐ¾Ð· ÑĸÐ³
ÑĢÑĸ Ñı
ĠÐ¿ÑĸÐ´ ÑĤÑĢÐ¸Ð¼
ĠÐĶ Ð°Ð¹
ĠÐĹ Ð³
ĠÐ³Ð¾Ð» Ñĸ
ĠÐ§ ÐµÐ²
ĠÐ·Ð´ Ð¾Ð±Ð¸
Ð½Ð¸Ðº Ð¾Ð²Ñĸ
ĠÐ´Ð¸Ð² Ð¸ÑģÑĮ
ÐŁ Ð¾Ð²
ĠÐ¿Ð¾Ð» ÑĸÐ·
ĠÐ¿ÐµÑĢÐµÐ´ Ð°Ð²
ĠÐ²Ð¸Ñģ Ñĥ
ĠÐĿÐ° ÑĩÐµ
ĠÐ»ÑİÐ´ ÑģÑĮÐºÐµ
ĠÐºÐ¾Ð¶ Ð½Ðµ
ĠÐ·Ð°Ð´ Ð¸Ñħ
ĠÐĴÐ¸ Ð¿
ĠÐ²Ð¸Ð¹ Ð´Ðµ
ĠÐ·ÑĢÐ¾Ð± Ð¸Ð»Ð¸
ĠÐŀÐ´ Ð½Ð°
ĠÑģÑĤÐ¸ ÑĢ
ĠÐ¾ÑģÑĤÐ°Ð½ Ð½Ñĸ
ĠÐºÐ½Ð¸ Ð³Ð¸
ĠÑģÑĤÑĸÐ½ Ð°Ñħ
ĠÐ»Ñĥ ÐºÐ°Ð²
ĠÑģÐ¾Ð» Ð¾Ð²
ĠÐĨÐ½ Ð¾Ð´Ñĸ
ĠÐ·Ð°Ð¼Ð¾Ð² Ðº
ĠÑĩÐµÐº Ð°Ð»Ð¸
ĠÐ·Ð±ÑĢ Ð¾Ñİ
ĠÐ¿Ð°Ð»Ð°ÑĨ Ñĥ
ĠÐ²Ð¸Ð±Ñĥ Ñħ
ĠÐ±ÑĸÐ¶ Ð¸ÑĤÑĮ
ĠÑĸÑģÐ½Ñĥ ÑĶ
Ñĸ ÐºÑĥ
Ð² Ð°Ð¼Ð¸
Ð² Ð¾ÑĢÑĥ
Ñı ÑİÑĩÐ¸ÑģÑĮ
ĠÐ´ ÑıÐº
ĠÐ´ ÑĸÐ¹ÑĪÐ¾Ð²
ĠÑı Ð½Ð³
Ð½Ñĸ ÑĪÐ¾Ð³Ð¾
ĠÐ» Ð°Ð·
ĠÑħ Ð¾Ð»
ĠÐ²Ð¸ ÑģÑĸ
ĠÐ¿ÑĢÐ¸ ÑĤÐ¸
ĠÐ½Ñĸ Ð·Ð´
ÑĸÐ»ÑĮ ÑĪÐµ
Ñī Ð¸Ð½Ð¸
Ð¾Ð¿ ÑĢÐ°Ð²Ð´Ð°
ÑĢÑĸ ÑĶ
ĠÐ²Ñģ ÑĸÐ¹
ĠÐ¿ÑĢÐ¾ ÑĪÑĥ
ĠÐ¾Ð± ÑĸÑĢ
ĠÑģÐº ÐµÐ»Ñĸ
Ð»Ñĥ Ð³
ĠÐ´Ñĥ Ð¶
ĠÐ½Ð°Ð² ÐºÑĢÑĥÐ³Ð¸
ĠÐ½Ð°Ð´ Ð²ÑĸÑĢ
ĠÐ¿Ð¾Ð» Ð¾Ð½
ÑĪÑĥ ÑĤÑĮ
Ð°Ð»Ðµ Ð½Ñĸ
ĠÐ¼Ñĥ ÐºÐ¸
ÑĥÑĶ ÑĤÐµ
ĠÐ±ÑĸÐ» Ñĥ
ÑıÐ· Ð½Ñĸ
ĠÑģÐ¾Ð½ ÑĨÑĸ
ĠÐ¿ÑĸÑģ ÐµÐ½ÑĮ
ĠÑģÐ¾Ð± Ð°Ðº
ĠÑģÑĤÑĢ ÑĸÐ»ÑĮ
Ð§ Ð¾ÑĢ
ĠÑĥÐ¿ ÐµÑĢÐµÐ´
ĠÐ¿Ð¸ÑĤ Ð°Ð²
ĠÐŁÐµÑĤ ÑĢÐ°
ĠÑĤÐ¾Ð²Ð°ÑĢÐ¸ ÑĪÐ°
ĠÐ·Ð¾Ð»Ð¾ÑĤ Ð°
ĠÐ·Ð¾Ð»Ð¾ÑĤ Ð¾Ð¼
ĠÐ·ÑĸÑĤÑħ Ð°Ð½Ð½Ñı
ĠÐ¼ÑĸÑģÑı ÑĨÑĸ
ĠÐ¾Ð´ÐºÐ°Ð· ÑĥÑĶ
ĠÑģÐ¾Ð» Ð´Ð°ÑĤ
ĠÑģÐ¿ÑĢÐ°Ð²Ð¶ Ð½ÑĸÐ¹
ĠÐ»ÑıÐ³ Ð»Ð°
ĠÐ¼Ð¸Ð»Ð¾ ÑģÑĤÐ¸
ĠÐ´Ð¸ÑĤ ÑıÑĩÐ¸
ĠÐ¿ÑĢÐ¾Ð» ÐµÑĤ
ĠÐ¾Ð¿Ð¾Ð²ÑĸÐ´ Ð°Ð½Ð½Ñı
ĠÐ¼Ð¾Ð¼ ÐµÐ½ÑĤ
Ð» ÐµÑĢ
Ñı ÐºÐ°
Ñı Ð»Ð¸ÑģÑĮ
ĠÐ½ Ð¸Ð²
Ð¼ Ð¾Ñİ
ĠÐ· ÑĨÑĸÐ¿
Ñĩ ÑĥÐ²
ĠÐ± Ð¾Ð»Ñı
Ð¾Ð³ Ð»Ð°
Ð± ÑĢÐ¾ÑĶ
Ð¾ÑĢ Ð¾Ð½Ð¸
ĠÐ¾ ÑĩÐ¸
ÑĸÐ² Ð½Ð¸
ĠÑħ Ð²Ð°Ð»Ð¸
ĠÐ¿Ð¾ ÑĹÑħÐ°Ð²
ĠÐ¿ÑĢ Ð¾ÑĹ
ĠÑģÑĤ Ð°Ð½Ñĥ
ĠÐ·Ð° ÑģÐ¸Ð¿
ĠÐ±Ñĥ Ð½
Ð»Ðµ Ð¶
ĠÐ¿ÑĢÐ¸ ÑĢÐ¾Ð´
Ð°Ð¿ Ñĥ
ĠÑģÐ¿ Ð¾Ð´Ð¾Ð±
ĠÑĢÐ¾Ð· Ð»Ð¸Ð²
ĠÑĢÐ¾Ð· ÐºÑĢÐ¸
ÑĢÑĸ Ð¼ÐµÐ½
ÑĢÐµ Ð½Ñĸ
ĠÐ¾Ð± Ð»Ð¸
ĠÐ³Ð¾Ð» Ñĥ
ĠÑģÐµ Ð»Ð¸
ĠÐ´Ñĥ ÐºÐ°
ÑĦ Ðµ
ĠÐ±ÑĥÐ² Ð°Ð»Ð¾
ĠÐºÑĢ Ð°ÑĶ
ĠÑĩÐ°Ñģ ÑĸÐ²
ĠÐ¦ Ñĸ
Ð¾ÑģÑĤ Ð°Ð½
ĠÐ¿ÐµÑĢ ÑĪÐ¸Ð¼
ĠÐ±ÑĢ Ð°Ð¼Ð¸
ĠÑģÑħ Ð¾Ð´Ð¸
ĠÐ¶Ð¸Ð² Ð°
ĠÑĤÑĢÐ¾ ÑĶ
ĠÐľÐ¸ ÐºÐ¾Ð»Ð¸
ĠÐ¿Ð¾Ñħ Ð¾Ð²
ĠÐºÐ¾Ð¼ ÑĸÑģ
Ðł Ðŀ
ĠÐ¿Ð¸ÑĤ Ð°
ĠÐºÐ¾Ð· Ð°ÐºÐ¸
ĠÐ·Ð°ÑĤ ÑĢÐ¸Ð¼
ĠÑģÑĤÐ°ÑĢÐ¸ Ñħ
ĠÑĢÐ¾Ð·Ð´ ÑıÐ³
ĠÐ¡ÑĥÐ»ÐµÐ¹Ð¼Ð°Ð½ Ð¾Ð²Ñĸ
ĠÑĤÑĢÐ°Ð² Ñĸ
ĠÐ¿Ð¾ÐºÐ°Ð· Ð°ÑĤÐ¸
ĠÑĤÑİÑĢ Ð¼Ñĥ
ĠÑģÐ²Ñı ÑīÐµÐ½
ĠÐ±ÐµÐ·Ð¿ ÐµÑĢÐµ
ĠÑĤÐ²Ð¾ÑĹ Ñħ
ĠÐĳÐ°ÑıÐ·Ð¸Ð´ Ð°
ĠÐ·Ð°Ñĩ Ð°ÑĢ
ĠÐ´ÑıÐ´ÑĮ ÐºÐ¾
ĠÐ³ÐµÐ½ÐµÑĢ Ð°Ð»ÑĮ
ĠÐ¾ÑģÑĤÐ°ÑĤ Ð¾ÑĩÐ½Ð¾
Ð° ÑĨ
ÑĤ Ð¾Ð½
Ñģ ÑİÐ´Ð¸
ĠÐ² Ð¾Ñģ
ĠÐ¿ ÐµÑĤ
ĠÐ½ ÑĥÑĤ
ĠÐ½ Ð¾Ð²Ð°
Ð´ Ð¾Ñħ
ĠÑĤ Ð¾ÑģÐº
ĠÐ´ ÑĸÐ»
ĠÐ± Ð°Ð´ÑĮ
Ð± ÑĢÐ°
ÑģÑĤ Ð¾Ð³Ð¾
ĠÐ½Ð° ÑĹ
ĠÐ½Ð° ÑģÑĤÑĢ
ÑĸÐ´ ÐºÐ°
ĠÐ³ Ð»ÑĥÐ¼
ÑĸÐ½ Ðµ
ĠÑģÑĤ Ð°Ð¹
Ð¾Ð· Ð°
Ð½Ð° Ñĩ
ĠÑĨ ÐµÑĢ
Ð½Ñı Ñħ
ĠÑģÐ² Ð¾Ñı
ĠÐĴ Ð·
ÐµÐ¼ Ð¸
ĠÐŁ Ð¾Ð»ÑĮ
ĠÑĢÐ¾Ð· Ð²Ñĸ
ĠÐľ Ð¾ÑĢÐ´
Ð¼Ð¸ ÑģÐ½Ðµ
ĠÑģÐº Ð¾ÑĢÑĸÑĪÐµ
ĠÐļ ÑĢÐ¸Ð¼
ĠÐ³Ð¾Ð» Ð¾Ð´Ñĥ
ĠÐ±ÐµÐ· Ð¾Ð´
Ð¾Ð²Ð¸ Ð»Ð¸
ĠÐ·Ð°Ð¿ ÑĢÐ¾Ð¿
ĠÐ¿Ð¾Ñĩ Ð°ÑĤÐºÑĥ
ĠÐºÑĢ Ð°ÑģÐ¸
ÐŁ Ð°Ð½
ĠÐ·Ð°Ð± ÑĸÐ³
ĠÐ·Ð°Ñģ Ð½ÑĥÐ²
Ð¾ÑĢÑĸ Ð¶
ĠÐĿÐ° ÑģÑĤÐ°ÑģÑı
ĠÑĩÑĥ Ð´Ðµ
ĠÐ¯Ðº Ðµ
ĠÐ»ÑİÐ´ ÑģÑĮÐºÐ¸Ð¹
ĠÑĢÐ¾Ð·Ð¿ Ð»ÑİÑī
?.. "
ĠÐ²Ð´ ÑĢÑĥÐ³Ðµ
ĠÐ²ÑĸÐ´Ñĩ ÑĥÑĤÑĤÑı
ĠÐ½Ð¸ Ð¶ÑĩÐµ
ĠÐ²Ð¸ÑģÐ¾Ðº Ð°
ĠÑģÐ¼Ñĸ ÑıÐ²ÑģÑı
ĠÐ¼Ð¾Ð»Ð¾Ð´ Ð¸Ñħ
ĠÐŀÐ´ Ð½Ð°ÑĩÐµ
ĠÐ¿Ð¸ÑĤ Ð°Ð½Ð½Ñı
ĠÑģÐ¸Ð½ Ð¾Ð²Ñĸ
ĠÑģÐºÐ°Ð¶ ÐµÑĪ
ĠÐ·Ð¼Ñĸ Ð³
ĠÑĤÑĢÐ°Ð² Ð°
ĠÑĪÑĥ ÐºÐ°Ð²
ĠÐ¿Ð¾ÑģÑĤ Ð°ÑĤÑĸ
ĠÐ¿Ð¾Ð¶ Ð¸Ð²
ĠÐ½ÐµÐ¿ÑĢÐ¸ ÑģÑĤÑĥÐ¿
ĠÐ²ÑĸÐ² ÑĨÑĸ
ĠÑīÐ¾Ð´ Ð¾
ĠÐ¶Ð°Ñħ Ð¾Ð¼
ĠÐ¼Ð¾ÑĤ Ð¾ÑĢÐ¾ÑĪ
Ð²Ð¾ÑĶ Ð¼Ñĥ
ĠÐ´Ð¾Ð½ Ð¾Ñģ
ĠÐļÐ¾Ð¶ ÐµÐ½
ĠÐ¿Ð°Ð² ÑĥÑĤÐ¸
ĠÐ´ÐµÑĢ Ð²Ñĸ
ĠÐŁÐµÑĤÑĢ Ð¾Ð²Ð¸Ñĩ
ĠÐ»ÑİÐ»ÑĮ ÐºÑĥ
ĠÐ±Ð¾ÑĹ ÑĤÑĮÑģÑı
ÐµÐ½ÐµÑĨÑĸ Ð°Ð½
Ðµ Ð²Ñĸ
Ð² Ð°Ñħ
Ð² ÑĪÐ¸ÑģÑĮ
Ñı ÑĶ
ÑĪ ÐµÐ½Ð½Ñı
Ð· Ð½Ñĸ
ĠÐ¾ ÐºÐ¾Ð»Ð¸
ĠÐ³ ÑĢÐ¸
ĠÐ³ ÑĢÐ°
ĠÐ» Ð°ÑĤ
ĠÐ¿Ð¾ ÑĪÐµÐ¿
ĠÐ¿ÑĢ Ð¾Ð³Ñĥ
ĠÐ¶ Ð²Ð°Ð²
ĠÐ¿ÑĢÐ¸ Ð±Ñĥ
ĠÐ¿ÑĢÐ¸ ÑĹÑħÐ°Ð²
Ð¾ÑĤ ÑĢÑĸÐ±
ĠÑģÐ¿ ÑĢÐ¸Ð¹
ĠÑĢÐ¾Ð· ÑĤ
ĠÐ¡ ÐµÑĢÐµÐ´
ĠÐ¡ Ð¿ÐµÑĢÑĪÑĥ
ĠÐ²Ñģ ÐµÑĢÐµÐ´Ð¸Ð½Ñĸ
ĠÐ¿ÑĸÐ´ Ð¼
ĠÐ¾Ð± Ñģ
ĠÐ¾Ð´ Ð½Ð¾ÑĹ
ÑĤÐµ Ð¹
ĠÐĵ Ð¾Ð²Ð¾ÑĢÐ¸
ĠÐ¿Ð¾Ð² ÑĤÐ¾
ĠÐ¿Ð¾Ð² ÑĸÐ´Ð¾Ð¼
Ð»ÑĮ ÑĦ
ÑĤÑı Ð¶
ÑıÐ² Ð°
ÐĴ ÑģÑĸ
ĠÐ²ÐµÐ»Ð¸ Ðº
ÐŁ ÐµÑĢÐµ
ĠÐ´ÑĥÐ¼ Ð°ÑĶÑĪ
ĠÐ±ÑĸÐ» Ðµ
ĠÑĤÐ² Ð°ÑĢÐ¸
ĠÐ¿Ðµ ÑĩÐ°Ð»ÑĮ
ÑıÐ· Ð¾Ðº
ĠÐºÐ¸ Ð½ÑĥÐ»Ð°ÑģÑĮ
ÑģÐº Ð°Ð»Ð°
ĠÐ³ÑĢ Ð°Ð¼
ĠÐ³ÑĢ Ð°ÑĤÐ¸
ĠÐ´Ð¾ÑĢ Ð¾Ð³Ð¾Ñİ
ĠÐ²Ð´ Ð°Ð²
ĠÐ²ÑĸÐº Ð½Ð¾Ð¼
ĠÐ²Ð¾Ð³ Ð½Ñĸ
ĠÐ²Ð¸Ð¹ ÑĪÐ»Ð¾
ĠÑģÑĤÑĢÐ°ÑĪ Ð½Ð°
ĠÐ¿Ð» ÑĥÑĤ
ĠÐ¿Ð»Ð° ÑĩÑĥ
ĠÐ»Ð¸ÑĪ ÐµÐ½ÑĮ
ĠÑħÐ¾Ð»Ð¾Ð´ Ð½Ð¸Ð¹
Ð»ÑİÐ² Ð°Ð²ÑģÑı
ĠÐ¿Ð¸ÑĤ Ð°Ñİ
ĠÑĢÐ¸ Ð±Ð°
ĠÐ¼Ð°Ð»ÐµÐ½ÑĮ ÐºÐ°
ĠÐ²Ð° ÑĪÐµ
ĠÐ²Ðº Ð»Ð°Ð´
ĠÐºÐ¾Ð¿ Ð¸ÑĤ
ĠÐ·ÑĥÑģÑĤÑĢÑĸ Ñĩ
ĠÑĢÐµÐ³ Ð¾ÑĤ
ĠÐ¾Ð±ÑĸÐ´ Ñĥ
ĠÐĳÐ°Ð³ Ð°ÑĤÐ¾
ĠÑģÐ¿Ð¸Ð½Ð¸ Ð²ÑģÑı
ĠÐ·Ð±Ð°Ð³ Ð½ÑĥÐ²
ĠÐºÐ¾ÑĢÐ°Ð± ÐµÐ»ÑĮ
ĠÐ·Ð°ÑģÐ¿Ð¾Ðº Ð¾ÑĹ
ĠÐ¼Ð¸ÑĤ ÑĤÑİ
ÐŁÐµÑĤ ÑĢÐ¾
ĠÐ½ÐµÑīÐ° ÑģÑĤÑı
Ð¡ÑĤÐµ Ð¿Ð°Ð½
ÑĤ Ð°ÑĤÐ¸
ÑĤ Ð¾ÑĢÐ°
Ð» Ð¾Ð½Ð¸
Ñı Ð½Ð¾Ð³Ð¾
Ñı Ð½Ð¸Ð¼Ð¸
ĠÐ¿ Ð¾Ð½Ð¸
ĠÑģ Ð¾ÐºÐ¸
ĠÑģ ÐºÑĥÐ¿
Ð¾Ð² Ð°Ð½Ðµ
Ð¿ ÐµÑĢÐµ
ĠÐ¼ Ð°Ðº
ĠÐ¼ Ð¾Ð»Ð¾ÑĤ
Ð½Ð¸ Ð»Ð¸
ĠÑģÑĤ Ð¾Ñģ
ĠÑĨ Ð¸Ð¼Ð¸
ĠÐ²ÑĸÐ´ Ð±Ð¸Ð²
ĠÑĪ ÐµÑĢ
Ð¸ÑĤ Ð¾Ð³Ð¾
ĠÐ¾Ð± ÑģÑĤÐ°Ð²
Ð°Ð¶ ÑĥÑĤÑĮ
ĠÐ»Ñİ Ð±Ð¾
ĠÐ¥ Ð°ÑĢ
ĠÐĳ Ð°Ð±
ÑĢÐ°Ð² ÑĪÐ¸
ĠÑĩÐ¸ ÑĹ
ĠÐ¼Ðµ Ð¶Ñĸ
ĠÐ»Ðµ Ðº
ĠÐ¿Ð¾Ñĩ Ð°Ð»Ð¾
ĠÑģÑĥÐ»ÑĤÐ°Ð½ ÑģÑĮÐºÐ¾ÑĹ
ĠÐºÐ¾Ð» Ð¾Ð½Ð°
ĠÑĦ ÑĸÐ»ÑĮ
ĠÐ·Ð°Ð± ÑĥÑĤÐ¸
ĠÐ³Ñĥ ÐºÐ°Ð²
Ð¡ Ðº
ĠÐ¿ÐµÑĢ ÑĪÐ¾ÑĹ
ĠÑĩÐ¾ÑĢ Ð½Ðµ
ĠÐ²Ñĥ Ð³
ĠÐ¿Ñĸ ÑĪÐ»Ð¾
ĠÐ¿Ðµ ÐºÑĥ
ĠÐ¿Ðµ ÐºÐ»Ð°
ÑıÐ· ÐºÑĥ
ĠÑģÐ¾Ð± Ð°ÐºÐ°
ĠÐ»ÑİÐ´ ÑģÑĮÐºÑĥ
ÑģÐ¿ ÑĢÐ°Ð²
ĠÐºÐ°Ð¶ ÐµÑĪ
ĠÐ¼Ð°Ð¹ ÑģÑĤÐµÑĢ
ĠÐ²ÐµÑģÐµ Ð»Ñĸ
ĠÑĩÐµÑĢÐ²Ð¾Ð½ Ð¸Ð¼
ĠÐ±Ð°Ð± Ð¸
ĠÐ¿ÑĢÐ¾ÑĤ Ð¾Ðº
ĠÐ½ÐµÐ¼Ð¾Ð² Ð±Ð¸
ĠÐ²ÐµÐ»Ð¸Ñĩ Ð½Ð¾ÑģÑĤÑĸ
ĠÑģÐ²Ñı ÑĤÐ°
ĠÐ´Ð¸Ñħ Ð°Ð½Ð½Ñı
ĠÐ¾Ñħ Ð¾ÑĩÐµ
ĠÑĩÐµÑĢÐµ Ð¿
ĠÐ±ÑĸÐ»Ð¸ Ð¼Ð¸
ĠÑĪÐ°Ð¿ ÐºÐ¸
ĠÐ¼Ð¸Ð»Ð¾ ÑģÐµÑĢÐ´
ĠÐ²Ð½Ð¸Ð· Ñĥ
ĠÐ¿Ð¾Ð»Ð¾Ð²Ð¸ Ð½Ñĥ
ÐĵÑĢÐ¸ ÑĨÑĮÐºÐ¾
ĠÑģÑĤÐ°ÑĢÑĪÐ¸ Ð½Ð°
ĠÑģÑĤÑĥÐ´ ÐµÐ½ÑĤ
ĠÐ³Ð¾ÑģÑĤÐ¸ Ð½
ĠÐ±Ð°Ð³Ð°ÑĤÑĮ Ð¾Ñħ
ĠÐ¾Ð´Ñĩ Ð°Ð¹Ð´Ñĥ
ĠÐĶÐ¶Ð¸ÑħÐ°Ð½ Ð³ÑĸÑĢ
" ?
Ðµ ÑģÐµ
Ð½ ÐµÐ½Ð¾
ĠÐ¿ ÑģÐ°
ĠÑģ Ð°Ð¶
ĠÐ· ÑĥÐ¼
ĠÐ· ÑĢÐ¸Ð²
Ñħ Ð½Ñĸ
ÑĪ ÐµÐ½Ð°
ĠÐ± Ð°Ñģ
Ð± Ð¾Ð²
Ð± Ð¾Ñİ
Ð»Ð¸ Ð»Ð°ÑģÑı
ÑĸÐ´ ÐµÐ²
Ð¾Ð´ ÑıÐ³
ÑĨ Ð²ÑĸÑĤ
ÐµÐ½ Ð½Ð°
ĠÑħ Ð»ÑĸÐ²
Ð°Ð´ Ð°ÑĶ
ĠÐ¿Ð¾ Ð¾Ð±
ĠÐĴ Ð¸Ñħ
ĠÐĴ ÑĸÐ·
Ð°Ð³ Ð¾ÑĢ
Ñī Ð°Ð´
ÑĢÑĸ Ñģ
ĠÐ¿ÐµÑĢÐµ Ð¶
ĠÐ¿ÐµÑĢÐµ Ð¼Ñĸ
Ð²Ð¸ Ð»ÑĮ
ĠÑģÐº Ð»Ð°Ð²
ĠÑĢÑĥ Ð´
ĠÐ±Ð¾ ÑıÐ»Ð°ÑģÑı
ÑģÑĸ ÑĹ
ÐŁ Ð¾Ð¿
ĠÐ¿Ð¾Ð» Ð¾Ð½Ð¸
ĠÑģÑĥÐ»ÑĤÐ°Ð½ ÑģÑĮÐºÐ¸Ð¹
ĠÑģÐµÑĢ Ð¹Ð¾Ð·
ĠÑĢÐµ Ð¶
ĠÑĢÐ°Ð· Ñĸ
Ð¸Ð´ ÑĸÐ²
ĠÐºÐ¾ÑĢ Ð¾Ð²Ð¸
ĠÐ½Ð°Ñģ Ð¾Ð»Ð¾Ð´
ÑıÐ· Ð½ÑĸÐ²
ĠÐ²Ð¾Ð» Ð¾Ð´Ñĸ
ĠÐºÐ¸ Ð½ÑĥÐ»Ð°
ÐµÑģ Ð½Ñĸ
ĠÐ½ÐµÐ² ÑĸÑĢ
ÑıÑĤÐ¸ Ð¹
ĠÐ±Ð°ÑĩÐ¸ ÑĤÐµ
ĠÐ²ÑĸÐ´Ñĩ Ð°Ñİ
ĠÐºÑĢÑĸ Ñģ
ĠÐ»ÑĸÑĤ Ð¾
Ð»ÑİÐ² Ð°ÑĤÐ¸
ĠÐĵÑĢÐ¸ÑĨÑĮ ÐºÐ°
ĠÐ¿ÑĢÐ¸Ð² ÑĸÐ·
ĠÐ´ÑĥÑĢ Ð½Ð¸Ð¹
ĠÐ±ÑĸÐ³ Ð»Ð¸
ĠÑĢÐ¾Ð·Ð¼ Ð¾Ð²Ð°
ĠÐ¡Ð°Ð¼ Ð°
ĠÐ½ÐµÐ²Ðµ Ð»Ð¸
ĠÐ»ÑİÐ±Ð¸ Ð»Ð°
ĠÑģÐ¼ÑĸÑħ Ð¾Ð¼
ĠÐĹÐ´ Ð°ÑĶÑĤÑĮÑģÑı
ĠÐ²Ð¼ ÑĸÐ²
ĠÐ¶Ð¸Ð´ ÑĸÐ²
ĠÐºÐ¾ÑĢÐ¸Ð´ Ð¾ÑĢ
ĠÑģÐ¼ÑĥÑĤ Ð¾Ðº
ĠÐŀÑħ ÑĢÑĸÐ¼ÐµÐ½
ĠÐ¿ÐµÐº Ð»Ð¾
ĠÐ¿ÑĸÐ²Ð½Ñĸ Ñĩ
ĠÐ´Ð¾Ð¶ Ð¸Ð´
ĠÐ¢Ð°Ð¹ Ð°Ñħ
ÑĸÐ´ÐµÐ² ÑĢÐ°Ð½
" !
Ð» Ð°Ð¶
Ñı ÐºÐ¸Ñħ
ĠÐ² ÑĸÑı
ĠÐ· Ð´Ðµ
ĠÑĤ ÑĢÑıÑģ
ÑĪ Ð½ÑĸÐ¹
Ð¿ Ð°ÑĤ
Ð¿ Ð¸Ñģ
ĠÐº ÑĢÐµ
ÑĢÐ¸ Ð»Ð¸
Ð°Ð½ Ð½Ð¾
ĠÐ³ Ð°Ð¹
Ð¾Ð½ Ð¾Ñģ
ĠÑĩ Ð¸Ð¹
Ð°Ð´ Ð¸Ð²
ĠÐ¿Ð¾ ÑħÐ¸
Ð»Ñı ÑĩÐµ
Ð»Ñı ÑİÑĩÐ¸ÑģÑĮ
ĠÐ·Ð° ÑĤÑıÐ³
Ð½Ñı Ð²ÑģÑı
ĠÐ¢ Ð¾Ð¶
ÑĸÑĤ ÐºÐ¸
ĠÐ¡ Ð°Ð½ÑĮ
ĠÐľ ÑĸÑħ
ĠÐĶ Ð¾Ð»Ð¸
ĠÐ»Ñİ ÑĤÐ¾
ĠÐļ Ð¾Ð³Ð¾
ĠÐļ Ð¾Ð¿
ĠÐ¥ Ð¾Ð»Ð¾Ð´
ÑĤÑĸ Ñı
ĠÐ§ Ðµ
ĠÐ»Ð¸ ÑģÑĤÐ¸
Ð½Ð¸Ðº Ð°Ð¼
ĠÑģÐ²ÑĸÑĤ Ð»Ð¾Ð¼
ĠÐ³Ð¾ÑĢ Ð´
ĠÐĽ Ð¾Ð¹
Ð²Ðµ ÑģÑĤÐ¸
ĠÐºÑĢ Ð¾ÐºÐ¸
ĠÐºÑĥ Ð»Ðµ
ĠÑĢÐ¾Ð± Ð¸ÑĤÑĮÑģÑı
ĠÑģÑĤÐ°ÑĢ Ð¾Ð¼Ñĥ
ÑģÐº Ð°Ðº
ĠÑĤÑĢ Ð¾Ð½Ñĥ
ĠÐ¿ÑĢÐ°Ð² Ð¸
ĠÐ¿ÑĢÐ°Ð² Ð¾ÑĢÑĥÑĩ
ĠÑĢÐ°Ð´ Ð°
ĠÐ¿Ð¾Ð· Ð±Ð°Ð²
ÐºÐ½ÑĥÐ² ÑĪÐ¸
ĠÐ»ÐµÐ¶ Ð°ÑĤÐ¸
ĠÑĢÐ¾Ð·ÑĥÐ¼ ÑĸÑĶ
ĠÐ¨ Ðº
ĠÐ¾Ð· Ð½Ð°
ĠÐ²ÐµÑģÐµ Ð»
ĠÑĤÐ¾ÑĢ Ðº
ĠÑĩÐ¸Ð¼ Ð¾ÑģÑĮ
ĠÐ¾ÑģÑĤÐ°Ð½ Ð½ÑĮÐ¾Ð³Ð¾
ĠÑĢÐ¾Ð·Ð´ ÑĥÐ¼
ĠÑģÑĤÑĢÑĥ Ð½
ĠÐ¿ÑĢÐ¾Ð´ Ð¾Ð²Ð¶
ĠÑģÑĤÑĸÐ½ Ð°Ð¼Ð¸
ĠÐ¿ÑĢÐ¸Ð± ÑĸÐ³
ĠÐ°Ð² ÑĤÐ¾ÑĢ
ĠÐ·Ð²ÐµÑĢ Ð½ÑĥÐ²ÑģÑı
ĠÐ¿ÐµÑĢÐµÐ¹ ÑĪÐ¾Ð²
ĠÑĨÐµÑĢÐº Ð²Ñĸ
ĠÐĳÐ°Ð³ Ð»Ð°Ð¹
Ð¾Ñī ÑĸÐ²
ĠÐ»Ð°Ð³ ÑĸÐ´
ĠÐ±ÐµÐ·Ð½Ð°Ð´ ÑĸÐ¹
ĠÐ±ÐµÐ·Ð½Ð°Ð´ ÑĸÐ¹Ð½Ð¾
ĠÐľÐ°Ñħ ÑĸÐ´ÐµÐ²ÑĢÐ°Ð½
ĠÐ¿Ð¾Ð¿ÑĢÐ¾Ñģ Ð¸Ð²
ĠÐ°Ð²ÑĤÐ¾Ð¼ Ð°ÑĤ
ĠÐ½ÐµÐ±ÐµÐ· Ð¿Ðµ
ĠÐ°Ð± Ñģ
ĠÐ°ÑĢÐµÑĪÑĤÐ°Ð½ ÑĤ
ĠÑĢÐµÑĪÑĤ ÐºÐ¸
ĠÐ·Ð´ÑĸÐ¹ Ñģ
Ð½ Ð´Ñĥ
Ð½ Ð°ÐºÐ¸
ĠÑģ Ð¾
ĠÐ± Ð¾Ð²
ĠÐ± ÑĢÑıÐ·
Ð¾Ð³ Ñĸ
Ð± ÑĢÐµ
ĠÑĸ ÑģÐ»Ð°Ð¼
ĠÑĢ Ð¾Ð³
ÑĸÐ´ Ð°Ð²
Ð¾ÑĢ ÐºÐ¸
ĠÐ¾ ÐºÐ°
ĠÐ¾ Ð¶Ð¸Ð²
Ð¶ Ð°Ñħ
ĠÑī ÑĸÐ»ÑĮÐ½Ð¾
Ð¾Ð± Ð¾Ñİ
Ð¸Ð² Ð°Ð²
ĠÑħ Ð¾ÑĢÐ¾Ð±
ĠÐ¿Ð¾ ÑģÑĤÑĥ
ĠÐ¿ÑĢ Ð¾Ð±ÑĸÐ³
ĠÐ²Ð¸ ÑĢÐ¸Ð²
ĠÑģÑĤ ÑĥÐº
ĠÐ¡ Ð»
ĠÑĪ ÐºÐ¾Ð»Ð¸
ÑĸÑĢ Ð½Ðµ
ĠÐ¿ÐµÑĢÐµ Ðº
ĠÐ¾Ð± Ð»Ð¸Ð²
Ð±Ð¸ Ð¹
Ð¾Ð´Ð¸ Ð»Ð¾ÑģÑı
ĠÐ·Ð² Ð¾ÑĢÑĥÑĪ
ĠÐĿÐµ Ð´
ĠÐ·Ð°Ð² ÐµÑĢ
ĠÐ¿Ð¾ÑĢ Ð¾Ð³Ð°
ĠÑģÐºÐ°Ð· Ð°Ð»Ð¸
ĠÐ¿Ð¾Ð» Ð°Ð¼
ĠÐ¿Ð¾Ð» ÑĥÐ´
ĠÐ´Ð¾Ð² ÑĸÑĢ
ĠÐ½Ð°Ð¹ Ð³
ĠÐ½Ð°Ð¿ Ð¸
Ð¡ Ð¿
ĠÐºÐ¾ÑĢ Ð¼Ñĥ
ĠÐ½Ð°Ñģ Ð¿ÑĢÐ°Ð²Ð´Ñĸ
ĠÑĩÐ¾ÑĢ ÑĤÐ°
Ð¸Ð½ ÐºÐ¸
ĠÐ²ÐµÑĢ ÑģÑĤ
ĠÐ¼Ð°Ð¹ Ð´Ð°Ð½
ĠÐºÑĥÐ¿ Ð¸ÑĤÐ¸
ÑıÑĩÐ¸ ÑģÑĮ
ÑİÐ² Ð°Ð»Ð°
Ð»ÐµÐ¹ Ð¼Ð°Ð½
ÑıÑģ Ð¾
ĠÐ¿ÑĢÐ¸Ð³ Ð¾Ð»Ð¾Ð¼
ĠÐ´ÑĸÑĤ Ð¾Ðº
ĠÐŁÑĢÑĸ ÑģÑı
ĠÐ³Ð¾ÑģÑĤ ÐµÐ¹
ĠÐ´Ð¾Ð¼ Ð°Ð³
Ð´Ñı ÐºÐ¸
ĠÐĩ Ð¹
ĠÑĤÑĢÑĸ Ð¿
ĠÐ·Ð²ÐµÑĢ Ð½ÑĥÐ²
ĠÑħÑĥÐ´ Ð¾Ð¶
ĠÐĹÐ´ Ð¾ÑĢ
ĠÐ²ÑĢÐ°Ð¶ ÐµÐ½Ð½Ñı
ĠÐĵÐ¾ÑģÐ¿ Ð¾Ð´ÑĮ
ĠÐĹÐ½Ð° ÑĶÑĪ
ĠÐ¾Ð±ÐµÑĢ Ð½ÑĥÐ²ÑģÑı
ĠÑģÐ¿Ð¾ ÑĩÐ¸Ð²
ĠÐµÐº ÑģÐ¿
ĠÐ¿ÑĢÐ¸ÑĶÐ¼ Ð½Ð¾
ĠÐ½Ð°ÑĢÐ¾Ð´Ð¶ ÐµÐ½Ð½Ñı
ĠÐĶÐ°Ð½ÑĮ ÐºÐ°
ĠÐ¿ÑĢÑĸÐ· Ð²Ð¸ÑīÐµ
ĠÐ¾Ð±Ð²Ð¸ Ð½ÑĥÐ²
ÐłÐ¾ÐºÑģÐ¾Ð» Ð°Ð½Ð°
Ġ H
Ñģ ÑĸÐ½ÑĮ
Ð´ ÐµÑĢ
ĠÑģ Ð¾Ð²
ĠÑģ Ð°Ð´Ð¸
ÑĪ Ð½Ñı
ĠÐ± Ðµ
ĠÐº Ð»Ð¸ÐºÐ°Ð²
ĠÑĸ Ð¼ÐµÐ½Ñĸ
ĠÐ½Ðµ Ð²ÑĸÑģÑĤ
Ð¾ÑĢ Ð°ÑĪ
ĠÑĥ Ð½Ð¾ÑĩÑĸ
ĠÐ» ÑĸÐ´
ĠÐ» Ð°Ñħ
ĠÐ²Ð¸ ÐºÐ¸
ĠÐ¶ Ð´Ðµ
ĠÑĨ Ð²ÑĸÑĢ
ĠÐĴ Ð¾Ð²
ĠÐĴ Ð¾ÑĢ
ĠÐ¿ÑĢÐ¸ ÑħÐ¾Ð²
ÑĢÑĥ ÑĤÐ¸Ð²
ÑĢÑĸ Ñİ
ÑĪÐ¸ ÑĢ
ĠÐ¾Ð± ÑĥÑĢ
Ð»Ñĸ ÐºÐ°
ĠÐĶ Ð²Ð°
ĠÑģÐ°Ð¼ Ð¾Ñİ
ĠÐĹ Ð°Ð¹
ĠÐĹ ÑĢÐµÑĪÑĤÐ¾Ñİ
ĠÐļ Ð°Ð¼
ĠÐĵ ÐµÐ¹
ÑĨÑĮ ÐºÐ¸Ð¹
ÑĨÑĮ ÐºÐ¾Ð³Ð¾
ĠÑĤÐ¸ Ð³
ÑģÑĤÐ¸ Ð²
ĠÐ´Ð¸Ð² Ð¸Ð»Ð°ÑģÑĮ
Ð¼Ðµ Ð½Ð¸
ĠÐ¿Ð¾Ñĩ ÐµÑĢÐ²Ð¾Ð½
ĠÐ²ÐµÐ»Ð¸ ÑĩÑĸ
ÐŁ ÐµÑĢ
ĠÐ´ÑĥÐ¼ ÑĨÑĸ
ĠÐ¼Ñĥ Ð¶Ð¸
ĠÐ¿Ð¾Ð³ Ñĥ
ĠÑĤÑĥ Ð¶
ĠÐ½Ð°Ñģ Ð»ÑĸÐ´
ĠÑĩÐ¾ÑĢ Ð½Ð¸Ð¼
Ð¾ÑĢÑĸ ÑĹ
ĠÐ¢Ð°Ðº Ñĸ
Ð»ÐµÐ½ Ð¾ÑĹ
Ð¿Ñĥ Ð±Ð»Ñĸ
ÑģÑĤÐ¾ ÑıÐ²
ĠÐ½ÐµÐ¿ Ð¾ÑĤÑĢÑĸÐ±
ĠÑĢÐ°Ð´ Ñĸ
ĠÑĢÐ°Ð´ ÑĸÑģÑĤÑİ
ĠÐ¿Ð¸ Ð»
ĠÐľÐ°ÑĢ ÑĸÑĩ
ÑıÑĤÐ¸ ÑģÑĮ
ĠÐ¼Ð¾Ð²Ñĩ Ð°Ð»Ð¸
ĠÐ´Ð¾Ð´ Ð¾Ð»Ñĥ
ĠÑģÐ¸Ð½ Ð¾Ð¼
ĠÐ´Ð¸ÑĤÐ¸ Ð½Ð¸
ĠÑĤÐ¾Ð²Ð°ÑĢÐ¸ ÑģÑĤÐ²Ð¾
ÑĹÑħ Ð°Ð»Ð°
ĠÐ¿ÑĢÐ¾Ð¹ ÑĤÐ¸
ĠÐ´Ð¾Ð¼ Ñĸ
ĠÐ¡Ð°Ð¼ Ðµ
ĠÐĳÐ¾Ð³ Ð´Ð°Ð½
ĠÐ¯Ð²ÑĤÑĥ Ñħ
ĠÐ´Ð¾Ð³ Ð°Ð´
ĠÐ¼Ð°ÑĪÐ¸ Ð½
ĠÐ½Ð°ÑĩÐ°Ð»ÑĮ Ð½Ð¸ÐºÐ°
ĠÐ·Ð½Ð°Ð¹Ð¾Ð¼ Ð¸Ð¹
ĠÐĴÐ°Ð²Ð¸Ð»Ð¾Ð½ Ñĸ
ÑıÐ²Ð»Ñı ÑĶÑĤÑĮÑģÑı
ĠÐ¿Ð»Ð¸Ð² Ð»Ð¸
ĠÐ±ÑĥÐ´Ð¸Ð½ Ð¾Ðº
ĠÐĶÐ°Ð² Ð°Ð¹
Ð²Ð¶Ðµ Ð¶
ĠÐ¾Ð¿ÐµÑĢ Ð°ÑĤÐ¸Ð²
ĠÑģÐ¿Ð°Ð´ ÐºÐ¾
ĠÐ¡Ð°Ð² ÐºÐ°
Ð¥Ð»Ð¾Ð¿ ÐµÑĨÑĮ
ĠÑģÐ¿Ñĥ ÑģÐº
ĠÐ¯ÐºÑĸÐ² Ð½Ð°
ĠÐ¿Ð¾ÑĩÐ¸ Ð½Ð°Ð²
Ð¾ÑģÑĤÐ°Ð½ Ð½ÑĶ
y p
ĠÐ½ Ð°Ð»Ñı
ĠÐ· Ð½Ð¸ÐºÐ°
ĠÐ· ÑĸÐ¹ÑĪÐ¾Ð²
Ñĩ ÑĥÐ²Ð°Ð²
Ð¾Ð² ÑĩÐ°Ð²
ĠÐ¼ Ð»Ñı
Ð°Ð½ Ð¾Ð¼
ÑģÑĤ ÑĢÐ°ÑĪ
ĠÑĢ Ð¾ÑĤÑĸ
ĠÐ³ Ðµ
ĠÐ³ ÑĢÐ°Ð²
ĠÑĥ ÑģÐ¿
ÑĩÐ¸ ÐºÑĥ
ÐµÐ½ Ð½Ð¾Ð³Ð¾
ĠÑħ Ð°Ð»Ð°
ĠÐ²Ð¸ ÑħÐ¾Ð¿
ĠÑģÑĤ Ð²Ð¾ÑĢ
Ð°Ð»Ð¸ Ð»Ð¸
ĠÐĲ Ð¼ÑĥÑĢ
ĠÐĿ Ð°Ð·
ĠÐ¡ Ð²
Ð°Ñģ Ðº
ĠÑģÐº Ð»Ñı
ĠÐĹ Ð½Ð°Ð²
ĠÐĵ ÑĢÐµ
ĠÐ¿Ð¾Ð² ÑģÑĤ
ĠÑģÑĥ ÑĩÐ°Ñģ
Ð°Ð»ÑĮ Ð½Ñĥ
ĠÐ»Ð¸ Ð¿
ĠÐ´Ð² Ð°Ð½
ĠÐ½Ð°Ð´ ÑĸÑİ
ĠÐ´Ð¸Ð² Ð¸ÑĤÐ¸ÑģÑĮ
ÑĢÐ¸Ð² Ð¾Ð¶
ĠÐ»Ðµ ÑĤÐ¸ÑĤÑĮ
ÐŁ Ñĸ
ĠÑĤÐ¸Ñħ Ð°
ĠÑĢÐ¾Ð± Ð¾ÑĤÑĸ
ĠÐ½Ð°Ñģ ÑĸÐ½Ð½Ñı
ĠÐ¿Ð¾Ð¿ Ð»Ð¸Ð²
ĠÐ¿Ð¾Ð¿ ÑĢÐ¾Ñī
ĠÐ´ÑĢÑĥÐ³ Ð¾ÑĹ
Ð¿Ð¾Ð² Ð·
ĠÐ³Ð°ÑĢ Ð¼Ð°ÑĤÐ¸
ĠÐ¶ÑĸÐ½ ÑĨÑĸ
ĠÐ´Ð°Ð² Ð°ÑĤÐ¸
Ðŀ Ð±
ĠÐ²Ð¿ Ð»Ð¸Ð²
ĠÐ³ÑĢ Ð°Ð½
ĠÐ³ÑĢ Ð°Ð»Ð¸
ĠÐ³ÑĢ Ð°ÑĶ
ĠÐ¿Ð¸ Ð»Ñİ
ĠÐ¿Ð¾Ð±Ð° ÑĩÐ¸Ð»Ð¸
ĠÐ³Ð»Ð¸ Ð½Ñı
ÑĩÐ¸Ð½ ÐºÑĥ
ĠÐ¿ÑĢÐ¾Ñģ Ð¸Ð²
Ð¼ÐµÐ½ ÑĤ
ĠÐĨÐ±ÑĢÐ°Ð³ÑĸÐ¼ Ð¾Ð²Ñĸ
ĠÑģÐ»Ñĥ Ð³
ĠÐŀÐ´ Ð½Ð°Ðº
ĠÐ·Ð°Ð¹ Ð¼
ĠÑģÐ¾ÑĢ Ð¾ÑĩÑĨÑĸ
ĠÐ¾Ñĩ ÐµÑĢÐµ
Ð»ÑıÐ½ ÐºÑĥ
ĠÐ´Ð¾Ðº ÑĥÐ¿Ð¸
ĠÐ°ÑĢ Ð¼Ñĸ
ĠÐ²ÑĸÐ´Ð¿Ð¾Ð²ÑĸÐ´ Ñĸ
ĠÐ±ÑĸÐ´ Ð°
ĠÐ¿Ð¾Ð²ÐµÑĢÑĤ Ð°Ð²ÑģÑı
ĠÐ²Ð¸Ð¿Ð°Ð´ ÐºÐ¾Ð²Ð¾
ĠÐ³Ð¾ÑģÐ¿Ð¾Ð´ Ð°ÑĢÑı
ĠÐ´Ð¾Ð³ Ð»ÑıÐ´
ĠÐ·Ð½Ð°Ð¹Ð¾Ð¼ Ñĸ
ĠÑĥÑģÐ¼ÑĸÑħ Ð°ÑİÑĩÐ¸ÑģÑĮ
ĠÑĢÐ¾Ð·Ðº Ð»Ð°Ð´
ĠÑģÐ¼ÑĸÑħ Ñĥ
ĠÐºÑĥÑħ Ð½Ñİ
ĠÑħÑĥÑĤ ÑĸÑĢ
ĠÐ¿Ñģ ÑĸÐ²
ĠÐ¿Ð¾ÑĩÐ¸Ð½Ð° ÑĶÑĤÑĮÑģÑı
ÑĦÐ¾ÑĢ Ð¼
ĠÐ¼ÑĥÑĢ Ð°Ð¼Ð¸
ĠÐ³Ð¾ÑģÐ¿Ð¾Ð´Ð¸ Ð½Ñı
Ð¡Ñĥ Ð»ÐµÐ¹Ð¼Ð°Ð½
ĠÐĶÑĥ Ð¶Ðµ
ĠÐ·ÑĥÑģÑĤ ÑĢÑĸÐ²
ĠÐĹÐ´Ð°Ð² Ð°Ð»Ð¾ÑģÑı
ĠÐ¿Ð¾ÑģÑĤÐµ Ð»Ñĸ
ÑĢ Ð°ÑĶ
Ñĥ Ð¹
Ñı ÐºÐ¸Ð¹
ĠÐ² Ð±ÑĢ
ĠÐ· Ð½Ñĥ
Ñħ ÑĸÑĤ
Ñħ Ð¾Ñİ
ĠÐ± Ð»Ð¾
Ð½Ð¸ ÑĤÑĮÑģÑı
ĠÐ³ Ð¾ÑģÑĤÑı
ÑĸÐ» Ð»Ñĸ
ĠÑħ ÑĢÐ°Ð¼
Ð°Ð»Ð¸ Ð¹
ĠÐ·Ð° ÑģÑĤÐ¸Ð³
Ð»Ð¾ ÑģÐµÑĢÐ´
ĠÐ±Ñĥ Ñħ
ÐºÐ¾ ÑĤÑĸÐ²
ĠÐĴ Ð¸Ð¹
ĠÐ²ÑĸÐ´ Ð±Ñĥ
ĠÐ²ÑĸÐ´ Ð³Ñĥ
ĠÐ¢ Ð¾Ð±Ñĸ
ĠÑĢÐ¾Ð· ÑĤÑĥ
ĠÑĢÐ¾Ð· Ð´Ð°Ð²
Ð°Ñģ Ñĸ
ÑĢÐµ Ð³
ĠÐ¿ÑĢÐ¾ ÑĩÐ¸ÑĤ
Ð°Ð¶ ÑĸÑĤÑĮ
ĠÐĶ ÑĥÑĢ
ĠÐ§ ÑĥÐ´
ĠÑĩÐ¸ Ð½Ð¾Ð¼
Ð¾Ð²Ð¸ ÑīÐ°
ÑĥÐ´ Ð¶
ĠÐ´Ð¸Ð² ÑĥÐ²Ð°Ð²ÑģÑı
ÑĸÑĩ Ð½Ð¸Ð¹
ĠÐ¿Ð¾Ñĩ ÑĥÑĤÐ¸
ĠÐ´ÑĥÐ¼ ÐºÐ¾Ñİ
ĠÐ¿Ð¾ÑĤ ÑĢÐ¾
Ð¢ Ð°Ð¼
ÐĿ ÐĲ
ĠÐ¦ Ð°ÑĢ
ĠÐ¿Ðµ ÐºÐµ
ĠÐ¶Ð¸Ð² Ð¸Ñħ
ĠÑĤÑĢ Ð°Ðº
ĠÐ´ÑĸÐ² ÐºÐ°
ĠÐ½ÐµÐ· Ð³
ĠÐ²ÐµÑĢ ÑħÐ¸
ĠÑħÐ¾ÑĤ ÑĸÐ»Ð¾
Ð³Ð¾ÑĢ Ð¾Ð´
ĠÐ²Ð´ ÑıÑĩ
ĠÐ¿Ð»Ðµ Ñģ
ĠÑģÑĤÑĢÐ°ÑĪ Ð½Ð¾Ð³Ð¾
ĠÐ²Ð¸ÑģÐ¾Ðº Ð¸Ñħ
ĠÑĢÑĸÐ´ Ð½Ð°
ĠÐ²ÑĸÑĢ ÑĪ
ĠÐ²ÑĥÐ»Ð¸ ÑĨÑıÑħ
ÑĩÐµÐ½ Ñĥ
ÑĩÐµÐ½ ÐºÐ°
ĠÐ½ÐµÑģ Ð¼Ñĸ
ĠÑĤÑıÐ³ Ð½Ðµ
ĠÐ¿Ð¾Ð½ ÐµÑģ
ĠÐ¼Ð¾ÑĹ Ð¹
Ð»Ð¸Ð²Ñĸ ÑģÑĤÑİ
ĠÐ¿ÐµÐ² Ð½Ðµ
ĠÐ¼ÑĸÑģÑĨÑı Ñħ
ĠÑģÑĸ ÑĢÑĸ
ĠÐ·Ð½Ð°Ð¹Ð¾Ð¼ Ð¸Ñħ
ĠÐ¾Ð±ÑĢÐ°Ð· Ð¸
ĠÐĽÑİÐ´Ð¸ Ð½Ð°
ĠÐ¼ÑĥÐ·Ð¸ ÐºÐ°
ĠÐ¿Ð¾Ð±ÑĸÐ³ Ð»Ð°
ĠÐ·Ð°ÑħÐ¸ Ñī
ĠÐ±Ð°Ð» Ð°Ðº
ĠÐ¿Ð°ÑĢÑĥÐ± Ð¾Ðº
ĠÐ²ÑĸÐ·ÑĮ Ð¼Ðµ
ĠÐºÐ½Ñı Ð·ÑĮ
ĠÐĵÐ¾Ð» Ð¾Ð²Ð°
ĠÐ¼ÐµÑĤÐ°Ð» ÑĥÑĢÐ³
ĠÐ´Ð¸Ð²Ð¾Ð²Ð¸ Ð¶
ĠÐĸÐ¸ Ð³Ð°
ĠÐ´Ð¾Ð³Ð¾ ÑĢÐ¸
ĠÐ²Ð¾ÑģÐº ÑĢÐµÑģ
ĠÐ·Ð´Ð¾Ð±Ð¸ Ñĩ
ĠÐ·Ð°Ð¿ÑĢÐ¾Ð¿ Ð¾Ð½
ÑĢ Ð¾ÐºÑĥ
ÑĤ ÑĥÐ²Ð°Ð»Ð¸
Ð½ Ð°Ð»
Ð» Ð¾Ðº
Ðº ÑĥÐ²Ð°Ð½Ð½Ñı
ĠÐ² Ð°Ð»Ñı
ĠÐ¿ ÐµÐ½
ĠÐ· Ð½ÑıÐ²
Ñĩ ÐºÐ¾Ð¼
ĠÐ´ Ð°ÑİÑĩÐ¸
Ñİ Ð¼
Ð¾Ð² Ð°ÑĢÐ¸
ÑĤÐ¸ Ð½Ð°
ĠÐ± ÐµÑĢÐ¸
ĠÐ¼ Ð°Ð»Ñĸ
ĠÐ¼ Ð¸Ð¼Ð¾
ĠÑĸ ÑĪÐ»Ð¸
Ð· Ð²
ĠÑĢ Ð°Ð¼
Ð°Ð¼ Ð¾
ĠÑĥ Ð½Ñĸ
ĠÑĥ ÑģÑĮÐ¾Ð¼Ñĥ
ĠÐ¶ Ð°ÑħÑĥ
ĠÐ´Ð¾ ÑĤÐ¾ÑĢ
ĠÑĨ Ð²
ĠÐĲ Ð²Ð¶ÐµÐ¶
Ð´Ð¸ Ð»Ð¸
Ð´Ð¸ Ð½Ð°
ĠÐ¡ ÑĸÐ´
ĠÐ¡ Ð¸Ð¼
ĠÑĪ ÑĤ
ÑĢÐµ Ñı
ĠÐ¿ÑĸÐ´ ÑĸÐ¹ÑĪÐ»Ð°
ĠÐ¾Ð± Ð¾ÑĢÐ¾Ð½
ÑĩÐµ Ð¿Ð¸
ĠÐļ Ð¾Ð½
ĠÐĳ Ð¾ÑĢÐ¸
ĠÑģÐ¸ Ð½Ñı
ĠÑīÐµ Ð±Ðµ
Ð¾Ð¶Ðµ Ð²Ð¾Ð»
ĠÑģÐµ ÑģÑĤÑĢÐ°
ĠÐ¿Ð¾Ð´ ÑĢÑĥÐ³
ÑĢÑı Ð³
ĠÐ½Ð°Ð¿ Ð°Ð´
ĠÑĦ ÑĸÑĢ
ĠÐ·Ð°Ð³ Ñĥ
ĠÐºÐ¾ÑĢ Ñĩ
ĠÑĩÐ¾ÑĢ Ð½Ð¾Ð³Ð¾
ÑıÑĤ Ð°Ñİ
ĠÐ²Ð¾Ð» Ð¾Ñħ
ĠÐ·Ð°ÑĢ Ð¾Ñģ
ĠÐºÐ¾Ð¶ Ð½ÑĸÐ¹
ĠÐ²Ð· ÑıÐ²ÑģÑı
ĠÐ²ÑĸÐ¹ Ð½Ñĥ
ĠÑĢÐ¾Ð·ÑĥÐ¼ Ð¾Ð¼
Ðĳ Ð¾
ĠÐ´Ð°Ð»Ðµ ÐºÑĸ
ĠÐºÐ¾ÑĤ ÑĢÐ¾Ð³Ð¾
ĠÐ²Ð³ Ð¾ÑĢÑĸ
ĠÐ²ÑĢ Ð¾Ð´
ĠÐ¡ÑĤÐµ Ð¿
ĠÐ¿Ð° ÑģÑĤÑĥ
ĠÐ½ÐµÑĢ Ð²Ð¸
ĠÑĢÑĸÐ² Ð½Ð¾
ĠÐ²Ð° ÑĪÑĥ
ĠÑģÐ»Ð¾Ð² Ð°Ñħ
ĠÑıÐºÐ¾Ð¼Ñĥ ÑģÑĮ
ĠÐ´ÑĸÐ¹ ÑģÐ½Ð¾
ĠÐĦÐ»ÑĮ ÐºÑĥ
ĠÑģÐ»Ð°Ð² Ð°
ĠÐ¿ÑĥÑģÑĤÐ¸ Ð²
ĠÐ»Ð¸ÑĪÐ¸ Ð»Ð¾ÑģÑı
ĠÐ³ÑĥÐ± Ð°Ð¼Ð¸
ĠÐºÐ»Ð¾Ð¿ Ð¾ÑĤ
ĠÐ²ÑĸÐ¹ÑģÑĮÐº Ð¾Ð¼
ĠÐ»ÑĸÐ² Ð¾ÑĢÑĥÑĩ
ĠÐ¾Ð±Ð¸Ð´ Ð²Ñĸ
ĠÐ¼Ð¾Ð»Ð¸ÑĤ Ð²Ð¸
ĠÑĪÐºÑĸ ÑĢÑĥ
ĠÐºÐ°ÑĢÐ±Ð¾Ð²Ð°Ð½ ÑĨÑĸÐ²
ĠÐ²Ð¸Ñĩ ÐµÑĢÐ¿
ĠÐĦÐ² ÑĢÐ¾Ð¿
ĠÐºÑĸÐ»Ð¾Ð¼ÐµÑĤ ÑĢÑĸÐ²
ĠÐ¿Ð¾ÐºÐ°Ð·Ñĥ ÑİÑĩÐ¸
ĠÐĳÐµÐ» Ð³ÑĢÐ°Ð´
! ),
Ñĥ Ð»ÑĮ
Ñģ Ð½Ñĸ
Ðº ÑĸÐ»Ñı
Ñı Ð½Ð¸Ð¼
ĠÐ² ÐºÐ°Ð·
ĠÐ² Ð²ÐµÑĩÐµÑĢÑĸ
ĠÐ¿ Ð»Ð¸Ð²Ðµ
Ð¼ ÑĸÐ»ÑĮ
Ñĩ Ð½Ð¾Ñİ
ĠÑĤ ÑĸÐº
ĠÑĤ Ð¾ÑĩÐ½Ð¾
ÑĪ Ð°Ð»Ð¸
Ð± Ð°ÑĤÐ¸
ĠÐ¼ Ð»Ð¾
ĠÐ¼ ÑĢÑĸÐ¹
Ð· Ð¼
ĠÐ» Ð¾Ð±
Ð¸Ð² Ð°Ð»Ð¸
Ð¾Ðº ÑĢÐµÐ¼
ĠÐ²Ð¸ ÑĢÐ¾Ñģ
ĠÑģÑĤ ÑĢÐµ
Ð»Ñı Ð¼
Ð½Ñĥ ÑĩÐ¸
ĠÑĹ Ð´
Ð°ÑĤ Ð¾ÑĢÐ¸
ÐµÐ¼ Ñĥ
ĠÑģÐ¿ Ð¾ÑĩÐ°ÑĤÐºÑĥ
Ð¾Ñģ ÑĦ
ĠÐ¡ Ð¼Ñĸ
ĠÐľ Ð¾ÑģÐº
ĠÑĪ Ð¿Ð°ÑĢ
ÑĥÐ¼ Ð½Ð¾
ĠÐ¼Ñĸ ÑĪ
ÑĤÐ°Ð½ Ð°
ĠÐ·Ð°Ð² Ð´ÑıÐºÐ¸
ĠÐ¿Ð¾ÑĢ ÑĥÑĪ
ĠÐ¿Ð¾Ð» ÑıÐ³
Ð°Ð»Ðµ ÑĨÑĮ
ĠÐ¿Ð¾ÑĤ ÐµÐ¼
ĠÑĤÑĸ ÑĹ
ĠÐ¿ÐµÑĢ ÑĪÐ¸Ñħ
ĠÐºÐ¾ÑĢ ÑĸÐ²
ĠÐ²Ñĥ ÑģÐ°
ĠÐ¥ÑĢÐ¸ ÑģÑĤÐ¸
ÐĶ ÑĸÐ²
ÐĶ Ð¾Ð±
ĠÐºÐ°Ð¼ ÐµÐ½Ñĸ
Ð¸Ð½ Ð¾Ðº
Ðľ Ð¾Ð¶Ðµ
ĠÐ²Ð¸Ð¿ Ð¸ÑĤÐ¸
ĠÑĤÑĢ Ð¾Ð½
ÑģÐ¿ ÑĸÐ²
ĠÐ´Ð¾Ð²Ð³ Ð°
ĠÐ±Ð»Ð¸ Ð¶
ĠÐ½ÐµÐ´ ÑĸÐ»Ñİ
ĠÐ·Ð½Ð°Ð¹ Ð´Ðµ
ĠÐ·Ð½Ð°Ð¹ ÑĪÐ»Ð¸
ÑĤÑĢ Ð°Ð¿
ĠÑģÐ»ÑĥÑħ Ð°Ð»Ð°
ĠÐ¼Ð°Ð» Ð¾Ð³Ð¾
ĠÐ²Ð»Ð°Ñģ Ð½Ð¾ÑĹ
ĠÐĵÑĢÐ¸ÑĨÑĮ ÐºÑĥ
ĠÑģÐºÑĢÐ¸ Ð½Ñĸ
ĠÐŁÐµÑĤ ÑĢÐ¾Ð²
ĠÐ³ÑĢÑĸ ÑĪ
ĠÐ¼ÑĸÑģÑı ÑĨÑı
ĠÐ±ÑĸÐ³ ÑĤÐ¸
ĠÐºÐ¾Ð¼Ñĥ ÑģÑĮ
ĠÐ¾ÑģÑĤÐ°Ð½ Ð½Ñİ
ÑĹÑħ Ð°ÑĤÐ¸
ĠÑĤÐµÐ¿ Ð»Ð°
ĠÐ²ÑĸÐ´Ð´ Ð°ÑĤÐ¸
ĠÐ±ÑĢÐ¸ Ð·
ĠÐ½ÐµÐ± Ð¾Ð¼
ĠÐ²Ð»Ð°Ð´ Ð°
ĠÐ¼ÐµÑĢÑĤ Ð²Ð¸Ð¹
ĠÐ·Ð²ÐµÑĢ ÑħÑĥ
ĠÐ¿Ð°Ñħ Ð½Ðµ
ĠÐ·Ð°Ð±ÑĥÐ² ÑĪÐ¸
ĠÑģÐºÐ¸ Ð½ÑĥÐ²
ĠÑıÐºÐ¾Ñİ ÑģÑĮ
ĠÐ·Ð¾Ð»Ð¾ÑĤÐ¸ Ð¹
ĠÐ·Ð±Ð°Ð³ Ð½ÑĥÑĤÐ¸
ĠÐ·Ð»ÑıÐº Ð°Ð½Ð¾
ĠÐ½Ð°ÐºÐ°Ð· Ð°Ð²
ĠÐ¿ÑĢÐ¸ÑħÐ¸ Ð»ÑĮ
ĠÑĤÑĢÑĥÐ´ Ð½Ð¾
ĠÐĵÑĢÐ¸Ð³Ð¾ÑĢÑĸ Ñı
ĠÐĴÐ°Ñģ Ð¸Ð»Ð¸
ĠÐĳÐ°ÑĤÑĮ ÐºÐ¾
ĠÐ½Ð°Ð¹Ð± Ð»Ð¸Ð¶
? !"
ÑĤ ÑĶ
Ð½ Ð½Ñĸ
Ñı ÑĩÑĸ
ĠÐ² ÐµÐ½ÐµÑĨÑĸÐ°Ð½
ĠÐ¿ Ð¸Ñħ
ĠÑģ Ð½ÑĥÐ²
ĠÐ± Ð°ÑĢÐ¸
Ð¾Ð³ Ð¸Ð¹
ĠÐ¼ Ð°Ð»ÑĮ
ĠÐº Ð¾Ð½Ð¸
ĠÐº Ð¾Ð·Ð¸
ĠÐ½Ðµ ÑĩÐ¸
ÑĢÐ¸ ÑĤÑĮ
Ð· Ñİ
Ð½Ð¸ Ð½Ñĸ
Ð½Ð¸ Ð½Ñĥ
Ð½Ñĸ ÑĪÐ¸Ð¼
ÑĥÐ² Ð°Ð½Ð¾
ĠÑĥ Ñħ
ĠÑĥ Ð²Ñĸ
ÑĩÐ¸ Ð»Ð¸ÑģÑı
Ð°ÑĢ ÐºÐ¸
ĠÐ° Ð¼
ÐºÐ° ÑĩÐµ
Ð°Ð´ Ð¸ÑĤÐ¸
ĠÐ²Ð¸ Ð½Ð¸Ðº
ĠÑģÑĤ Ð°Ð»Ðµ
ĠÐ·Ð° ÑģÑĤÐµ
ÐºÐ¾ ÑĤÐ¾Ð¼
ĠÐĴ Ð°ÑĪ
ĠÐĲ ÑĢ
ĠÐ²ÑĸÐ´ ÐºÐ¸
ĠÑĢÐ¾Ð· Ð¿Ð¾Ð²ÑĸÐ²
ĠÐ¡ Ð²Ð¸
ĠÐĶ Ð°
ĠÐĶ Ð¾ÐºÐ¸
ÑĩÐµ Ð½Ð¸Ð¼Ð¸
ĠÐļ ÑĢÐ°Ñģ
ÑĸÐ· Ð½
ÑĤÑĸ ÑģÑĤÑĮ
ÑĤÑĥ ÑİÑĩÐ¸
ĠÐł ÑĥÐ´
ĠÐ±Ð¾ ÑıÐ·
ĠÐ³Ð¾ÑĢ Ð¾Ð´Ð¸
Ð²Ñĸ ÑģÑĤÑĮ
ĠÐ´ÑĥÐ¼ Ð°Ð»Ð¸
ÐĲ Ð¶
ÐĿ Ð°Ð²
ĠÑĦ Ð¾ÑĤ
ĠÑĢÐµ Ð¹
ĠÐ³Ñĥ ÐºÐ½ÑĥÐ»Ð°
ĠÐºÐ¸ Ð½ÑĥÐ»Ð°ÑģÑı
ĠÐ¿ÑĸÑģ Ð¾Ðº
ĠÐ½Ð°Ð· Ð²Ð°Ð²
ĠÐ´Ð¾ÑĢ Ð¾Ñģ
ĠÐ¼Ð°Ð¹ ÑģÑĤÑĢ
ĠÐºÑĥÐ¿ Ñĥ
ĠÐºÑĸÐ½ Ð¾
ĠÐŀÑĤ Ð¾Ð¶
ĠÐ§ÑĸÐ¿ ÐºÐ¸
ĠÐ¼Ð¾Ð» Ð¾ÐºÐ°
ĠÐ²Ð¸ÑģÐ¾Ðº Ð¾Ð³Ð¾
ĠÐ¿ÑĸÐ² Ð´
Ð»ÑİÐ² Ð°Ð»Ð°
ĠÐ²Ð»Ð°Ñģ Ð½Ð¾Ð³Ð¾
ĠÐ¿ÑĢÐ¾Ð² Ð°Ð»
ĠÐ·Ð°ÑĤ ÑĢÐµÐ¼
ĠÐ¡Ðº Ð°Ð¶Ð¸
ĠÑĢÐ¾Ð·Ð´ Ð¸Ð²
ĠÑģÐ¿Ð¸ Ð½Ñĸ
ĠÐ¿Ð¾ÑģÑĤ ÑĸÐ¹
ĠÐºÑĢÐ°Ñģ Ð¸Ð²
ĠÐķ Ð³Ðµ
ĠÐºÐ²ÑĸÑĤ ÑĸÐ²
ĠÐ¾Ñħ Ð¾ÑĢÐ¾Ð½
ĠÑĨÐ°ÑĢ ÑģÑĤÐ²Ð¾
ĠÐºÐ¾Ð² ÑĤ
ĠÐ·ÑĥÑģÑĤÑĢÑĸ ÑĩÑĸ
ĠÐ²Ð²Ð°Ð¶ Ð°Ð²
ĠÐ·Ð¾Ð»Ð¾ÑĤÐ¸ Ð¼Ð¸
ĠÐ¼Ð¾Ð½ Ð°ÑģÑĤÐ¸
ĠÑģÑĸÐ½ ÑıÑħ
ĠÐ¢Ð¸Ð¼ Ð¾ÑĦ
ĠÑĩÐ°ÑģÑĤÐ¸ Ð½Ð¸
ĠÐ»ÑĸÐ¶ ÐºÐ°
ĠÐ»Ð°Ð³ ÑĸÐ´Ð½Ð¾
ĠÐ»ÑĸÑĤÐµÑĢ Ð°ÑĤÑĥ
ĠÑĥÑĩ Ð¾ÑĢÐ°
ĠÑģÑħÐ¾Ð¶ Ð¸Ð¹
ĠÑĨÐ¸Ð³Ð°ÑĢ ÐºÑĥ
ĠÑĥÑĢÐ¾ÑĩÐ¸ ÑģÑĤÐ¾
ĠÐĹÐ²ÑĸÐ´ ÐºÐ¸
ĠÐºÐ¸Ð² Ð½ÑĥÐ²
ĠÐ§Ð¾Ð»Ð¾Ð²Ñĸ Ðº
ĠÐ½ÐµÐ²Ð´Ð¾Ð² Ð¾Ð»
ĠÐ±ÑĸÐ± Ð»Ñĸ
ĠÑĨÐµÑĢ ÐºÐ¾Ð²
Ð»ÑĮÑĦ ÐµÐ¼
Ġ 6
Ð» ÐºÑĥ
Ðº Ð°Ð½Ñĸ
Ñı Ð½Ð¾
ĠÐ² Ð°Ð±
ĠÐ² Ð»Ð°ÑģÑĤÐ¸
ĠÐ¿ Ð°ÑħÑĥ
Ð´ Ð°Ñħ
Ñĩ ÐµÐ½Ðµ
Ð¾Ð² Ð°Ð¼Ð¸
Ð¾Ð³ Ð½Ð°Ð²
Ð¿ Ð¸Ð½
ĠÐº Ð»Ð°Ñģ
Ð¾Ð¼ Ð¾Ð½
ÑģÑĤ ÑĢÑĸ
ĠÐ¾ Ð²Ðµ
Ð³ ÐµÐ»ÑĮ
ÑĩÐ¸ Ð¼Ð¾
ĠÑģÑĤ Ð¾Ð¼
ĠÐ´Ð¾ ÑĪÐºÑĥ
Ð½Ñĥ Ð»Ð¾ÑģÑĮ
ĠÐĴ Ð°Ð¼
Ð¾ÑĤ Ð¾Ð²
ĠÐŁ Ð¾Ð»
ĠÑĢÐ¾Ð· ÑĸÑĢ
ÑĪÐ¸ Ð»Ð¾
ĠÐľ Ð°Ðº
Ð¾Ñĩ ÐºÐ¾Ñİ
ĠÐ¿ÑĸÐ´ Ð½ÑĸÑģ
ĠÐ¿ÑĢÐ¾ ÑĩÐ¸ÑĤÐ°Ð²
ÑĸÑģ Ð½Ð¸ÐºÐ°
ĠÐĶ Ð²Ñĸ
ĠÐļ ÑĢÐ¸
ĠÑĢÑĥ ÑĪÐ¸Ð²
ĠÐ¿Ð¾Ð² ÑģÑĤÐ°Ð½
ĠÐ·Ð½ Ð°Ð½Ð½Ñı
ÑĢÐ°Ð² Ð´Ñĥ
ĠÑĤÐ¾ ÑīÐ¾
ĠÐ¼Ñĸ Ð½Ñĸ
ĠÐ½Ð°Ð´ Ð²Ð¾ÑĢÑĸ
Ð¾Ð²Ð¸ Ð½Ð¸
ĠÑģÐ» Ð°Ð²Ð¸
ÐĴ ÐµÐ»Ð¸
ĠÐ³Ð¾ÑĢ Ð¾Ñİ
Ð²Ðµ ÑĤÑĮÑģÑı
ĠÐ¿Ð¾Ñģ Ð»Ð°Ð½
ĠÐ¿Ð¾Ð» ÐºÐ¾Ð²
ĠÑĩÐ°Ñģ Ñĸ
ĠÑģÐµÑĢ Ð¶
ĠÐ·Ð°Ðº ÑĥÑĤ
ĠÑĩÐ¾Ð» Ñĸ
ĠÐ±ÑĥÐ´Ðµ ÑĤÐµ
ĠÐ½ÐµÐ¿ Ð¾Ð´
ĠÑģÑĤÐ°Ð² Ð°Ð»Ð°
ĠÐ½ÐµÐ· ÑĢÐ¾Ð·ÑĥÐ¼
ĠÐ¡ÑĤ ÑĢÐ°ÑĪ
ĠÑĢÐ¾Ð·Ð¿ Ð°ÑĩÑĥ
ĠÐºÐ°Ð¶ Ð¸
ĠÐ±Ð°ÑĤÑĮ ÐºÐ¾Ð¼
ĠÐ·Ð°Ð´ Ð¸Ð²
ĠÑģÑĤÐ¾Ñı ÑĩÐ¸
ĠÐ·Ð°Ñħ Ð¾ÑĤÑĸÐ»Ð¾ÑģÑı
ĠÐ²Ð¸Ðº Ð»Ð°Ð´
ĠÐ·ÑĢÐ¾Ð± Ð¸Ð»Ð°
ĠÐ·Ð» Ð¾Ð²
ĠÑĤÑĢÐ¸Ð¼ Ð°ÑĶ
ĠÑĤÑĢÐ¸Ð¼ Ð°Ð²ÑģÑı
ĠÐ·Ð¼Ñĸ ÑĪ
ĠÐ¿Ð¾Ð´Ð¸Ð² Ð¸Ð»Ð°ÑģÑı
ĠÐºÐ¾ÑĢÐ¸ ÑģÑĤÑĮ
ĠÑģÑĤÑĢÑĥ Ñģ
ĠÐ¼Ð°Ð»ÐµÐ½ÑĮ ÐºÑĸ
ĠÐ¯Ð² Ð´Ð¾Ñħ
ĠÐ¿ÐµÑĢÐµÐ¿ Ð¾
ĠÐ²ÑĸÐ´Ð¿ Ð¾
ĠÐ·Ð¾ÑģÑĤ Ð°Ð²
ĠÐ³ÑĥÑĢ ÑĤÑĥ
ĠÐ¼ÐµÐ½ ÑĪ
ĠÐºÐ¾Ñģ Ð¸
ĠÑĤÑĥÐ¼ Ð°Ð½Ñĸ
ĠÑģÑħÐ¾Ð¿ Ð¸Ð²ÑģÑı
ĠÐ·Ð²ÑĸÑĢ Ð°
ĠÐ·Ð¾Ð»Ð¾ÑĤÐ¸ Ñħ
ÐºÑĥÐ¿ Ñĸ
ĠÐ¿ÐµÑĢÐµÐ± ÑĸÐ³
ĠÐĶÐ°Ð² Ð¸Ð´
ĠÐĵÐ»Ð¸Ð½ ÑģÑĮÐº
ĠÐŁÐ°Ð² Ð»Ñİ
ĠÑĶÐ²Ð½Ñĥ Ñħ
ĠÐ¶Ð°Ð»Ñĸ Ð±Ð½Ð¾
ĠÐ¾Ð·Ð¸ÑĢ Ð½ÑĥÐ²ÑģÑı
ĠÑĪÐ°Ð» ÐµÐ½Ð¾
ĠÐľÐ¾Ð¶ Ð½Ð°
ĠÐ¿Ð¾ÐºÑĸÑĢ Ð½Ð¾
ĠÐŀÐ»ÐµÐºÑģÐ°Ð½Ð´ ÑĢÐ°
ĠÐ´Ð¸Ð²ÑĸÐ· ÑĸÑĹ
ĠÐºÑĥÑĩ ÐµÑĢ
ĠÐ·Ð»ÐµÐ³ ÐºÐ°
Ð ¬
Ġ 4
Ð¸ ÑĨÑĸ
Ð½ Ð¾Ð²Ñĸ
Ñĥ ÑİÑĩÐ¸ÑģÑĮ
Ð² Ð¸Ð¼Ð¸
Ñı ÐºÐ¸
ĠÐ¿ ÑĥÑĤ
ĠÑģ Ñİ
ĠÑģ Ð¾Ð²Ñĸ
ĠÑģ ÑĸÑģÑĤÐ¸
ĠÐ· Ð»Ñı
ĠÐ· ÑĢÑĸ
Ñĩ ÑĩÑı
Ñİ ÑİÑĤÑĮ
ĠÐ± Ð¾ÐºÐ¾Ð¼
ĠÐ¼ Ð¾ÑģÑĤ
ĠÑĸ Ðº
ĠÐ½Ð° ÑĤÐ¾Ð¼
ĠÑĢ Ð¾Ð¼
ĠÐ¾ ÑģÑı
ÑĹ Ð¶Ð´Ð¶
ĠÐ³ Ð¸Ð´
ĠÑĥ Ð¼Ñĸ
ĠÑĥ ÑĢÐ¸Ð²
ĠÑĥ Ð²ÐµÑĩÐµÑĢÑĸ
ĠÑĩ ÑĤÐ¾
ĠÐ» ÐµÐ¼ÐµÐ½ÑĤ
ĠÑģÑĤ ÑĢÐ°Ð²
ĠÑģÑĤ Ð°Ð½Ñĸ
Ð»Ñı Ð¹
ĠÑĨ Ð¸Ð²
Ð°Ð»Ð° Ñħ
ĠÐŁ Ð¾Ð´Ð¸Ð²
ĠÑĢÐ¾Ð· ÐºÐ¾Ð»
ĠÐĿ ÑĸÐ¼
ĠÐľ ÑĥÑĢ
ĠÐ¿ÐµÑĢÐµ ÐºÐ°Ð·
ĠÐ¾Ð± ÑģÑĤÑĥÐ¿
ĠÐĹ Ð¾ÑģÑĮ
ĠÐļ Ð¾Ð·
ĠÐĳ Ð°Ð¹
ĠÐĵ Ð°Ð»Ð¸
ĠÐ·Ð² Ñĸ
Ð¾Ð²Ð¸ ÑĩÑĥ
ĠÐ³Ð¾ÑĢ Ð¾Ð´Ñĸ
Ð¢ Ð¸Ð¼
Ð¢ Ðĺ
ĠÐºÐ¾ÑĢ Ð¿Ñĥ
ĠÐ¿Ð¾Ð¿ Ð¾Ð²
Ð»ÐµÐ½ Ð¾Ñİ
ĠÐ·Ð± Ð»ÑĸÐ´
ĠÐºÐ¸ ÑĪ
ĠÐ·Ð°ÑĢ ÑĸÐ·
ĠÑĢÐ°Ð´ Ð¸Ð¹
ĠÐµ ÑĤ
ĠÐºÐ°ÑĢ Ð°Ð²
ĠÐ²ÑĸÐ´Ñĩ ÑĥÐ²Ð°Ð»Ð°
ĠÐ½Ð¸ Ð¶
Ð°Ð½Ð´ Ð°ÑĢ
ĠÐĦ Ð³Ð¸
ÑīÐ¸ Ð½Ð°
ĠÐºÐ¾Ð· Ð°Ðº
ĠÑĥÐ´ Ð°ÑĢ
ĠÑĪÑĥ ÐºÐ°ÑĶ
ĠÐºÐ½Ð¸ Ð³
ĠÑĩÑĥÐ¶ Ð¸Ð¹
ĠÐ°ÑĢ ÑĤÐ¸
ĠÐ³Ð¾ÑģÑĤ ÑĢÑĸ
ĠÐ´Ð¾Ð¼ ÑĸÐ²
ĠÑĢÑĸÐ² Ð½Ñĸ
ÑĢÑĸÐ¼ Ð°Ñħ
ĠÑģÐ»ÑĥÐ¶ Ð¸ÑĤÐ¸
ĠÐ²ÑĤ Ð¾Ð¿
ĠÑģÐ¿Ð¾Ð´ÑĸÐ² Ð°ÑİÑĩÐ¸ÑģÑĮ
ĠÑĦÐ¾ÑĢ Ð¼
ĠÑĦÐ¾ÑĢ Ð¼Ñĥ
ĠÑĢÐ¾Ð·Ðº ÑĢÐ¸Ð²
ĠÐ¿Ð¾ÑĢÑıÐ´ ÐºÑĥ
ĠÐ£ÐºÑĢÐ°ÑĹ Ð½Ñĥ
ĠÐ¿ÑĢÐ¾ÐºÐ»Ñı ÑĤÑĤÑı
ĠÑĸÑģÑĤÐ¾ÑĢÑĸ Ñİ
ĠÐ´ÑĢÑĥ Ð·ÑĸÐ²
ĠÐ²Ð¸Ð³Ñĥ ÐºÐ½ÑĥÐ²
ĠÑĩÐµÑĤ Ð²ÐµÑĢÑĤ
ĠÐ´Ð¾Ð½ÑĮ ÐºÐ°
ĠÐĵÑĥ Ð»ÑĮÑĦÐµÐ¼
ĠÐ½ÐµÑģÑĤ ÑĢÐ¸Ð¼
ĠÑĤÑĢÐ°Ð³ ÐµÐ´Ñĸ
ĠÐ¿ÑĢÐ¾ÐºÐ¸ Ð½ÑĥÐ²ÑģÑı
ĠÑģÐ²Ð¾Ð± Ð¾Ð´Ð¸
ĠÐ¿ÑĢÐ¾Ð½Ð¸ Ð·
ĠÑĸÐ½ÑĤ ÐµÑĢÐµ
ĠÐ±Ð¾Ð»Ñı ÑĩÐµ
ĠH yp
! ?
Ð¸ Ð»Ð¾ÑģÑĮ
Ð² Ð°ÑĢÐ¸
ĠÐ² Ð¾ÑģÑĤÐ°Ð½Ð½ÑĶ
Ð´ Ð°Ðº
ĠÑģ ÑĸÐ»
ĠÑģ Ð¾ÑĨÑĸ
Ñİ ÐºÐ¸
ĠÐ¼ Ð°Ð»Ñı
ĠÐº Ð°ÑĢÐ¸
ĠÐº Ð»Ð°Ð½
Ð°Ð½ ÑĨÑĸÐ²
ĠÑĢ ÐµÐ·
ĠÐ¾ ÑĤÐ¸Ñħ
ĠÐ³ Ð°Ð»Ñı
ĠÑı Ð¹
ÑĶ ÑĤ
ÑĩÐ¸ Ð½ÐµÐ½Ñĸ
Ð°ÑĢ Ð°ÑĤ
ĠÐ´Ð¾ ÑĩÐºÐ¾
Ð°Ð»Ð¸ ÑĤÐ¸
Ñī Ð¸ÑĤÑĮ
ĠÑĢÐ¾Ð· ÐºÐ¸Ð´
ĠÐ¿ÑĸÐ´ Ð·ÐµÐ¼
ĠÐ²Ðµ ÑģÑĤÐ¸
ĠÐĹ Ð±
ĠÐĵ Ðµ
ĠÐĵ Ð°Ð·Ñĸ
ĠÐ¿Ð¾Ð² ÑĸÐ»ÑĮ
ĠÐ·Ð½ Ð°Ð´
ĠÐ§ ÑĥÑĶÑĪ
ĠÐ²ÑģÐµ ÑģÐ²ÑĸÑĤ
ĠÐ½Ð°Ð´ Ð²ÐµÑĩÑĸÑĢ
ĠÐ¼Ðµ ÑĤÐ¸
ÑĤÑĥ ÑĢÐ¸
ĠÐ¿Ð¾Ð´ Ð¸Ñħ
ĠÐ¿Ð¾Ð´ Ð¾ÑĢÐ¾Ð¶
ĠÐ³Ð¾ÑĢ Ð¾Ð±
ĠÐ³Ð¾ÑĢ ÑĸÑħ
ÑĥÐ²Ð°ÑĤÐ¸ Ð¼Ðµ
ĠÑĸÐ½ ÑĪÐ¾ÑĹ
Ð¢ Ð¾Ð¹
ĠÑĦ ÑĸÐ³
", âĢĶ
ĠÐ²Ð¸Ñģ Ð»ÑĥÑħ
ĠÐ·Ð°Ñģ Ðº
ĠÐ´Ð°Ð² Ð°Ð»Ð°
Ð°Ñĩ ÑĸÐ²
ĠÐ¿Ð°ÑĢ ÑĥÑģ
ĠÑħÐ»Ð¾Ð¿ ÑĩÐ¸
ÐµÐ² Ð½Ð¾
ĠÑģÑĤÐµ Ð³
ĠÑģÐ¼ÐµÑĢ ÑĤÐ¸
ĠÐºÐ¾Ð¼ ÑĸÑĢ
ĠÑģÑĤÑĢÐ°ÑĪ Ð½Ñĸ
ĠÑĢÐ¾Ð·ÑĥÐ¼ Ñĸ
ĠÑģÐ»ÑĥÑħ Ð°ÑĶ
ĠÑģÐ¿ÑĸÐ² Ð°ÑĤÐ¸
ĠÑĩÐµÑĢÐ²Ð¾Ð½ Ð¸Ð¼Ð¸
ĠÐ·Ð» Ð¾Ð¼
ĠÐ»ÑĸÑģ Ð¸
ĠÑĤÐ¾Ð²Ð°ÑĢÐ¸ ÑĪÑĸ
ĠÐ¿ÑĢÐ¾Ð¿ Ð°Ð²
ĠÑĢÑĸÑĩ ÐºÑĥ
Ð»ÑıÐ½ ÐºÐ¸
ĠÐ³Ð¾Ð´Ð¸ Ð½Ð°
ĠÐĳÐ° ÑĩÐ¸Ð²
ĠÑĥÐ· ÑıÑĤÐ¸
ĠÑĸÑģÑĤ Ð¾ÑĢÐ¸
ĠÐ¿Ð¾ÑĩÑĥÐ² ÑģÑı
ĠÐ¶Ð¾Ð´ Ð½Ð¸Ñħ
ĠÐ²Ð°ÑĪ Ð¸Ñħ
ĠÐ²ÑĸÐ´Ð¿ ÑĢÐ°Ð²
ĠÐºÐ¾Ð¿ ÑĸÐ¹
ĠÐ¶Ð¾Ð² ÑĤÑĸ
ĠÐ³ÑĢÑĥÐ´ ÑĮÐ¼Ð¸
ĠÐĩ Ñħ
ĠÑģÑĸ ÑĢÐ¸Ð¹
ĠÐ¼Ð°ÑĪÐ¸ Ð½Ð°
ĠÐ¿Ð°Ñħ Ð»Ð¾
ĠÑĢÐ¾Ñģ ÑĸÐ¹
ĠÐ±ÑĸÐ»Ð¸ Ð¼
ĠÐ¿Ð»Ð°Ðº Ð°Ð²
Ð½ÑĸÑģ ÑĸÐ½ÑĮ
ĠÐ¿ÑĢÐ¾Ñħ Ð¾Ð»Ð¾Ð´
ĠÐ±ÐµÐ·Ð¼ÐµÐ¶ Ð½Ð¾
ĠÑģÐ½ÑĸÐ³ Ð¾Ð¼
ĠÑĤÐµÐ¼ÑĢÑıÐ² Ñĥ
ĠÑĤÐ°ÑĤ Ð°ÑĢÐ¸
ÐµÐ½Ñı ÑĤÐ°
ĠÐ½ÐµÐ¼Ð¸ Ð»Ð¾ÑģÐµÑĢÐ´
ĠÐ½ÐµÐ½Ð°Ð²Ð¸ ÑģÑĤÑĮ
ĠÐ·Ð¼Ð°Ð³ Ð°Ð½Ð½Ñı
ĠÐ·Ð²Ñĥ ÐºÐ¸
ĠÐ¿ÐµÑĢÐµÑħ ÑĢÐµÑģÑĤÐ¸
ĠÐ½Ð°Ñħ Ð°Ð±
ÐµÑĢÐµÐ³ ÑĤÐ¸
ĠÑģÑĥÐ¿ÑĢÐ¾Ð² Ð¾Ð´Ð¶
ĠÐ¡ÐºÐ°Ð· Ð°Ð½Ð¾
ĠÐ¿ÑĢÐ¸ÑĢ Ð¾Ð´Ð¸
ĠÐĶÐ¶Ñĥ ÑĢÐ°
ĠÑĢÐ¾ÑģÑĤ Ðµ
ĠÐ·Ð°ÑĥÐ²Ð°Ð¶ Ð¸Ð²
ĠÐ§ÑĥÐ¼ Ð°Ðº
ĠÐºÐ°ÑĤÐ¾ÑĢ Ð¶
ÑĢÐµÐ²Ð¾Ð»Ñİ ÑĨÑĸÐ¹
ĠÑĸÐ½Ð¶ ÐµÐ½ÐµÑĢ
ĠÐľÑĸÑħ ÑĢÑĸÐ¼Ð°Ñħ
ĠÐ°Ð±Ñģ Ð¾Ð»Ñİ
Ð² Ð°Ð»Ð°ÑģÑĮ
Ñı ÑİÑĩÐ¸
ĠÐ² Ð»Ð¾Ð²
ĠÐ² Ð¼Ð¸ÑĤÑĮ
ĠÑģ Ð½Ð¾Ð¼
ĠÐ· Ð¾ÑĢÐ¾Ð¼
ĠÑĤ Ð°ÑĤÑĥ
ĠÐ´ ÐµÐ¼
ĠÐ´ ÑĸÐ»Ð¸
ÑĪ Ð°Ð»Ð¾
ÑĪ Ð»Ð¸ÑģÑı
ÑĤÐ¸ Ð»ÑĸÑĤ
ĠÐ± ÐµÐ½
Ð¿ Ð¾ÑĢ
ĠÑĸ ÑģÑĤÐ¸
Ð»Ð¸ ÑĤÑĮ
ĠÑĢ Ð°
ĠÑĢ ÑĸÑĪ
Ð½Ð¸ Ð»Ð°
ĠÑĥ Ð¼Ð¸ÑĢ
ÐµÐ½ Ð°Ð²Ð¸
ÐºÐ° ÑĤÐ¸ÑģÑı
ĠÐ²Ð¸ ÑħÐ¾Ð´Ð¸Ð»Ð¾
ĠÑıÐº Ð½Ð°Ð¹
ĠÐ±Ñĥ Ð»ÑĮ
ĠÑĹ Ð²
Ð»Ðµ Ð´
ĠÐĴ ÑĸÑĢ
ĠÐ²ÑĸÐ´ ÑĸÑĢ
ĠÐ¿ÑĢÐ¸ ÐºÐ°Ð·
ĠÐ¿ÑĢÐ¸ Ð½Ð°Ð¹Ð¼Ð½Ñĸ
ĠÐ¢ ÐµÐ¼
Ð¾Ð¿ ÐµÑĢÐµÐº
Ð°Ñİ ÑģÑĮ
ĠÐ¾Ð± Ð¾Ð¼Ð°
ÑĩÐµ Ð½Ð¸Ð¼
ĠÐĹ Ð°Ð¼Ð±Ñĥ
ĠÐĹ Ð°Ð»Ð¸Ð²
ĠÐ¥ Ð¾ÑĤÑĸÐ²
Ð»Ñĥ Ð³Ð¸
ĠÐ¿Ð¾Ð² ÑĸÐ´
Ð±Ðµ Ð»ÑĮ
ĠÐ´Ðµ Ðº
ÑĤÐ°Ð½ Ñĸ
ÑģÐ¸ ÑĪ
ĠÐ´Ð¸Ð² Ð½Ðµ
ĠÐ´Ð¸Ð² Ð¸Ð»Ð¸ÑģÑĮ
ÑĢÐ¸Ð² ÑĸÑĤ
ĠÐ³Ð¾ÑĢ Ð°
ĠÐĽ ÐµÐ¹
ĠÑĸÐ½ ÑĪÐ¸Ð¼Ð¸
ÑĢÑı Ð¿
ĠÑģÑĥÐ»ÑĤÐ°Ð½ ÑĪÐµÑİ
ÐºÑĸ ÑģÑĤÑİ
ĠÐ·Ð°Ð± ÑĢÐ°Ð²
ĠÐ²Ð¸Ñģ Ð½Ð¾Ð²
ĠÐºÑĢÐ¸ Ð½Ð¸ÑĨÑĸ
ĠÑĶ Ð´
ĠÐ¿Ð¾Ð¿ ÑĢÐ°Ð²
ĠÐ¢Ð°Ðº Ðµ
ÐĨ ÐĽ
ĠÐ·Ð± ÐµÐ½ÑĤÐµ
ĠÑģÑĤÐ°Ð² Ð°Ð»Ð¸
ĠÐºÐ¾Ð¶ ÑĥÑĪ
Ðļ Ð¸
ĠÑĢÐ¾Ð·Ð¿ ÑĢÐ°Ð²
ĠÐ²Ñĸ ÑīÐ¾
ĠÑĥÑģ Ð»ÑĸÐ´
ĠÑĥÑģ Ð²ÑĸÐ´Ð¾Ð¼
ÑĩÐ¸Ð½ Ð¾Ðº
ĠÐ´Ð°Ð»Ðµ Ð±Ñĸ
ĠÐŁÑĢÐ¾ ÑĦÐµÑģ
ĠÐ¾Ð· Ð±ÑĢÐ¾ÑĶ
ĠÐ½Ð¾Ð² Ð¾ÑĹ
ĠÐ²ÐµÑģÐµ Ð»Ð°
ĠÑĢÐ¸ Ð±Ð¸
ĠÐ¾Ð³ Ð¾Ð½ÑĮ
ĠÑĩÐ¸Ð¼ Ð°Ð»Ð¾
ĠÐ³ÑĢÑĸ Ð¼
ĠÑĪÐº Ð¾Ð´
ĠÐ¿ÑĢÐ¸Ðº ÑĢÐ¾
ĠÐ¿Ð¾Ð´Ð¸Ð² Ð¸ÑĤÐ¸ÑģÑı
ĠÐ¿ÑĢÐ¾Ð± Ð¸Ð²
ĠÐ¿ÑĢÐ¾Ð¹ ÑĪÐ»Ð¸
ĠÐ°ÑĢ ÐºÑĥ
ĠÐ±ÑĥÑĢ ÐºÐ½ÑĥÐ²
ĠÐ±ÑĢÐ¸ Ð³
ĠÐ¿ÑĢÐ¸Ð± ÑĥÐ²
ĠÑģÐ»ÑĥÐ¶ Ð±Ñĥ
ĠÐ´Ð¾Ñģ Ð²ÑĸÐ´
ĠÐ¿ÐµÑĢÐµÐ¹ Ð¼
ĠÐ½Ð°Ð²Ð¿ ÑĢÐ¾ÑĤÐ¸
ĠÐºÐ°Ð¶Ñĥ ÑĩÐ¸
ĠÐĵÐ»Ð¸Ð½ ÑģÑĮÐºÑĥ
ĠÑĩÐµÐº Ð°Ð»Ð°
ĠÐ»ÑĸÐ¶ ÐºÐ¾
II I
ĠÐ¾ÑĢÐ³Ð°Ð½ ÑĸÐ·
ĠÐĲÐ· Ð·ÐµÐ¼
ĠÐľÐ¾Ð¶ Ð»Ð¸Ð²Ð¾
ĠÑĸÑĢ Ð¶Ð°Ð²
ĠÐ²Ð¸ÑĢÐ°Ð· Ð½Ð¾
ĠÐĵÐ°ÑĢ Ð°Ð·Ð´
ĠÐĳÐ¾Ð½ÑĸÑĦÐ° ÑĨÑĸÑı
ĠÐ¡Ð¾Ð»Ð¾Ð¼ Ð¾Ð½
ĠÐ¶Ð°Ð´ÑĸÐ± Ð½Ð¾
ĠÑĪÑĤÐ¾Ð² Ñħ
ĠÐ¼Ð°ÑĤÐµÑĢ Ð¸Ð½
ĠÐ±Ð»Ð¾ ÑīÐ¸
ĠÐ¿ÐµÐºÐµ Ð»ÑĮ
! ",
Ð¾ ÑģÑĮÐºÐ°
Ðµ Ð½Ð¸Ñħ
ÑĤ Ð¾Ð·Ð½Ð°
Ð½ Ð¾ÑĢ
Ð² Ð°Ð»Ð¸ÑģÑı
ĠÐ² ÐºÐ¸
ÑĪ ÐºÐ¾Ñİ
ĠÐº Ð°Ð»Ð°
ĠÐº ÑĸÐ·
ĠÐº Ð¾ÑģÑĤÑĸ
Ð¾Ð» Ð¾Ð½
Ð°Ð½ Ð¾Ð¼Ñĥ
Ð½Ð¸ Ð½Ð¸
ĠÑī Ð¸ÑĤ
ĠÐ³ Ñı
ĠÑĥ ÑħÐ¾Ð¿
ÐµÐ½ ÐºÐ°
ĠÐ» ÑĸÐ½Ð¸
ĠÐ» ÑĮÐ¾Ñħ
Ð¾Ð· ÐµÐ¼
ĠÐ´Ð¾ ÑĩÐµ
ÐºÑĥ ÑĤ
Ð¸Ð¼ Ð¾Ð²
ĠÐ¿ÑĢÐ¸ Ð¼Ð¾Ð²
ĠÐ¿ÑĢÐ¸ ÐºÑĢÐ¸
ĠÐŁ ÑĢÐ¾Ñģ
ĠÑģÐ¿ Ð¾ÐºÑĥ
Ð¶Ðµ Ñİ
ĠÑĪ ÑĸÑģÑĤ
Ð²Ð¸ ÑīÐ°
ĠÐ¥ Ð°ÑĤ
ĠÐ¥ Ð¾Ð¼Ð°
ĠÐ¥ ÑİÑģ
ĠÑĨÐµ Ð³
ĠÐ³Ð¾Ð» ÑĥÐ±Ð¸
ÑģÑĤÐ¸ ÑĤÐ¸
ĠÑĹÑħ Ð°Ð²
Ð¿ÐµÑĢ ÐµÑĢÐ²
ĠÑĩÐ¸ ÑģÑĤÐ¾
ÐµÐ½ÑĮ ÐºÐ¾Ð³Ð¾
ĠÐ´Ð² Ð¾ÑĢ
ĠÐ¼Ð¸ ÑģÐºÑĥ
ĠÐ»Ðµ ÑĤÑĸÐ²
ĠÐ³Ð¾ÑĢ Ð±Ð¸
ÑģÑĤÑı Ð¼Ð¸
ĠÑģÑĥÐ»ÑĤÐ°Ð½ ÑĸÐ²
ĠÐ´Ð¾Ð± ÑĢÐ¸Ñħ
ĠÑĦ Ð°ÑĢÐ±
ĠÐ¾ÑĤ ÑĢÐ¸Ð¼
Ð¾ÑĢÑĥ Ñħ
ĠÑĢÐ¾Ð± Ð¸Ð»Ð°
ĠÐºÑĢÐ¸ ÑĩÐ°ÑĤÐ¸
ĠÑĩÐ¾ÑĢ Ð½Ð¾ÑĹ
ĠÐ²Ñĥ Ñģ
ĠÐ¿Ð¾Ð¿ Ðµ
ĠÐ´ÑĢÑĥÐ³ Ð¸Ñħ
ĠÑĤÐ² Ð°ÑĢÐ¸Ð½
ĠÐ³Ð°ÑĢ Ð½Ð¸Ð¹
ĠÐ·Ð± Ð¾Ð¶ÐµÐ²Ð¾Ð»
ĠÐ·Ð°Ð¼ ÐµÑĢÐ·
ĠÐ¡ÑĤ Ð°Ð²
ĠÐ²Ð´ Ð¾Ð²Ð¾Ð»
ĠÑģÑĤÐµ Ð»Ñĸ
ĠÑĨÑĸÐ» ÐºÐ¾Ð²
ĠÐ§ÑĸÐ¿ ÑĨÑĸ
ĠÐ²Ð°Ð¶ ÐºÑĸ
ÑĤÑĢ ÑĸÐ²
ĠÐ²Ð¸ÑģÐ¾Ðº Ðµ
ĠÑģÐ»ÑĥÑħ Ð½Ñı
ĠÐ·Ð°Ð¹ Ð½Ñı
ĠÑĤÑĢÐ¸Ð¼ Ð°ÑĤÐ¸
ĠÐ²ÑĥÐ»Ð¸ ÑĨÑı
ĠÑģÐ¸Ð½ ÐºÑĥ
ĠÑĤÐ¾Ð½ ÐºÐ¾
ÑıÐ²Ð¸ Ð»Ð°ÑģÑı
ĠÐ½Ð¾Ñģ Ð¸Ð²
ĠÐ²Ð°ÑĪ Ð¾ÑĹ
ĠÐ¿Ð¾ÑĢÐ¾Ð¶ Ð½Ðµ
ĠÑģÑĥÐ¿ ÑĢÐ¾ÑĤÐ¸
ĠÐ¿Ð¾ÑģÐ¼ÑĸÑħ Ð°Ð²ÑģÑı
ĠÐ²ÑĢÐ°Ð¶ ÑĸÐ½Ð½Ñı
Ðķ Ðł
ĠÑģÑĤÑĸÐ» ÐµÑĨÑĮ
ÑĶÐ´ Ð½
ĠÐ¿Ð¾ÑĤÑĢÐ°Ð¿ Ð¸Ð²
ĠÐ¿ÑĤÐ° ÑĪÐºÐ°
ĠÑģÐ¿ÑĢÐ¾Ð± ÑĥÐ²Ð°Ð²
ĠÐ»ÑĸÑĤÐµÑĢ Ð°ÑĤÑĥÑĢ
ĠÐ½Ð¾Ð¶ ÐµÐ¼
ĠÑĩÐµÑĢÐ³ Ð¾Ð²Ð¸Ð¹
ĠÐĴÑĸÑĢÑĥÐ½ÑĮ ÐºÐ°
ĠÑģÐ°Ð» Ð´Ð°ÑĤ
ĠÐ¿ÑĢÐ°Ð¿ Ð¾ÑĢ
ĠÐ¢ÐµÑģ Ð»Ñı
ĠÐ½Ð¾ÑĢ Ð¼
ĠÐ·Ð´Ð°Ð»Ðµ ÐºÑĥ
ĠÐ½ÐµÐ¾Ð´ Ð¼ÑĸÐ½Ð½Ð¾
ĠÐ¤Ð°ÑĤÑĸ ÑħÐ°
ĠÐ³Ð°Ð»Ð° Ñģ
ĠÐ¿Ð¾Ð²ÑĤÐ¾ ÑĢÐ¸Ð²
ÑĢ Ð¾ÑĹ
Ñģ ÐµÑĢ
Ð» Ð°Ð±
Ð² Ð¾Ð»ÑĮ
Ðº Ð»Ð¾
ĠÐ½ Ð°Ð»Ðµ
Ð´ ÑıÐ¼
ĠÑģ ÑĮ
ĠÐ· Ð»Ð¸Ð²
Ñĩ Ð°Ð½Ð½Ñı
ĠÐ´ Ð½Ð¾
Ñİ ÑĶÑĤÑĮÑģÑı
ĠÐ± Ñİ
Ð¿ ÑĢÐµ
ĠÐº Ð¸Ñģ
ĠÑĸ ÑĪÐ»Ð°
ĠÑĸ Ð´ÑĥÑĤÑĮ
ĠÐ½Ðµ Ð¿Ð¾Ð²
Ð»Ð¸ Ð»Ð¸
Ð»Ð¸ ÐºÐ°
Ð· Ð¼Ñĥ
Ð· Ð´Ð°
ĠÑĢ Ð°Ñİ
Ð¾ÑĢ Ð¾Ñĩ
ĠÐ¾ ÐºÐµ
ĠÑĩ ÑĥÑĤÑĤÑı
Ð¸Ð² ÑģÑĮ
ĠÐ° ÑĤ
ĠÐ° Ð¿Ð°ÑĢ
ĠÐ¿Ð¾ ÑĪÐº
ĠÐ¿Ð¾ ÑģÑĤÐ¾ÑıÐ²
ĠÐ²Ð¸ ÑĢÐ¾ÑģÑĤ
ĠÐ²Ð¸ ÑħÐ¾Ð´Ð¸Ð»Ð¸
Ð½Ð° Ñİ
ÐºÑĥ ÑĢ
ĠÐ±Ñĥ Ð½ÑĤ
Ð½Ñı Ð¼
ĠÑĹ Ð»Ð¸
ĠÐ¢ ÑĢÐ¸
ĠÐľ Ð¾Ñı
ĠÐľ ÑĥÑħ
Ð¾Ñĩ ÐºÐ¾Ð¼
ĠÐ¾Ð´ Ð¼Ð¾Ð²
ĠÐĹ Ð³Ð°Ð´
ÑĢÐ° ÑīÐµ
ÑĨÑĮ ÐºÑĥ
ĠÐŀ Ð²
Ð±Ðµ Ð¹
ÑģÑĤÐ¸ ÑĢ
ĠÐ¿Ð¾Ðº Ð¾Ð»
ĠÐ¼Ðµ ÑĪÐº
ĠÐł Ð¾Ð±
ĠÐ¿Ð¾Ñĩ Ð½Ðµ
ĠÐ±Ð¾ ÑĨÑĸ
ĠÐĽ ÑĸÑģ
ĠÐºÑĢ ÐµÐ¼
ÑĢÑı Ð¼Ð¸
ĠÐ·Ð°Ðº ÑĢÑĥÑĤÐ¸
ĠÑĦ Ð°Ð»ÑĮ
ĠÑĦ ÑĸÐ·Ð¸
ĠÐ·Ð°Ð± Ð»Ñĥ
ĠÐ±ÑĸÐ» ÑĸÐ¹
ĠÑģÑħ Ð¸Ð»Ð¸
ĠÐ·Ð± Ð»Ð¸
ĠÐ»ÑİÐ´ ÑıÑħ
ĠÐ¿Ð°ÑĢ Ð¾Ð¿
ĠÐ½ÐµÐ² ÑĸÐ»ÑĮ
ĠÐ²ÑĸÐº Ð½Ð°Ð¼Ð¸
Ð°Ð½Ð¸ Ð½Ð°
ĠÐ¼Ð°ÑĶ ÑĤÐµ
ĠÐ³Ð»Ð¸ Ð½Ð¸
ĠÐ²Ð¸Ð¹ Ð½ÑıÐ²
ĠÐ±Ð» Ð°Ð¶
ĠÐ»ÐµÐ¶ Ð°Ð»Ð¾
ĠÐĲÐ½Ð´ÑĢÑĸ ÑĶ
ĠÐ½Ð°Ð± Ð»Ð¸Ð·
ĠÐ¿Ð»Ð° ÑĤÑĤÑı
ĠÑİ Ð½Ð°
ĠÐºÐ¾ÑĤ ÑĢÑĥ
ĠÐ´Ð· Ð²Ðµ
ĠÑĩÐ¸Ð¼ ÑģÑĮ
ĠÐ´Ð¸ÑĤÐ¸ Ð½Ð¾
ĠÐ²Ð³ Ð¾Ð»Ð¾Ñģ
ĠÐ´ÐµÑĢÐ¶ Ð°Ð²Ð¸
ĠÑĩÑĥÐ´ Ð½Ð¾
ĠÐ¶Ð°ÑĢ ÑĤ
ĠÐ¿ÑĸÐ· Ð½ÑĸÑĪÐµ
ĠÐ¿Ð¾ÑĢÐ¾Ð¶ Ð½Ñı
ĠÐ·Ð¾ÑģÑĤ Ð°Ð»Ð°ÑģÑı
ĠÑĢÑĥÑħ Ð¾Ð¼
ĠÑģÐºÐ¾ ÑĩÐ¸Ð²
ĠÑĥÑģÐ¼ÑĸÑħ Ð½ÑĥÐ²ÑģÑı
ĠÐĴÐµÐ»Ð¸ ÐºÐ¸Ð¹
ĠÐ½Ð°Ð²Ð¿ ÑĢÐ¾ÑģÑĤ
ĠÐ²ÑģÑĤ Ð°Ð»Ð°
Ð¾ÑģÑı Ð¶
ĠÐ³Ð»Ð¸Ð±Ð¸ Ð½Ð¸
ĠÐ³Ð»Ð¸Ð±Ð¸ Ð½Ñĸ
ĠÐ´ÑıÐ´ÑĮ ÐºÐ°
ĠÐŁÑĸ ÑĪÐ¾Ð²
ĠÐºÐ¾Ð¼Ð°Ð½ Ð´Ð¸
ĠÐºÐ°ÑĤ ÐµÐ³
ĠÑĤÑĢÐ¸Ð²Ð¾Ð¶ Ð½Ð¾
ĠÑĤÑĢÐ°Ð³ ÑĸÑĩ
Ð¼ÑĸÑĪ ÐºÐ¾Ñİ
ĠÑĢÑĥÑĹ Ð½Ð¸
ĠÐ³ÑĢÑĸÐ· Ð½Ð¾
ĠÐŁÐ°Ð» Ð°Ð³
ĠÐ±ÐµÐ·Ð¶ ÑĥÑĢ
ĠÐ²ÐµÐ´ Ð¼Ðµ
ĠÐŀÑģÐ¼Ð°Ð½ ÑĸÐ²
ĠÑĦÐ°Ð½ÑĤ Ð°ÑģÑĤÐ¸
Ð°Ð¹Ð²Ð¾ÑĢ Ð¾Ð½
ĠÐĽÐ¾ÑĪÐ°Ðº Ð¾Ð²
ĠÐĿÐµÐ¼ Ð°ÑĶ
ĠÐ¼ÐµÐ» Ð¾Ð´Ñĸ
ĠÐ·Ð´Ðµ Ð±ÑĸÐ»ÑĮ
ĠÐ³Ð°Ð»Ñı Ð²Ð¸
Ð ®
Ð¸ ÑĢÐ°Ð²
Ð½ ÑģÑĮÐºÐ¾Ð³Ð¾
Ñģ Ð²Ð¾ÑĶÐ¼Ñĥ
ĠÐ¿ Ð°ÑĪ
ÑĮ ÐºÐ°
Ð¼ ÐµÐ¼Ð¾
ĠÐ· Ð½Ð¾
ĠÐ· Ð¾ÑģÐµÑĢÐµÐ´
Ñĩ Ð°ÑĤ
Ñİ Ð±
Ð¾Ð² ÑĸÐ´
ĠÐ± ÐµÑĢÑĥ
ĠÐ± Ð¾Ð»Ð¸ÑĤÑĮ
ĠÐ¼ Ð¾ÑģÑĤÐ¸
ĠÐº ÑĥÐ´
ĠÐº Ð»Ð¸Ñĩ
Ð¾Ð» Ð¾Ð´Ñĸ
Ð· Ð´Ñĸ
Ð¾Ð´ Ð°Ð²
ÑĨ ÑĸÐ´
Ð¸Ð² Ð°ÑĶ
ĠÐ° Ð»ÑĮ
ĠÐ²Ð¸ ÑĢÐ¸
ĠÑģÑĤ Ð²ÐµÑĢ
ĠÑģÑĤ Ð²Ð¾ÑĢÐ¸
Ð½Ð° ÑİÑĤÑĮ
ĠÑģÐ² Ñĸ
ĠÑĹ Ð´Ðµ
Ð»Ðµ Ð±
ĠÐĲ Ð¹
ĠÐ²ÑĸÐ´ ÑĤÐ°Ðº
Ð¾ÑĤ Ð²Ð¾ÑĢ
ĠÐŁ Ð°Ð¼
Ñī Ð¸Ð¼
ĠÑĢÐ¾Ð· ÑģÑĤÐ°Ð²
ĠÑĢÐ¾Ð· ÑĩÐ¸Ð½Ð¸
ĠÑĢÐ¾Ð· ÑĤÐ¾Ð¿
ĠÐĿ ÑĸÑı
ĠÐ¡ ÐµÐ¼ÐµÐ½
ĠÑĪ ÐµÐ¹
ĠÑĤÐµ Ð»ÐµÐ³
ÑĪÐµ ÑĪ
ĠÐ¿ÐµÑĢÐµ Ð±Ð¸Ð²
ĠÑģÐº Ð»ÐµÐ¿
ÑĩÐµ Ñģ
ĠÐĹ Ð²Ð¸ÑĩÐ°Ð¹
ĠÐļ ÑĢÐ°Ð²
ĠÐļ ÑĥÐ¿
ÑĩÑĸ ÑģÑĤÑĮ
ĠÐŀ ÑģÑĤ
ĠÐ¿Ð¾Ð² ÐµÐ´
ÑĥÑĢ ÑĸÐ²
ĠÐ½Ð°Ð² Ð¸Ñģ
ÑģÐ¸ ÑĢ
ÑĥÐ´ Ð¸Ð²
ĠÐ·Ð°Ð¿ ÐµÐº
ĠÐ´Ð¸Ð² Ð»ÑıÑĤÑĮÑģÑı
ĠÐ³Ð¾ÑĢ Ð´Ñĸ
ĠÑĸÐ½ ÑĤÐµ
ĠÐ·Ð°Ðº Ð¸
ĠÐ¾ÑĤ Ð°Ð¼Ð°Ð½
ĠÐ·Ð°Ð³ ÑĥÐ±Ð¸
ĠÑģÑĤÐ°ÑĢ ÑĸÑģÑĤÑĮ
ĠÐ±ÑĢ Ð¾Ð½
ĠÐºÑĢÐ¸ ÐºÐ¾Ð¼
ĠÐ¿Ñĸ ÑģÑĤ
ĠÐ¿Ð°Ð½ Ð½Ð¾
ĠÑĩÐ¾Ð»Ð¾Ð²Ñĸ ÑĩÐµ
ĠÐ½ÐµÐ· Ð½
ĠÐ¾Ñģ ÑĸÐ½
ĠÐ¡ÑĤ Ð°ÑĢÐ°
ĠÑĤÐµÐ¼ Ð½Ð°
ÑĸÑĹ Ð²
ĠÑģÐ¼ÐµÑĢ ÑĤÐµÐ»ÑĮ
ĠÐºÐ¾Ð¼ Ð±
ĠÐ¼Ð¾Ð»Ð¾Ð´ Ðµ
ĠÐ²ÐµÑĩ ÐµÑĢÑĸ
ĠÑĤÑıÐ¶ ÐºÐ¸Ð¹
ĠÑĤÑıÐ¶ ÐºÑĸ
ĠÑħÐ¾Ð»Ð¾Ð´ Ð½Ð°
ĠÑģÐ¿ÑĸÐ² ÑĩÑĥÑĤÑĤÑı
ĠÐĳÑĥ Ð´Ðµ
Ð»ÑĸÐ´ ÑĩÐ¸Ð¹
ĠÐ´ÑĥÑĢ Ð½Ñĸ
ĠÐ±ÑĸÐ´ Ð¾Ð»Ð°ÑĪ
ĠÑĤÑĢÐµÐ¼ ÑĤ
ĠÑħÐ»ÑĸÐ± Ð¾Ð¼
ĠÑıÐºÐ¸Ð¼ ÑģÑĮ
ĠÐ¿Ð¾ÑĢÐ¾Ð¶ Ð½ÑĸÐ¹
ĠÐ´Ð¸Ñħ Ð°ÑĤÐ¸
ĠÐ´Ð°ÑĢ ÐµÐ¼Ð½Ð¾
ĠÐ²Ð¸Ñħ Ð¾Ð´Ñĥ
ĠÑĪÐ¼Ð°ÑĤ ÐºÐ¸
ĠÐ²ÑĸÐ·Ð¸ÑĢ Ð¾Ð¼
Ð¡ÑĤ Ð°ÑĢÐ¸Ð¹
ĠÐ¼Ð¸Ð¼ Ð¾Ñħ
ÑĥÑĤÑĥ Ð·
ĠÐ·Ð±Ð¸ ÑĢÐ°Ð²ÑģÑı
ĠÐºÐ¾Ð»ÑĸÐ½ Ð°Ñħ
ĠÑģÑĤÑĸÐ»ÑĮ ÑĨÑĸ
ĠÐĶÐ¼Ð¸ÑĤÑĢÐ¸ Ðº
ĠÐ¼Ð¸Ð½Ñĥ Ð»Ðµ
ĠÐ¢Ð¸Ñħ Ð¾
ĠÐ¥Ð¾Ð´ ÑĸÐ¼Ð¾
ĠÑĥÑģÐ¼Ñĸ ÑĪÐºÐ°
ĠÐ´ÑĸÑĶ ÑĤÑĮÑģÑı
ĠÐ¿Ð¾ÑĪÐµÐ¿ ÐºÐ¸
ĠÐ¼Ð»Ñı Ð²Ð¾
Ð½ Ñĭ
Ð² ÑĸÑģ
ĠÐ² Ñī
ĠÐ² Ð¾ÑģÑĮ
ĠÐ¿ ÑĸÐ¹Ð¼
ĠÐ½ Ð¾Ð³Ð°
Ð´ Ð¾ÑĢÐ¾Ð²
ĠÑģ Ð°Ð½Ð¸
ĠÑģ ÑĨÐµÐ½
ĠÐ´ Ð°Ð½Ð¾
ĠÐ¼ Ð°Ð·
ĠÐ¼ Ð¾ÑģÐºÐ¾Ð²
ĠÐ½Ðµ Ñħ
Ð½Ð¸ ÐºÐ°Ñħ
ĠÐ¾ Ð¶Ðµ
Ð¶ Ð¾Ð²
ĠÐ³ Ð»Ð°Ñģ
ÐµÐ½ Ð½Ð¸Ñħ
ÐµÐ½ ÑĤÑĢ
ĠÑĩ ÑĥÐ¼
ĠÑĩ ÑĸÑĤÐºÐ¾
Ð°ÑĢ Ð´
ĠÐ» Ð°Ðº
Ð¸Ð² Ð°ÑİÑĩÐ¸
ÑĸÐ» ÐºÐ¸
Ð»Ñı ÑĤÐ¸ÑģÑı
ĠÐ·Ð° ÑĩÑĸÐ¿Ð»ÑıÐ½
ĠÐ·Ð° ÑĨÑĸÐºÐ°Ð²
Ð»Ðµ ÑĤÑĸÐ²
Ð¾Ð¶ Ñĥ
ĠÐ¿ÑĢÐ¸ ÐºÑĥ
Ð¾ÑĤ ÑıÑĤÑĮ
Ð¸Ñħ Ð°Ð¹
ĠÑĢÐ¾Ð· ÑģÑĤÑĢÑĸÐ»
Ð°Ñħ ÑĩÐ¸Ñģ
Ð»Ñĸ Ñģ
ĠÐ²Ðµ Ð´ÑĥÑĤÑĮ
ĠÐļ ÑĢÑĸÐ¼
ĠÐĳ ÑĸÐ»ÑĮÑĪÐµ
ÑĤÐµ Ð»ÑĮÐ½Ð¾
Ð±Ðµ Ð»Ñĸ
ĠÑĩÐ¸ Ñı
Ð¾Ð±Ñĸ ÑĤÑĮ
ĠÐ·Ð² ÑĸÐ²
ĠÐ·Ð² ÐµÐ»Ñĸ
ĠÐ·Ð°Ð¿ ÑĢÐ¾
ĠÐ²ÐµÐ»Ð¸ ÐºÐ¾Ñİ
ÐŁ ÐµÑĢÐµÐ´
ĠÐ²ÑģÑĸ ÑĶÑĹ
ĠÐ´Ð¾Ð± ÑĢÑĥ
ÐĿ ÑĸÑĩ
ĠÐ·ÑĢ Ð¾Ð´Ñĥ
ĠÑĤÑĥ ÑĦ
ÑīÐµ Ð½Ð¸Ð¼Ð¸
ĠÐ´ÑĢÑĥÐ³ ÑĸÐ¹
ĠÐ·Ð°Ð¼ ÑĸÐ¶
ĠÐ¶Ð¸Ð² ÑĸÑĤ
ĠÑĩÐµÑĢ Ðº
Ð°Ñĩ ÐºÐ¸
ĠÑĤÐµÐ¼ Ð½Ð¸Ð¹
ĠÐ¿Ð¸ ÑĪÐ½Ð¾
Ð²Ð°Ð½ Ð¸Ð¹
ĠÐ²Ð´ Ð²Ð¾Ñħ
ĠÐ¿Ð¾Ñħ Ð¾Ð´Ñĥ
Ð¥ Ð¾Ñĩ
ĠÐ½Ð°Ð± ÑĢÐ¸Ð´
ĠÐ²ÑĸÐ¹ Ð½Ð°
Ð²ÑĸÐ´ Ð¾Ð¼Ð¾
ĠÐ²Ð°Ð¶ ÐºÐ¸Ð¹
ĠÐ¿ÑĢÐ¾Ñģ Ð¸ÑĤÐ¸
ĠÐĸ ÑĸÐ½ÐºÐ°
ĠÑģÐ»ÑĥÑħ Ð°ÑİÑĩÐ¸
Ð°Ð½Ð´ Ð¶
ĠÐ¿ÑĢÐ¾Ðº Ð»ÑĮ
ĠÑĩÐµÑĢÐ²Ð¾Ð½ Ðµ
ĠÑĢÐ¸ Ð±Ñĥ
ĠÐ¿ÑĢÐ¾ÑĤÐ¸ Ð»ÐµÐ¶
ĠÐ±Ð°ÑĢ Ð°Ð±
ĠÑĪÐ¸ÑĢÐ¾Ðº Ð¸Ð¹
ĠÐķ Ð´
ĠÐ¿Ð¾Ð²Ñĸ ÐºÐ¸
ĠÐ¥Ð¾Ñĩ Ð°
ĠÐ·Ð¾ÑģÑĤ Ð°Ð²ÑģÑı
ĠÑħÐ¼Ð°ÑĢ Ð°
ĠÐ·Ð°ÑħÐ¾Ð¿ Ð»ÐµÐ½Ð¾
ĠÐ²Ð¸Ð· Ð¸ÑĢ
ĠÐ¼Ð¾ÑĤ Ð¾ÑĢ
ĠÐ¿Ð¾Ð³Ð»Ñı Ð´Ð¸
ĠÐ²Ð¼Ñĸ ÑĶ
ĠÐ£ÐºÑĢÐ°ÑĹ Ð½Ñĸ
ĠÐ¿Ð¾ÑĹ Ð·Ð´
ĠÐĹÐ½Ð° Ñİ
ĠÑĢÑĥÐ± Ð»ÑĸÐ²
ĠÐ¼Ð¾ÑģÐº Ð°Ð»ÑĮ
ĠÑĶÐ²Ð½Ñĥ ÑħÐ¸
ĠÐłÑĥÑģÑĤ ÐµÐ¼Ð°
ĠÐ¿ÑĸÐ´Ð± Ð¾ÑĢÑĸÐ´
ĠÑĪÐ¸Ð½ ÐºÑĥ
ĠÐ¡Ð¾ÐºÐ¾Ð»Ñİ ÐºÑĸÐ²
ĠÐ¼Ð¾Ð· Ð¾Ðº
........ ........
ĠÐºÐ¾Ð¼Ð¿ Ð°Ð½Ñĸ
ĠÐ²ÐµÑĩÐµÑĢ Ñİ
ĠÐ½ÐµÐ²Ð¸Ð´ Ð¸Ð¼
ĠÐłÐ¸ Ð±
ĠÐ¾ÑĩÐµÐ²Ð¸Ð´ Ð½Ð¾
ĠÑĩÐ¾ÑĤÐ¸ÑĢ ÑĮÐ¾Ñħ
ĠÐºÐ» Ð°Ð¿
. )
ÑĢ Ð°Ð´Ð¸
ÑĤ Ð°Ð»Ñĸ
Ñĥ Ð»Ð¸
Ð» Ð¾Ð²Ð¸
Ð² Ð°Ð½Ñĸ
ĠÐ² Ð¾
ĠÐ² ÑĢÐµÑĪÑĤÑĸ
ĠÐ· Ð¾Ð²
ĠÑĤ ÑĸÑģÐ½Ð¾
ĠÐ´ Ð½Ð°
Ñİ Ñħ
Ñİ ÐºÐ°
ĠÐ± Ð°Ð²
Ð¾Ð³ ÑĢÐ°Ð´
ĠÐº Ð¾Ð±
ĠÐº Ð¸ÑĤÐ°Ð¹
ĠÑĢ ÑĸÐ¶
Ð½Ð¸ ÑĨÑıÐ¼Ð¸
Ð¾ÑĢ Ð¾Ð¶Ðµ
ĠÐ³ Ð»Ðµ
ĠÐ³ Ð½Ð°Ð²
ÑĥÐ² Ð°Ð»Ð¾ÑģÑĮ
ĠÐ²Ð¸ Ð»Ð°
ĠÐ²Ð¸ Ð¿ÑĥÑģÑĤÐ¸
ĠÑģÑĤ ÑĸÐ¹
ĠÐ¶ ÐµÑĢÐµ
ĠÐ¶ Ð´Ð°Ð²
ĠÐ¢ Ð¾Ð³Ð¾
ĠÐŁ Ð¾ÑĹ
ĠÑģÐ¿ Ð¸ÑĢ
ĠÑĢÐ¾Ð· ÑĢÐ¸Ð²
ĠÑĢÐ¾Ð· ÑģÑĤÑĢ
ÑĪÐ¸ Ð»Ð¸ÑģÑı
ĠÐľ Ð¸ÑĢ
ĠÐľ Ð¾ÑĢÐ¾Ð·
ĠÑĪ Ð½Ñĥ
ĠÑĤÐµ Ð°ÑĤ
ĠÐ¾Ð± ÑĢÐ°Ð¶
ĠÐ»Ñİ ÑĤÑĸ
ĠÐĹ Ð¾Ð²ÑģÑĸÐ¼
ĠÐļ Ð°ÑĦ
ĠÐĳ ÑĥÐ´
ĠÑĨÐµ Ñħ
ĠÐĵ Ð°Ð»
ĠÐŀ Ð¼Ð°ÑĢ
ĠÑīÐµ Ð»Ðµ
ÑĸÐ· Ð´
ĠÑĹÑħ Ð°Ð»Ð¸
ĠÑģÐµ Ð»Ð¾Ð¼
ÑĦ ÑĤ
ĠÐ·Ð² ÑĸÑģÐ½Ð¾
ÑģÐ¸ Ð»ÑĮ
ĠÐ¼Ð¸ Ð½ÑĥÐ»Ð¾
ĠÐ´Ð¸Ð² Ð°Ð½Ñĸ
ĠÐ³Ð¾ÑĢ Ð°Ñħ
ĠÐ³Ð¾ÑĢ ÑĸÐ»Ð°
ÑģÑĤÑı ÑĤÑĮ
ĠÑĸÐ½ ÑĪÐ¾Ð¼Ñĥ
ĠÐ´Ð¾Ð± ÑĢÐ¸Ð¼
ĠÐºÐ¾Ð» Ñİ
ĠÑĦ ÑĢÐ°Ð·
ĠÑĤÐ¸Ñħ Ð¸Ð¼
ĠÑĤÑĥ Ð³Ð¸
ĠÐºÑĢÐ¸ ÐºÑĥ
ĠÑĩÐ¾ÑĢ Ð½Ð¾Ñİ
Ð½ÑĮ ÑĤÐµ
ĠÐ¿Ð°Ð½ Ð¾Ð²Ñĸ
ĠÐ¿Ð¾Ð· Ð±Ñĥ
ĠÑĤÐµÐ¼ Ð½Ð¸Ñħ
ĠÐ½ÐµÐ² Ð¾Ð»Ñĸ
ĠÐ²Ð¾ÑĢ Ð¾Ð³Ð¸
ĠÑģÐ¿Ð¸ÑĤ Ð°ÑĤÐ¸
ĠÐ½Ð°Ð± ÑĸÐº
ĠÐ½ÑĸÐ¶ Ð½Ð¾
Ð§ Ð¾Ð³Ð¾
ĠÐĸ Ð¸ÑĤÑĤÑı
ĠÐ´Ð°Ð»Ðµ ÐºÐ¸Ð¹
ÐµÑĢÐ¶ Ð°Ð²
ĠÐŁÑĢÐ¾ ÑģÑĤÐ¾
ĠÐ²ÑĸÑĢ Ð°
ÑıÑģ Ð°
ĠÑħÐ¾Ð»Ð¾Ð´ Ñĥ
ĠÐ¿ÑĢÐ¾Ðº Ð¸Ð´
ĠÐ²Ð»Ð°Ñģ Ð½Ñĸ
ĠÐ¿Ð¾Ðµ ÑĤÐ¸
ĠÐ¾ÑģÑĤÐ°Ð½ Ð½ÑĶ
ĠÐºÐ½Ð¸ Ð³Ñĥ
ĠÐļÐ¾Ð» ÑĸÑģÐ½Ð¸ÐºÐ°
Ð»ÑĸÑĤ Ð°Ð»Ð¸
ĠÐ´ÑĥÑħ Ð¾Ð²
ĠÐ²ÑĸÐ´Ð¿Ð¾Ð²ÑĸÐ´ Ð°Ð²
Ð½Ð¸ÑĨÑı Ñħ
ĠÐºÑĥÑĤ Ð¾Ðº
ĠÐ¿Ð°Ð´ Ð°ÑĶ
ĠÐ¡Ð°Ð¼ ÑĸÐ¹
ĠÐ¿ÐµÑĢÐµÐ¼ Ð¾Ð³Ð¸
ĠÐ³ÑĢÐ¾Ð¼ Ð°Ð´Ð°
ĠÐ²ÑĤ ÑĢÐ¸Ð¼
ĠÑħÑĥÐ´ Ð¾Ð±Ñĥ
ĠÐ´ÑĢÑĥÐ¶ Ð¸Ð½Ð°
ĠÐ³Ð°ÑĢÐµÐ¼ Ñĸ
ĠÐĿÐ°ÑĤ Ð°Ð»
ĠÐ½Ð°Ð·Ð¸Ð² Ð°Ð»Ð¸
ĠÐ»Ð°Ð¼ Ð¿
ĠÑħÐ² Ð¾ÑģÑĤ
ĠÑİÑĢ Ð±Ð¸
ĠÐºÐ°ÑĢÑĤÐ¸ Ð½Ñĥ
ĠÐłÑĥÐ± Ð°Ð½Ð°
ĠÐ½ÐµÐ²Ð¸ ÑĢÐ°Ð·
ĠÐ´Ð¾ÑģÑĤ Ð°ÑĤ
ĠÐļÐ°ÑĤ ÐµÑĢÐ¸
ĠÐ¿Ð¾ÑħÐ¾Ð´ Ð¶ÐµÐ½Ð½Ñı
ĠÑĪÐºÑĸ ÑĢÐ¸
ĠÐ½Ð¸Ð·ÑĮ ÐºÐ¾
ĠÐ¿ÑĢÐ¾ÑĦÐµÑģ Ð¾ÑĢ
ĠÐĶÑĸÐ² ÑĩÐ¸Ð½Ð°
ĠÐ¾ÐºÑĥ Ð»Ñı
ĠÐ½Ð°Ð¹Ð´ Ð¾ÑĢÐ¾Ð¶
ĠÐ½Ð°ÑģÐ¸ Ð»Ñĥ
ĠÐŀÐºÑģ Ð°Ð½Ð°
ĠÐ¿Ð¾ÐµÐ· ÑĸÑĹ
ĠÐ¡ÑĸÐ½ Ð°Ð¼
ĠÑĥÐ½Ñĸ ÑĦÐ¾ÑĢ
Ð¸ ÑģÑı
ÑĤ Ð¾Ð±
Ñģ Ð°Ð»Ð¸
Ðº Ð½Ðµ
ĠÐ² Ð¾Ð·Ñĸ
ĠÐ¿ ÑĸÑĤÑĮ
ĠÐ½ Ð°Ð½
ĠÐ· Ð¾Ð´ÑıÐ³
Ñĩ ÑĸÐ¹
Ñħ Ð¾Ð»
ÑĪ ÑĥÐ²Ð°Ð²
Ð¿ Ð¾Ð½
Ð¿ Ð°Ð»Ð°
Ð¾Ð» ÑĸÑĤ
ĠÐ³ ÑĥÐ¿
ĠÐ³ Ð²Ð¸Ð½
ĠÑħ ÑĸÐ´
ĠÐ²Ð¸ Ð»Ð¸Ð²
ĠÐ²Ð¸ ÑĪÐ¸Ð²
Ð°ÑĤÐ¸ Ð¼ÑĥÑĤÑĮ
ÐµÑĢÐµ Ñĩ
ÑĸÐ¹ ÑĤÐ¸
ĠÑģÐ² Ð°Ð²
ĠÑĹ Ð¶Ñĥ
ĠÐ²ÑĸÐ´ Ð²Ð°Ð¶
ĠÑĢÐ¾Ð· Ð±Ð¸Ð²
ĠÑĢÐ¾Ð· ÑģÑĤÐµ
Ð¾Ñģ Ð²ÑĸÑĤ
ÑĢÑĸ ÑģÑĤÑİ
ĠÑĤÐµ ÑĩÑĸ
Ð¾Ñĩ ÐºÐ°Ñħ
Ð²Ð¸ Ð½ÑĤ
ĠÐĹ Ð°Ð´
ĠÐĹ Ð¾Ð»Ð¾ÑĤ
ĠÐĵ Ð°Ð½
ĠÑģÐ¸ Ð½ÑĸÐ¹
ĠÐ¿Ð¾Ð² Ð½Ñĥ
ĠÑģÑĥ ÑĤÑĮ
ĠÑģÑĥ Ð´Ñĥ
ĠÑĹÑħ Ð½ÑĮÐ¾Ð¼Ñĥ
ÐµÐ½ÑĮ ÐºÐµ
Ð°ÑĢÐ¸ Ð²
ĠÐ¿Ð¾Ðº Ð»Ð¸
ĠÐ¼Ðµ Ñĩ
ĠÐ¿Ð¾Ð´ ÑıÐº
ĠÑģÐ²ÑĸÑĤ Ð¾Ð²Ñĸ
Ð¼Ðµ ÑĤÐ¸
ÐŁ ÑĢÑĸ
ĠÑĸÐ½ ÑĪÐ°
ĠÐ£ Ð·
ĠÐ£ Ð³Ð¾ÑĢ
ĠÐºÐ¾Ð» Ð¾Ð½Ð¸
ÐĿ Ð°Ð¹
ĠÑĦ Ñĥ
ĠÑĦ Ð°Ðº
ĠÐ¿Ð¾Ð³ ÑĢ
ĠÐ¾ÑĤ Ð¶Ðµ
ĠÐ²Ð¸Ñģ ÑĸÐ²
ÑīÐµ Ð½Ð¸Ð¹
ĠÐ³Ð°ÑĢ Ð½Ð°
ÐºÐ¾Ð² ÑĸÐ¹
ÐĶ ÑĢÑĥÐ³
ĠÑĩÑĥ Ð±
ÑıÐ· Ð°Ð²
Ð¸Ð½ Ð°Ð¼Ð¸
Ðŀ ÑĤÐ°Ðº
ĠÐ·Ð°ÑĢ Ð°Ð´Ð¸
Ð»Ð°Ð² ÑĪÐ¸
ĠÐ¾Ñģ ÑĸÐ½ÑĮ
ĠÐ²Ð¿ Ð°Ð»Ð¾
ĠÐ¼Ð°Ð¹ Ð´Ð°Ð½Ñĸ
ĠÐ·Ð°Ð´ Ð°Ð²
ĠÐ²ÑĸÐº Ð½Ñĸ
ĠÑģÑĤÐµ Ð¿Ð¾Ð²
ĠÐ¿Ð¾Ð²ÐµÑĢ Ð½ÑĥÑĤÐ¸
ĠÐ¿Ð¾Ð±Ð° ÑĩÐ¸ÑĤÑĮ
ĠÐ¿Ð¾Ð±Ð° ÑĩÐ¸ÑĪ
ĠÐ·Ð°Ñħ Ð¸ÑĤ
ĠÑĨÑĸÐ» Ð¾Ð³Ð¾
ĠÐ³Ð¾Ð»Ð¾Ð² Ð°Ñħ
ĠÐ¤ ÐµÑĢÑħ
Ð¥ ÑĸÐ±Ð°
ĠÐ´Ð°Ð»Ðµ ÐºÐ¸Ñħ
ĠÐ±Ð¾ÑĢ Ð¾Ð½
ĠÑĢÑĸÐ´ Ð½Ð¾ÑĹ
ĠÐ¾Ð· Ð½Ð°Ðº
ĠÑģÐ¿ÑĸÐ² Ð°ÑĶ
ĠÑģÐ»Ñĥ Ð¶Ðµ
ĠÐ¿ÑĢÐ¸Ñģ Ð»ÑĥÐ¶
ĠÐ²ÑĥÐ»Ð¸ ÑĨÐµÑİ
ĠÑģÐ¸Ð½ ÑĶ
ĠÑĪÐ»Ñı ÑħÐ¸
ĠÐ¿ÑĢÐ¾Ð² ÑĸÐ²
ĠÐ½Ð°ÑĪ Ð¾Ð¼Ñĥ
Ð¾Ð²Ð°Ð½ Ð¸Ð¼
ĠÐ¼ÑĸÑģÑı ÑĨÑĸÐ²
ĠÐ´Ð¾Ðº Ð»Ð°Ð´
ĠÐ³Ð»Ñı Ð½ÑĥÑĤÐ¸
ĠÐ±ÑĸÐ³ Ð»Ð°
ĠÑĥÐ´ Ð²Ð¾Ñħ
ĠÐ¿ÑĢÐ¸Ð¿ Ð°Ð´
ĠÐ³Ð¾ÑģÑĤ ÑĢÐ¸Ð¹
ÑģÐ¸Ð¿ Ð°Ð²
ĠÐ·Ð°Ð»ÑĸÐ· Ð¾
ĠÑĸÑģÑĤ Ð¾ÑĤ
ĠÑĨÑĸÐºÐ°Ð² Ð¾
ĠÑĶÐ´Ð¸ Ð½Ð°
ĠÑģÐ¾Ð» Ð¾Ð½
ĠÐ»ÑİÐ±Ð¸ ÑĤÐ¸
ĠÐ¿Ð¾ÑĤÑĢÑĸÐ± ÐµÐ½
ĠÐ¿Ð°Ð» ÑĥÐ±
ĠÐ½Ð°Ð¿Ð¸Ñģ Ð°Ð½Ð¾
ÐĻ Ð¾Ð³Ð¾
ĠÐ¿Ð¾Ð»Ð¾Ð²Ð¸ Ð½Ð°
ĠÐ¿ÑĢÐµÐ´ ÑģÑĤÐ°Ð²
ĠÐºÐ¾ÑĢÐ¸Ð´ Ð¾ÑĢÑĸ
ĠÐ±Ð°ÑĤ Ñİ
ĠÐ¶Ð°Ð» ÐµÐ¼
ĠÐ¿ÐµÑĢÐµÑģ Ð»ÑĸÐ´
ÑĪÑĤÐ¾Ð² Ñħ
ĠÐ´Ð¾Ð»Ð¾Ð½ Ñİ
ĠÐ´Ð¾Ð»Ð¾Ð½ ÐµÑİ
ĠÐ²ÑĢÑı Ð´Ð¸
ĠÐ¼Ð¸Ð½Ñĥ Ð»Ð¾Ð³Ð¾
ĠÐ²Ð¿ÐµÑĢ ÑĤÐ¾
ĠÐĹÐµÐ¼ Ð»Ñı
ĠÐ±Ð´Ð¶ Ð¾Ð»Ð¸
ĠÐ³Ð¾Ð²Ð¾ÑĢ ÑıÑĤÑĮ
ĠÐŁÐ° ÑĨÑİ
ĠÐĲÑģ Ð»Ð°Ð½
ĠÐŀÑħÑĢÑĸÐ¼ÐµÐ½ ÐºÐ¾
ĠÐ±Ð¾ÑıÐ· ÐºÐ¾
Ðº Ð´
Ðº ÑĸÑģ
Ðº ÑĥÐ²Ð°Ð»Ð°
Ñı Ð½Ð´
Ñı ÑĶÑĤÑĮÑģÑı
ĠÐ² ÑĩÐ¸Ð½Ð¸
Ð´ Ð½Ð¾
Ð¼ Ð°Ñģ
Ñĩ ÐµÑĢÐ²Ð¾Ð½
ÑĤÐ¸ Ð½Ñĥ
Ð°Ð² Ñĥ
ÑģÑĤ ÐºÐ¸
ĠÐ½Ð° ÑĤÑĢÐ°Ð¿
ÑĸÐ´ Ð°Ð»Ð¸
Ð¾Ð´ Ð¾Ñİ
ĠÑĥ Ð»Ð¸
ĠÑĥ ÑĤÐµ
ĠÑĥ ÑĢÐ°Ð·
ÑĸÐ½ ÑĨÑĸ
ĠÑĩ ÑĥÑĶÑĪ
Ð°Ð´ Ð°ÑĤÐ¸
Ð»Ñı Ð»Ð°ÑģÑı
ĠÑĨ Ð¾Ðº
ĠÑĨ ÑĥÑĢ
ĠÑĨ Ð²Ð¸Ð½ÑĤ
ĠÐ·Ð° ÑģÑĸ
Ð´Ð¸ Ð»Ð°
ĠÐŁ Ð°Ð½ÑĮÐºÐ¾
Ð¾ÑĹ ÑĤÑĮ
ĠÑĢÐ¾Ð· ÑħÐ¾Ð´Ð¸
ĠÐľ ÐµÐ»ÑĮ
Ð½ÑĥÐ² Ð°ÑĤÐ¸
ĠÐ¾Ð´ Ð½Ð¾Ñİ
ĠÑģÐ°Ð¼ Ð¾Ð·
ĠÐ¥ ÑĸÐ²
ĠÐĵ Ð¾Ð´Ñĸ
ĠÑĤÐ¸ ÑĪÑĥ
ÑģÑĤÐ¸ ÑĤÑĮ
ĠÐ±ÐµÐ· ÑĥÐ¼
ĠÐ±ÐµÐ· Ð»ÑİÐ´
ĠÐ±ÐµÐ· Ð¿ÐµÑĢÐµÑĢÐ²
ÐĴ Ð¶Ðµ
ĠÐ·Ð°Ð² Ð¼Ð¸ÑĢ
ÐŁ Ð¾Ð¼
ĠÐ¿Ð¾Ñģ Ð»ÑĸÐ´
ÑĢÑı Ð²Ð¸
ĠÑģÑĥÐ»ÑĤÐ°Ð½ ÑģÑĮÐºÑĸ
ĠÐ·Ð½Ð° ÑĩÐµÐ½Ð½Ñı
ĠÐ·Ð°Ðº Ð°Ð¼
ĠÐ³Ñĥ ÑģÑĤÑĸ
ĠÐ¾ÑĤ ÑĩÐµ
Ð»Ð¾Ð¿ Ð¾ÑĤ
ĠÐ²Ð¸Ñģ Ð¾ÐºÑĥ
ĠÐ³Ð°ÑĢ Ð¼Ð¾Ð½
ÑıÐ· Ð°ÑĤÐ¸
ĠÐºÐ¾Ð½ ÑĩÐµ
ĠÐ¶Ð¸Ð² Ð¸Ð¼
ĠÐ½Ð°Ð· Ð´
ĠÐ²Ð¿ Ð°ÑģÑĤÐ¸
ĠÑĢÐ¾Ð·Ð¿ Ð¾Ð²ÑĸÑģÑĤÐ¸
ĠÐµ ÑĦ
ĠÐ²Ð´ Ð¸Ð²Ð»Ñı
ĠÐ¿Ð¾Ð²ÐµÑĢ Ð½ÐµÑĤÑĮÑģÑı
Ðĵ Ð¾ÑģÐ¿
ĠÐ½ÐµÐ´ Ð±
ĠÑĨÑĸÐ» Ð¾Ð¼Ñĥ
ĠÐ¿Ð¾ÐºÐ¸ Ð½ÑĥÑĤÐ¸
ĠÐ½Ð°Ð± Ð¸ÑĢ
ĠÐ¼Ð°ÑĤÐ¸ Ð¼Ðµ
Ð²Ð°Ð¶ Ð°ÑİÑĩÐ¸
ĠÑĢÑĸÐ´ Ð½Ñĥ
ĠÑĢÑĸÐ´ Ð½Ð¸Ð¹
ĠÐ¼Ð¾Ð»Ð¾Ð´ Ð¾ÑģÑĤÑĸ
ĠÐ½Ð¾Ñĩ Ð°Ð¼Ð¸
ĠÐ´Ð¸ ÑĢÐµÐºÑĤÐ¾ÑĢ
ĠÑĤÑĢÐ¸Ð¼ Ð°Ð»Ð¸
ĠÑĤÑĢÐ¸Ð¼ Ð°Ð»Ð°
ĠÐ»ÑİÐ± Ð»ÑıÑĤÑĮ
ĠÑĪÐ¸ Ð½Ðµ
ĠÑĤÑıÐ³ Ð°ÑĢ
ĠÐ·Ð³Ð°Ð´ Ð°Ð»Ð°
ĠÐ±Ð°ÑĢ Ð°Ð±Ð°Ð½
ĠÐ³Ð¾Ð´Ð¸ ÑĤÑĮÑģÑı
ĠÑĩÑĥÐ¶ Ð¾Ð³Ð¾
ĠÐ½ÐµÑĢ Ð¾Ð·
ĠÑģÑĤÑĥÐ¿ Ð¸Ð²
ĠÑĤÑİÑĢ Ð¼Ð°
ĠÑĤÑĢÐµÐ¼ ÑĤÐ¸ÑĤÑĮ
ĠÐ±Ð¾Ð³ Ð¾Ð¼
ĠÑĪÐµÐ¿ Ð¾ÑĤÑĸÐ²
ĠÐ·Ð²Ðµ ÑĤÑĮÑģÑı
ĠÐ¿Ð°Ð»Ð° Ñħ
ĠÑĤÑĢÑĸ ÑĪÐºÐ¸
ĠÑģÑĥÑħ Ð¸Ð¹
ĠÐĦÐ»ÑĮ ÑĨÑĸ
ĠÐ½Ð°Ð¿Ð¸Ñģ Ð°ÑĤÐ¸
ĠÑģÐ»Ð°Ð² ÐµÑĤ
ĠÐ»ÑĸÐº Ð°ÑĢ
Ð¿ÑĥÑģ ÐºÐ°Ð²
ĠÑĤÐ²Ð¾ÑĶ ÑĹ
ĠÐ²Ð¸ÑĤÑĢÐ¸Ð¼ Ð°Ð²
ĠÐ²Ð¼ÐµÑĢ ÑĤÐ¸
ĠÑĨÑĸÐ»Ð¸ Ð¼Ð¸
ĠÐºÐ»Ð° ÑĨ
ĠÐŁÑĸÑģ ÐºÐ¸
ĠÐ·Ð°Ð¿ÐµÑĢÐµ Ñĩ
ĠÑĢÑıÑĤÑĥ Ð½ÐºÑĥ
ĠÐľÐ°Ð½ ÑĸÑģ
ĠÐ¼ÐµÑĩÐµ ÑĤÑĸ
ĠÐºÐ²Ð°ÑĢ ÑĤÐ¸
ĠÐ·Ð°Ð³Ð¾Ð²Ð¾ÑĢÐ¸ Ð²
ĠÑģÑĥÐ¼Ð½ÑĸÐ² Ñĥ
ĠÑĢÑĸÑĪÑĥ ÑĩÐµ
ĠÐ¿Ð¾ÑĤÑĢÐ¾ ÑħÑĥ
ĠÐ½Ð°Ð²Ð¿ÑĢÐ¾ÑģÑĤ ÐµÑĨÑĮ
ĠÐķÐ´ ÑĸÑĢÐ½Ðµ
ĠÐ ĺ
ÑĢ Ð°Ð»Ð°
Ñĥ ÑĩÐ¸
Ñģ Ð°ÑĢ
Ð» Ð°Ð½Ð°
Ð² Ð°Ð»Ð¾ÑģÑı
Ðº Ð°Ð»Ð¾
Ñı ÐºÐ¾
ĠÐ² ÑĤÑıÐ³
ĠÐ² Ð²ÑĸÐ¹
ĠÐ¿ Ð¸ÑĢ
Ð´ Ð°ÑĢ
ĠÑĤ Ð°Ð²
ĠÐ´ Ð°Ð»ÑĮ
Ñħ Ðµ
Ñİ ÑģÑĮ
ÑĪ Ð°ÑĶ
ÑĪ ÐºÐ°Ð¼Ð¸
Ð¿ ÑĥÑĢ
ÐµÑĢ Ð½ÑĥÐ²ÑģÑı
ĠÐº ÑĸÐ»
ĠÐº Ð»Ñĸ
ĠÐº ÑĢÐ°Ð²
ĠÐº ÑĢÐµÑģ
ĠÐ½Ðµ ÑģÑĥ
ĠÐ½Ðµ ÑģÑĤÑıÐ¼
Ð¾Ð» ÐµÐ¼
ĠÐ½Ð° ÑĢÐ°Ð·
ĠÑĢ Ð¸ÑĤ
Ð½Ñĸ ÑĶ
ĠÑĥ ÑģÑĤÐ°Ð½
ÐµÐ½ Ð½Ñĥ
ĠÐ» Ð¾Ð¼
ĠÐ» ÑĥÐ½
ĠÐ» Ð¾Ð±Ð°
ĠÐ¿Ð¾ ÑĹÑħÐ°Ð»Ð¸
ĠÐ¿ÑĢ Ð¾Ñĩ
ĠÐ¶ Ð¾Ð½Ð¸
ĠÐ´Ð¾ ÑĪÐºÐ¸
ĠÐĴ ÑĸÑĤÐµÑĢ
ĠÐ¿ÑĢÐ¸ ÑĩÐ¸Ð½Ð¸
Ð¾ÑĤ Ñı
ĠÑĢÐ¾Ð· Ð±Ñĥ
Ð½Ðµ Ð½Ð¸Ñħ
ĠÑĤÐµ ÑĩÐµ
Ð°Ñħ Ð¸
ĠÐ¿ÑĢÐ¾ ÑģÑĤÑĸ
Ð²Ð¸ Ð¶
ĠÐĨ Ð²Ð°
ĠÐĶ Ð²
Ð¾Ð´Ð¸ Ð»Ð¾
ĠÐĳ ÐµÐ´Ðµ
ĠÐ·Ð½ ÐµÐ½Ð°Ð²Ð¸
ĠÐºÐ¾Ð»Ð¸ Ñģ
ĠÑģÑĥ Ð±
ÑİÑĩÐ¸ Ð¼
ĠÐ¿Ð¾Ðº Ð¾ÑĹ
ĠÐ¿Ð¾Ðº Ð»Ð¸ÐºÐ°Ð²
ĠÐ¿Ð¾Ðº Ð»Ð°Ð»Ð¸
ÑģÐµ Ð»
ĠÐ´Ð¸Ð² Ð°Ð½
ĠÐĽ ÐµÐ³
ÑĢÑı Ñħ
ĠÑģÑĥÐ»ÑĤÐ°Ð½ ÑĪÑĥ
ĠÐºÑĥ ÑīÑĸ
ĠÐ¿Ð¾Ð¼ ÑģÑĤÐ¸
ĠÑģÐµÑĢ Ð´Ðµ
ĠÐ·Ð°Ð± Ð°ÑĢÐ¸
ĠÐ·ÑĢ ÑĸÐ´ÐºÐ°
ĠÐ¼Ñĥ ÑģÐ¸Ð»Ð°
Ð¡ Ð°Ð¼
ĠÐºÑĢÐ¸ ÑĤÐ¸
ĠÑĩÐ¾ÑĢ Ð½ÑĸÐ¹
ĠÐ·Ð°Ñģ ÑĥÐ²
Ð»ÐµÐ½ Ð¾Ð¼Ñĥ
ĠÐ·Ð³ Ð°Ñģ
ĠÐ·Ð³ Ð¾Ð´Ð¸
ÑıÑĤ Ð°Ð²
ĠÐºÐ¸ Ð½ÑĥÐ»Ð¸ÑģÑı
ĠÐ²Ð¸Ð¿ Ð»Ð¸Ð²
ĠÐ¿ÑĢÐ°Ð² Ð¾Ñģ
ĠÐ³ÑĢ Ñİ
ĠÑĤÐµÐ¼ ÑĢÑıÐ²Ð¸
ĠÑģÑĤÐµ Ð¿Ð¸
ĠÐ¤ ÑĢÐµÐ¹
ĠÐ»ÐµÐ¶ Ð°ÑĤÑĮ
ĠÐ»ÑĸÑĤ Ð°ÐºÐ¸
ĠÐ¿Ð» ÑĸÐ²
ĠÐ·Ð°Ð» Ñĥ
ĠÐ·ÑĢÐ¾Ð± Ð¸ÑĤÑĮ
ĠÑģÐ¼Ñĸ ÑĪÐ½Ð¾
ĠÐ¿ÑĸÐ² Ð´ÐµÐ½ÑĮ
ĠÐ·Ð» Ð¾Ð²Ñĸ
ĠÑģÐ¾ÑĢ Ð¾Ð¼Ñĥ
ĠÐ»ÑĸÑģ Ð¾Ð¼
ĠÑĪÐ¸ Ð±Ðµ
ĠÑĸÐ¼ ÐµÐ½Ð°
ÐĽ Ð¸
ĠÑĤÐ¾Ð½ ÐºÑĸ
ÑīÐ¸ Ðº
ĠÐ¿Ð¸Ñģ Ð°ÑĢ
ĠÐ³Ð»Ð¸Ð± ÑĪÐµ
ĠÐļÐ¾Ð» Ð¾
ĠÐ·Ð°Ð»ÑĸÐ· Ð½Ñĸ
ĠÐ²ÐµÑģ Ð½Ð¸
ĠÑĤÑĢÐµÐ¼ ÑĤÑĸÐ»Ð¸
ĠÐĩ Ð²
ĠÐ·ÐµÐ»Ðµ Ð½Ð¸Ð¹
ĠÐ±ÐµÐ·Ð¿ Ð¾ÑĢÐ°Ð´
ĠÐĴÐµÐ»Ð¸ Ðº
ĠÐ¿Ð¾ÑĤÑĢÑĸÐ± Ð½Ð°
ĠÐ¿Ð¾Ð´Ñĸ ÑĹ
ĠÑģÑĥÑģÑĸÐ´ Ð°
ĠÑģÑĤÑĢÑĸ Ð»Ð°
ĠÐ¿Ð»Ñı Ð¼Ð¸
ĠÑĢÑı Ð±
ĠÐ·Ð°ÑħÐ¾Ð¿ Ð»ÐµÐ½Ð½Ñı
ĠÑĢÑĥÑĪ Ð½Ð¸ÑĨÑĸ
ĠÐ·Ð½Ð¸Ðº Ð»Ð°
ĠÐ¿Ð¾Ð¼ÑĸÑĤÐ¸ Ð»Ð°
ĠÐłÑĥ ÐºÐ¸
ĠÐ¿ÑĢÐ°ÑĨÑİ ÑĶ
ĠÐºÐ»Ð¾Ð¿ Ð¾ÑĤÑĥ
ĠÐ±Ð»ÑĸÐ´ Ð¸Ð¹
ĠÐļÐ¾Ð¶ ÑĥÑĪ
ĠÐ½Ð°Ð» ÑıÐ³
ÑĹÐ´ Ð¶Ñĸ
ĠÐ¿Ð¾Ð²Ð°Ð¶ Ð½Ð¾
ĠÐºÑĢÐ°Ð¿ Ð»Ñĸ
ĠÐºÐ¸Ð»Ð¸ Ð¼
ĠÐ²Ð¾ÑĹ Ð½ÑĸÐ²
ĠÐ¾ÑĤÐµ ÑĨÑĮ
ĠÑģÐ¾Ð»Ð¾Ð¼ Ð¸
ĠÐ³ÐµÐ½ÐµÑĢ Ð°Ð»
ĠÑģÐ¾ÑĢÐ¾Ð¼ Ð½Ð¾
ĠÐ¿Ð¾ÑĤÑĸ Ðº
ĠÐŁÐ°ÑĢ ÑĦ
ĠÐ¿ÑĢÐ¸Ð½ÐµÑģ Ð»Ð°
ĠÐĳÐ¾Ð½ÑĸÑĦÐ° ÑĨÑĸÐ¹
ĠÐ½ÐµÐ±ÐµÐ· Ð¿ÐµÑĩ
ĠÐ½Ð°ÑĤÐ¾Ð² Ð¿
ĠÑĤÑĢÐµÑĤÑĮ Ð¾Ð³Ð¾
ĠÐĵÐ°ÑĦ ÑĸÐ¹
ĠÐ¿Ð¾Ð±Ð»Ð¸ Ð·Ñĥ
ĠÐ¡ÑĤÑĢÐ°ÑĤ Ð¾Ð½
ĠÐļÐ¾Ð¿ Ð°ÑĶ
ĠÑħÐ¾ÑĤÑĸÐ»Ð¾ ÑģÑĮ
. ,
Ġ '
Ð¾ ÑĩÐ¸Ñħ
Ð¸ Ð»ÑĮ
ÑĤ Ð°Ð¶
Ð½ Ð°Ð»Ð¾
ĠÐ² Ð¾Ð·Ð¸
ĠÐ¿ ÑĥÑĤÑĮ
ĠÐ¿ Ð°Ð»ÐµÑĨÑĮ
ĠÑģ Ð°ÑĢ
Ð¼ ÑĥÑĤ
Ñĩ Ð½Ð¾Ð¼Ñĥ
ĠÑĤ ÑĸÐ½
ĠÐ´ ÑĢÐ¾Ð²
ĠÐ´ Ð¾ÑĢÑĸÐ¶
Ñİ Ð½ÑĮ
ÑĤÐ¸ Ð·
Ð¿ Ð°ÑĢÐ°
ÐµÑĢ Ð°Ð¼Ð¸
ĠÐ¼ Ð°Ð¼Ð¸
ĠÐº ÐµÐ´
ĠÑĸ Ð´Ð¸
Ð· Ð½Ð¸
Ð½Ð¸ Ð»Ð¸ÑģÑı
Ð½Ð¸ ÑĨÑĤÐ²Ð¾
Ð¾ÑĢ Ð¾Ñİ
ĠÐ¾ ÑģÐº
Ð¶ Ð¸ÑĤÑĮ
ĠÑī Ð¾ÐºÐ¸
ÑĹ Ð·Ð´
ÑĹ Ð·Ð´Ð¸
ĠÐ³ ÑĢÐ¸Ð²
ĠÐ³ Ð»ÑıÐ´
ĠÑı Ð¼Ð¸
Ð°Ðº ÑĤÐµÑĢ
ÑĩÐ¸ ÑħÐ°
ÑĩÐ¸ Ð»Ð°ÑģÑĮ
ÑĸÐ» Ð¾Ð³Ð¾
ĠÑħ ÑĥÑģÑĤÐ¸
ĠÐ¶ Ð¾Ð½
ĠÑĨ Ð°ÑĢÐ¸
ĠÐ²ÑĸÐ´ Ð¿Ñĥ
Ð°ÑĤ Ð¾ÑĢÐ°
ĠÐ¿ÑĢÐ¸ ÑıÑĤÐµ
ÑĸÐ»ÑĮ Ð½Ð¸Ð¹
Ð¾Ñģ Ð½Ñĸ
ÑĢÐµ Ð½Ð¸Ð¹
ĠÐ¿ÑĸÐ´ ÑĤÐ²ÐµÑĢ
ĠÐ¿ÑĢÐ¾ ÑģÑĤÐµ
ĠÐ¾Ð± ÐµÑĢÐµ
ĠÑģÐº Ð°Ð»
ÑĩÐµ Ð²
ÑĩÐµ ÑĪ
Ð±Ð¸ ÑĤÐ¸Ð¹
ĠÐļ Ð¾ÑĩÑĥ
ĠÐ¯ Ð³ÐµÐ»ÑĮ
ĠÑģÐ¸ Ð·
Ð»Ñĥ Ð¿
ĠÐ¼Ñĸ ÑģÑĤÐ¾Ð¼
ÑĤÑĥ ÑİÑĤÑĮ
ĠÐ´Ð¸Ð² Ð½Ð¸Ð¹
ĠÐ»Ðµ Ð¹
ĠÐ³Ð¾ÑĢ ÑĸÑĪ
ÐŁ Ð°Ð²
ĠÑģÑĥÐ»ÑĤÐ°Ð½ Ðµ
ĠÐ½Ð°Ð¹ ÑģÑĤÐ°ÑĢ
ĠÐ¼Ñĥ ÑģÑıÑĤÑĮ
ĠÐ³Ñĥ Ð±Ñĥ
ĠÐ³Ñĥ ÐºÐ°ÑĶ
ÑĥÑĶ Ð¼Ð¾
ĠÑģÐ¼ ÑĸÑĤÑĤÑı
ĠÐºÑĢÐ¸ Ð¶
ĠÐ³Ð°ÑĢ Ð±Ñĥ
ÑıÑĤ Ð½Ð°Ð´ÑĨÑıÑĤÑĮ
ĠÐºÐ¾Ð½ Ð²ÐµÐ¹
ĠÐ¿ÑĢÐ¸Ð¹ Ð½ÑıÐ²
ĠÐºÐ¸ Ð½ÑĥÑĤÐ¸
ĠÐ¿ÑĢÐ°Ð² ÐµÐ´
ĠÐ¿ÑĢÐ°Ð² Ð¾Ð²ÑĸÑĢ
ĠÐºÐ°ÑĢ Ð°
ĠÐ¿Ð¾Ñħ Ð²Ð°Ð»Ð¸
ÑıÐ½ ÐºÐ¸
ĠÐ¿ÑĢÐ¾Ñģ Ð¸ÑĤÑĮ
Ð±Ð¸ÑĢ Ð°ÑĤÐ¸
ĠÑĢÑĸÐ´ Ð½Ñĸ
ĠÐ¿ÑĢÐ¸Ð³ Ð¾Ð´Ð¸
ĠÑģÑĤÐ¾ÑĢ Ð¾Ð¶Ð°
ĠÐ½Ð¾Ñģ Ð¸
ĠÐ½Ð¾Ñģ Ð¸ÑĤÐ¸
Ð°ÑĦ Ð¸Ð³
ÐºÐ¸Ð´ Ð°Ð»Ð¸
ĠÑħÑĢÐµ ÑģÑĤÐ°
ĠÐ·Ð¾ÑģÑĤ Ð°Ð»Ð¾ÑģÑı
ĠÐ½ÐµÐ²Ðµ ÑģÐµ
ĠÐ³Ð¾ÑĤ Ð¾Ð²Ñĸ
ĠÑĤÑĢÑĸ Ñģ
ĠÐ¥Ð»Ð¾Ð¿ ÑĨÑĸ
ĠÐ²Ð¸Ñħ Ð¾Ð²
ĠÐ²Ð¸Ñħ ÑĸÐ´
ĠÐ¿Ð¾Ð¼ÑĸÑĩ Ð°Ð²
ĠÑħÐ¼Ð°ÑĢ Ð°Ð¼Ð¸
ĠÑĥÑģÑĤ Ð°Ñħ
ĠÐ²ÑĸÐ»ÑĮ Ð½Ð¸Ð¹
ĠÐ½ÐµÑī Ð°Ð´
ĠÑĤÐ¸Ð¶ Ð½Ñĸ
ĠÐ½ÑĸÐ¼ ÑĨÑĸ
ĠÐºÐ°ÑĢÑĤÐ¸ Ð½Ð¸
ĠÐºÑĸÐ½ÑĮ Ð¼Ð¸
ĠÐºÑĢÐ°ÑĹ Ð½Ð¸
Ð°ÑĢÐµÐ¼ Ð½Ð¾
ĠÐ¿ÐµÑĢÑĪ Ð¾Ð¼Ñĥ
ĠÐ¿ÑĢÐ¸Ð·Ð½Ð° ÑĩÐµÐ½Ð½Ñı
ĠÐºÐ¾Ð»Ð¸ÑĪ Ð½ÑĸÐ¹
ĠÐ·Ð°Ð¼Ð¸ Ñģ
ĠÑħÐ°Ð·ÑıÐ¹ ÐºÐ°
ĠÐ¼Ð¾Ð»Ð¾Ð´Ñĸ ÑģÑĤÑĮ
ĠÑĩÐ¾Ð² ÐµÐ½
ĠÐ´Ð¾Ð·Ð² Ð¾Ð»Ñı
ĠÐ·ÑĢÑĥ Ð¹
ĠÐŁÑĢÐ¸Ð¹ ÑĪÐ¾Ð²
ĠÐ·Ð´Ð¾ÑĢ Ð¾Ð²Ñĸ
ĠÐ½Ð°Ñĥ ÐºÑĥ
ĠÐ·Ð°Ð¿Ð»Ð°Ðº Ð°Ð»Ð°
Ġ2 0
ĠÑģÐ²ÑĸÐ´Ð¾Ð¼ ÑĸÑģÑĤÑĮ
ĠÐ¿ÐµÑĢÐµÑĤ Ð²Ð¾ÑĢ
ĠÐ¿Ð¾Ð¶Ðµ Ð¶Ñĸ
ĠÐ´Ð¾Ð»ÑĸÐ² ÑĨÑĸ
ĠÐ´ÑĸÐ²ÑĩÐ¸Ð½ ÐºÐ°
ĠÐ¡Ð¿ÑĢÐ°Ð² Ð´Ñĸ
ÐŁÑĢ Ð¾ÑĤÐµ
ĠÐ¥Ð¼ÐµÐ»ÑĮÐ½Ð¸ÑĨÑĮ ÐºÐ¸Ð¹
ĠÐ¿Ð°ÑĢÑĤÑĸ ÑĹ
ĠÐ½Ð°Ð¿ÑĢÑıÐ¼ ÐºÑĥ
ĠÐ½ÐµÐ¼Ð¾Ð¶ Ð»Ð¸Ð²Ð¾
ĠÐºÐ°Ð»Ð°Ð¼ ÑĥÑĤ
ÐłÐŀ ÐĹ
ĠÐ¿Ð¾ÑģÑĤÑĥ ÐºÐ°Ð²
ÑħÑĸÑĤ ÐµÐº
ĠÐ½ÐµÐ·Ð³ ÑĢÐ°Ð±
Ñģ Ð°Ð¼
Ð² Ð¾ÑĢÐ°
Ðº Ð¾ÑĢ
ĠÐ½ Ð¾
ĠÐ½ Ð¾Ð¶Ð°
Ð´ Ð²Ð°
ĠÑģ ÑĸÐ½Ð°
Ð¼ Ð°Ð²
ĠÐ· Ð´Ñĥ
Ñĩ Ð°Ð½ÐºÐ°
ÑĪ Ð°Ð»Ð°
ÑĪ ÑĥÐ²Ð°Ð»Ð¸
ĠÐ± Ð¾Ð¹
ĠÐ± Ð°Ð½ÑĮ
Ð¿ Ð¾ÑģÑĤ
Ð»Ð¸ Ð½Ñĥ
Ð· Ð²Ð¾Ð½
Ð¶ ÐºÐ¸
ĠÑĥ Ð»Ð¸ÑĨÑĸ
ĠÑĩ ÐµÐ¼
Ð¸Ð² Ð°ÑĤÐ¸
ĠÐ° ÑģÑĤÑĢ
Ð¾Ðº Ð¾Ñİ
ĠÐ²Ð¸ Ð»Ð°Ð·
ĠÑģÑĤ Ð°ÑİÑĤÑĮ
Ð»Ñı Ð½Ð¸
ĠÐ¶ Ð¼ÐµÐ½
ĠÑĨ Ð°ÑĢÑı
ĠÐ·Ð° ÑĤÑĸ
ĠÐ·Ð° ÑıÐ²
ÐºÑĥ Ð¹
Ð»Ðµ Ð´ÑĮ
ĠÐĴ ÑģÑı
ĠÐĴ ÑĸÑĤ
ĠÐĴ Ð°Ð¶
ĠÐ²ÑĸÐ´ ÑĢÐ¾
ĠÐ²ÑĸÐ´ ÐºÐ°Ð·
ĠÐ²ÑĸÐ´ Ð²ÑĸÐ´
ĠÐ¿ÑĢÐ¸ ÐºÐ¸
ĠÐ¿ÑĢÐ¸ ÑĤÑıÐ³
ÑĢÑĥ Ð»ÑĮ
ĠÑģÐ¿ Ð°Ñģ
ĠÑģÐ¿ ÑĢÐ¾Ð¼
ĠÑĢÐ¾Ð· ÐºÐ¸
ĠÑĢÐ¾Ð· ÑĩÐ°Ð²
ĠÐ¡ ÑĤÐ°Ð½
ĠÑĤÐµ ÑħÐ½Ñĸ
Ð°Ñħ Ð¾Ð¼
ĠÐ¿ÑĢÐ¾ ÑħÐ¾Ð´Ð¸Ð»Ð¸
ĠÐ¿ÐµÑĢÐµ ÑĪÐº
ĠÑģÐº Ð»Ð¾
ĠÐĹ Ð¾ÑģÑı
ĠÐļ Ð°Ð¶ÑĥÑĤÑĮ
ĠÐļ ÑĢÐ°ÑīÐµ
Ð¾Ð´Ð¸ Ð½
ĠÐ¥ Ð°ÑĦ
ĠÑĢÑĥ ÑħÑĥ
ĠÑĢÑĥ Ð½Ð´Ñĥ
ĠÐŀ Ðº
ĠÑĤÐ¸ Ñģ
ĠÐ±ÐµÐ· Ð¼ÑĸÑĢ
ĠÑģÐµ ÑģÑĤÑĢÑĥ
ĠÑĩÐ¸ ÑģÑĤÑĸ
ĠÐ»Ð¸ ÑĩÐºÐ¾
ĠÐ½Ð°Ð² Ð°Ð¶
ĠÐ¼Ðµ Ð¶
ĠÐ¿Ð¾ÑĢ ÑĸÐ²Ð½Ñı
ĠÐ¿ÐµÑĢÐµÐ´ Ð°ÑĤÐ¸
ÑĪÑĥ ÑİÑĤÑĮ
ĠÐ·ÐµÐ¼ ÐµÐ»ÑĮ
ĠÑģÑĥÐ»ÑĤÐ°Ð½ ÑģÑĮÐºÑĥ
ĠÑģÐµÑĢ Ð¿Ð°Ð½
ĠÐ·Ð°Ðº Ð¾Ð½Ð¸
ĠÐ·Ð°Ðº Ð¾Ð½Ñĥ
ĠÐ¿Ð¾Ð³ Ð¾Ð²Ð¾ÑĢÐ¸
ĠÐºÑĢÐ¸ Ð»ÑĮ
Ð½ÑĮ ÐºÐ¸
ĠÐ´ÑĢÑĥÐ³ Ð¾Ñİ
ĠÐ·Ð³ ÑĸÐ´Ð½Ð¾
ĠÐ²Ð¾Ð» Ð¾ÑģÑĤÑĸ
ĠÐ²Ð¾Ð» ÐµÑİ
ĠÐ²Ð¸Ð´ ÐºÐ¾
ĠÐºÐ¸ Ð½ÑĥÐ»Ð¸ÑģÑĮ
ĠÐ´Ð¾ÑĢ Ð¾Ð³Ð¾
ĠÑħÐ»Ð¾Ð¿ ÑĨÐµÐ²Ñĸ
ĠÐ²Ð¾ÑĢ Ð¾ÑĤ
ĠÐ¿Ð¾Ð²ÐµÑĢ Ð½ÑĥÑĤÐ¸ÑģÑı
ĠÐ½ÐµÐ´ Ð¾ÑģÑĤ
ĠÐ½Ð°ÑĢ Ð¾Ð±
ĠÐ²Ð¸Ðº Ð»Ñİ
ÐµÑĩ ÐµÑĢ
ÐµÑĩ Ð¾ÑĢÐ°
ĠÑģÐ»ÑĥÑħ Ð°Ð»Ð¸
ĠÑģÑĥÐ¼ Ð¾Ð²
ÑīÐ° ÑĤÑĮ
ĠÑģÐ¿ÑĸÐ² Ð°Ð²
ĠÐŀÐ´ Ð½Ñĸ
ĠÑĩÐµÑĢÐ²Ð¾Ð½ Ð¸Ñħ
ĠÐ·Ð°Ð¹ ÑĤÐ¸
ĠÑģÐºÐ°Ð¶ ÑĸÐ¼Ð¾
ĠÑĢÑĸÐ· ÑĮ
ĠÐ·Ð°ÑĤ Ð¾Ð¿
ĠÑĤÐµÐ¿ Ð»Ñĸ
ĠÐ²Ð°ÑĢ ÑĤÐ°
ĠÐ·Ð°Ð¿Ð¸ÑĤ Ð°Ð»Ð°
ĠÑĩÑĥÐ¶ Ð¸Ð½
ĠÐºÑĢÐ°Ñģ Ð°
ĠÐ¿Ð°Ð´ Ð°Ð²
ĠÐ¶Ð°ÑĢ ÑĤÐ¸
Ð¾Ð»Ð¾Ñģ Ð¸Ð²
ĠÐ·ÑĢÐ¾Ð·ÑĥÐ¼ ÑĸÐ»Ð°
ĠÐļÐ¸ÑĢÐ¸ Ð»Ð°
ĠÐ·ÑĢÐ°Ð´ ÑĸÐ²
ÐµÐ½Ð´ ÐµÑĢ
ĠÑĤÐµÐ¼ÑĢÑıÐ² Ð°
ĠÐ±Ð°Ð³Ð°ÑĤ ÑģÑĤÐ²Ð¾
ĠÐŀÑģ Ð¾Ð±Ð»Ð¸Ð²Ð¾
ĠÐ²ÑĥÑħ Ð°Ñħ
ĠÐ¼Ð¾ÑģÐº Ð°Ð»Ñĸ
ĠÐ¿ÑĤÐ°Ñħ Ð¸
ĠÐ¼Ð°Ð¹Ð±ÑĥÑĤ Ð½ÑĮÐ¾Ð³Ð¾
ĠÑģÐ²ÑĸÑĩ ÐºÐ¸
ĠÐ¶Ð´ Ð°ÑĤÐ¸
ĠÑĢÐµÑĪ ÑĤÑĥ
ĠÐĲÐ»Ñĸ Ð¼
ĠÑīÐµÐ´ ÑĢÐ¾
ĠÑĪÐµÐ»Ðµ ÑģÑĤ
ĠÑıÑĢÐ¼Ð°ÑĢ Ð¾Ðº
ĠÐ³Ð°ÑĢÑıÑĩÐ¸ Ð¹
ĠÐ²ÑĸÐ´ÑĤ Ð¾Ð´Ñĸ
ĠÐĽÑĥ ÑĹÐ´Ð¶Ñĸ
ĠÐ·Ð´Ð°Ð»Ðµ ÐºÐ°
ĠÑĦÑĢÐ¾Ð½ ÑĤ
ĠÐ·Ð°Ð³ÑĢ Ð¾Ð¶
ĠÐ»ÑĸÐ½Ñĸ ÑĹ
ĠÐ¿Ð¾Ð³Ð¾ ÑĢ
ĠÐ¨Ðº Ð¾Ð´Ð°
ĠÑģÐ¿Ð°Ð´ÐºÐ¾ ÑĶÐ¼
ĠÐºÐ¾ÑĢÐ¿Ñĥ ÑģÑĥ
ĠÐ¥Ð°ÑĤ ÑĸÐ´
Ġ ,
ÑĢ Ð°Ð½Ñĸ
ÑĤ ÑĢÑĥ
Ð½ Ð¾Ð¶
Ð½ ÐºÑĤ
Ð» ÑĶ
ĠÐ² Ð°Ð½ÑĤÐ°Ð¶
Ð´ ÑĸÐ»
ĠÑģ Ð°Ð¿
ĠÐ· Ð¼Ð¾Ð²
ĠÐ´ ÑĸÐ»ÑĮ
ĠÐ± Ð°Ðº
Ð± ÑĸÑģ
ĠÐº Ð°ÑĤÐ°
ĠÐº Ð²Ð¾Ð»
ĠÑĸ Ð»Ñİ
ĠÐ½Ðµ Ð°Ð±Ð¸
ĠÐ¹ Ð´ÑĥÑĩÐ¸
ÑĥÐ² Ð°ÑİÑĩÐ¸
ÑĩÐ¸ Ð»Ð¾ÑģÑı
ĠÑħ Ð¼ÑĸÐ»ÑĮ
ĠÐ¿ÑĢ Ð¾ÑģÐ¿
ĠÐ²Ð¸ Ð»Ð¸
ĠÐ²Ð¸ ÑħÐ¾Ð´Ð¸Ð»Ð°
ĠÐ´Ð¾ ÑģÐº
ĠÐ·Ð° ÑħÐ¾Ð´Ð¸Ð²
ĠÐ±Ñĥ Ð¼
ĠÐ±Ñĥ Ð·
Ð½Ñı Ðº
ĠÐĲ Ð½
ĠÐ²ÑĸÐ´ Ð²ÐµÑĢ
Ð°ÑĤ Ð¾Ñİ
ĠÐ¿ÑĢÐ¸ Ð²Ð¸Ð´
ĠÐŁ Ð¾Ð±
Ñī Ð°Ñģ
ĠÑĢÐ¾Ð· ÑĪÐ¸
ĠÑĢÐ¾Ð· Ð¼Ð¸
ĠÐ¡ Ñĸ
ĠÐ¡ ÐµÐ¼
ĠÐľ Ð°Ñģ
ĠÐ¿ÑĢÐ¾ ÑĨÑĸÐ´
ĠÐ¿ÐµÑĢÐµ Ð»Ñı
ĠÐ¾Ð± Ð´Ð¸Ð²
ĠÐĹ Ð¾ÑģÑĮÐºÐ°
ĠÑģÐ¸ ÑĢÐ¾Ð²
Ð±Ðµ Ð³
Ð¼Ñĸ Ð½Ñĸ
ĠÑĩÐ¸ ÑģÑĤÐ°
ĠÐ½Ð°Ð´ ÑĸÑĶÑİ
ÑĤÑĥ Ñħ
ĠÐ±Ð° ÑĪ
ÑĥÐ´ Ð°
ĠÐ·Ð°Ð¿ Ð°ÑħÑĥ
ĠÐ¿Ð¾Ñĩ Ð¾ÑĢ
ĠÐ¿Ð¾ÑĢ ÑıÑĤ
ĠÐ¿Ð¾Ð» ÑİÐ²Ð°Ð½Ð½Ñı
Ð°Ð½Ñĸ ÑģÑĤÑĮ
ĠÐ´ÑĥÐ¼ ÐºÐ°Ð¼Ð¸
ÐĿ Ð°ÑĤ
ĠÐ½Ð°Ð¹ Ñģ
ĠÐ·Ð°Ðº Ð»Ð°Ð´
ĠÑĦ ÑĥÐ½
ĠÐ·Ð°Ð± Ð»Ð¸
Ð¾Ñı ÑĤÐ¸
ĠÐ¼Ñĥ ÑĪÑĥ
ĠÐ²Ð¸Ñģ Ð½Ð°Ð¶
ĠÐ·Ð°Ñģ Ð½ÑĥÑĤÐ¸
ĠÐ¿Ðµ ÑģÐ¸
ÐĶ ÐĨÐĽ
ÑıÐ· Ð¸
ÑıÑĤ ÐµÑĢÐ¾
ÐĹ Ð°Ð¿
ĠÐ´ÑĸÐ² Ð¾Ñĩ
ĠÐ¿ÑĢÐ°Ð² Ð´Ð¸Ð²
ĠÐºÐ¾Ð¶ Ð½Ð¸Ð¹
ĠÐ¡ÑĤ Ð°Ð»
ĠÐ¿Ð¾Ð· Ð°Ð´
ĠÐ¼Ð°ÑĤ ÑĢÐ¾Ñģ
ĠÐľÐ°ÑĢ ÑĸÐ¹ÐºÐ°
ĠÐ½ÐµÐ´ Ð°Ð»ÐµÐºÐ¾
ĠÑĤÐ¾Ð² Ð°ÑĢ
ĠÐºÐ°Ð· ÐºÐ¸
ĠÐ¿Ð¾Ñħ Ð¸ÑĤÑĥ
ĠÐ´Ð¾Ð´ Ð°Ð»Ð°
ĠÐ¿ÑĢÐ¾Ñģ ÑĤÐ¸Ð¹
Ð§ ÐµÑĢÐµÐ·
Ð£ Ð¶Ðµ
ĠÐ¼Ð¾Ð»Ð¾Ð´ Ð¸Ð¼
ĠÑģÐ»Ñĥ Ð³Ð¸
ĠÐ²ÑĥÐ»Ð¸ ÑĨÑıÐ¼Ð¸
ĠÐ´Ð¸ÑĤÐ¸ Ð½Ð¾Ñİ
ĠÑģÐ¿Ð¾ÐºÑĸÐ¹ Ð½Ð¸Ð¹
ĠÐ¿ÑĢÐ¸Ð² ÑĸÐ²
ĠÐ¿ÑĢÐ¸Ð² Ð°Ð±
ĠÐ´ÑĸÑĤ ÑıÐ¼
ĠÐ¿ÑĢÐ¾Ð² Ð¾Ð´Ð¶
ĠÐ½Ð°ÑĪ ÑĸÐ¹
ĠÐºÐ¾Ð¼Ñĥ Ð½Ñĸ
ĠÐºÐ¾Ð¼Ñĥ Ð½Ñĥ
ĠÐ¿ÑĢÐ¾Ð± ÑĥÑĢ
ĠÐĳÐ° ÑĩÐ¸ÑĪ
ĠÐŁÑĢÑĸ ÑģÑĮ
Ð¾ÑĦ ÑĸÑĹ
ÐºÐ¾Ð½ Ð¾Ð¼
ĠÑĩÑĥÐ´ Ð¾
ĠÐ²ÐµÑģ Ð½Ð°
ÐµÑĢÐµÐ´Ð¸ Ð½Ñĥ
ĠÐ¿ÐµÑĢÐµÐ¼ Ð¾Ð³ÑĤÐ¸
ĠÐ´ÑĢ Ð¾Ð²Ð°
ĠÐ½Ð°ÑĢÐ¾Ð´ Ð¸Ð²ÑģÑı
ĠÐ¯Ð²ÑĤÑĥ ÑĪÐºÐ°
ĠÑħÑĥÐ´ Ð¾Ð±Ð¸
ĠÐ²Ð¾Ð»Ð¾ÑģÑģÑı Ð¼
ĠÐºÐ² Ð°Ñģ
ĠÐ·Ðµ Ð»ÐµÐ½Ð°
ĠÑģÑĥÑĤ ÑĸÐ½
ĠÐ½ÐµÐ²Ð¸ Ð½
ĠÐ²Ð¾ÑĢÑĥ Ñħ
ĠÐ¾ÑģÑĤÑĢ ÑĸÐ²
ĠÑĢÐ¾Ð·Ñģ Ð¼Ñĸ
ĠÐ¿Ð¾Ð²Ð¸Ð½ Ð½Ð°
ĠÐ³Ð°ÑĢÑı ÑĩÑĸ
ĠÐ²Ð¾ÑĹ Ð½Ð¸
ĠÐ´Ð¾Ð·Ð² Ð¾Ð»Ð¸
ĠÐ´Ð¾Ð½ÑĮ ÐºÑĥ
ĠÐ¼Ð°Ð¹Ð±ÑĥÑĤ Ð½ÑĶ
ĠÐ¿Ð¾ÑħÐ¼Ñĥ ÑĢÐ¾
ĠÐ¶Ð¸Ð»Ð° Ñħ
ĠÑĥÐ´Ð°ÑĢÐ¸ Ð²
ĠÑıÐ² Ð½Ð¾
ĠÐ¼ÑĸÐ»Ñĸ ÑĨÑĸÐ¾Ð½
ĠÐ²Ð¸ÐºÐ¾ ÑĢÐ¸ÑģÑĤ
ĠÑģÑĥÐ´Ð¸ Ð»Ð¾ÑģÑı
ĠÐ±ÐµÑĢ ÑĥÑĤÑĮ
ÑģÑĸÐ± ÑĸÑĩ
ĠÐ½ÑĸÐ·Ð´ ÑĢÑĸ
ĠÐ¿ÑĢÐ¾Ð»ÐµÑĤ Ð°ÑĢ
ĠÑĢÐµÐ¶ Ð¸Ñģ
ĠÐ±ÑĸÐ±Ð»Ñĸ Ð¾ÑĤÐµ
ĠÐ·Ð¾Ð² Ð½ÑĸÑĪ
Ð¸ Ð½Ð¾Ñİ
Ðµ ÑĤÐµ
Ðµ Ð²Ð¾
ÑĢ Ð°Ð³
ÑĢ Ð°Ñİ
ĠÐ² Ð°Ð»Ð¸
ĠÑģ ÐºÐ°
ĠÐ· ÑĸÐ²
ÑĤÐ¸ Ð²ÑģÑı
ĠÐ± ÐµÐ¹
ĠÐ± Ð¾Ð³Ð¸
Ð± Ð¾ÑĤ
ĠÐ¼ Ð°Ð½Ñĸ
ĠÐº Ð°Ð»Ñĸ
ĠÐº ÐµÐ»Ð¸
ĠÐ½Ðµ Ð½Ð°ÑĢ
ĠÐ½Ðµ ÑĩÑĥÑĤ
ÑģÑĤ ÐºÑĥ
ĠÐ¾ Ð¶
ĠÐ³ Ð½Ñĥ
ĠÐ³ Ð°Ð½Ðµ
ÑĥÐ² Ð°Ð½Ñĸ
ÐµÐ½ Ð½Ðµ
ĠÑħ Ð»ÑİÐ¿
Ð¾Ðº Ð·
Ð°ÑĤÐ¸ Ð¼
ĠÐ´Ð¾ ÑīÑĸ
ĠÐ´Ð¾ ÑĩÐºÐ¸
ĠÑĨ ÑıÑĤ
ÐºÐ¾ ÑĤÑĸÐ»Ð°
Ð°ÑĤ Ð°Ð¼Ð¸
ĠÐ¿ÑĢÐ¸ ÑģÑĤÑĢ
ÑĸÐ»ÑĮ Ð½Ñĸ
ĠÐŁ Ð¾Ñħ
ĠÑģÐ¿ Ð¾Ð³Ð»ÑıÐ´
Ñī Ð°Ð»Ð°
ĠÑĢÐ¾Ð· ÑĸÐ±ÑĢ
Ð¾Ñģ Ð»ÑĸÐ´
ĠÐĿ Ð¸
ĠÐ¡ Ð°ÑĦÐ¸Ð³
Ð°Ñģ Ð°
ĠÐľ Ð°Ð»Ð°
ĠÐľ Ð°Ð»Ð¾
ĠÐľ Ð¸ÑħÐ°Ð¹
Ð¶Ðµ Ð»Ðµ
Ð½Ðµ ÐºÐ´
ÑĢÐµ Ðº
ÑĢÐµ Ñĩ
ĠÐĨ ÑĪÐ¾Ð²
ĠÑģÐº Ð°Ðº
ÑĩÐµ Ñİ
ĠÑģÐ°Ð¼ Ð¸Ð¼Ð¸
ĠÐ»Ñİ Ð´Ñĥ
ĠÐĳ ÑĸÐ´
ĠÑĨÐµ Ð±ÑĤÐ¾
ĠÐ¯ ÐºÐ¾ÑģÑĮ
ĠÐ³Ð¾Ð» Ð¸Ñħ
ĠÑģÐ¸ Ð½Ñİ
ÑĥÐ¿ ÑĢÐ¸
ĠÐ§ ÐµÑĢÐ²Ð¾Ð½
Ð½Ð¸Ñħ Ð°
ĠÐ½Ð°Ð² ÐºÐ¾Ð»
ĠÐ½Ð°Ð´ Ð°Ð²
ĠÐ¿Ð¾Ðº Ð¾Ñİ
ĠÐ¼Ð¸ Ð½ÑĥÐ»Ð¸
ÑĸÑĩ Ð½Ñĸ
ĠÐ·Ð°Ð² Ð´
ĠÐ±Ð¾ ÑıÐ»Ð¸ÑģÑı
Ð²Ñĸ Ð»Ð¸
ĠÐ¿Ð¾ÑĢ Ð¾Ð±
ÑĪÐ° ÑĤÑĮ
ĠÐºÐ¾Ð» Ð°
ĠÐºÑĥ Ñģ
ĠÐ·Ð°Ðº Ð¾Ð¿
ĠÐ·Ð°Ðº Ð»Ð¾Ð¿Ð¾ÑĤ
ĠÐ·Ð°Ð± ÑĥÑĤ
Ð¾ÑģÑĤ ÑĢ
ĠÐ³Ñĥ Ð´Ðµ
ĠÐ¿Ð¾Ð± Ð°ÑĩÐµÐ½Ð½Ñı
ĠÐºÐ¾ÑĢ Ð¾Ð±
ĠÑĩÐ¾ÑĢ Ð½Ð¾Ð¼Ñĥ
ÐĨ Ð½
ĠÐ¿Ð°Ð½ Ð¾Ð¼
ÐĶ Ð»Ñı
ÑıÑĤ Ð°ÑĶ
ĠÐ·Ð± ÑĸÐ»ÑĮ
Ðľ Ð¾ÑĤ
ÐĹ Ð°Ð¼
ĠÐ³Ð¾Ð»Ð¾Ñģ ÑĸÐ²
Ð´Ð° ÑģÑĤÑĮ
ĠÐ¶Ðµ Ð±ÑĢ
ĠÐ²Ð· Ñı
ĠÐ²Ð¿ Ð¾Ð´
ĠÐ³ÑĢÑĥ Ð¿Ð¸
ĠÑĢÐ¾Ð·Ð¿ Ð»Ñİ
ĠÑĤÐµÐ¼ Ð½Ñĥ
Ð°ÑĪ ÐºÐ¸
ĠÑħÐ»Ð¾Ð¿ ÑĩÐµ
ĠÐ²Ñĸ ÑģÑĤÑĸ
ĠÐ¼Ð°Ð¹ Ð¾ÑĢ
ĠÐ´Ð¾Ð²Ð³ Ð¸Ð¼Ð¸
ĠÑģÐ»ÑĸÐ´ Ñĥ
ĠÐ±Ð» ÑĸÐ´Ðµ
ĠÐ½Ð°Ð± Ð°Ð³Ð°ÑĤÐ¾
Ð½Ð¸Ñĩ Ð°ÑĢ
ĠÑĢÐ¾Ð·ÑĥÐ¼ ÑĸÑİ
Ðĳ Ð°
ĠÑģÐ¼Ñĸ ÑıÐ»Ð¸ÑģÑı
ĠÑĥÐ¿ ÑĸÐ·Ð½Ð°Ð²
ĠÐ²ÑĸÑĢ Ð½Ð¸Ð¹
ĠÑĤÑĢÐ¸ ÑĩÑĸ
ĠÑĤÑıÐ¶ ÐºÐ°
ĠÐ¿ÑĢÐ¸Ð³ Ð¾ÑĤ
ĠÑģÐ¿ÑĸÐ² Ð°ÑİÑĤÑĮ
ĠÐ¿ÑĢÐ¾Ðº Ð°Ð·
ĠÐ½Ð¾Ñĩ ÐµÐ¹
ĠÐ·Ð°Ð¹ ÑĪÐ»Ð¸
ĠÐ·Ð» Ð¾Ð´ÑĸÐ¹
ĠÐ»ÑĸÑģ Ð½Ð¸Ðº
ĠÐ²Ð¸ÑĤ ÐµÑĢ
ĠÐ¿Ð°Ð»ÑĮ ÑĨÑĸÐ²
ĠÑĢÑĸÐ· ÐºÐ¾
ĠÐ¿ÑĢÐ¾Ð¿ Ð°Ð»Ð°
ĠÑĤÐ¾Ð½ ÐºÐ¸Ð¹
ĠÐ´ÑĸÐ´ Ñĥ
ĠÑĢÑĸÑĩ ÐºÐ¾Ñİ
ĠÑıÑģ Ð½Ð°
ĠÐºÐ¾Ð¼Ñĥ Ð½Ð¸
ĠÐ¾ÑģÑĤÐ°Ð½ Ð½ÑĸÑħ
ĠÑĥÐ´ ÑĢÑĥÐ³Ðµ
ĠÐ¿ÑĢÐ¸Ðº ÑĢÐ¸Ð²
ĠÑĤÑĢÐ°Ð² Ð¾Ñİ
ĠÐ¿ÑĢÐ¾Ð± Ð»Ðµ
ĠÐ¿ÑĢÐ¾Ð± ÑĥÐ²Ð°Ð²
ĠÐ½ÑĸÑı ÐºÐ¾Ð²Ð¾
ĠÑĤÐ¸ÑģÑı ÑĩÑĥ
ĠÐ±ÑĥÑĢ Ñħ
ĠÑĪÐ¸ÑĢÐ¾Ðº Ñĸ
ĠÐ¿Ð°Ð´ Ð°ÑİÑĤÑĮ
ĠÐ¿Ð¾Ð²Ñĸ ÑĢÐ¸Ð²
ĠÐ²ÑĤÑĸ ÑħÑĥ
ĠÐ²Ð¸ÑĢÑĸ Ñģ
ĠÐ·ÐµÐ»Ðµ Ð½Ð¸Ð¼
ĠÐ·Ð½Ðµ Ð²
ĠÑģÐ¾ÑĤ Ð½Ð¸Ðº
ĠÑģÑĤÐµÐ¶ ÐºÑĥ
ĠÑģÑĤÐµÐ¶ ÑĨÑĸ
ĠÑģÑĤÐ¾Ð² Ð¿Ð¸
ĠÐ¿ÑĢÐ¾ÑĢ Ð¾Ðº
ĠÑīÐ°Ñģ Ð»Ð¸Ð²Ð¸Ð¹
ĠÐ²Ð¾Ð»Ð¾Ð´ Ð°ÑĢÑı
ĠÐ²Ñĩ Ð¾ÑĢÐ°ÑĪ
ĠÐ¿Ð¾ÐºÐ»Ð°Ð² ÑĪÐ¸
ĠÐ´Ð¾Ð»Ð¸ Ð½Ñĥ
ĠÑģÐ½ ÑĸÐ´
ĠÐ·Ð»ÑıÐº Ð°Ð²ÑģÑı
ĠÐ´Ð¸ÑĤÐ¸Ð½ ÑģÑĤÐ²Ñĸ
ĠÑģÐ²ÑıÑĤ Ð¾Ð³Ð¾
ĠÐºÐ°Ð± ÑĸÐ½
ĠÐ¿Ð¾ÑĤÑĢÐµ Ð±Ð¸
ĠÐ¯ÐºÐ¸Ð¹ ÑģÑĮ
ĠÐºÑĥÐ¼ Ð°
ĠÑĪÐ¸Ð½ Ð¾Ðº
ĠÐ²Ð¸ÑıÐ²Ð¸ Ð»Ð¾ÑģÑı
ĠÐŀÐ»ÐµÐºÑģÐ°Ð½Ð´ ÑĢÐ¸
ĠÐ¼ÐµÑĢÐµÑħ ÑĤ
ĠÑħÐ²Ð¸Ð»ÑİÐ² Ð°Ð½Ð½Ñı
ĠÐĿÐµÐ· Ð°Ð±Ð°ÑĢÐ¾Ð¼
ĠÐ¾ÑĢÐ³Ð°Ð½ÑĸÐ·Ð° ÑĨÑĸÑĹ
ĠÐ¿ÑĢÐµÑģÑĤ Ð¾Ð»
ĠÐ½Ð°ÑģÐº ÑĢÑĸÐ·ÑĮ
ĠÐ·Ð½Ñĥ Ñī
ÐłÐŀÐĹ ÐĶÐĨÐĽ
Ġ ...
ÑĤ Ð°ÑĶ
Ð½ ÐµÑĢ
Ð½ Ð¾Ð¿
Ð½ ÑĤÑĥ
Ñĥ Ð½ÑĥÐ²
Ñģ Ð½Ð¸Ð¹
Ðº Ð°Ðº
Ñı Ð½Ð¾Ð¼Ñĥ
ĠÐ² Ð±Ð¸ÑĢ
ĠÐ¿ ÑĸÐ»
ĠÐ¿ Ð¾Ð±Ñĸ
ĠÐ¿ Ð°Ð»Ñı
ĠÐ· Ñı
Ñĩ Ð°Ðº
Ñĩ Ð°ÑİÑĩÐ¸
Ñĩ Ð¾ÑĢÐ°
Ñĩ Ð¾ÑģÑĤÑĸ
Ñİ ÑĩÐµ
Ð¾Ð² ÑĥÐ²Ð°ÑĤÐ¸
ĠÐ± Ð¾Ðº
ÐµÑĢ Ð½Ð°
ĠÐº Ð°Ð¹
ĠÐ½Ðµ Ð´Ñĥ
Ð¾Ð» ÐµÑĤ
Ð°Ð½ Ð¾Ð²
ÑģÑĤ Ð¾ÑĹ
Ð· Ð¸ÑĢ
ĠÑĢ Ð°Ð½Ð¸
Ð¾Ð´ ÑıÑĤÑĮ
ÑĶ Ðº
ĠÑĥ Ð´Ð°Ð²
Ð°Ðº Ð¾Ð½
ĠÑĩ ÑĸÐ¼
Ð¾Ð± Ð¾ÑĢ
ĠÐ» Ð¾Ñģ
ĠÐ° ÐºÐ°
ĠÑħ Ð¸Ð»Ð¸
ĠÐ¿ÑĢ Ð°ÐºÑĤÐ¸
ĠÐ²Ð¸ Ð¿Ñĥ
ĠÑĹ ÑģÑĤÑĮ
ĠÐĴ Ð¾Ð³
ĠÑģÐ¿ Ð°ÑģÐ¸Ð±Ñĸ
ĠÑĢÐ¾Ð· ÑĢÐ°Ñħ
Ð¾Ñģ Ð¸ÑĤÑĮ
Ð¸ÑĤ ÐºÐ¸
Ð°Ñħ ÑĥÐ²Ð°Ð²
ĠÐ¿ÑĸÐ´ Ð¿Ð¸
ÑĸÑĢ Ð°
ĠÐ¿ÐµÑĢÐµ Ð±ÑĢ
ĠÐ¾Ð´ Ð½Ð¸Ñħ
ĠÐ¾Ð´ ÑĢÑĥÐ¶
ĠÐ¥ Ð°Ð·Ñı
ĠÐ±ÐµÐ· ÑĤÑıÐ¼
ĠÐ±ÑĥÐ² Ð°ÑİÑĤÑĮ
ĠÐ´Ð¸Ð² Ð°
ÐĴ ÐĲ
ĠÐ·Ð°Ð² Ð·
ĠÐ³Ð¾ÑĢ ÑıÑĤÑĮ
ÑĢÑı Ð¶
ĠÐ¿Ð¾Ð¼ Ð¾Ð²ÑĩÐ°Ð²
ĠÐ·Ð°Ðº Ð»ÑıÐº
ĠÑĦ Ð°Ð½
ĠÑĦ ÑĢÐ°Ð½
Ð¾Ð½Ð¸ ÑĤÑĮ
ĠÐ¿ÐµÑĢ ÑģÑĤ
ĠÐ¿ÐµÑĢ ÐµÐ½
Ð¾ÑĤÐ¸ ÑĤÑĮ
ĠÑģÑĤÐ°ÑĢ Ð¾ÑģÑĤÐ°
ĠÑĩÐ¾Ð» Ð°
Ð»Ð¸Ñĩ ÑĩÑı
ĠÐ³Ð°ÑĢ Ð½Ñĸ
ÑıÐ· Ñĸ
ÑıÑĤ Ð´ÐµÑģÑıÑĤ
ĠÑģÑħ Ð»Ð¸Ð¿
Ðľ Ð°ÑĤÐ¸
ÐĹ Ð½Ð¾Ð²Ñĥ
ĠÐ²Ð¸Ð¿ ÑĢÐ¾Ð±
ĠÑĤÑĢ ÑĮ
ĠÐ¿ÑĢÐ°Ð² Ð´Ð¸
ĠÑĩÐµÑĢ Ð³Ð°
ĠÑĢÐ¾Ð·Ð¿ Ð¾Ñĩ
ĠÑĢÐ¾Ð·Ð¿ Ð¸Ñģ
ĠÐ½Ð°Ð³ Ð¾Ð´Ð¸
ĠÑħÐ»Ð¾Ð¿ ÑĩÐµÐ½Ñı
ĠÐ´Ð¾Ð²Ð³ Ð¸Ñħ
ĠÐ½ÐµÐ² Ð¿Ð¸Ð½
ĠÐ¼Ð¾Ð³ Ð¸Ð»Ð¸
ĠÐºÑĥÐ¿ Ð°
Ð½Ð¸Ñĩ Ð¾Ð³Ð¾
Ð²ÑĸÐ´ Ð´
Ð§ Ð¾Ð¼Ñĥ
ĠÐ¨ Ð¿Ð°
ĠÐ²Ð¸ÑģÐ¾Ðº Ð¾ÑĹ
ĠÑĢÑĸÐ´ ÐºÐ¾
ĠÐ¿ÑĸÐ² Ð½Ð¾ÑĩÑĸ
ĠÑħÐ¾Ð»Ð¾Ð´ Ð½Ñĸ
ĠÐ´Ð¸ ÐºÐ¸Ð¹
ĠÐ·Ð» Ð¾Ð±
ĠÑĤÐ¾ÑĢ Ð¾Ñħ
ÑĥÑģ Ð°
ĠÐ¿Ð¾Ðµ ÑĤÑĸÐ²
ĠÑĤÐ¾Ð²Ð°ÑĢÐ¸ ÑĪÑĥ
ĠÑĥÐ² ÑĸÐ¹ÑĪÐ»Ð°
Ð½Ð¾Ð¼ Ð°Ð½
ĠÑģÑĤÐ°ÑĢÐ¸ Ð¼
ĠÐ·Ð¼Ñĸ ÑĨ
Ð»Ð¸Ð²Ñĸ ÑĪÐµ
ĠÐ¿Ð¾ÑģÑĤÐ°Ð² Ð¸Ð»Ð¸
Ð°ÑĢÐ° Ñı
ĠÐ·Ð°Ð»ÑĸÐ· Ð¾Ð¼
ĠÐ¿Ð¾ÑĩÑĥÐ² ÑĪÐ¸
ĠÐ²ÑĸÐ´ÑĩÑĥÐ² Ð°ÑİÑĩÐ¸
ĠÑģÐ°Ð´ Ð¾Ðº
ĠÐ¶Ð°ÑĢ ÑĤÑĸÐ²
ĠÐłÐ¾ÐºÑģÐ¾Ð» Ð°Ð½Ñĥ
ÑĤÑĢÐ¸ Ð¼Ñĥ
ĠÑĪÐ»ÑıÑħ ÐµÑĤ
ĠÑĪÐµÐ¿ ÑĸÑĤ
ĠÐ³ÑĥÑĢ ÑĤ
ĠÐ¿Ð¾ÑĤÑĢÑĸÐ± Ð½Ðµ
ĠÐ·Ð½Ðµ ÑģÐ¸
ĠÐ¿ÑĢÐ¾Ñħ Ð°Ð½Ð½Ñı
ĠÑĢÑı Ð´Ð¸
ĠÐ¿Ð¾ÑıÑģ Ð½Ð¸Ð²
ĠÐ´ÐµÑĢÐ¶Ð°Ð² Ñĸ
ĠÐ¿ÐµÑĢÐµÐ² ÑĸÐ·
ĠÑĪÐ¾Ð² Ðº
ĠÐ¶Ð¾ÑĢÑģÑĤÐ¾Ðº Ð¾
ĠÐºÐ»Ñĥ Ð½Ñĸ
ĠÐ¿ÑĢÐ¸Ð²ÑĸÑĤ Ð°Ð²ÑģÑı
ĠÐ¿Ð¾ÑĨÑĸÐ» ÑĥÐ½
ĠÑĸÑģÑĤÐ¾ÑĢÑĸ Ñı
ĠÐ±Ð¾Ð¶ÐµÐ²ÑĸÐ»ÑĮ Ð½Ð¸Ð¹
ĠÐ²Ð¸Ð½ Ð¾Ð³ÑĢÐ°Ð´
ĠÐºÐ¾ÑĤÑĢÐ¸Ð¹ ÑģÑĮ
ĠÐ²Ð¼ÐµÑĢ Ð»Ð°
ĠÐľÐ°ÑĤ Ð½Ñı
ĠÑħÐ° Ð¾Ñģ
ĠÐ¶ÐµÑĢÑĤ Ð²Ñĥ
ĠÐ¼Ð¾Ð»Ð¸ÑĤ Ð²Ñĥ
ĠÐ²ÐµÑĢÐ± Ð»ÑİÐ´
ĠÑģÑıÐ¹ Ð²Ð¾
ĠÐ½Ð°ÑģÑĥÐ¿ ÑĢÐ¾ÑĤÐ¸
ĠÐ¡Ð¸Ð´ ÑĸÐ²
ĠÑĩÐµÑĢÐµÐ²Ð¸ ÐºÐ¸
ĠÐ¼ÐµÑĤÐµ Ð»Ð¸ÐºÐ¸
ĠÐ¿Ð¾ÑĢÑĤ ÑĢÐµÑĤ
ĠÐĽÐµÐ² ÐºÐ¾
ĠÐ±ÐµÐ·Ð³Ð»ÑĥÐ·Ð´ Ñı
ĠÐ²Ð¸ÑĤÑĢÑĸ Ñī
ĠÑīÐ¾Ð½ Ð°Ð¹
ĠÐ¿Ð°ÑĢÐ¾Ð¿ Ð»Ð°Ð²
ĠÐ·Ð´ÐµÐ±ÑĸÐ»ÑĮ ÑĪÐ¾Ð³Ð¾
ĠÐ´Ð¾ÑģÐº Ð¾Ð½
1 9
Ð½ ÑĸÐ´
Ð½ ÐµÐ½ÑĮÐºÐ¾
Ð» Ð¾Ð¶
Ð² Ð°Ð»Ñı
ĠÐ² Ð´Ñĸ
Ð´ Ð°Ð½Ñĥ
Ñĩ ÐºÐ°Ñħ
ĠÐ± Ð¸Ð»Ð¸ÑģÑı
ĠÐ± Ñĭ
ĠÐº Ð»Ð°Ð²
ĠÐ½Ðµ Ð¼Ñĸ
ÑģÑĤ Ð¾Ñģ
ĠÐ½Ð° ÑĢÑĸ
ĠÐ½Ð° ÑĤÑıÐ³
ĠÐ½Ð° ÑīÐ°Ð´
Ð½Ð¸ ÑĤÐ¸ÑģÑı
Ð¶ Ð°Ð»Ð¸
Ð³ ÐµÑĢ
Ð¾Ð´ Ð°Ð¼Ð¸
ĠÑī Ð¸ÑĢ
ĠÐ³ ÑĸÑģÑĤÑĮ
ÐµÐ½ ÑĤÑĥ
ÐµÐ½ ÑĤÐ°
ĠÐ» Ð°Ð±
ĠÑħ Ð¾ÑĢ
ĠÑħ ÑĢÑĥ
ĠÑħ Ð²ÑĸÑģÑĤ
ĠÑīÐ¾ ÑģÐ¸Ð»Ð¸
Ð°Ð´ Ð¸Ð»Ð¸
ĠÐ²Ð¸ ÑĪÐ¸
Ð»Ñı Ð»Ð¾
Ð»Ñı Ð»Ð¾ÑģÑı
ĠÑĨ ÑĸÐ²
ĠÑĨ ÑĥÐ¿
ĠÐ·Ð° ÑħÐ¾Ð´Ð¸
ÐºÑĥ Ñİ
ĠÑĹ Ð·Ð´Ð¸Ð²
ĠÐĲ Ð»
ĠÐĲ Ð½Ð°ÑĤ
Ð°ÑĤ ÑĸÐ²
Ñī ÐµÐ½Ð¾
ĠÑĢÐ¾Ð· Ð½Ð¾
ĠÑĢÐ¾Ð· Ð´Ñĥ
ĠÐľ Ð¾Ð»Ð¾Ð´
ĠÑĪ ÐµÐ²
ÑĢÐµ Ð´
Ð°Ð± ÑĸÑĩ
ĠÐ¿ÑĢÐ¾ ÑħÐ¾Ð´Ð¸Ð²
ĠÐ¿ÐµÑĢÐµ ÐºÐ¸Ð´
ĠÐ¾Ð± Ð³Ð¾ÑĢ
ĠÐ¾Ð± Ð»ÑıÐ³
Ð»Ñĸ Ð»Ð°
ÑĸÑģ Ð»Ð°Ð¼
ĠÐĹ Ð½Ð°Ð¹
ÐµÐ· Ð»Ð¸
ÑĨÑĮ ÐºÐ¸Ñħ
ĠÐ±ÐµÐ· Ð±
Ð°Ð»ÑĮ Ð½Ð¾Ð¼Ñĥ
ĠÑģÐµ Ð»Ñĥ
Ð¾Ð²Ð¸ Ð½Ð°
Ð¾ÑĢÐ¸ Ð²
ÑĸÑĩ Ð½Ð¾Ð³Ð¾
ĠÐ·Ð°Ð² Ð¸Ñģ
ĠÐ³Ð¾ÑĢ Ð»Ð°
ĠÑĸÐ½ ÑĪÑĥ
ĠÐºÑĥ Ð»Ñĸ
ĠÐ¿Ð¾Ð¼ ÑĸÑĤÐ½Ð¾
ĠÐ½Ð°Ð¹ Ð¿ÐµÑĢÑĪÐµ
ĠÑĢÐµ Ð´Ð°Ðº
ĠÐ±ÑĢ Ð¾Ð²Ð°Ð¼Ð¸
ĠÐºÑĢÐ¸ ÑĩÐ°Ð»Ð°
ĠÐ·Ð°Ñģ Ð¿
ÐĶ Ð¾Ð²Ð³Ð¾
ĠÑĤÑĢ Ñİ
ĠÑħÐ°ÑĤ Ð°Ñħ
ĠÐ½ÐµÐ· Ð°Ð»ÐµÐ¶
ÐºÐ¾Ð»Ð¸ ÑĪ
ĠÐ¼ÑĸÑģ ÑĤÐ¸
ĠÐ½Ð°Ð³ Ð¾Ð´
ĠÑħÐ»Ð¾Ð¿ ÑĩÐ¸Ðº
ĠÐ²Ñĸ ÑĢÐ¸ÑĤÐ¸
ĠÐµ Ð»Ðµ
ĠÐ½ÐµÐ² Ð¶Ðµ
ĠÐ½ÐµÐ² ÑĤÐ¾Ð¼
ĠÑħÐ²Ð¸ Ð»ÑĮ
ĠÐ½Ð°ÑĢ Ð¾Ð´Ð¸Ð»Ð°
ÑıÑĩÐ¸ Ð¹
ĠÐĲÐ½Ð´ÑĢÑĸ ÑĶÐ¼
