{"!":0,"\"":1,"#":2,"$":3,"%":4,"&":5,"'":6,"(":7,")":8,"*":9,"+":10,",":11,"-":12,".":13,"/":14,"0":15,"1":16,"2":17,"3":18,"4":19,"5":20,"6":21,"7":22,"8":23,"9":24,":":25,";":26,"<":27,"=":28,">":29,"?":30,"@":31,"A":32,"B":33,"C":34,"D":35,"E":36,"F":37,"G":38,"H":39,"I":40,"J":41,"K":42,"L":43,"M":44,"N":45,"O":46,"P":47,"Q":48,"R":49,"S":50,"T":51,"U":52,"V":53,"W":54,"X":55,"Y":56,"Z":57,"[":58,"\\":59,"]":60,"^":61,"_":62,"`":63,"a":64,"b":65,"c":66,"d":67,"e":68,"f":69,"g":70,"h":71,"i":72,"j":73,"k":74,"l":75,"m":76,"n":77,"o":78,"p":79,"q":80,"r":81,"s":82,"t":83,"u":84,"v":85,"w":86,"x":87,"y":88,"z":89,"{":90,"|":91,"}":92,"~":93,"¡":94,"¢":95,"£":96,"¤":97,"¥":98,"¦":99,"§":100,"¨":101,"©":102,"ª":103,"«":104,"¬":105,"®":106,"¯":107,"°":108,"±":109,"²":110,"³":111,"´":112,"µ":113,"¶":114,"·":115,"¸":116,"¹":117,"º":118,"»":119,"¼":120,"½":121,"¾":122,"¿":123,"À":124,"Á":125,"Â":126,"Ã":127,"Ä":128,"Å":129,"Æ":130,"Ç":131,"È":132,"É":133,"Ê":134,"Ë":135,"Ì":136,"Í":137,"Î":138,"Ï":139,"Ð":140,"Ñ":141,"Ò":142,"Ó":143,"Ô":144,"Õ":145,"Ö":146,"×":147,"Ø":148,"Ù":149,"Ú":150,"Û":151,"Ü":152,"Ý":153,"Þ":154,"ß":155,"à":156,"á":157,"â":158,"ã":159,"ä":160,"å":161,"æ":162,"ç":163,"è":164,"é":165,"ê":166,"ë":167,"ì":168,"í":169,"î":170,"ï":171,"ð":172,"ñ":173,"ò":174,"ó":175,"ô":176,"õ":177,"ö":178,"÷":179,"ø":180,"ù":181,"ú":182,"û":183,"ü":184,"ý":185,"þ":186,"ÿ":187,"Ā":188,"ā":189,"Ă":190,"ă":191,"Ą":192,"ą":193,"Ć":194,"ć":195,"Ĉ":196,"ĉ":197,"Ċ":198,"ċ":199,"Č":200,"č":201,"Ď":202,"ď":203,"Đ":204,"đ":205,"Ē":206,"ē":207,"Ĕ":208,"ĕ":209,"Ė":210,"ė":211,"Ę":212,"ę":213,"Ě":214,"ě":215,"Ĝ":216,"ĝ":217,"Ğ":218,"ğ":219,"Ġ":220,"ġ":221,"Ģ":222,"ģ":223,"Ĥ":224,"ĥ":225,"Ħ":226,"ħ":227,"Ĩ":228,"ĩ":229,"Ī":230,"ī":231,"Ĭ":232,"ĭ":233,"Į":234,"į":235,"İ":236,"ı":237,"Ĳ":238,"ĳ":239,"Ĵ":240,"ĵ":241,"Ķ":242,"ķ":243,"ĸ":244,"Ĺ":245,"ĺ":246,"Ļ":247,"ļ":248,"Ľ":249,"ľ":250,"Ŀ":251,"ŀ":252,"Ł":253,"ł":254,"Ń":255,"ĠÐ":256,"Ð¾":257,"Ð°":258,"Ð¸":259,"ĠÑ":260,"Ñĸ":261,"Ð¾Ð":262,"Ðµ":263,"Ð°Ð":264,"ÑĢ":265,"ÑĤ":266,"Ð½":267,"Ñĥ":268,"Ñģ":269,"Ð»":270,"Ð²":271,"Ðº":272,"Ñı":273,"ĠÐ²":274,"ĠÐ¿":275,"ĠÐ½":276,"ÑĮ":277,"Ð´":278,"ĠÑģ":279,"Ð¼":280,"ĠÐ·":281,"Ñĩ":282,"ĠÑĤ":283,"ĠÐ´":284,"Ñħ":285,"Ñİ":286,"Ð¾Ð²":287,"ÑĪ":288,"Ð¹":289,"Ð°Ð»":290,"ÑĤÐ¸":291,"âĢ":292,"ĠÐ±":293,"Ð°Ð²":294,"Ð¾Ð³":295,"âĢĶ":296,"Ð¿":297,"Ð±":298,"ÐµÑĢ":299,"ĠÐ¼":300,"ĠÐº":301,"ÑģÑı":302,"ĠÑĸ":303,"ĠÐ½Ðµ":304,"Ð¾Ð¼":305,"ÑĢÐ¸":306,"Ð»Ð¸":307,"Ð¾Ð»":308,"Ð¾Ð³Ð¾":309,"Ð°Ð½":310,"ÑģÑĤ":311,"ĠÐ¹":312,"ĠÐ½Ð°":313,"Ð·":314,"..":315,"ĠÑĢ":316,"ÑĸÐ´":317,"Ð½Ð¸":318,"Ð¾ÑĢ":319,"ÑĤÑĮ":320,"ÑģÑĮ":321,"ĠÐ¾":322,"Ð¶":323,"Ð³":324,"Ð¾Ð´":325,"ĠâĢĶ":326,"ÑĨ":327,"ĠÑī":328,"ÑĹ":329,"Ð°Ð¼":330,"ĠÐ³":331,"ĠÑı":332,"ÐºÐ¸":333,"Ð½Ñĸ":334,"Ð¾Ð½":335,"Ð»Ð°":336,"ÑĶ":337,"ÑĥÐ²":338,"ĠÑĥ":339,"Ð°Ðº":340,"ÑĸÐ²":341,"ÑĩÐ¸":342,"ÑĸÐ½":343,"ÐµÐ½":344,"ĠÑĩ":345,"Ð°ÑĢ":346,"Ð¾Ð±":347,"ĠÐ»":348,"Ð¸Ð²":349,"Ð½Ð¾":350,"ĠÐ°":351,"ÑĸÐ»":352,"ĠÑħ":353,"ĠÑīÐ¾":354,"ÐºÐ°":355,"Ð°Ð´":356,"Ð¾Ðº":357,"ĠÐ¿Ð¾":358,"ĠÐ¿ÑĢ":359,"ĠÐ²Ð¸":360,"ĠÑģÑĤ":361,"ĠÑıÐº":362,"Ð»Ñı":363,"Ð¾Ð·":364,"ĠÐ¶":365,"Ð°ÑĤÐ¸":366,"ÐµÑĢÐµ":367,"Ð½Ð°":368,"ĠÐ´Ð¾":369,"ĠÑĨ":370,"Ð°Ð»Ð¸":371,"...":372,"Ð°Ð·":373,"Ð¾Ð¼Ñĥ":374,"ĠÐ·Ð°":375,"Ð°Ð»Ð°":376,"ÑĸÐ¹":377,"Ð»Ð¾":378,"Ð½Ñĥ":379,"ÐºÑĥ":380,"ĠÐ±Ñĥ":381,"Ð¸Ð¼":382,"ÐºÐ¾":383,"Ð½Ñı":384,"ĠÑģÐ²":385,"ĠÑĹ":386,"Ð»Ðµ":387,"Ð°Ð¹":388,"ĠÐĴ":389,"ĠÐĲ":390,"ĠÐ²ÑĸÐ´":391,"Ð¾Ð¶":392,"Ð°ÑĤ":393,"ĠÐ¿ÑĢÐ¸":394,"Ð´Ð¸":395,"ĠÐ¢":396,"ÑĸÑĤ":397,"Ð¾ÑĤ":398,"ÐµÐ¼":399,"ĠÑĤÐ°Ðº":400,"ÑĢÑĥ":401,"ĠÐ½Ñĸ":402,"Ð°Ð³":403,"ÑĸÐ»ÑĮ":404,"ĠÐŁ":405,"Ð°Ð¿":406,"ĠÑģÐ¿":407,"Ð¸Ñħ":408,"Ð¾ÑĹ":409,"Ð¾Ñİ":410,"Ñī":411,"ĠÐ¹Ð¾Ð³Ð¾":412,"ĠÑĢÐ¾Ð·":413,"Ð¾Ñģ":414,"ĠÐĿ":415,"Ð¾Ð¿":416,"ĠÐ²ÑĸÐ½":417,"ÑĢÑĸ":418,"Ð°ÑĶ":419,"ĠÐ¡":420,"Ð°Ñģ":421,"ÑĪÐ¸":422,"ĠÐľ":423,"Ð¾Ð»Ð¸":424,"Ð¶Ðµ":425,"ÑĨÑĸ":426,"Ð¼Ð¸":427,"Ð°Ð¼Ð¸":428,"ĠÐ²Ð¾Ð½":429,"ĠÑĪ":430,"Ð¸ÑĤ":431,"Ð½Ðµ":432,"ÑĤÑĮÑģÑı":433,"ÑĢÐµ":434,"Ð°Ñİ":435,"ĠÑĤÐµ":436,"ĠÐ²Ñģ":437,"Ð°Ñħ":438,"Ð¾Ñĩ":439,"ĠÐ¿ÑĸÐ´":440,"ÑĪÐµ":441,"ÑĸÑĢ":442,"Ð°Ð±":443,"ĠÐ¿ÑĢÐ¾":444,"ÑĥÐ¼":445,"Ġ\"":446,"ĠÐ¿ÐµÑĢÐµ":447,"ĠÑĤÐ°":448,"Ð²Ð¸":449,"ĠÐ¾Ð±":450,"Ð½Ð¸Ð¹":451,"Ð½ÑĥÐ²":452,"ĠÐĨ":453,"ÑĥÑĤ":454,"Ð¾Ð²Ñĸ":455,"Ð»Ñĸ":456,"ĠÐ¾Ð´":457,"ĠÑģÐº":458,"ÑĸÑģ":459,"Ð°Ð¶":460,"ÑĤÐ¾":461,"ĠÐĶ":462,"ÑĩÐµ":463,"Ð±Ð¸":464,"ĠÑģÐ°Ð¼":465,"ĠÐ²Ðµ":466,"ĠÐ»Ñİ":467,"ĠÐĹ":468,"ÑĸÐ¼":469,"Ð°Ð»Ð¾":470,"ĠÐļ":471,"Ð¾Ð´Ð¸":472,"Ð´Ðµ":473,"Ð¸Ð¹":474,"ĠÐ¥":475,"ĠÑĢÑĥ":476,"ĠÐĳ":477,"ĠÑĨÐµ":478,"ÐµÐ·":479,"ĠÐ¯":480,"ÑĢÐ¾":481,"ÑĩÑĸ":482,"ÑĤÐµ":483,"ÑĢÐ°":484,"ĠÐ³Ð¾Ð»":485,"Ð»Ð¸Ð²":486,"ĠÐĵ":487,"ĠÑģÐ¸":488,"ĠÑĹÑĹ":489,"ÑĨÑĮ":490,"Ð»Ñĥ":491,"ĠÐŀ":492,"ĠÐ¿Ð¾Ð²":493,"Ð»ÑĮ":494,"ÑĨÑı":495,"ĠÐ·Ð½":496,"ĠÑīÐµ":497,"ÑĢÐ°Ð²":498,"ĠÑĤÐ¾":499,"Ð¸ÑĤÐ¸":500,"Ð±Ðµ":501,"Ð¼Ñĸ":502,"ÑĥÐ¿":503,"ÐºÐ¸Ð¹":504,"ĠÐºÐ¾Ð»Ð¸":505,"ÑĸÐ·":506,"ÑĮÐ¾Ð³Ð¾":507,"ĠÐ±ÑĥÐ»Ð¾":508,"ÑĸÐ»ÑĮÐºÐ¸":509,"Ð¾Ð´Ñĸ":510,"Ð»Ñİ":511,"ĠÐ²Ð¾Ð½Ð°":512,"ÑĥÑĢ":513,"ÑĤÑı":514,"ĠÑĤÐ¸":515,"ÑĤÑĸ":516,"ĠÐ´Ðµ":517,"Ð¾Ð¹":518,"ÑģÑĤÐ¸":519,"ĠÑģÑĥ":520,"ÑģÑĤÑĮ":521,"ĠÐ±ÐµÐ·":522,"Ð°Ð²ÑģÑı":523,"Ð°Ð»ÑĮ":524,"ĠÐ§":525,"Ð½Ð¾Ð³Ð¾":526,"ĠÑĹÑħ":527,"Ð¾Ð¶Ðµ":528,"ĠÑģÐµ":529,"Ð±Ð°":530,"Ð¿ÐµÑĢ":531,"Ð¾Ð²Ñĥ":532,"ĠÐ²ÑģÐµ":533,"ĠÑĩÐ¸":534,"ÑıÐ²":535,"ĠÐ´Ñĥ":536,"Ð°ÑİÑĩÐ¸":537,"ĠÐ»Ð¸":538,"ÐµÐ½ÑĮ":539,"Ð¾Ð±Ñĸ":540,"ÑĨÐµ":541,"Ð½Ð¸Ñħ":542,"ÑİÑĩÐ¸":543,"ĠÐ¼Ñĸ":544,"Ð´Ñĥ":545,"ĠÐ²Ð¶Ðµ":546,"ÑĦ":547,"ÑģÑĤÑĸ":548,"ĠÐ´Ð²":549,"Ð°ÑĢÐ¸":550,"ÑģÑĮÐº":551,"ÑĤÐ°Ð½":552,"ĠÐ½Ð°Ð²":553,"ĠÐ·Ð²":554,"ĠÐ½Ð°Ð´":555,"ĠÐ¿Ð¾Ðº":556,"Ð°Ð½Ð½Ñı":557,"ĠÐ¼Ðµ":558,"ĠÐ¹Ð¾Ð¼Ñĥ":559,"Ð¾Ð²Ð¸":560,"ÑģÐ¸":561,"ĠÐ¼Ð¸":562,"ÐµÐ½Ðµ":563,"ÑĤÑĥ":564,"ĠÐ±ÑĥÐ²":565,"ĠÑĤÑĸÐ»ÑĮÐºÐ¸":566,"ÑĸÐº":567,"ĠÐ°Ð»Ðµ":568,"Ð¾ÑĢÐ¸":569,"ÑĪÑĸ":570,"Ð»Ð°ÑģÑı":571,"ĠÐ²Ð¾Ð½Ð¸":572,"ĠÐ±Ð°":573,"ĠÐ·Ð´":574,"Ð¾ÑĶ":575,"ÑĥÐ²Ð°Ð²":576,"Ð½Ð¸Ðº":577,"ÑĥÐ´":578,"ĠÐ¿Ð¾Ð´":579,"ĠÐ·Ð°Ð¿":580,"ÑģÐµ":581,"ĠÑģÐ²Ð¾ÑĹ":582,"ĠÐł":583,"ĠÐ¼Ð¾Ð²":584,"ĠÑģÐ»":585,"ĠÐ´Ð¸Ð²":586,"Ð¸Ð»Ð¸":587,"ÑĪÐ¾Ð²":588,"ÑĸÑĩ":589,"Ð¸Ð²ÑģÑı":590,"ĠÑīÐ¾Ð±":591,"Ð½Ð¸Ð¼":592,"ÐºÐ¾Ñİ":593,"ÑĢÐ¸Ð²":594,"Ð¸ÑĢ":595,"ĠÐ»Ðµ":596,"ĠÑģÐ²ÑĸÑĤ":597,"ĠÐĿÐµ":598,"ÐĴ":599,"ĠÑħÐ¾Ñĩ":600,"Ð¼Ðµ":601,"ĠÐ´Ð»Ñı":602,"Ð»ÑĤÐ°Ð½":603,"ĠÐ¿Ð¾Ñĩ":604,"ÑĢÑĥÐ³":605,"ĠÐ·Ð°Ð²":606,"ĠÐ±Ð¾":607,"ÑģÑĸ":608,"ĠÑĸÐ·":609,"ĠÐ³Ð¾ÑĢ":610,"ĠÐ²ÐµÐ»Ð¸":611,"Ð¼Ñĥ":612,"ĠÐĽ":613,"Ð²Ðµ":614,"Ð²Ñĸ":615,"ĠÐºÑĢ":616,"Ð´Ñĸ":617,"ĠÐ¿Ð¾ÑĢ":618,"ĠÑĤÐ¾Ð³Ð¾":619,"Ð¾Ð»Ð¾Ð´":620,"ÑģÑĤÑı":621,"ÐŁ":622,"ĠÐĴÑĸÐ½":623,"ĠÐ¿Ð¾Ñģ":624,"ĠÐ½ÑĮÐ¾Ð³Ð¾":625,"Ð°Ð»Ñĸ":626,"ĠÑģÐºÐ°Ð·":627,"ĠÐ¿Ð¾Ð»":628,"ÑĥÐ²Ð°ÑĤÐ¸":629,"ĠÐ¿ÐµÑĢÐµÐ´":630,"Ð¸Ð¼Ð¸":631,"ÑĪÑĥ":632,"ĠÑĸÐ½":633,"ĠÐ·ÐµÐ¼":634,"ÑħÐ¸":635,"ÑĢÑı":636,"Ð½Ð¾Ñİ":637,"ĠÑĩÐ°Ñģ":638,"Ð¼Ð°":639,"ĠÑģÑĥÐ»ÑĤÐ°Ð½":640,"Ð°Ð½Ñĸ":641,"ÐºÐ¸Ñħ":642,"ĠÑĤÐ°Ð¼":643,"ÑĸÑĤÑĮ":644,"ÑĪÐ°":645,"Ð²Ð°":646,"ĠÐ´ÑĥÐ¼":647,"\".":648,"ĠÑĤÑĥÑĤ":649,"ĠÐ£":650,"Ð½ÑĸÐ¹":651,"ÐĲ":652,"ĠÐ²ÑģÑĸ":653,"Ð½Ð´":654,"ÐºÐ¾Ð¼":655,"ĠÐ¼ÐµÐ½Ðµ":656,"Ð¾Ñħ":657,"ĠÐ·Ð½Ð°":658,"ĠÐ´Ð¾Ð±":659,"ĠÐºÐ¾Ð»":660,"Ð¸Ñģ":661,"ÐºÑĸ":662,"ĠÐºÑĥ":663,"!..":664,"Ð°Ð»Ðµ":665,"Ð°Ð½Ð°":666,"ÐµÐ½Ð½Ñı":667,"ĠÐ¿Ð¾ÑĤ":668,"Ð¾Ð²Ð°":669,"ĠÐ¿Ð¾Ð¼":670,"Ð¢":671,"ĠÑģÐµÑĢ":672,"ĠÐ´Ð¾Ð²":673,"ĠÐ©":674,"ĠÑĤÐ¾Ð¹":675,"ÑĸÐ³":676,"ÑĥÑĤÑĮ":677,"ÐĿ":678,"ĠÐ¦":679,"ĠÐ½Ð°Ð¹":680,"ÐµÑĤ":681,"ĠÐ·Ð°Ðº":682,"ĠÐ½Ð°Ð¿":683,"ĠÑĦ":684,"ĠÐ·Ð°Ð±":685,"ĠÑĢÐµ":686,"ĠÑģÐµÐ±Ðµ":687,"ÐºÐ°Ð¼Ð¸":688,"ÑĩÐ¸Ð²":689,"ÑİÑĤÑĮ":690,"Ð¾Ð½Ð¸":691,"Ð½Ð¾ÑĹ":692,"Ð¾ÑģÑĤ":693,"ĠÑĤÑĸ":694,"Ð¾Ñı":695,"Ð»Ð¸ÑģÑı":696,"ÐµÑĢÐµÐ´":697,"ĠÐ½ÐµÑĹ":698,"ĠÐĲÐ»Ðµ":699,"ĠÐ·ÑĢ":700,"ĠÑĤÐ¸Ñħ":701,"Ð½ÑĥÐ»Ð°":702,"ĠÐ»ÑİÐ´Ð¸":703,"ĠÐ½ÑĸÑĩ":704,"ĠÐ¼Ñĥ":705,"ĠÐ¼Ð¾Ð¶Ðµ":706,"ĠÐ³Ñĥ":707,"Ð°Ð»Ð°ÑģÑı":708,"ĠÐ¿Ð¾Ð³":709,"Ð±Ñĥ":710,"ĠÑħÑĤÐ¾":711,"Ð±Ð¾":712,"ÑĢÐ¸Ð¼":713,"Ð½Ñİ":714,"ÑģÑĤÐ°Ð²":715,"ĠÑĢÐ°Ð·":716,"ÑĸÐ»Ð¾":717,"Ð°Ð»Ð¸ÑģÑı":718,"ÑĸÐ»Ð¸":719,"Ð¡":720,"Ð»Ð°Ð´":721,"ĠÐ¾ÑĤ":722,"ĠÐ±ÑĥÐ»Ð°":723,"ĠÐ¢Ð°":724,"Ð¾ÑĢÑĥ":725,"ĠÐ¾ÑĩÑĸ":726,"ÑĥÑĶ":727,"ÐµÑĢÑĤ":728,"ĠÑĤÐµÐ¿ÐµÑĢ":729,"Ð°ÑİÑĤÑĮ":730,"ĠÐ¿Ð¾Ð±":731,"ĠÐ·Ð°Ð³":732,"ĠÑĤÑĥ":733,"Ð¸Ð´":734,"ĠÐ¿ÐµÑĢ":735,"\",":736,"Ð¾Ð½Ð°":737,"ĠÑĢÐ¾Ð±":738,"Ð°ÑĶÑĤÑĮÑģÑı":739,"ĠÑĤÐ¾Ð´Ñĸ":740,"Ð¾ÑĤÐ¸":741,"ĠÑģÑĤÐ°ÑĢ":742,"Ð»Ð¾Ð¿":743,"ĠÑģÐ¾Ð±Ñĸ":744,"ÐºÑĸÐ²":745,"ÑıÐ³":746,"ĠÐ²Ð¸Ñģ":747,"ÑĤÐ¾Ð¼":748,"ĠÐ±ÑĢ":749,"ĠÑģÐ²Ð¾ÑĶ":750,"ĠÑģÐ¼":751,"Ð±ÑĢ":752,"ĠÐ±ÑĸÐ»":753,"ĠÐ¼ÐµÐ½Ñĸ":754,"ĠÐºÑĢÐ¸":755,"ĠÑĶ":756,"ĠÐĲÐ½Ð´":757,"ÐµÑĢÑĸ":758,"ÑĤÐ°":759,"ĠÐºÐ¾ÑĢ":760,"ĠÐ½Ð°Ñģ":761,"Ð°Ð½Ð¾":762,"ĠÑĩÐ¾ÑĢ":763,"ĠÑĹÐ¹":764,"Ð°Ð»Ð¾ÑģÑı":765,"ÑĸÐ¿":766,"ĠÐ²Ñĥ":767,"ĠÐ¿Ð¾Ð¿":768,"ĠÐ½Ð¸Ñħ":769,"ÑīÐµ":770,"Ð»ÑĥÑħ":771,"Ð»ÑıÐ´":772,"Ð½ÑĮ":773,"ÑĩÑĥ":774,"ĠÐ¿Ñĸ":775,"ÑĨÑİ":776,"ĠÐ·Ð°Ñģ":777,"Ð»Ð¾ÑģÑı":778,"ĠÑĩÐ¾Ð»":779,"ĠÐ´ÑĢÑĥÐ³":780,"Ð¾ÑĢÑĸ":781,"Ð¸Ð»Ð°":782,"ĠÐ¢Ð°Ðº":783,"ĠÐĿÐ°":784,"ÐºÐ°Ð²":785,"Ð»ÐµÐ½":786,"Ð¾Ð´Ñĥ":787,"ĠÑĤÐ²":788,"ĠÐ¶Ð¸ÑĤ":789,"Ð½ÑĥÐ²ÑģÑı":790,"ĠÐ¿Ðµ":791,"Ð¿Ð¾Ð²":792,"ĠÑĤÑĢÐµ":793,"Ð¸ÑĤÑĮ":794,"ÐĨ":795,"ĠÐ¿Ð°Ð½":796,"Ð½ÑĥÑĤÐ¸":797,"Ð¿Ñĥ":798,"ĠÐ½Ð°Ð²ÑĸÑĤÑĮ":799,"ÑģÑĤÐ°":800,"Ð»Ð¸Ñĩ":801,"Ð·ÑĮ":802,"ĠÐ¥ÑĢÐ¸":803,"ÐµÐ¹":804,"ĠÐ±Ð¸":805,"Ð½Ð¸Ð¼Ð¸":806,"ĠÐ±ÑĸÐ»ÑĮ":807,"ĠÐ³Ð°ÑĢ":808,"ÐµÑĢÐµÐ·":809,"ÐºÐ¾Ð²":810,"ÑģÑĸÐ¼":811,"ÑĢÑĸÐ¹":812,"ÑĥÐ²Ð°Ð»Ð¸":813,"Ð²Ð¾":814,"ĠÐ·Ð³":815,"ĠÐ·Ð½Ð¾Ð²Ñĥ":816,"ÐĶ":817,"ĠÐ°Ð¶":818,"ÑģÑĤÐ¾":819,"ĠÑģÐ¿ÑĢÐ°Ð²":820,"ĠÐ¶ÑĸÐ½":821,"ÑĢÐ°Ð·":822,"ÐµÑĨÑĮ":823,"ĠÑĩÑĥ":824,"ÑıÐ·":825,"Ð´Ð¸Ð½":826,"ĠÐ¼Ð¾Ð¶":827,"ÑıÑĤ":828,"ÑģÑĤÑĥÐ¿":829,"ĠÐ¯Ðº":830,"ĠÐºÐ°Ð¼":831,"ĠÑĥÐ¶Ðµ":832,"ĠÐ±ÑĥÐ´Ðµ":833,"ÐºÐ°Ñħ":834,"ĠÐºÐ¾Ð½":835,"ĠÐ´Ð°Ð²":836,"ĠÑīÐ¾ÑģÑĮ":837,"ÑģÐ¸Ð¼":838,"ÑĩÐ°":839,"Ð½ÑĸÐ²":840,"ÑĥÐ±":841,"ĠÑĩÐ¾Ð»Ð¾Ð²Ñĸ":842,"ĠÐ²Ð¾Ð»":843,"ĠÑĤÐµÐ±Ðµ":844,"ĠÑģÑħ":845,"ĠÐ·Ð±":846,"ĠÑģÐ¾Ð½":847,"ĠÐ¿ÑĢÐ¸Ð¹":848,"ĠÑıÐºÐ¸Ð¹":849,"Ð¸Ð½":850,"ĠÐ²Ð¸Ð´":851,"Ð°ÐºÑģÐ¸Ð¼":852,"Ðľ":853,"ĠÐ±ÑĥÐ»Ð¸":854,"ÑīÐ¾":855,"ĠÐ¦Ðµ":856,"ÑĸÐ»Ð°":857,"ĠÐ·Ð°Ð¼":858,"Ð¼Ð¾Ð²":859,"Ð½Ð¾Ð¼Ñĥ":860,"ÐºÐ¾Ð³Ð¾":861,"Ð»Ð¸Ð²Ð¾":862,"ĠÐ¶Ð¸Ð²":863,"ÐĹ":864,"ĠÐºÐ¸":865,"Ðŀ":866,"ÑĸÑı":867,"ĠÐ¿ÑĸÑģ":868,"ÑĸÐ½ÑĮ":869,"ĠÐ³Ð¾Ð»Ð¾Ñģ":870,"Ð²ÑĸÑĤ":871,"ĠÐ½Ð¸Ð¼":872,"ÑģÐº":873,"ĠÐ·Ð°ÑĢ":874,"ÑĥÐ²Ð°Ð»Ð°":875,"ÑıÑĤÑĮ":876,"ÑĪÐ¸ÑģÑĮ":877,"ĠÐ©Ð¾":878,"ĠÐ²Ð¸Ð¿":879,"ĠÑĤÑĢ":880,"Ð¾Ð³Ð¸":881,"ĠÐ´ÑĸÐ²":882,"ĠÑģÐ¾Ð±":883,"ĠÑħÐ°ÑĤ":884,"ÑĸÑĤÐ¸":885,"ĠÐ½ÐµÐ¿":886,"ĠÑģÐºÐ°Ð·Ð°Ð²":887,"Ð²ÑģÑı":888,"Ð´Ð°":889,"ÑģÑĮÐºÐ¸Ð¹":890,"Ð¸Ð½Ð¸":891,"ĠÐ¿ÑĢÐ°Ð²":892,",âĢĶ":893,"Ð»Ð°Ð²":894,"ĠÑĢÐ°Ð´":895,"Ð¼Ð°Ð½":896,"ĠÐ½Ð°Ð·":897,"ĠÐ»ÑİÐ´":898,"ÑħÐ¾Ð´Ð¸":899,"ĠÐ¶Ðµ":900,"Ð¾ÐºÐ¸":901,"ĠÑģÑĤÐ°Ð²":902,"ÑĪÐ»Ð°":903,"âĢ¦":904,"ĠÐ½Ð°Ð¼":905,"ÑĸÐ¶":906,"ĠÐ¶Ð¸ÑĤÑĤÑı":907,"Ð°Ð½Ðµ":908,"Ð½ÑĸÑģÑĤÑĮ":909,"ĠÐºÐ¾Ð¶":910,"ĠÐ²Ð·":911,"ĠÑıÐºÑĸ":912,"ÐºÐ¸Ð¼":913,"ĠÐ½ÐµÐ·":914,"ĠÐ¾Ñģ":915,"ĠÐ½ÑĸÑĩÐ¾Ð³Ð¾":916,"ÐºÐ¾Ð»Ð¸":917,"ĠÐ¢Ð¸":918,"ÑģÑĮÐºÐ¾Ð³Ð¾":919,"ÐºÐ¾ÑĹ":920,"ĠÐ¡ÑĤ":921,"ÐºÐ¾Ð»":922,"Ðļ":923,"ÑģÐ¿":924,"ĠÐ²Ð¿":925,"ĠÐ½Ð°ÑĩÐµ":926,"ĠÐ³ÑĢÑĥ":927,"ĠÑĨÑĮÐ¾Ð³Ð¾":928,"ĠÐ¿Ð¾Ð·":929,"ĠÑĩÐ¾Ð³Ð¾":930,"ĠÑĤÐ¾Ð±Ñĸ":931,"ÑĪÐ»Ð¸":932,"ĠÑĤÑĢÐµÐ±Ð°":933,"ĠÐ³ÑĢ":934,"ÑħÐ¾Ð´":935,"ÑĤÐ¸ÑģÑı":936,"ĠÐ½ÑĸÐ±Ð¸":937,"ÐºÐ°Ð·":938,"ÑĸÐ½Ð½Ñı":939,"ĠÑĩÐµÑĢ":940,"ĠÐľÐ°ÐºÑģÐ¸Ð¼":941,"ÑĥÑģÑĤ":942,"Ð°Ñĩ":943,"ĠÑģÐ²Ð¾Ñİ":944,"ĠÑĢÐ¾Ð·Ð¿":945,"ÑĸÑģÑĤÑĮ":946,"ĠÐ¼ÑĸÑģ":947,"ĠÐºÐ°Ð¶":948,"ÑĪÐ¸Ð¹":949,"ĠÑĤÐ¾Ð¼Ñĥ":950,"ĠÑĤÐ¸Ð¼":951,"Ð´ÐµÐ¹":952,"ĠÑĤÐµÐ¼":953,"ĠÐ¿Ð°ÑĢ":954,"ĠÐ²ÐµÑĢ":955,"ÑĸÑĶ":956,"Ð½Ð°Ð²":957,"Ð°ÑĪ":958,"ĠÐ´Ð¾ÑĢ":959,"Ð°ÐºÐ¸":960,"ĠÐ½Ð°Ð³":961,"Ð°Ð½ÑĮ":962,"ĠÑħÐ¾ÑĤ":963,"ĠÑħÐ»Ð¾Ð¿":964,"ĠÐ¼Ð°ÑĤ":965,"ĠÑģÐ²Ð¾Ð³Ð¾":966,"ÐµÑģ":967,"ÐµÐ²":968,"Ð°ÑĤÐ¸ÑģÑı":969,"Ð³Ð¾ÑĢ":970,"Ð¾Ð²ÑģÑĸÐ¼":971,"Ð³Ñĥ":972,"ĠÑĢÑĥÐºÐ¸":973,"ÑģÑĮÐºÐ°":974,"Ð¼Ð¾":975,"ÑĢÐ°ÑĪ":976,"ĠÐ²Ñĸ":977,"ĠÐ¼Ð°Ð¹":978,"ĠÐ±Ð°ÑĤÑĮ":979,"!\"":980,"Ð¼ÑĸÑħ":981,"ĠÐ¿Ð¸":982,"ĠÐµ":983,"ÐµÐ½Ð¾":984,"ĠÑĩÐµÑĢÐµÐ·":985,"ÑİÐ´Ð¸":986,"Ð²Ð°Ð½":987,"ÑĩÐ¸Ð¼Ð°":988,"?..":989,"ÑħÐ°":990,"ĠÐ²Ð´":991,"ĠÐ´Ð¾Ð²Ð³":992,"ÐµÐ½Ð°":993,"ĠÐ½ÐµÐ²":994,"ĠÐ±ÑĸÐ»ÑĮÑĪÐµ":995,"ĠÐ±Ð°Ð³":996,"ĠÐ·Ð°Ð´":997,"ĠÐ¾Ð±Ð»Ð¸Ñĩ":998,"ĠÐ¼Ð¾Ð³":999,"ĠÐ¼Ð¾ÑĢ":1000,"ĠÑģÑĤÑĢ":1001,"Ð°ÑİÑĩÐ¸ÑģÑĮ":1002,"ĠÐ±ÑĸÐ»Ñı":1003,"ÑĨÐµÐ¼":1004,"ĠÐ²ÑĸÐº":1005,"Ð²Ð¸Ð´":1006,"ĠÐ²Ð¾ÑĢ":1007,"ĠÑħÐ²Ð¸":1008,"ĠÑĤÐµÐ¶":1009,"ĠÐºÐ°ÑĢ":1010,"ĠÐľÐ°ÑĢ":1011,"âĢĻ":1012,"ÑģÑĤÑĢ":1013,"Ġ(":1014,"ÑĩÑı":1015,"ÑĢÑĸÐ±":1016,"ÐµÐ½Ñĸ":1017,"ĠÐ·Ð¾Ð²ÑģÑĸÐ¼":1018,"ÑĸÑĹ":1019,"ÑħÑĤÐ¾":1020,"ĠÑģÑĤÐµ":1021,"ĠÐ»ÑİÐ´ÐµÐ¹":1022,"ÐµÐ´":1023,"ÑıÐ´":1024,"ĠÐļÐ¾Ð»Ð¸":1025,"ÐµÑĪ":1026,"ĠÐ¿Ð¾Ð²ÐµÑĢ":1027,"ĠÐ°Ð±Ð¾":1028,"ĠÐ·Ð¼":1029,"ĠÐĴÐ¾Ð½Ð°":1030,"ĠÐ¿Ð¾Ð±Ð°":1031,"ÑĸÐ±Ð°":1032,"ÑĢÐ¸Ð¹":1033,"ÑĮÐ¾Ð¼Ñĥ":1034,"ÑģÑĤÑİ":1035,"Ð¾ÑģÐ¿":1036,"Ðĵ":1037,"ÑĤÐ¾Ð²":1038,"ĠÐ¾Ð´Ð¸Ð½":1039,"ĠÐ±Ð»Ð¸":1040,"ÑĶÑĤÑĮÑģÑı":1041,"ĠÐ½ÐµÐ´":1042,"Ð¾Ð»Ñİ":1043,"ÐµÐº":1044,"ĠÐĵÑĢÐ¸":1045,"ÑģÑĤÐ°Ð½":1046,"Ð²Ð¾Ð½":1047,"ĠÐ»Ð¸ÑĪÐµ":1048,"ĠÐ¼Ð°Ð²":1049,"ĠÑĤÑĢÐ¾":1050,"ĠÑģÑĤÐ¾Ñı":1051,"ĠÐ·Ð°Ñħ":1052,"ĠÑĥÑģÑĸ":1053,"ĠÐ´ÐµÑģÑĮ":1054,"Ð¾ÑĢÐ°":1055,"Ð¾Ð´Ð°":1056,"ĠÑıÐºÐ°":1057,"ĠÐ·Ð½Ð°Ð¹":1058,"ĠÐ¾ÑĩÐ¸Ð¼Ð°":1059,"ĠÐĿÑĸ":1060,"Ð°Ð»Ñı":1061,"ĠÐĲÐ½Ð´ÑĢÑĸÐ¹":1062,"ĠÐ¥ÑĢÐ¸ÑģÑĤÑı":1063,"ĠÐ½Ð°ÑĢ":1064,"Ð»Ð°Ñģ":1065,"Ð°Ð½Ð¸Ð¹":1066,"ÑĨÑĸÐ²":1067,"Ð¯":1068,"ĠÐ´Ð°Ð»Ñĸ":1069,"ĠÐ·Ð½Ð°ÑĶ":1070,"ÑıÑĤÐ¸":1071,"Ð³Ð°":1072,"ĠÐ¿Ð»Ðµ":1073,"ĠÐ²ÑĸÑĤ":1074,"ĠÐ±Ð°ÑĩÐ¸":1075,"Ð¾Ð²Ð¾ÑĢÐ¸":1076,"ĠÐ¼Ð¾Ð²Ñĩ":1077,"ĠÐĴÐ¸":1078,"ĠÐľÐ¸":1079,"Ð²Ð¸Ñĩ":1080,"ĠÐ³Ð¾Ð»Ð¾Ð²Ñĥ":1081,"Ð°Ð½Ð¸":1082,"ĠÐ¼ÑĸÐ³":1083,"ĠÑģÐ¼ÐµÑĢ":1084,"ĠÐ²Ð¸Ð³":1085,"ĠÐ¼Ð°ÑĶ":1086,"Ð¶Ñĥ":1087,"ĠÐºÑĥÐ¿":1088,"ĠÐ·ÐµÐ¼Ð»Ñĸ":1089,"ĠÑĨÑĸÐ»":1090,"ÑģÑĮÐºÑĸ":1091,"ĠÐ²Ð¾Ð³":1092,"ĠÑĨÐµÐ¹":1093,"ĠÐ³Ð¾Ð»Ð¾Ð²":1094,"Ð¾ÑģÑĮ":1095,"ĠÑĤÐ¾Ð²":1096,"ĠÐ¡Ñĥ":1097,"ĠÐ¼Ð¾Ð¶Ð½Ð°":1098,"ĠÐ³Ð»Ð¸":1099,"Ð¾ÐºÑĥ":1100,"ĠÐ·Ñĸ":1101,"ĠÐ¾Ð¿":1102,"ĠÐ²Ð¸Ð¹":1103,"ÐºÐ½ÑĥÐ²":1104,"ÑĢÐµÐ¼":1105,"ÑģÑĮÐºÐ¸Ñħ":1106,"ĠÐºÐ°Ð·":1107,"ÑıÑĩÐ¸":1108,"ĠÐ¿Ð¾Ñħ":1109,"ÑıÑħ":1110,"ĠÐºÑĸÐ½":1111,"ÐºÐµ":1112,"Ð¿Ð¾Ð²ÑĸÐ´":1113,"ĠÐŀÑĤ":1114,"ĠÑĹÐ¼":1115,"ĠÐ¾Ð±Ð»Ð¸ÑĩÑĩÑı":1116,"ĠÑĥÑģ":1117,"ĠÐ²Ð¾Ð½Ð¾":1118,"ĠÐ§Ð¸":1119,"ĠÑģÐ»ÑĸÐ´":1120,"ÑħÑĥ":1121,"Ð°Ð²Ð¸":1122,"Ð»Ð¸ÑģÑĮ":1123,"ÑĤÑĸÐ²":1124,"ÑĩÐ¸Ð½Ð°":1125,"ÑıÐ½":1126,"Ð½Ð¾ÑģÑĤÑĸ":1127,"ĠÐ±Ð»":1128,"ĠÐĿÑĥ":1129,"ĠÐ±ÑĥÑĤÐ¸":1130,"ĠÑģÐ²Ð¾ÑĹÑħ":1131,"ĠÐ¤":1132,"ĠÐ¿Ð¾ÐºÐ¸":1133,"ĠÐĻ":1134,"ĠÐ²ÑĸÐ´Ñĩ":1135,"ĠÐ²Ð°Ñģ":1136,"Ð¾Ð½Ñĥ":1137,"ÐµÑĤÑĮ":1138,"ĠÐºÑĢÑĸ":1139,"ĠÐ»ÐµÐ¶":1140,"ÑĪÐ¾Ð³Ð¾":1141,"ĠÐ´Ð¾Ð»":1142,"ĠÐ¿ÑĢÐ¾Ð¼":1143,"ÐµÑĢÐ¸":1144,"Ð·Ð¸":1145,"ÑİÐ²":1146,"ĠÐ¿Ñĥ":1147,"Ð¿Ð¸":1148,"ĠÑģÐ¿Ð¸ÑĤ":1149,"Ð½Ð¸ÐºÐ°":1150,"ĠÐºÐ¾Ð¼":1151,"ĠÐ§ÑĸÐ¿":1152,"ĠÐ²ÑĸÐ·":1153,"Ð¥":1154,"ÑģÑĥ":1155,"Ð¾Ð»Ð¾ÑĤ":1156,"ĠÐ¢Ð¾":1157,"Ð°ÑĤÐ¾":1158,"ĠÑģÐµÑĢÑĨÐµ":1159,"ÑıÐ¶":1160,"ĠÑģÑĤÑĢÐ°ÑĪ":1161,"Ð¾ÑĪ":1162,"Ð¾Ð³Ñĥ":1163,"Ð¾Ð½ÑĮ":1164,"ĠÐ»ÑĸÑĤ":1165,"ĠÐ¿Ð»":1166,"Ð¾Ð´ÑĸÐ²":1167,"ĠÐĲÐ½Ð´ÑĢÑĸ":1168,"Ð±Ð¸Ð²":1169,"ĠÐ½Ð°Ð±":1170,"Ðł":1171,"ĠÐ·Ð°Ð»":1172,"ĠÐ²Ð¸Ðº":1173,"ÑĢÐ°ÑĹ":1174,"ĠÐ½ÑĸÐ¶":1175,"ĠÐĴÐ¾Ð½Ð¸":1176,"ÑĩÐ¸Ð½":1177,"ĠÐ·ÑĢÐ¾Ð±":1178,"ĠÐ½ÑĸÐºÐ¾Ð»Ð¸":1179,"ĠÐ½Ð¸":1180,"ĠÑĢÐ°Ð¿":1181,"Ð²Ñĥ":1182,"ÑģÑĤÐµ":1183,"ĠÑĤÑĢÐ¾ÑħÐ¸":1184,"Ð¾Ð³Ð°":1185,"ÑĢÑĥÐ¶":1186,"ÑģÑĤÐ²Ð¾":1187,"Ð¾ÐºÑĸÐ¹":1188,"ĠÐ²ÑĸÐ¹":1189,"ĠÐ¿Ð»Ð°":1190,"ĠÐ±ÑĢÐ°ÑĤ":1191,"ĠÐĹÐ°":1192,"Ð¾ÑģÑĤÑĸ":1193,"Ð³Ð¸":1194,"Ð½Ð¸Ñĩ":1195,"Ð°Ð½Ñĥ":1196,"ĠÐ¿ÑĸÑģÐ»Ñı":1197,"ÑİÑĩÐ¸ÑģÑĮ":1198,"ĠÑģÐµÑĢÐµÐ´":1199,"Ð»Ð°ÑģÑĮ":1200,"ĠÑıÐºÑĥ":1201,"ĠÑĢÐ¾Ð·ÑĥÐ¼":1202,"ĠÐ»ÐµÐ³":1203,"ĠÐºÐ¾Ð»Ð¾":1204,"Ð¾Ðµ":1205,"ĠÐ¼Ð°ÑĤÐ¸":1206,"Ð²ÐµÑĢ":1207,"Ð»ÐµÐ¹":1208,"ĠÐºÑĸÐ»ÑĮ":1209,"ĠÑĩÐµ":1210,"ĠÐ´Ð¾Ð´":1211,"Ð²ÑĸÐ´":1212,"Ð°Ð´Ð¸":1213,"ÑĤÑıÐ³":1214,"ĠÐ²Ð°Ð¶":1215,"Ðĳ":1216,"ĠÐ´ÐµÐ½ÑĮ":1217,"Ð¾Ð²Ð¾":1218,"ĠÐ±ÑĥÐ´":1219,"ÑĤÑĢ":1220,"ĠÐ¿ÑĢÐ¾Ñģ":1221,"ĠÐ½Ð¸Ð¼Ð¸":1222,"ĠÐ´ÐµÑĢÐµ":1223,"Ð½ÑĸÐ¼":1224,"Ð§":1225,"ÑĪÐ¸Ñħ":1226,"ĠÐ¼Ð¾Ð»":1227,"ÑĥÐ½":1228,"Ð»ÑĸÐ²":1229,"ÑĩÐ¸Ð½Ð¸":1230,"ĠÐ¨":1231,"ÑĨÑĸÑĹ":1232,"ÑĥÐº":1233,"ĠÐ²Ð¸ÑģÐ¾Ðº":1234,"ÐµÐ»Ð¸":1235,"ÑıÐº":1236,"Ð²Ð°Ð¶":1237,"ĠÐ½ÑĸÑħÑĤÐ¾":1238,"ĠÑģÐ°Ð¼Ðµ":1239,"Ð¾Ð¼Ð°":1240,"Ð¸Ð²ÑĪÐ¸":1241,"ÐµÑĩ":1242,"Ð±Ð¸ÑĢ":1243,"Ð°Ð´Ñĥ":1244,"Ð´Ð°Ð²":1245,"Ð°Ð³ÑĸÐ¼":1246,"Ð±ÑĢÐ°Ð³ÑĸÐ¼":1247,"ĠÐĸ":1248,"ÑıÑĩ":1249,"ĠÑģÐ»ÑĥÑħ":1250,"Ð¼ÐµÐ½":1251,"ĠÑģÐ°Ð¼Ð°":1252,"ĠÑģÐ¼Ñĸ":1253,"ĠÐ´Ð°Ð»Ðµ":1254,"ÑĸÑĪ":1255,"ÑĩÐ°Ð²":1256,"ÐµÐ»ÑĮ":1257,"ĠÑģÑĤÐ¾":1258,"Ð£":1259,"ĠÑĤÐ°ÐºÐ¸Ð¹":1260,"ĠÐ³ÐµÑĤÑĮ":1261,"Ð¾Ð»Ñĸ":1262,"ÑĩÐ¸ÑĤÑĮ":1263,"ĠÐ½ÐµÑİ":1264,"ĠÐ±Ð¾ÑĢ":1265,"ÐºÐ¸Ð¼Ð¸":1266,"ÑĢÐµÑĪ":1267,"ÑĤÐ¾ÑĢ":1268,"ĠÐ·Ð½Ð°Ð²":1269,"ĠÐ¼Ð°Ð»":1270,"?!":1271,"ĠÑĢÑĸÐ´":1272,"ĠÐºÐ¾Ð³Ð¾":1273,"ĠÑĤÐ°ÐºÐµ":1274,"ÐµÑĢÐ¶":1275,"ĠÐ²ÑģÑĸÑħ":1276,"ÑĥÑĪ":1277,"ÑĤÐ¸Ð¹":1278,"ĠÐŁÑĢÐ¾":1279,"ĠÐ»Ð¸ÑĪ":1280,"ĠÑİ":1281,"ĠÑĥÐ¿":1282,"ĠÑĢÐ°Ð¿ÑĤÐ¾Ð¼":1283,"ĠÐ²ÑĸÑĢ":1284,"Ð½Ð¸ÑĨÑĸ":1285,"Ð½Ð°Ðº":1286,"ĠÐºÐ¾Ð»Ð¸ÑģÑĮ":1287,"ÑıÑģ":1288,"Ð½ÑĥÐ»Ð¸":1289,"ĠÐºÐ¾ÑĤ":1290,"ĠÐ¿ÑĸÐ²":1291,"?\"":1292,"ĠÑĥÑģÐµ":1293,"Ð´ÑĥÑĤÑĮ":1294,"Ð¾Ð»ÑĮ":1295,"ĠÐ½Ð¾Ð³Ð¸":1296,"ĠÑıÐºÐ¾Ð³Ð¾":1297,"ĠÐ·ÐµÐ¼Ð»Ñİ":1298,"ĠÑĤÑĢÐ¸":1299,"ĠÐ¾Ð·":1300,"ĠÐ´Ð¾Ð±ÑĢÐµ":1301,"ÑĢÐ¾Ð²":1302,"ĠÐ¾ÑģÑĮ":1303,"ÑĥÐ²Ð°Ð²ÑģÑı":1304,"ĠÐ´Ð¾Ð¿":1305,"ĠÐ¢Ðµ":1306,"ĠÐ¼ÑĸÐ¶":1307,"ĠÑĤÑİ":1308,"ÑıÐ²ÑģÑı":1309,"ĠÐ¼Ð¾Ð»Ð¾Ð´":1310,"Ð¶Ñĸ":1311,"ĠÑģÐ¸Ð´":1312,"ĠÐ²ÐµÑĩ":1313,"Ð¿Ð°":1314,"Ð±Ñĸ":1315,"ĠÑĩÐ¾Ð»Ð¾Ð²ÑĸÐº":1316,"ĠÐ½Ð¾Ð²":1317,"ĠÑĤÑıÐ¶":1318,"ĠÑħÐ¾Ð»Ð¾Ð´":1319,"ĠÐºÑĥÐ´Ð¸":1320,"ĠÑģÑĥÐ¼":1321,"ĠÐ¿ÑĢÐ¸Ð³":1322,"Ð²ÑĸÑĢ":1323,"Ð°Ð½Ð´":1324,"Ð½ÑĮÐ¾Ð³Ð¾":1325,"ĠÑħÐ°ÑĤÐ¸":1326,"ÑīÐ°":1327,"ÐºÐ°ÑĤÐ¸":1328,"ĠÑģÐ¿ÑĸÐ²":1329,"ĠÑĢÑĥÐºÑĥ":1330,"ĠÐĳÑĥ":1331,"ĠÑģÐ²Ð¾ÑĹÐ¼":1332,"Ð»Ð¾Ð½":1333,"ĠÐĨÐ±ÑĢÐ°Ð³ÑĸÐ¼":1334,"ÐµÐ»Ðµ":1335,"ĠÐ´ÑĥÑĪÑĸ":1336,"Ð¾Ð´Ð½Ñĸ":1337,"Ð¶Ð´Ð¸":1338,"ĠÐ¡ÑĥÐ»ÐµÐ¹":1339,"Ð²Ð¾ÑĢ":1340,"ÐµÑĢÐ¿":1341,"ĠÑģÐ»Ð¾Ð²Ð°":1342,"ĠÑģÐ»Ñĥ":1343,"ĠÐĦ":1344,"ĠÐ½ÐµÐ¼":1345,"ĠÐĶÐµ":1346,"Ð°Ð·Ñĥ":1347,"ĠÐ¿Ð¾ÑĤÑĸÐ¼":1348,"ĠÐ·Ð²ÑĸÐ´":1349,"ĠÐ¿ÑĢÐ¾Ðº":1350,"ĠÐĨÐ²Ð°Ð½":1351,"ĠÐ²ÐµÑģÐµ":1352,"Ð½Ð¾Ð²":1353,"ÑĥÐ²Ð°Ð½Ð½Ñı":1354,"ĠÐŀÐ´":1355,"ÑĢÑĸÐ²":1356,"ĠÑģÐ¾Ð±Ð¾Ñİ":1357,"ĠÐ½Ð¾Ñĩ":1358,"ĠÐ¾Ð´Ð½Ð¾Ð³Ð¾":1359,"ĠÐ´Ð¸":1360,"ĠÐ¿ÑĸÑĪÐ¾Ð²":1361,"Ð»ÑİÐ²":1362,"ĠÐ³Ð¾Ð²Ð¾ÑĢÐ¸":1363,"ĠÐ¿ÑĢÐ¸Ñģ":1364,"ÑģÑĤÐ²Ð°":1365,"Ð¾ÑĤÑĥ":1366,"ĠÑĩÐµÑĢÐ²Ð¾Ð½":1367,"ĠÐ²Ð¾Ð´":1368,"Ð½Ð¸ÐºÐ¸":1369,"Ð°Ð»Ð¸ÑģÑĮ":1370,"ĠÐ¿Ð¸ÑĤ":1371,"ĠÐ·Ð°Ð¹":1372,"ÑģÑĮÐºÐ¾ÑĹ":1373,"Ð·Ð´":1374,"ĠÑĩÐ¾Ð¼Ñĥ":1375,"ĠÐ·Ð»":1376,"ĠÐ²Ð°Ð¼":1377,"ĠÑģÑĤÐ¸":1378,"ĠÑĢÐ°Ð·Ð¾Ð¼":1379,"ĠÑĢÐ¸":1380,"Ð²Ð¸Ð¹":1381,"ĠÐ¾Ð³":1382,"ĠÐ³ÑĢÐ¾":1383,"Ð°Ð»Ð°ÑģÑĮ":1384,"ĠÐ¿ÑĢÐ¾ÑĤÐ¸":1385,"ÑĥÑĤÑĤÑı":1386,"ĠÑĤÑĢÐ¸Ð¼":1387,"ĠÐ²ÑĥÐ»Ð¸":1388,"ĠÑģÐ¾ÑĢ":1389,"ĠÑĤÐ¸ÑħÐ¾":1390,"ĠÐ²Ð»Ð°Ñģ":1391,"ĠÑĤÐ¾ÑĢ":1392,"Ð½ÑĸÑħ":1393,"ÑĩÐ¸Ð¹":1394,"ĠÑģÐ¸Ð½":1395,"ÑıÐ¼":1396,"ÑĥÑģ":1397,"ÑħÐ¾Ð¿":1398,"ĠÐ»ÑĸÑģ":1399,"ĠÑĪÐ²Ð¸Ð´":1400,"ĠÑģÑĤÐ¾ÑıÐ²":1401,"ĠÐ¿Ð¾Ð´ÑĥÐ¼":1402,"ĠÑģÐ°Ð¼Ð¾":1403,"ĠÐ¿Ð¾Ð³Ð»ÑıÐ´":1404,"ĠÐĵÑĢÐ¸ÑĨÑĮ":1405,"ĠÐ³ÑĸÑĢ":1406,"Ð½ÑĸÑĪÐµ":1407,"ĠÑıÐºÐ¸Ñħ":1408,"Ð¾ÑĤÐ°":1409,"Ð»ÑĸÐ´":1410,"ĠÐ²Ð¸ÑĤ":1411,"ĠÑģÐ²ÑĸÐ¹":1412,"Ð°ÑĤÐ°":1413,"ĠÑĩÐ°ÑģÐ¾Ð¼":1414,"ĠÐ»ÑİÐ±":1415,"Ð½Ð¸ÐºÑĸÐ²":1416,"Ð¾Ð·Ð¸":1417,"ÑĢÐ¾Ð¼":1418,"Ð»Ð¾ÑģÑĮ":1419,"ĠÐ´ÑĥÐ¶Ðµ":1420,"Ð¼Ð°ÑĢ":1421,"ĠÐŁÑĢÐ¸":1422,"ÑĩÐµÐ½":1423,"ĠÐ´Ð·":1424,"ĠÐ¢Ð¾Ð´Ñĸ":1425,"ÑĢÐ¾Ð±":1426,"ÑīÑĸ":1427,"ĠÐ´Ð¾Ð²Ð³Ð¾":1428,"ĠÑħÐ»Ñĸ":1429,"ĠÑĪÐ¸":1430,"ĠÐľÐ¾Ð¶Ðµ":1431,"Ð¸ÑĤÐ¸ÑģÑı":1432,"ÐºÐ°ÑĶ":1433,"Ð°ÑģÐ¸":1434,"ĠÑģÐºÑĢÐ¸":1435,"ĠÐ¿Ð¾Ðµ":1436,"ÐµÐ¼Ð¾":1437,"ĠÐĴÑĸÐ´":1438,"ĠÑĤÐ°ÐºÑĸ":1439,"ÐµÐ»Ñĸ":1440,"ĠÑĸÐ¼":1441,"ĠÑĩÐ¸Ð¼":1442,"ĠÐ´Ð¸ÑĤÐ¸":1443,"Ð½ÑĥÐ»Ð°ÑģÑı":1444,"ĠÑĤÐ°ÐºÐ°":1445,"ÑģÐ¸ÑĤÑĮ":1446,"ĠÐ·Ð°ÑĢÐ°Ð·":1447,"ĠÐ¥ÑĤÐ¾":1448,"ĠÐ·Ð°Ð»Ð¸":1449,"ĠÐ·Ð´Ð°Ð²":1450,"Ð²Ð¸ÑĩÐ°Ð¹":1451,"ĠÐ¿Ð°Ð»ÑĮ":1452,"ĠÑģÐ¿Ð¾ÐºÑĸÐ¹":1453,"Ð¶Ð¸":1454,"Ð¾Ð½Ñĸ":1455,"ÐºÐ¾Ð²Ñĸ":1456,"Ð½ÑĥÐ²ÑĪÐ¸":1457,"ĠÑģÐ¿ÑĢÐ°Ð²Ð´Ñĸ":1458,"Ð¾Ð»Ð¾Ð¼":1459,"ĠÐ±Ð°ÑĩÐ¸Ð²":1460,"ĠÑģÐºÐ°Ð·Ð°Ð»Ð°":1461,"Ð°ÑĶÑĪ":1462,"ĠÐ±ÐµÑĢÐµ":1463,"ÐµÐ¿":1464,"Ð°Ð±ÑĥÑĤÑĮ":1465,"Ð°ÑĤÑĮ":1466,"Ð»ÑıÐ²":1467,"ĠÑĪÐ»Ñı":1468,"ÑĢÐ°Ð½":1469,"ĠÐ²Ð³":1470,"ĠÐ²Ð¾Ð´Ð¸":1471,"ÑģÑĤÑĥ":1472,"ÑģÑĮÐºÑĥ":1473,"ĠÑģÐºÐ°Ð¶":1474,"ĠÐŁÐµÑĤ":1475,"ĠÑĢÑĸÐ·":1476,"ÐºÑĢÐ°ÑĹ":1477,"ĠÑħÐ¾ÑĤÑĸÐ²":1478,"ĠÐ·ÑĸÑĤ":1479,"ÑĩÐ½Ð¾":1480,"ĠÑĤÐ°ÐºÐ¸":1481,"ÐºÐ¾Ð¼Ñĥ":1482,"ĠÐĳÐ¾":1483,"ÑĸÐ¹ÑĪÐ¾Ð²":1484,"ĠÐ¿ÑĢÐ¸Ð²":1485,"Ð¿Ð°Ð½":1486,"Ð½ÑıÐ²":1487,"ĠÐ´Ð¸Ð²Ð¸Ð²ÑģÑı":1488,"ĠÑĤÐ¾Ð²Ð°ÑĢÐ¸":1489,"ÑģÑĮÐ¾Ð³Ð¾":1490,"ÑĩÐ¸ÑĤÐ¸":1491,"ĠÐ¿ÑĢÐ¾Ð¿":1492,"Ð°ÑĤÐ¸ÑģÑĮ":1493,"ĠÐ½Ð°Ðº":1494,"Ð»Ð¸Ð½":1495,"ĠÐ´Ð²Ð°":1496,"ÑĢÐ¾Ñģ":1497,"ĠÑĨÑĸ":1498,"Ð»Ð¾Ð¼":1499,"ÑĨÑıÐ¼Ð¸":1500,"ĠÑħÐ¾ÑĩÐµ":1501,"ĠÐ´ÑĥÑĢ":1502,"Ð»Ð¸Ð¹":1503,"Ð¼ÐµÑĢ":1504,"ĠÑĥÐ²":1505,"ĠÐ´ÑĸÑĤ":1506,"ĠÐºÐ°Ð¶Ðµ":1507,"ĠÐ·Ð¾Ð»Ð¾ÑĤ":1508,"ĠÐ¿ÑĢÐ¾ÑģÑĤÐ¾":1509,"ÐĽ":1510,"ĠÐ¿ÑĢÐ¾Ð²":1511,"ĠÑĤÑĥÐ´Ð¸":1512,"ĠÑģÑİÐ´Ð¸":1513,"ĠÐ½Ð°ÑĪ":1514,"ĠÐºÑĸÐ»ÑĮÐºÐ°":1515,"ĠÑĤÐ¾Ð½":1516,"ĠÐ½ÐµÑģ":1517,"Ð¾Ð·Ñĸ":1518,"ĠÐ´ÑĸÐ´":1519,"ĠÐ·Ð°Ð²Ð¶Ð´Ð¸":1520,"ÑĶÑĹ":1521,"Ð¾Ð·ÑĥÐ¼":1522,"ĠÐŁÐ¾ÑĤ":1523,"ÑĸÑģÑĤ":1524,"Ð°ÑĶÐ¼":1525,"ÑĩÐµÐ¹":1526,"ĠÑĢÑĸÑĩ":1527,"ĠÐ³ÑĢÑĸ":1528,"ĠÐŁÑĸÐ´":1529,"ĠÐ´Ð²ÐµÑĢÑĸ":1530,"ÐºÑĢÐ¸":1531,"Ð°Ð¹ÑĤÐµ":1532,"ĠÐ³Ð¾ÑģÐ¿":1533,"ĠÑħÑĤÐ¾ÑģÑĮ":1534,"ĠÑĤÑıÐ³":1535,"ĠÐ±Ð°Ð±":1536,"ÑīÐ¸":1537,"ĠÐ¼Ð°ÑĢ":1538,"ĠÐºÐ¾Ð·":1539,"Ð°Ð¼Ð±Ñĥ":1540,"ĠÐ½ÐµÑģÐ¿":1541,"Ð°ÑĢÑĸÐ²":1542,"ÑĮÐ¾Ð³":1543,"Ð¾Ð²Ð°Ð½":1544,"Ð¾Ð»Ñĥ":1545,"ĠÐ¾Ñĩ":1546,"Ð°Ð»Ð¾ÑģÑĮ":1547,"Ð¾ÐºÑĸÐ²":1548,"ĠÑĨÑİ":1549,"ÐµÐ½ÑĤ":1550,"ÑĶÐ¼":1551,"ĠÑĪÐº":1552,"ĠÐ§ÑĸÐ¿ÐºÐ°":1553,"ĠÑĢÐ¾Ð·Ð³":1554,"Ð°ÑİÑĤÑĮÑģÑı":1555,"ĠÑģÐ½Ñĸ":1556,"ĠÐ¼Ð°Ð»Ð¸":1557,"ĠÐ¼ÑĸÐ¹":1558,"ĠÑĨÑĸÑĶ":1559,"ĠÐ¿Ð°Ð¼":1560,"Ð¾Ð²Ð¸Ð¹":1561,"ĠÑģÐ²ÑĸÑĤÑĸ":1562,"ÐĿÐ°":1563,"ĠÐ·ÑĸÑĤÑħ":1564,"Ð¸ÑĤÑĮÑģÑı":1565,"Ð½Ð¾Ð¼":1566,"ÑĸÐ»Ñı":1567,"ĠÑģÐ¸Ð´Ñĸ":1568,"Ð°Ð»Ñĥ":1569,"ĠÑıÐºÐµ":1570,"ĠÐ·Ð°ÑĤ":1571,"ĠÑĪÐ¸ÑĢ":1572,"ĠÑħÐ°ÑĤÑĥ":1573,"ÑĪÐ¸Ð²":1574,"Ð·Ð°":1575,"ÑĮÐ¾Ð³Ð¾Ð´Ð½Ñĸ":1576,"!!":1577,"ĠÐ²ÑģÑı":1578,"ÑıÐ²Ð¸":1579,"ĠÑıÑģ":1580,"ĠÐ¼ÑĸÑģÑı":1581,"ĠÐ¡Ð¿":1582,"ĠÐ¥ÑĸÐ±Ð°":1583,"ĠÐ²Ð¸Ð´Ð½Ð¾":1584,"ĠÐ¼Ð°ÑĤÐµÑĢÑĸ":1585,"ĠÐ³Ð¾Ð»Ð¾Ð²Ð¾Ñİ":1586,"ĠÐ¡Ðº":1587,"ĠÐ±Ð°Ð³Ð°ÑĤÐ¾":1588,"Ð¦":1589,"ĠÐ¿Ð¸Ñģ":1590,"Ð»Ð¾Ð²":1591,"Ð»ÑıÐ½":1592,"ĠÐ´Ð¾Ðº":1593,"ĠÑĨÑĮÐ¾Ð¼Ñĥ":1594,"ÑİÑĤÑĮÑģÑı":1595,"ĠÐºÑĢÐ¾Ð²":1596,"Ð½ÑĶ":1597,"ÑĥÑħ":1598,"ĠÐ»Ð¸Ñħ":1599,"ĠÑħÐ¾Ð´Ð¸":1600,"ĠÐ¿Ð¾Ð½":1601,"ĠÐ½ÑĮÐ¾Ð¼Ñĥ":1602,"ĠÐ¿Ð¾ÑĩÐ°Ð²":1603,"ĠÑĤÑĢÑĥ":1604,"ĠÐ³Ð»Ñı":1605,"Ð¾ÐºÑģ":1606,"Ð¸Ð»Ð¸ÑģÑı":1607,"ĠÑģÐ°Ð¼Ð¾Ð³Ð¾":1608,"ĠÐ·Ð½Ð°Ñİ":1609,"ĠÐ½ÐµÐ¼Ð°ÑĶ":1610,"ĠÑģÑĤÐ¾ÑĢ":1611,"ĠÑģÑĤÐ°ÑĢÐ¸":1612,"ÑĸÐ¹Ð¼":1613,"ĠÐ¿ÑĢÐ¾ÑģÑĤ":1614,"ĠÐĶÐ¾":1615,"ÑĶÑİ":1616,"ÑĥÐ´ÑĮ":1617,"ĠÐ±ÑĸÐ³":1618,"ĠÐºÐ¾Ð¼Ñĥ":1619,"ĠÐ¾ÑģÑĤÐ°Ð½":1620,"Ð°Ð»Ñİ":1621,"ÑĪÐºÐ°":1622,"ĠÑĩÐ°":1623,"ĠÑĢÐ¾Ð·Ð´":1624,"ĠÑģÐ²Ð¾ÑĶÑĹ":1625,"Ð±ÑĸÐ»ÑĮ":1626,"Ð¾ÑĢÐ¾":1627,"ÑĸÐ»Ð¸Ð¹":1628,"ĠÐ·Ð³Ð°Ð´":1629,"ĠÐ·Ð¼Ñĸ":1630,"ĠÐ¾Ðº":1631,"ĠÑģÑĥÐ»ÑĤÐ°Ð½Ð°":1632,"ĠÐ¼Ð¾ÑĹ":1633,"Ð¸Ð»Ð°ÑģÑı":1634,"ĠÐºÑĢÑĥ":1635,"Ð°ÑĢÑĸ":1636,"ĠÐĴÑģÐµ":1637,"ĠÐ¡ÑĥÐ»ÐµÐ¹Ð¼Ð°Ð½":1638,"ÑĸÐ±":1639,"Ð¼Ð°ÑĤ":1640,"ÑĪÐºÐ¸":1641,"ĠÑĥÐ´":1642,"ĠÐ½Ð¾Ñģ":1643,"ĠÐºÑĢÐ°":1644,"ĠÑģÑĤÐ°Ð»Ð¾":1645,"ĠÑħÐ°ÑĤÑĸ":1646,"ÑĥÑģÑĤÑĢÑĸ":1647,"ĠÐ³Ð»Ð¸Ð±":1648,"ĠÐºÑĢÑĸÐ·ÑĮ":1649,"ĠÐ¾ÑĢ":1650,"Ð°Ð·Ñı":1651,"Ð°Ð¹Ð´Ñĥ":1652,"ÑĹÑħ":1653,"ĠÐ¿ÑĢÐ¸Ðº":1654,"ĠÐ¿Ð¾Ð´Ð¸Ð²":1655,"ĠÑģÐ»ÑĮ":1656,"Ð¾Ð´Ð¶":1657,"ĠÐ¼Ð°Ð¹Ð¶Ðµ":1658,"Ð¾Ð»Ñı":1659,"ĠÑĢÐ¾Ð·Ð¼":1660,"ĠÐ²ÐµÑģÑĮ":1661,"ĠÑĢÑĥÐºÐ°Ð¼Ð¸":1662,"ĠÐ¿Ð¾Ð²ÑĸÑĤ":1663,"ÐĴÑĸÐ½":1664,"ĠÑĤÑĢÐ°Ð²":1665,"Ð°ÑĢÑı":1666,"ĠÐ¿ÑĢÐ¾Ð±":1667,"ÑĩÐºÐ°":1668,"Ð¾ÑģÑĤÐ¸":1669,"Ð°Ð»ÐµÐ¶":1670,"ĠÐ²Ð¸Ð²":1671,"Ð°Ð½ÐºÑĥ":1672,"Ð½Ð¸Ð·":1673,"Ð¾Ð´Ð¸Ð²":1674,"ÐºÐ¾Ð»Ð°":1675,"Ð²Ð°ÑĢ":1676,"ĠÐ¿ÑĢÐ¸Ð¿":1677,"ĠÑĤÐµÐ¿":1678,"ĠÑģÐ°Ð¼Ñĸ":1679,"ĠÐ²ÑĢ":1680,"ĠÐ´Ð²Ñĸ":1681,"ĠÐ¼Ð°Ð»Ð¾":1682,"ĠÐ¢ÑĸÐ»ÑĮÐºÐ¸":1683,"Ð¾ÐºÑģÐ¾Ð»":1684,"Ð»Ð°Ð¼":1685,"ĠÐ²ÑĸÐ´Ð´":1686,"ĠÐŀÑģÑĮ":1687,"ĠÐ½ÐµÐ±Ð¾":1688,"ĠÐ»ÐµÐ´":1689,"Ð²Ð°Ð²":1690,"Ð»Ð¸Ðº":1691,"ÑĹÐ²":1692,"Ð»Ð¸Ð²Ñĸ":1693,"ĠÐ²Ð°ÑĢ":1694,"ÑĩÐ°Ñģ":1695,"ĠÐ°Ð±Ð¸":1696,"ÑĤÑĢÐ°":1697,"ÑĩÐ¸Ð»Ð°":1698,"ĠÐ©Ðµ":1699,"Ð°Ð´ÑĨÑı":1700,"Ð°ÑģÑĤÑı":1701,"ĠÐ¿Ð¾ÑģÑĤÐ°Ð²":1702,"ĠÐ½ÑĸÑı":1703,"ĠÐ½Ð¾ÑĩÑĸ":1704,"Ð·Ð½Ð°":1705,"ĠÑģÐ¿Ð¸":1706,"ĠÑģÐ²ÑĸÑĤÑĥ":1707,"ĠÐ´ÑĥÐ¼Ð°Ð²":1708,"ĠÐ±Ð°ÑĢ":1709,"ĠÐ¢Ð°Ð¼":1710,"ĠÐ·Ð°Ð¿Ð¸ÑĤ":1711,"ĠÐ´Ð¸Ð¼":1712,"ĠÑħÑĸÐ±Ð°":1713,"ÑģÐºÑĥ":1714,"ÑĩÐºÐ¸":1715,"ĠÐ¿ÑĢÐ¾ÑĤ":1716,"ĠÐ¿Ð¾ÐºÐ°Ð·":1717,"ĠÐ´ÑĥÑĪÑĥ":1718,"ĠÐ¿Ð¾Ð±Ð°ÑĩÐ¸Ð²":1719,"ĠÑĨÑı":1720,"ÑĤÐ¸Ð²":1721,"ĠÐ³Ð¾Ð´Ð¸":1722,"ĠÑħÐ°Ð¹":1723,"ĠÐ¡ÑĤÐµ":1724,"ĠÐ¾Ð´Ð½Ð°":1725,"Ð´Ð¾Ð²":1726,"ĠÐ¼Ð°Ð±ÑĥÑĤÑĮ":1727,"Ð°ÑĢÐ°":1728,"Ð©":1729,"Ð¾ÑģÐº":1730,"ĠÑĥÑģÑĸÑħ":1731,"ÐµÐ³":1732,"Ð³Ð°Ð½":1733,"ĠÐ§Ð¾Ð³Ð¾":1734,"ĠÐ¼Ð°Ð»Ð°":1735,"Ð¾Ð±Ð¸":1736,"ĠÑĢÑĥÐºÐ¾Ñİ":1737,"ÑĸÐ½Ð¸":1738,"ĠÑĪÑĥ":1739,"ĠÐºÐ½Ð¸":1740,"Ð¾ÑĢÐ¾Ð¼":1741,"ÑĸÐ½Ð°":1742,"ĠÐĳÐ°":1743,"ÑĸÐ´Ð¾Ð¼":1744,"Ð´Ð¶":1745,"ĠÐ¼Ð°":1746,"ĠÐ¿Ð¾ÑģÑĤ":1747,"ĠÐŁÑĢÑĸ":1748,"ĠÐ¿ÑĢÐ°":1749,"ĠÑģÐ¸Ð´ÑĸÐ²":1750,"ĠÐ·ÑĥÐ¿":1751,"ĠÐºÐ¾ÑĢÐ¸":1752,"Ð½ÑĥÐ»Ð¾":1753,"ĠÑĩÑĥÐ¶":1754,"ÑĪÐ¸Ð¼":1755,"ĠÐ´ÐµÑĢÐ¶":1756,"ĠÐ¿ÑĢÐ¾Ð¹":1757,"ĠÑģÑĤÑĢÑĥ":1758,"Ð°ÑħÑĥ":1759,"ĠÐļÐ¾Ð»":1760,"ÑĸÐ´Ðµ":1761,"ĠÐºÑĢÐ°Ñģ":1762,"ÑĢÐ°Ð´":1763,"ÑĩÐºÑĥ":1764,"Ð¾ÑĤÑĸÐ²":1765,"Ð¿ÑĥÑģÑĤÐ¸":1766,"ĠÐ¶ÑĸÐ½ÐºÐ°":1767,"ĠÐ²Ð¸Ð±":1768,"ĠÐ°ÑĢ":1769,"ĠÐ¢ÐµÐ¿ÐµÑĢ":1770,"Ð»ÑĸÐ¿":1771,"Ð¿ÑĸÐ²":1772,"ĠÐ³Ð¾ÑģÑĤ":1773,"ÑĸÐ»Ñĸ":1774,"ĠÐ¿ÑĢÐ¾Ð´":1775,"Ð»ÑıÑĩÐ¸":1776,"ĠÑģÑĮÐ¾Ð³Ð¾Ð´Ð½Ñĸ":1777,"ÑĩÐ°Ð»ÑĮ":1778,"ÑĸÐºÐ°Ð²":1779,"ÐĿÐµ":1780,"Ð»ÑĸÑĤ":1781,"ĠÐ±Ð¾Ð¶Ðµ":1782,"ĠÐºÑĸÐ¼":1783,"Ð°ÑĤÑĥ":1784,"ĠÑĤÐ¸ÑģÑı":1785,"ĠÑīÐ°ÑģÑĤÑı":1786,"ĠÑıÐºÐ¾ÑĹ":1787,"ĠÑĥÐ·":1788,"ÐºÐ°ÑİÑĩÐ¸":1789,"ĠÐ±Ð»Ð°Ð³":1790,"ĠÑĤÐ°ÐºÐ¾Ð³Ð¾":1791,"ĠÐ·ÐµÐ¼Ð»Ñı":1792,"ÑĢÐ°Ð·Ñĥ":1793,"ÑĤÐ¸Ñħ":1794,"ĠÐ³Ð¾Ð»Ð¾Ð²Ð¸":1795,"ĠÑıÐºÐ¾ÑģÑĮ":1796,"Ð°ÑĤÑĸ":1797,"ÑĤÑİ":1798,"Ð¾ÑĢÐ¾Ð²":1799,"ĠÐ·Ð°Ð·":1800,"ÑģÐ¸Ð¿":1801,"...\"":1802,"ĠÐ·Ð°Ð»ÑĸÐ·":1803,"ĠÑĨÑĸÑĶÑĹ":1804,"ĠÐ½ÑĸÐ¹":1805,"ĠÑĸÑģÑĤ":1806,"ĠÑħÐ°Ð·Ñı":1807,"ÐµÑĢÐº":1808,"ĠÐĿÐ°Ð²":1809,"ĠÐ¿Ð°":1810,"ÐµÑĢÐ´":1811,"ĠÐ½ÐµÐ¼Ð¾Ð²":1812,"ĠÐ´ÑĥÑħ":1813,"ĠÐ´Ð°Ð²Ð½Ð¾":1814,"Ð¾ÑĦ":1815,"Ð»Ð°Ðº":1816,"ĠÐ½Ð¾Ð³":1817,"Ð»ÑıÐº":1818,"ĠÐļÐ¸":1819,"ĠÐ¿Ð°Ð¿":1820,"ĠÐŁÐ¾ÑĤÑĸÐ¼":1821,"ĠÐ½ÐµÐ¼Ð°":1822,"ĠÐ±ÑĥÑĢ":1823,"ÑĤÐ°ÐºÐ¸":1824,"ĠÐ´ÑĢÑĥÐ³Ð¸Ð¹":1825,"ĠÐ¼ÑĸÑģÑĨÐµ":1826,"ÐºÐ¾Ð½":1827,"ĠÐ²ÑĸÑĩ":1828,"ĠÑģÑĤÐ°Ð½":1829,"Ð°ÑĦ":1830,"ÐºÐ½ÑĥÐ»Ð°":1831,"ĠÐ´Ð¾Ð¼":1832,"Ð»ÑıÑĤÑĮ":1833,"ĠÑĨÐ¸":1834,"ĠÐľÐ°Ð»ÑĮ":1835,"ĠÐ¿Ð¾ÑĩÑĥÐ²":1836,"ÑĥÑĩ":1837,"ĠÑģÐ¾Ð½ÑĨÐµ":1838,"ĠÑģÑĤÐ¾ÑĹ":1839,"ÑĢÐµÑĪÑĤÑĸ":1840,"ÑĸÑİ":1841,"Ð°Ð»Ð¸Ð²":1842,"Ð°Ð½ÑĤ":1843,"ĠÐ²ÑĸÐ´Ð¿Ð¾Ð²ÑĸÐ´":1844,"ĠÐ¿ÐµÐ²":1845,"ĠÐ¼Ð¾ÑĶ":1846,"ÑĶÑĪ":1847,"ĠÑĩÑĥÐ´":1848,"ĠÑģÐ²Ð¾ÑĹÐ¼Ð¸":1849,".âĢĶ":1850,"Ð¶ÑĩÐµ":1851,"ÑĨÑĸÑı":1852,"Ð³Ð¾":1853,"ÑģÑĮÐºÐµ":1854,"ĠÐŁÑĢ":1855,"ĠÐĲÐ½Ð´ÑĢÑĸÑı":1856,"Ð½Ð°ÑĤÐ¸":1857,"ÑĥÐ±Ð¸":1858,"ĠÐ¾ÑĩÐµÐ¹":1859,"Ð¾ÑĩÐµ":1860,"ÑħÐ¾Ð´Ð¸Ð²":1861,"ĠÐ½ÐµÑĢ":1862,"ÐµÑĢÐ°":1863,"ĠÐ³Ð¾ÑĢÐ¸":1864,"Ð½ÐµÐ½":1865,"ĠÐ¾Ð´ÐºÐ°Ð·":1866,"ĠÐ´ÐµÑģÑı":1867,"Ð»ÐµÐ½Ð¾":1868,"ĠÑĪÐ¸ÑĢÐ¾Ðº":1869,"Òĳ":1870,"ĠÑģÐ¸Ð»Ð¸":1871,"ĠÐ²ÑĸÐ´ÑĩÑĥÐ²":1872,"ĠÐ¼Ð°Ð»ÐµÐ½ÑĮ":1873,"ĠÐķ":1874,"ÑģÐ°":1875,"ĠÑĤÑĸÐ»Ð¾":1876,"ĠÐ±ÑĸÐ´":1877,"Ð½Ð¸ÑĨÑı":1878,"ĠÐ²ÐµÐ»Ð¸Ñĩ":1879,"ĠÐ¿ÑĢÐ¾Ð¼Ð¾Ð²":1880,"ĠÐºÑĥÑĤ":1881,"Ð¾ÑĩÐºÐ¸":1882,"Ð²Ð°Ð»Ð¸":1883,"ĠÐ±ÑĢÐ¸":1884,"Ð°Ð²ÑĪÐ¸":1885,"ĠÐ¶Ð¸ÑĤÐ¸":1886,"ĠÐ´Ð½Ñı":1887,"ĠÐ¼Ð¾Ñı":1888,"Ð¶Ð¸Ð²":1889,"ÑĸÐ»Ð»Ñı":1890,"ĠÐ²ÐµÑģ":1891,"Ð½Ð¾ÑĩÑĸ":1892,"Ð¿ÑĸÐ´":1893,"ĠÑģÑĤÑĥÐ¿":1894,"ÐĲÐ»Ðµ":1895,"ĠÑıÐºÐ¸Ð¹ÑģÑĮ":1896,"ĠÐ¯Ð²":1897,"ĠÐ´Ð¾Ð´Ð¾Ð¼Ñĥ":1898,"ĠÑĤÑİÑĢ":1899,"ĠÐ·Ð´Ð¸Ð²":1900,"Ð²ÑĸÐ²":1901,"ÐµÑĢÐµÐ´Ð¸":1902,"ĠÑģÐ°Ð´":1903,"ÐµÐ»":1904,"Ð½Ð°Ð¹":1905,"ĠÐ½Ð°Ð·Ð°Ð´":1906,"ĠÑĢÑĸÐ²":1907,"ĠÑıÐ½Ð¸Ñĩ":1908,"Ð»ÐµÐ½Ñĸ":1909,"ĠÐ²Ð°":1910,"ĠÐ¿Ð°Ð´":1911,"Ð°ÐºÐ°":1912,"ĠÐ¶Ð°ÑĢ":1913,"ĠÐłÐ¾ÐºÑģÐ¾Ð»":1914,"ĠÐ»ÑİÐ´Ð¸Ð½Ð°":1915,"ĠÐ¿Ð¾Ð²Ñĸ":1916,"ĠÑģÐºÐ°Ð·Ð°ÑĤÐ¸":1917,"ÑĤÑĢÐ¸":1918,"ÑħÐ¾Ð´Ð¸ÑĤÑĮ":1919,"ĠÑĪÐ»ÑıÑħ":1920,"ĠÐ¿ÐµÑĢÐµÐ¿":1921,"Ð¸ÑĤÐ¾":1922,"Ð»ÑĮÐ½Ð¾":1923,"ÐµÑĢÑĥ":1924,"ĠÑĨÑĸÐ¹":1925,"ĠÐ¡Ð°Ð¼":1926,"ĠÑĤÑĢÐµÐ¼":1927,"Ð°Ð²Ð¸Ð»Ð¾Ð½":1928,"ÑĸÐ»ÑĮÐ½Ð¾":1929,"ĠÐ¡ÑĤÐ°Ð¼Ð±Ñĥ":1930,"ĠÐ¼Ð¾Ð³Ð»Ð°":1931,"ĠÑģÐ¿Ð¸ÑĤÐ°Ð²":1932,"Ð°ÑģÑĤÐ¸":1933,"ÐµÐ½ÑĮÐºÐ¾":1934,"ÑĨÐµÑİ":1935,"ĠÐ¼Ð¸ÑĤÑĮ":1936,"ĠÐĽÐ¸":1937,"ĠÑĢÐ¾Ð±Ð¸ÑĤÐ¸":1938,"ĠÐºÑĢÑĥÐ³":1939,"ĠÐ¶Ð¾Ð´":1940,"ĠÑģÐ»Ð¾Ð²":1941,"ĠÐ¿ÑĸÐ·":1942,"ĠÑĤÐ¾Ð±":1943,"ĠÐ²Ðº":1944,"ÑĢÑĸÐ¼":1945,"ĠÑģÐ¼ÐµÑĢÑĤÑĮ":1946,"ĠÑĤÑĢÐ¸Ð²":1947,"ÑĤÐ¸ÑģÑĮ":1948,"ĠÐ·Ð½Ð°ÑĤÐ¸":1949,"ĠÐ½ÐµÐ±":1950,"ÐºÐ¸Ð´":1951,"Ð»ÐµÐ½Ð¸Ð¹":1952,"ÑĥÐ´Ð¸":1953,"Ð½Ð¸ÑĨÑĮ":1954,"Ð¢Ð°Ðº":1955,"ĠÐ²Ð¾Ð´Ñĥ":1956,"ĠÑĩÐ¸ÑĤ":1957,"Ð¾Ð»Ð¾Ñģ":1958,"ĠÑĥÑģÑĸÐ¼":1959,"ĠÐ²Ð¸Ð¼":1960,"ĠÑģÑĤÐ°Ð»Ð°":1961,"Ð½ÑĮÐ¾ÑĹ":1962,"ĠÐ²ÑģÑİ":1963,"ĠÐ°Ð½Ñĸ":1964,"ĠÐ¥Ð¾Ñĩ":1965,"ĠÐ²Ð»Ð°Ð´":1966,"ĠÑħÑĢÐµ":1967,"ĠÐ²ÐµÐ»Ð¸ÐºÐ¸Ð¹":1968,"ĠÐ±Ð°ÑĤÑĮÐºÐ¾":1969,"ĠÑĢÐ¾ÐºÑĸÐ²":1970,"Ñĭ":1971,"Ð¾ÑĢÐ¾Ð½":1972,"ĠÐ¼Ð¾Ð²ÑĩÐºÐ¸":1973,"ĠÐ³ÑĢÐ¾ÑĪÑĸ":1974,"ĠÐĵÐ°Ð»Ñı":1975,"ÑģÑĮÐºÐ¾Ð¼Ñĥ":1976,"ĠÐ½Ð°ÑģÑĤ":1977,"ÑĨÑĸÐ¹":1978,"ĠÑģÑĤÑĸÐ½":1979,"ĠÐ¿ÑĢÐ¸Ð±":1980,"ĠÐ¼ÐµÑĤ":1981,"ÑĪÐº":1982,"ÑģÑĸÐ´":1983,"ÑıÐ¼Ð¸":1984,"ĠÑĨÐ¸Ñħ":1985,"Ð°Ð³Ð¸":1986,"ĠÐŁÐ¾":1987,"ĠÐ²Ð¾Ð·":1988,"ĠÐ²ÑģÑĮÐ¾Ð³Ð¾":1989,"ĠÑģÐºÑĸÐ»ÑĮÐºÐ¸":1990,"ĠÑħÐ»ÑĸÐ±":1991,"ĠÐľÐ°ÑĢÐ¸":1992,"ĠÐĻÐ¾Ð³Ð¾":1993,"ĠÑıÐºÐ¸Ð¼":1994,"ĠÑĩÑĥÐ²":1995,"ĠÑĨÐ¸Ð¼":1996,"Ð¼Ð¸ÑĢ":1997,"ĠÐ·Ð´Ð°ÑĶÑĤÑĮÑģÑı":1998,"Ð»ÐµÐ½Ð°":1999,"ĠÑģÑĤÐ¾ÑĹÑĤÑĮ":2000,"ĠÑĤÐ°Ð½":2001,"ÑĪÐ»Ð¾":2002,"ĠÑĸÐ´Ðµ":2003,"ĠÐ¿Ð¾Ð²ÐµÑĢÑĤ":2004,"ĠÐ¿Ð¾Ð¶":2005,"ĠÐºÐ°Ð¿":2006,"ĠÐ¢ÑĥÑĤ":2007,"ĠÐĶÐ¾Ð²":2008,"ĠÐ¿ÐµÑĢÐµÐ¼":2009,"ĠÐłÐ¾Ð·":2010,"ĠÑģÐ»ÑĥÐ¶":2011,"ĠÐ²Ð°ÑĪ":2012,"ĠÑıÐºÐ¾Ð¼Ñĥ":2013,"ĠÐ²Ð¾Ð»Ð¾Ñģ":2014,"ĠÐ¾ÑĩÐ°Ñħ":2015,"ĠÐ³Ð»Ð¸Ð±Ð¾Ðº":2016,"ÑĥÐ²Ð°Ð»Ð¾":2017,"ĠÐ¿Ð¾ÑĢÐ¾Ð¶":2018,"ĠÐĵÑĢÐ¸ÑĨÑĮÐºÐ¾":2019,"ĠÑģÑĤÐ°ÑĢÐ¸Ð¹":2020,"ĠÐ´ÑĢ":2021,"ĠÐºÐ²ÑĸÑĤ":2022,"ĠÑģÐ²Ñı":2023,"Ð´Ð¸ÑĤÑĮ":2024,"ĠÑĢÐµÐ²":2025,"ĠÐ¼ÑĸÑģÑĨÑı":2026,"ĠÑĪÐ²Ð¸Ð´ÐºÐ¾":2027,"ĠÐ½ÐµÑģÐ¿Ð¾Ð´ÑĸÐ²":2028,"ÑĢÐ°Ñģ":2029,"Ð²Ð°ÑĤÐ¸":2030,"ÐºÑģ":2031,"ĠÐ´Ð¸Ñħ":2032,"Ð»Ð¸Ð²Ð¸Ð¹":2033,"Ð¿Ð¾Ð²ÑĸÐ²":2034,"ĠÐ¾Ñħ":2035,"ĠÐ´Ð½Ñĸ":2036,"ĠÐ±ÑĸÐº":2037,"Ð°ÑĢÐ±":2038,"Ð°Ð³Ð°":2039,"ĠÐľÑĥ":2040,"ĠÐ½Ð°Ð¹Ð±ÑĸÐ»ÑĮ":2041,"ĠÐ³ÑĢÐ¾Ð¼":2042,"ÑĮÐ¼Ð¸":2043,"ÑīÑĥ":2044,"ÑıÐ»Ð°":2045,"ĠÑıÐºÑīÐ¾":2046,"ĠÑģÑĤÐ¾ÑıÐ»Ð°":2047,"ÑĸÑħ":2048,"Ð´Ñı":2049,"Ð¾ÑĩÐºÑĥ":2050,"ÑĸÑģÐ½Ð¸Ðº":2051,"ĠÐºÑĥÑĢ":2052,"Ð½ÐµÑģ":2053,"ĠÑĢÑĥÐºÐ°Ñħ":2054,"ĠÑĩÐ¾Ð»Ð¾Ð²ÑĸÐºÐ°":2055,"ÑĤÐ¾Ñİ":2056,"Ð¾Ð±ÑĸÐ³":2057,"ÑĶÐ²":2058,"ĠÑĩÐµÑĢÐµ":2059,"ĠÐ²ÑĸÐ´Ð¿":2060,"ĠÑĢÑĥÐº":2061,"ĠÐ²ÐµÐ»Ð¸ÐºÐ¾Ð³Ð¾":2062,"ĠÑĩÐ°ÑģÑĥ":2063,"ĠÐ¾ÑĤÐ°Ðº":2064,"ĠÐ´Ð¾ÑģÑĸ":2065,"ÐĲÐ½Ð´":2066,"ĠÐ¶ÑĸÐ½ÐºÐ¸":2067,"ÑĥÑĤÐ¸":2068,"ĠÐ²Ð°Ð»":2069,"Ð¾Ð²Ð¸Ñħ":2070,"ĠÐ»Ñĥ":2071,"),":2072,"Ð²Ð¾Ð»":2073,"ĠÐ·Ð¾ÑģÑĤ":2074,"Ð¾Ð²Ð¾Ð³Ð¾":2075,"ÑģÑĤÐ²":2076,"ĠÐ¾Ð´Ð½Ñĥ":2077,"ĠÐĶÐ¸Ð²":2078,"ĠÑģÑı":2079,"ĠÐ´Ð°ÑĢ":2080,"ĠÐºÐ¾Ð¿":2081,"Ð°Ð½Ð¸Ñħ":2082,"Ð¸Ð¼Ð¾":2083,"ĠÐ½Ð°ÑĢÐ¾Ð´":2084,"ĠÐ¿Ð°Ñģ":2085,"ĠÑĢÐ¾Ð·Ð±":2086,"ĠÑĢÐ°Ð±":2087,"Ð¿ÐµÑĢÑĪÐµ":2088,"Ð»ÐµÐ½Ð½Ñı":2089,"ĠÑĨÑĸÐºÐ°Ð²":2090,"ĠÑģÐºÐ»Ð°Ð´":2091,"ĠÑģÑĤÐ°ÑĢÐ°":2092,"ÑıÐ»Ð¸":2093,"âĢĵ":2094,"ÑģÑĤÐ¾Ðº":2095,"ĠÑĤÐ°ÐºÐ¸Ñħ":2096,"ĠÐ²Ð¸Ð¿Ð°Ð´":2097,"ÑĥÑģÑĤÐ¸":2098,"ĠÐ²ÑĤÑĸ":2099,"ĠÐ±Ð°Ð¶":2100,"Ð»ÐµÑĤ":2101,"ĠÐ´ÑĥÐ¼ÐºÐ¸":2102,"ÑģÑĮÐºÐ¸Ð¼":2103,"ĠÐ¶Ð¾Ð²":2104,"Ð»ÑĸÐ·":2105,"ĠÐ³ÑĢÑĥÐ´":2106,"ĠÐ±Ð¾Ð³":2107,"ĠÐ¼ÐµÑĢ":2108,"ĠÐ½Ð°ÑĢÐµÑĪÑĤÑĸ":2109,"ĠÐ½Ð°Ð¼Ð°Ð³":2110,"ĠÑĪÐµÐ¿":2111,"ĠÐ´ÐµÑĢÐµÐ²":2112,"ÑĪÐºÑĥ":2113,"ĠÐ½ÐµÐ²Ðµ":2114,"ĠÐ´ÑĥÑĪÐ°":2115,"ĠÐ·Ð²Ðµ":2116,"ĠÐ·ÑĢÐ¾Ð·ÑĥÐ¼":2117,"ÑĩÐµÐ¼":2118,"ĠÑĢÑĸ":2119,"ÑĩÐ¸Ð»Ð¸":2120,"Ð¾Ð±Ð°":2121,"ĠÑħÐ¸ÑĤ":2122,"ĠÐ²Ð¸ÑĢÑĸ":2123,"ÑĢÐµÑģ":2124,"ĠÐ¿Ð°Ð»Ð°":2125,"ÑĩÐ¸Ð¼":2126,"ÐµÑĢÐµÐ¶":2127,"ĠÑģÐ¸Ð½Ð°":2128,"ĠÐ½Ð°Ð»ÐµÐ¶":2129,"Ð´Ð¸Ð²":2130,"ĠÐ±Ð°Ð¹Ð´Ñĥ":2131,"ĠÐ´Ð¾Ð±ÑĢ":2132,"ĠÑģÑĥÐ¿":2133,"ĠÐ°Ð²":2134,"ÑĸÑģÐ½Ð¾":2135,"ĠÐ¡ÑĤÐµÐ¿Ð°Ð½":2136,"ÑħÐ¼Ðµ":2137,"ĠÐĩ":2138,"ĠÐ³Ð¾ÑĤ":2139,"ĠÑģÐ»Ð¾Ð²Ð¾":2140,"ÐµÑĢÐ³":2141,"ĠÐ¼ÐµÑĢÑĤ":2142,"Ð¸ÑĤÑĥ":2143,"ÑĢÐ°Ð²ÑģÑı":2144,"ĠÑħÐ²Ð¸Ð»Ð¸":2145,"Ð»Ð°Ð½":2146,"ĠÐ²ÑĤ":2147,"Ð½Ð¸ÑĨÑİ":2148,"Ð½Ð°Ñħ":2149,"ĠÐĳÐ¾Ð³":2150,"ĠÐ·Ð½Ð¾Ð²":2151,"Ð»Ð¸Ð¼":2152,"Ð°Ð´Ðµ":2153,"Ð°Ð³Ñĥ":2154,"ĠÐĶÐ¾Ð±":2155,"ĠÑĸÐ½ÑĪÐ¸Ñħ":2156,"ĠÑĶÐ´Ð¸":2157,"ĠÐ·ÐµÐ»Ðµ":2158,"ĠÐ¹Ð´Ðµ":2159,"Ð¼ÐµÐ¶":2160,"ĠÐ±ÐµÐ·Ð¿":2161,"ĠÐ´ÑĸÐ¹":2162,"ĠÐ´ÑĸÐ²Ñĩ":2163,"ĠÐ¯Ð²ÑĤÑĥ":2164,"Ð·Ñĸ":2165,"ÑģÐ¸Ð²":2166,"Ð´Ð¶Ðµ":2167,"ĠÐ´Ð¾Ñģ":2168,"ĠÐ¾Ð´Ð½Ð¾":2169,"ĠÑģÐµÑĢÑĨÑı":2170,"Ð°Ð½ÑĮÐºÐ¾":2171,"ĠÐ¿ÑĸÐ´Ð¿":2172,"ĠÐ´ÑĢÑĸÐ±":2173,"ĠÐ¹ÑĤÐ¸":2174,"Ð¾ÑĢÐ¾Ð¶":2175,"ĠÐļÐ°ÑĢ":2176,"ÑĥÑĢÑĢÐµÐ¼":2177,"ĠÑģÐ²Ð¾ÑĹÐ¹":2178,"Ġ1":2179,"ĠÑģÑĸ":2180,"ĠÑģÐ¾Ð»":2181,"ĠÐ·Ð²Ð¸":2182,"ĠÑĤÑĢÑĸ":2183,"ĠÐ²ÑģÑĸÐ¼":2184,"ĠÐ·ÑĢÐ°Ð·Ñĥ":2185,"ĠÐ³ÑĢÑĥÐ´Ð¸":2186,"ĠÐ±ÑĢÑĥ":2187,"ĠÑĥÐ³":2188,"ĠÑĨÐ°ÑĢ":2189,"ÑĤÐ°Ð²":2190,"ĠÐ¿ÑĢÐ¾Ð³":2191,"ĠÐ»ÑİÐ±Ð¸":2192,"ĠÐ¥Ð°Ð¹":2193,"ĠÐ³Ð¾Ð»Ð¾Ð²Ð°":2194,"Ð»ÑıÑĩÐ¸ÑģÑĮ":2195,"ĠÐºÑĢÐ¸Ð²":2196,"ĠÐ³ÑĥÑĢ":2197,"ĠÐ·Ð²ÐµÑĢ":2198,"ĠÑģÐ²Ð¾ÑĶÑİ":2199,"ĠÐ¿ÑĢÐ¸Ð¹ÑĪÐ¾Ð²":2200,"ĠÐ³Ð¾ÑģÐ¿Ð¾Ð´":2201,"Ð»Ð°Ñħ":2202,"ĠÐ½ÑĸÐ³":2203,"ĠÐ¥Ð»Ð¾Ð¿":2204,"ĠÑĢÑĥÑħ":2205,"ĠÒĳ":2206,"ĠÐ·Ð±Ð¸ÑĢ":2207,"ĠÐ´Ð¾Ð³":2208,"Ð¾Ð¼Ð°Ð½":2209,"ĠÐ¼Ð°ÑĪÐ¸":2210,"ĠÐ·ÑĥÐ¿Ð¸Ð½Ð¸":2211,"ĠÑĤÑĥÑĢ":2212,"ĠÐ»Ð°Ñģ":2213,"ĠÐ±Ð°ÑĤÑĮÐºÐ°":2214,"ÑĩÐ°Ð»Ð¸":2215,"ÑĪÑģÑı":2216,"ÑĶÐ²Ñĸ":2217,"Ð»ÑıÑĶ":2218,"Ð²ÐµÑĩ":2219,"ĠÐ½Ð°ÑĩÐ°Ð»ÑĮ":2220,"Ð¾Ð´Ð¾Ð¼":2221,"Ð»ÐµÑİ":2222,"ĠÐ·Ð²Ð¸ÑĩÐ°Ð¹":2223,"Ð¸ÑĤÐµ":2224,"ĠÐ¿Ð¾ÑģÐ¿":2225,"ĠÑĤÑĸÑĶÑĹ":2226,"ĠÐ·Ð½Ð°Ð¹Ð¾Ð¼":2227,"ĠÑģÐºÐ¾":2228,"ĠÑĤÑĸÐ¹":2229,"ÑĨÐµÐ½":2230,"ĠÐ²Ð¸Ñħ":2231,"ÑĢÐµÑĤ":2232,"ÑĢÐ¾ÑģÑĤ":2233,"ĠÐ¼ÑĸÑĨ":2234,"ĠÐ·Ð°ÑģÐ¼Ñĸ":2235,"ĠÐ¿Ð°Ñħ":2236,"ĠÑĤÐ°ÑĶÐ¼":2237,"ÐµÑĢÑĸÐ³":2238,"ĠÑĢÐ¾Ñģ":2239,"Ð¶Ð°":2240,"ĠÐ±ÑĸÐ»Ð¸":2241,"ĠÐ½ÐµÐ±Ð°":2242,"ÑĨÑĤ":2243,"Ð°Ð¼Ð¾Ð²":2244,"ĠÐ¾Ð´Ð½Ðµ":2245,"ĠÐ¿Ð¾Ð¼ÑĸÑĩ":2246,"ÑģÐ½ÑĥÐ²":2247,"ÐµÐ½Ð¾Ð³Ð¾":2248,"ĠÐ³Ð¾Ð»Ð¾Ð²Ñĸ":2249,"ĠÐ¾ÑģÐ¾Ð±":2250,"ĠÐ±ÑĥÐ´ÑĮ":2251,"ĠÑģÐ»ÑĮÐ¾Ð·Ð¸":2252,"ÑĥÐ²Ð°Ð»Ð¸ÑģÑı":2253,"ÑĨÑĸÑİ":2254,"ĠÐ¿ÑĸÑĪÐ»Ð°":2255,"ĠÐ¼ÑĸÑģÑĨÑĸ":2256,"Ð³Ð¾ÑĢÑĸÐ¹":2257,"ĠÐ´ÑĸÑĤÐµÐ¹":2258,"ÐĲÐ½Ð´ÑĢÑĸÐ¹":2259,"ÑĢÐ°ÑĤ":2260,"ÑĨÑĸÐ»":2261,"ĠÑĥÑģÐ¼ÑĸÑħ":2262,"Ð°Ð´ÑĨÑıÑĤÑĮ":2263,"ĠÑĢÑıÐ´":2264,"ĠÐĴÐµÐ»Ð¸":2265,"ĠÑģÑĥÑħ":2266,"ĠÐ¿Ð¾ÑĤÑĢÑĸÐ±":2267,"ĠÑģÑĤÑĢÐ°Ñħ":2268,"ĠÐ²ÑĸÑĤÐµÑĢ":2269,"ÑĤÐµÑĢ":2270,"ÐºÐ»Ð°":2271,"ĠÐ¿Ð¾Ð´Ñĸ":2272,"ÑĪÑĤ":2273,"ĠÑģÐ¿Ð¾Ð´ÑĸÐ²":2274,"ĠÐ¾Ð±ÑĢÐ°Ð·":2275,"ÐĴÐ¾Ð½Ð°":2276,"ÐºÐ¾Ð»Ð¾":2277,"ÑĢÐ¾Ð½":2278,"ĠÐ·Ð°Ð½":2279,"Ð»ÑıÐ»Ð¸":2280,"Ð½ÑĥÑĤÑĮ":2281,"ĠÐ¿ÐµÑĢÐµÐ¹":2282,"ÑĢÐ¸ÑĤÐ¸":2283,"Ð¾Ð»Ð¾ÑĤÐ¸":2284,"ĠÐ·Ð°Ð±ÑĥÐ²":2285,"ĠÐ´Ð°Ð»ÐµÐºÐ¾":2286,"ÑĥÑİÑĩÐ¸":2287,"ĠÐ¼Ð°Ñħ":2288,"ĠÐºÐ¾Ð²":2289,"ĠÐ½ÐµÐ¿ÑĢÐ¸":2290,"ĠÐ·ÑĥÑģÑĤÑĢÑĸ":2291,"ÑĤÐ¸ÑĤÑĮ":2292,"ĠÑħÐ¼Ð°ÑĢ":2293,"ĠÐĦÐ»ÑĮ":2294,"ĠÐºÑĢÐ°ÑīÐµ":2295,"ĠÐ»ÐµÐ´Ð²Ðµ":2296,"ĠÐ¾Ð´Ð½Ð°Ðº":2297,"ĠÐ¼Ð¾Ð²Ð±Ð¸":2298,"Ð½Ð°Ð´":2299,"ÐºÐ°Ð½":2300,"ĠÐ´Ð¾Ð·":2301,"ĠÐ³ÑĢÐµ":2302,"ĠÑħÑĥÐ´":2303,"Ð°Ð»ÑĮÐ½Ð¾":2304,"ĠÐ½Ð°Ð²Ñĸ":2305,"ĠÑĢÐµÐ³":2306,"ĠÐºÐ¸Ð´":2307,"ĠÑĢÐ°Ð½":2308,"Ð½ÑĸÑģÑĤÑİ":2309,"ĠÑĪÐ¼Ð°ÑĤ":2310,"Ð¢Ð°":2311,"ĠÐºÐ¾Ð½Ñĸ":2312,"ĠÐ²Ð¸Ð¹ÑĪÐ¾Ð²":2313,"ĠÐ¿Ð°Ð»":2314,"ÐµÐ½Ñĥ":2315,"ĠÐľÐµÐ½Ñĸ":2316,"Ð½ÑĥÐ»Ð°ÑģÑĮ":2317,"ĠÐ¿Ð»Ð°Ðº":2318,"ÑĢÐ¸Ð³":2319,"ĠÐ½Ð°Ð¿Ð¸Ñģ":2320,"ĠÐ¼ÐµÐ½":2321,"ĠÐ´Ð¾ÑģÐ¸ÑĤÑĮ":2322,"ĠÑĦÐ¾ÑĢ":2323,"ÑĤÐ°Ðº":2324,"ĠÐ·Ð½Ðµ":2325,"ĠÐ´ÑĢÑĥÐ¶":2326,"ĠÑģÐ²ÑĸÑĤÐ¸":2327,"ĠÐ²ÐµÑĩÑĸÑĢ":2328,"ÑĩÐ¾Ð³Ð¾":2329,"ĠÐ´ÑĸÐ»Ð¾":2330,"ĠÐ´ÑĸÑĤÐ¸":2331,"ĠÐ²Ð¾Ð´Ð°":2332,"Ð¿Ð¾Ðº":2333,"Ð»ÑıÑĤÐ¸":2334,"ĠÐ¿Ð¾ÑģÐ¼ÑĸÑħ":2335,"ÑģÑĤÑĢÐ°":2336,"Ð½ÑĸÑģ":2337,"ÑĩÐ¸Ð½Ñĥ":2338,"ÐµÑĢÐµÐ¹":2339,"Ð»Ð¾Ñİ":2340,"ĠÐľÐ¾ÑĤ":2341,"ĠÐ¥ÑĥÑĢÑĢÐµÐ¼":2342,"ĠÐºÑĸÐ¼Ð½Ð°":2343,"ĠÐ³Ð°ÑĢÐµÐ¼":2344,"ÑĤÐ°Ñħ":2345,"ĠÐ·ÑĸÑĢ":2346,"ĠÐºÐ¾Ñģ":2347,"ĠÑĤÐ°ÐºÑĥ":2348,"ĠÑĪÐ°Ð¿":2349,"ĠÑģÑĥÑģÑĸÐ´":2350,"Ð½Ð¸ÐºÐ¾Ð¼":2351,"ĠÑħÐ»Ð¾Ð¿ÐµÑĨÑĮ":2352,"ĠÐ¿Ð¾Ð²ÑĸÑĤÑĢÑı":2353,"ÑĢÐµÐ±Ð°":2354,"Ð»Ð¸Ð²Ðµ":2355,"Ð¾Ð²Ð¸Ð»Ð°":2356,"ĠÑģÐ»Ð°Ð²":2357,"Ð¼ÑĥÑĤÑĮ":2358,"ĠÑģÐ¼ÐµÑĢÑĤÑĸ":2359,"ĠÑģÐ¿Ð¾ÐºÑĸÐ¹Ð½Ð¾":2360,"ÑıÐ½Ñĸ":2361,"ĠÐ²ÑĢÐ°Ð·":2362,"ĠÑĥÑģÑĤ":2363,"ĠÑĢÐ¾Ð·Ðº":2364,"ĠÐ¾Ð±ÑĸÐ´":2365,"ĠÐ²ÑĸÐºÐ½Ð°":2366,"Ð¯Ðº":2367,"ÑĦÐ°":2368,"ĠÑģÐ²Ð¾ÑĶÐ¼Ñĥ":2369,"ĠÐ´Ð¾Ð¿Ð¾Ð¼":2370,"ĠÑĤÑĥÐ¼":2371,"ĠÑĩÐ¾ÑĤÐ¸":2372,"ĠÐ¶Ð¾ÑĢ":2373,"ĠÑĸÐ½ÑĪÑĸ":2374,"ĠÐ¿ÐµÑĢÑĪÐ¸Ð¹":2375,"ĠÐºÐ¾Ð½Ñı":2376,"ĠÐ¼Ð¾Ð³Ð»Ð¸":2377,"ĠÐļÐ¾Ð»ÑĸÑģÐ½Ð¸Ðº":2378,"ÑĪÐ¾Ðº":2379,"Ð»Ð¸Ñħ":2380,"ĠÐĿÐ°ÑĤ":2381,"Ð½ÐµÑĤÑĮÑģÑı":2382,"ĠÑģÐ¿ÑĢÐ°Ð²Ð¶":2383,"ĠÑĤÐ¾Ð±Ð¾Ñİ":2384,"Ð²Ð°Ð²ÑģÑı":2385,"ÑĸÑģÐ»Ñı":2386,"ĠÐ¿Ð°Ð½Ð¸":2387,"ÐļÐ¾Ð»Ð¸":2388,"Ð´ÐµÐ½ÑĮ":2389,"ĠÑģÑĤÐ¾ÑıÐ»Ð¸":2390,"ÐµÑİ":2391,"ÑĤÐ¸Ð³":2392,"ĠÐ³Ð°Ð´":2393,"ĠÐ³Ð»ÑĥÑħ":2394,"ĠÐ¿ÑĢÐ°Ð²Ð´Ð°":2395,"ÐµÐ½Ð¸Ð¹":2396,"ĠÐ²ÑĸÐ²":2397,"ĠÑģÐ¼ÑĸÑħ":2398,"ĠÑģÑĤÑĢÑĸ":2399,"Ð»Ð¸Ð²Ð°":2400,"ĠÑģÐ¿Ð¸ÑĤÐ°Ð»Ð°":2401,"ÐºÑĢÐ°ÑĹÐ½":2402,"ĠÐ½Ð¾Ð³Ð°Ð¼Ð¸":2403,"ÑĪÐ½Ð¾":2404,"ĠÐ±Ð¾Ð»":2405,"ĠÐ²Ð¸ÑĢ":2406,"ĠÑģÐ¸Ð»Ñĥ":2407,"ĠÐĽÑİÐ´Ð¸":2408,"ĠÐ¿Ð¾Ð´ÑĥÐ¼Ð°Ð²":2409,"ĠÐ¿Ð»Ñı":2410,"ĠÑīÐ¾Ð´":2411,"ĠÐ¿ÑĢÐ¾Ñħ":2412,"Ð¸ÑĤÐ¸ÑģÑĮ":2413,"ĠÑģÑħÐ¾Ð¿":2414,"ĠÑģÑĥÐ²":2415,"Ð·Ñĥ":2416,"ĠÑĢÑı":2417,"ĠÐ¶Ð°Ñħ":2418,"ĠÐļÐ¸ÑĢÐ¸":2419,"ÑĩÐµÐ½Ð½Ñı":2420,"ĠÐ²ÑĸÐ´Ð¿Ð¾Ð²ÑĸÐ²":2421,"ÑĸÐ»Ð¾ÑģÑı":2422,"Ð½ÑĮÐ¾Ð¼Ñĥ":2423,"ĠÐ·Ð°ÑħÐ¾Ð¿":2424,"ĠÐ´Ñĸ":2425,"ĠÑĨÑĸÐ»Ð¸Ð¹":2426,"ĠÐºÑĥÑħ":2427,"ĠÐ·Ð°Ð±Ñĥ":2428,"ĠÐºÐ¾ÑĢÐ¾ÑĤ":2429,"ĠÑģÑĸÑĢ":2430,"ĠÐ´ÑĸÐ²ÑĩÐ¸Ð½Ð°":2431,"ĠÐ¼Ð°ÑĤÑĸÑĢ":2432,"ĠÐ²Ð¾Ð»Ð¾ÑģÑģÑı":2433,"ÑĸÐ½Ñĸ":2434,"ÑıÐ»Ð°ÑģÑı":2435,"ĠÑģÐ¾ÑĤ":2436,"ĠÐ¼Ð°Ð¼":2437,"ĠÑĢÐ¾Ð´Ð¸":2438,"ĠÑħÐ°Ð½":2439,"ĠÐºÐ¾Ð¶ÐµÐ½":2440,"ĠÐ¿ÑĢÐ¾Ð¼Ð¾Ð²Ð¸Ð²":2441,"ÑĢÐ¾Ð¿":2442,"ÑĢÐµÐ¹":2443,"ÑģÑĮÐºÑĸÐ¹":2444,"ÑĤÑĸÐ¹":2445,"ÑĮÐ¾Ñħ":2446,"Ð³Ð°ÑĢ":2447,"ĠÑħÑĥÑĤ":2448,"ĠÑģÑĤÑĸÐ½Ð¸":2449,"ĠÐĿÐ°Ð´":2450,"ÑģÑĤÑıÐ³":2451,"ÑĥÑĶÑĤÑĮÑģÑı":2452,"Ð¾Ð²Ð°Ð½Ð¾":2453,"ĠÑĨÐµÑĢÐº":2454,"ĠÐĹÐ´":2455,"ĠÐ¶Ð¸Ð²Ðµ":2456,"Ð½ÐµÐ¼":2457,"ÑħÐ°Ð¹":2458,"ĠÑģÑĤÐ°Ð»Ð¸":2459,"ĠÐ²ÑģÑĤÐ¸Ð³":2460,"ĠÑģÑĸÐ´":2461,"ÑĥÐ²Ð°ÑĤÐ¸ÑģÑı":2462,"ĠÑĢÐ¾Ð·Ð²":2463,"Ð»Ð¸Ð²ÑģÑı":2464,"ĠÐ§Ð¾Ð¼Ñĥ":2465,"ĠÐ»Ð¸ÑģÑĤ":2466,"ĠÐ½Ð°Ð²Ð¿":2467,"ÑģÐ¸Ð»Ð°":2468,"ĠÑģÑĤÐµÐ¶":2469,"ĠÐ²Ð°Ð¶ÐºÐ¾":2470,"ÑģÐ»Ð°Ð¼":2471,"....":2472,"ĠÐ»Ð¸ÑĨÐµ":2473,"ĠÐ´Ð¾ÐºÐ¸":2474,"ĠÐ°Ð»":2475,"ĠÐ¿ÑĸÐ´Ð»":2476,"Ð¾Ð¹Ð´":2477,"ĠÐ²Ð·ÑıÐ²":2478,"ĠÐ²ÑĢÐ°Ð¶":2479,"ÑĢÑıÐ²":2480,"Ð¾ÐºÐ°":2481,"ÑĪÐ¸ÑĤÐ¸":2482,"ĠÐ·ÑĢÐ°Ð´":2483,"ĠÑĩÐ¾ÑĢÐ½Ñĸ":2484,"ĠÐ·Ð½Ð°ÑĶÑĪ":2485,"ĠÐ²ÑĸÐ·Ð¸ÑĢ":2486,"ĠÐ´Ð·Ð²":2487,"ÑĪÐ¾ÑĹ":2488,"ĠÐ³Ð¾Ð¼":2489,"Ð°ÑĢÐ¾Ð¼":2490,"ĠÐ»ÑıÐ³":2491,"ĠÐ¿Ð¾ÑıÑģ":2492,"ĠÑıÐºÑĸÐ¹":2493,"Ð¸Ð»Ð¾":2494,"ĠÐ²Ð²Ð°Ð¶":2495,"ĠÐ¿Ñģ":2496,"ÑĢÐ¸Ð±":2497,"Ð¸Ð²ÑĪÐ¸ÑģÑĮ":2498,"ĠÑĢÑĥÑĪ":2499,"ĠÐ¼Ð¾Ð»Ð¾Ð´Ð¸":2500,"ĠÐ´ÐµÑĢÐ¶Ð°Ð²":2501,"ĠÑĩÑĥÑĤ":2502,"ĠÐ·Ð½Ð¸Ðº":2503,"Ð°Ð½ÐºÐ°":2504,"ĠÐ·Ð°ÑģÑĤ":2505,"ĠÑĤÐ°ÐºÐ¾Ð¶":2506,"ÑĪÐµÑİ":2507,"ÐºÐ°Ð»Ð¸":2508,"ĠÐ»Ð°Ð²":2509,"ÑĢÑĥÑĩ":2510,"Ð°Ð³Ð°Ð»Ñĸ":2511,"ĠÐŀÐ±":2512,"ĠÑĢÐµÑĩÑĸ":2513,"ĠÐ±Ð»Ð¸Ð·ÑĮ":2514,").":2515,"ĠÑģÐºÐ¸":2516,"ĠÐ¼Ð¾Ð»Ð¸":2517,"Ð¸ÑĤÑĸ":2518,"ĠÐ·Ð½Ð°Ð»Ð°":2519,"ĠÐ¼Ð¸Ñģ":2520,"ĠÐ¼ÑĥÐ´":2521,"ĠÐºÐ¾Ñħ":2522,"ĠÐ´Ð¾Ñī":2523,"Ð¾ÑĤÑĸ":2524,"ĠÐĳÐ°Ð³":2525,"Ð°Ð½Ð½ÑıÐ¼":2526,"ĠÐºÐ°Ð¶ÑĥÑĤÑĮ":2527,"Ð½ÐºÑĥ":2528,"ÑĨÐ¸":2529,"ĠÐ¿ÐµÑĢÐµÐ²":2530,"ĠÐ±ÐµÐ·Ð¼ÐµÐ¶":2531,"ĠÑħÐ¾ÑĩÑĥ":2532,"ÑħÐ¾Ð´Ð¸Ð»Ð¸":2533,"ĠÐ²Ð¾ÑĢÐ¾Ð³":2534,"ĠÐ¿ÑĥÑģÑĤÐ¸":2535,"ĠÑĤÐ°ÐºÐ¸Ð¼":2536,"ĠÐ´Ð²ÐµÑĢÐµÐ¹":2537,"ĠÐ²ÑĥÐ»Ð¸ÑĨÑĸ":2538,"ĠÐ·Ð´Ð°Ð²Ð°Ð»Ð¾ÑģÑı":2539,"Ġ[":2540,"Ð½ÑĤ":2541,"ĠÐ²ÑĸÐ»ÑĮ":2542,"ÑĪÐ°Ñħ":2543,"ÑĤÐ¸Ð¼":2544,"ÐµÐ½ÐµÑĢ":2545,"ĠÐ½Ð°Ð·Ð¸Ð²":2546,"Ð¾Ð´Ð°Ð¹":2547,"ÑĥÐ²Ð°Ð»Ð°ÑģÑı":2548,"ĠÐ»Ð°Ð¼":2549,"ĠÐ¿ÑĢÐ¾Ð·":2550,"ĠÑģÑĤÐ¾Ð²":2551,"ÑĸÑģÑĤÐ¸":2552,"ĠÐ·Ð²ÑĸÑĢ":2553,"ĠÐ¿Ð¾Ð¼ÑĸÑĤÐ¸":2554,"Ð½ÑĥÑĤÐ¸ÑģÑı":2555,"ĠÑıÐºÑĸÑģÑĮ":2556,"ĠÐºÐ°Ð¶Ñĥ":2557,"Ð¦Ðµ":2558,"ĠÑĤÐ¸ÑģÑıÑĩ":2559,"ĠÑħÐ°Ð·ÑıÑĹ":2560,"ĠÐ¸":2561,"Ð½Ð°Ð»Ð°":2562,"ĠÑħÐ¾Ð²":2563,"ĠÐĴÑģÑĸ":2564,"Ð°ÑĤÐ¾ÑĢ":2565,"ĠÐ¿Ð¾Ð²Ð·":2566,"Ð²ÑĸÑĤÐ¸":2567,"ĠÐºÑĢÐ°Ð¹":2568,"ĠÑģÐ¸Ð²":2569,"ĠÐ²Ð¸Ð·":2570,"ĠÐ±Ð°ÑĩÐ¸Ð»Ð°":2571,"Ðķ":2572,"ÑĤÐ¾Ð¿":2573,"ĠÐ¿Ð¾ÑĩÐ¸Ð½Ð°":2574,"ĠÑģÑĤÐ¾Ð»Ð¸":2575,"Ð¾Ð²Ðµ":2576,"ĠÐ¼Ð¾ÑĤ":2577,"ĠÑħÐ²":2578,"ĠÑģÑĤÑĸÐ»":2579,"ĠÐ·Ð°ÐºÑĢÐ¸":2580,"ĠÐ¾ÑĨÐµ":2581,"ĠÑıÐºÐ±Ð¸":2582,"ĠÐ½Ñĥ":2583,"ĠÐ·ÑĥÐ±":2584,"ĠÐºÐ²":2585,"ĠÑħÐ¾Ð´":2586,"Ð°ÑĤÐ¸Ð¼Ðµ":2587,"ĠÐĵÐ¾ÑģÐ¿":2588,"ĠÐ¿Ð¾Ð³Ð»Ñı":2589,"ĠÐ²Ð¾Ð²":2590,"ĠÐ²Ð¼Ñĸ":2591,"Ð¼ÑĸÐ½":2592,"ĠÐ·ÑĥÐ±Ð¸":2593,"ĠÐ¼Ð½Ð¾Ñİ":2594,"ĠÑıÐ·Ð¸":2595,"ÐµÐ½Ð´":2596,"ĠÑģÐ¿Ð°Ð»Ð°":2597,"ĠÐĵÐ¾ÑĢ":2598,"ĠÑģÐµÐ»Ð¾":2599,"ĠÑĤÑıÐ¶ÐºÐ¾":2600,"ÑĩÐºÐ¾":2601,"ĠÐ½ÐµÐ½Ð°Ð²":2602,"ĠÑĨÐ°Ð¿":2603,"ĠÐ²ÑĸÐ´Ð±":2604,"ĠÐ²ÐµÐ»ÐµÑĤ":2605,"ĠÐĹÐ°Ð³":2606,"ÑĢÐ¾ÑĤÐ¸":2607,"Ð¸Ð»Ð¸ÑģÑĮ":2608,"ÑģÑĮÐ¾Ð¼Ñĥ":2609,"ĠÐ»Ñı":2610,"ĠÑıÐºÐ¾Ñİ":2611,"Ð½ÑıÑĤÐ¸":2612,"ĠÐ¡ÐµÐ»Ñĸ":2613,"ĠÐ¾Ð´Ðµ":2614,"ĠÐ´ÑĢÑĥÐ³Ð¾Ð³Ð¾":2615,"ĠÐľÐ°ÑĢÑĸÑı":2616,"ĠÑıÐºÑĥÑģÑĮ":2617,"ĠÑģÐ½ÑĸÐ³":2618,"ĠÐ±Ð¾Ð¶ÐµÐ²":2619,"Ð½ÐµÐ½Ð½Ñı":2620,"ĠÐ·Ðµ":2621,"ÑĢÐµÑĨÑĮ":2622,"Ð´ÐµÑĪ":2623,"ÑĤÐµÐ»ÑĮ":2624,"ĠÐ·Ð´Ð¾ÑĢÐ¾Ð²":2625,"ĠÐ¿Ð¾ÑĢÑıÐ´":2626,"ĠÑģÐµÑĢÑĨÑĸ":2627,"Ð½Ð°Ð»Ð¸":2628,"ĠÑīÐ¸":2629,"ĠÑģÐ¿Ð¾Ð²":2630,"ĠÑĹÑħÐ½Ñĸ":2631,"ĠÐ£ÐºÑĢÐ°ÑĹ":2632,"ĠÐ²Ð¾Ð»Ñĸ":2633,"ÑĩÐ°Ð»Ð°":2634,"ĠÑĤÐµÑĢÐ¿":2635,"Ð°ÑĤÐµ":2636,"ĠÐ½ÑĸÐºÐ¾Ð³Ð¾":2637,"ĠÐ½Ð°Ð²ÐºÐ¾Ð»Ð¾":2638,"ĠÐ¿Ð¾ÑĢÑĥÑĩ":2639,"ĠÐ½ÐµÑī":2640,"ĠÑĩÐ°ÑĢ":2641,"ĠÐ¿ÑĢÐ¾ÑģÑĤÑıÐ³":2642,"Ð»ÑİÑī":2643,"ĠÐ²ÑĸÑĢÐ¸":2644,"ĠÐ´ÐµÑĢÐµÐ²Ð°":2645,"ĠÐ½ÐµÑģÐ°Ð¼Ð¾Ð²":2646,"ĠÑģÑĸÐ²":2647,"ĠÑģÑĢÑĸÐ±":2648,"Ð¾Ð²Ð°Ð½Ñĸ":2649,"ĠÑĢÐ°Ð½Ñĸ":2650,"ÑģÑĮÐºÐ¾":2651,"Ð¾ÐºÐ¾Ð¼":2652,"Ð½Ð°ÑĩÐµ":2653,"ĠÑģÐ¸Ð»Ð°":2654,"ÑĤÑĸÐ»Ð°":2655,"ĠÐ´Ð¾ÑĢÐ¾Ð³Ñĥ":2656,"ĠÑĥÐºÑĢÐ°ÑĹÐ½":2657,"ÑĩÐ¸Ñħ":2658,"ĠÐĴÐ°Ð²Ð¸Ð»Ð¾Ð½":2659,"ÑĢÑĸÐ·":2660,"ĠÑıÐºÐ°ÑģÑĮ":2661,"ĠÐ²ÑĤÑĢ":2662,"ÐºÐ°ÑİÑĤÑĮ":2663,"Ð½ÑĥÐ²ÑĪÐ¸ÑģÑĮ":2664,"ĠÑĤÐ¸Ð¶":2665,"ÑıÐ²Ð»Ñı":2666,"ĠÐ´Ð²Ð¾ÑĢÑĥ":2667,"ĠÑģÑĤÐ°ÑĢÐ¾Ð³Ð¾":2668,"ĠÑĤÐµÐ¼ÑĢÑıÐ²":2669,"ĠÐ½Ð°Ð³Ð°Ð´":2670,"ĠÐ»ÑİÐ±Ð¾Ð²":2671,"ĠÐ·Ð»Ð¾":2672,"ĠÐ»ÑĸÐº":2673,"ĠÐ¿Ð¾Ð»Ð¸":2674,"ĠÐ·Ð°ÑĤÐ¸":2675,"Ð°ÑĤÐ¸Ð¹":2676,"Ð»ÐµÐ³":2677,"Ð¾Ð¶Ð°":2678,"ĠÐ½ÑĸÐ¼":2679,"ĠÑģÐ¿Ð¸Ð½Ð¸":2680,"ÑĩÐµÐ½Ð¸Ð¹":2681,"ĠÐ¿Ð¾ÑĩÐ°Ð»Ð°":2682,"ĠÑĤÐ²Ð¾ÑĹ":2683,"ĠÐ²ÑģÑĤ":2684,"Ð¼ÑĥÑĢ":2685,"ÑĩÐ¾Ðº":2686,"Ð¾Ð²Ð°Ð½Ð¸Ð¹":2687,"Ð¾Ð³Ð¾Ñİ":2688,"ĠÐ¿ÑĢÐ¾ÑĢ":2689,"ĠÐŁÐµÑĢÐµ":2690,"ĠÐľÐµ":2691,"ĠÑĪÐ°Ñħ":2692,"ĠÐłÑĥ":2693,"ĠÐ´Ð¾Ð²ÐºÐ¾Ð»Ð°":2694,"ĠÐºÐ¾Ð¶Ð½Ð¾Ð³Ð¾":2695,"ĠÐ·Ð²ÑĸÐ´ÐºÐ¸":2696,"ĠÐ²ÐµÑģÐµÐ»Ð¾":2697,"ĠÐ³ÐµÑĢ":2698,"ĠÑĩÐ¾Ð±":2699,"ÑĸÐ»Ñĥ":2700,"ĠÑģÑĤÐ¾Ð»Ñĥ":2701,"ÑĪÐµÐ¿":2702,"ÑĨÑıÑħ":2703,"ÑĢÐ¾Ð·":2704,"ÑĢÐ°Ð¿":2705,"Ð¼Ð°Ð½Ð°":2706,"ĠÐ·Ð¾Ð»Ð¾ÑĤÐ¸":2707,"Ð°Ð»ÐºÐ°":2708,"ĠÑģÐ¿Ð°ÑĤÐ¸":2709,"ĠÐ»Ð¸ÑĪÐ¸":2710,"ĠÐ±Ð°ÑĩÐ¸ÑĤÐ¸":2711,"Ð°Ð´Ð°":2712,"ĠÐ¿ÑĢÐ¸Ð¼":2713,"ÑıÐ´ÑĮ":2714,"ĠÐ¿ÑĥÑģÑĤ":2715,"Ð°ÑĢÐµÑĪ":2716,"ĠÐ¿ÑĸÑĪÐ»Ð¸":2717,"ĠÐĻÐ¾Ð¼Ñĥ":2718,"ĠÐ±ÐµÑĢÐµÐ³":2719,"ĠÐŁÑĢÑĸÑģÑĮÐºÐ°":2720,"ĠÐ¿ÑĢÐ°ÑĨÑİ":2721,"Ġ.":2722,"ÑĢÐ¾Ð´":2723,"ÑĸÐ»Ð¾Ð¼":2724,"ĠÑħÐ¸":2725,"ĠÐ²Ð¸ÑĤÑıÐ³":2726,"Ð¾ÑĤÐµ":2727,"ĠÐ¾Ð´ÑıÐ³":2728,"ĠÐ´Ð²Ð¾Ñħ":2729,"ĠÐ¼Ð¸Ð»Ð¾":2730,"Ð©Ð¾":2731,"Ð»Ð¾Ð³Ð¾":2732,"ÑĢÐ¸Ð·":2733,"Ð°ÐºÑĥ":2734,"ÑīÑĸÐ¹":2735,"Ð½ÐµÐ±":2736,"ĠÐ´Ð¸Ð²Ð»ÑıÑĩÐ¸ÑģÑĮ":2737,"ĠÐ¿Ð¾Ð²ÐµÑĢÐ½ÑĥÐ²ÑģÑı":2738,"ĠÐ²Ð¸Ð³Ð»ÑıÐ´":2739,"ĠÐ´Ð¸ÑĤ":2740,"ĠÐºÐ¾ÑĪ":2741,"ĠÑģÐ¿Ðµ":2742,"ÑĢÑĸÐ·ÑĮ":2743,"ÑĦÐ¾ÑĢ":2744,"ĠÐ´Ð¾Ð²Ðµ":2745,"ĠÐ¥ÑĢÐ¸ÑģÑĤÑĸ":2746,"ĠÐ²Ð¾Ð´Ð¾Ñİ":2747,"Ð°Ð½Ð¾Ð³Ð¾":2748,"Ð½Ð¸Ð²":2749,"ĠÐ¿Ð¾ÑĤÑıÐ³":2750,"ĠÐ¢Ð¾Ð¹":2751,"ĠÑĤÐ°ÐºÐ¾ÑĹ":2752,"ĠÐŁÐ°Ð½":2753,"ĠÐºÐ°Ð¼ÐµÑĢÐ¸":2754,"ÑĩÐ°ÑĤÑĮ":2755,"ĠÐ·Ð°Ð¼ÑĸÑģÑĤÑĮ":2756,"ĠÐ¾Ð¿Ð¸Ð½Ð¸":2757,"Ð¸ÑĪ":2758,"ĠÑĤÑĸÐ¼":2759,"ĠÐ½Ð°ÑĪÑĸ":2760,"ÑĤÑĸÐ»Ð¸":2761,"ĠÐĿÐ°Ð²ÑĸÑĤÑĮ":2762,"Ð½Ð¾Ðº":2763,"Ð¾Ð²Ð¾ÑĹ":2764,"ĠÐ½ÐµÐ³":2765,"ĠÑīÐ°Ñģ":2766,"ĠÑģÑĤÐ°Ð½Ðµ":2767,"ÐºÑĥÐ¿":2768,"Ð»ÑİÐ´":2769,"ĠÐ²Ð·Ð°Ð³Ð°Ð»Ñĸ":2770,"ĠÐ¿ÑĢÐ¾ÐºÐ»Ñı":2771,"ĠÐ²Ð¾Ð»Ð¾Ð´":2772,"Ð½ÑĥÐ»Ð¸ÑģÑı":2773,"ĠÑĪÐ¾Ð²":2774,"ĠÐ¾Ð´Ð½Ñĸ":2775,"ĠÐ´Ð²ÑĸÑĢ":2776,"ĠÐ·Ð°Ð´ÑĥÐ¼":2777,"ĠÐºÐ°Ð·Ð°Ð²":2778,"ÑģÐ½Ð¾":2779,"ĠÐ²Ð¼":2780,"ĠÐ²Ñĩ":2781,"ĠÑĸÑĪÐ¾Ð²":2782,"ĠÐ¾Ð´Ð½Ð¾Ð¼Ñĥ":2783,"Ð»ÑİÐ±":2784,"ĠÑģÐ¾Ð½ÑĨÑı":2785,"ĠÑħÐ¾ÑĤÑĸÐ»Ð°":2786,"ĠÐ»ÐµÐ³ÐºÐ¾":2787,"ĠÐºÐ½Ð¸Ð¶":2788,"ĠÐ¶Ð¾ÑĢÑģÑĤÐ¾Ðº":2789,"Ð¹ÑĤÐµ":2790,"ĠÐºÐ»Ñĥ":2791,"ĠÐ¹ÑĪÐ¾Ð²":2792,"ĠÐ¾ÑģÑĤ":2793,"ĠÐ´Ð¾Ð±ÑĢÐ°":2794,"ĠÐ¼ÑĸÑģÑıÑĨÑĮ":2795,"ÑĪÐ½Ñĸ":2796,"Ð°ÑĢÐºÐ°":2797,"Ð°ÑĤÐ¸Ð²":2798,"ĠÐĳÐµÐ·":2799,"Ð°Ð»ÑĮÐ½Ñĸ":2800,"ĠÑģÐ²ÑĸÑĤÐ»Ð¾":2801,"ĠÐ¿ÐµÑĩÑĸ":2802,"ĠÑĩÐ¾Ð³Ð¾ÑģÑĮ":2803,"ĠÑħÐ»ÑĸÐ±Ð°":2804,"ĠÑģÐ²ÑĸÐ¶":2805,"ĠÑĢÐ¾Ð·Ð¿Ð¾Ð²ÑĸÐ´":2806,"Ð°ÑĶÐ¼Ð¾":2807,"ĠÑİÑĢ":2808,"ĠÐ½ÐµÐ²ÐµÐ»Ð¸Ñĩ":2809,"ĠÐ´Ð²ÐµÑĢ":2810,"ĠÐ·Ð°Ð¿Ð°Ñħ":2811,"ĠÐ¿Ð¸Ð»ÑĮÐ½Ð¾":2812,"ĠÐ¿Ð¾Ð½Ñĥ":2813,"Ð¾Ð²Ð¾Ð»":2814,"ĠÐ¼ÑĸÑģÑĤÐ°":2815,"Ð¸Ð»Ð°ÑģÑĮ":2816,"ÑıÐ·Ð¸Ð´":2817,"ĠÐ²Ð½Ð¾ÑĩÑĸ":2818,"ĠÐ¼Ð¾Ð½":2819,"ÑĢÐ°Ð²Ð´Ð°":2820,"ĠÐ³Ð¾ÑĢÐ¾Ð´":2821,"ĠÐĵÑĢÐ¸Ð³Ð¾ÑĢÑĸÐ¹":2822,"ĠÐ²Ð°Ð»ÑĸÐ´Ðµ":2823,"ÐºÑĸÐ½":2824,"Ð´Ð°Ð½":2825,"Ð½Ð¸ÑĤÐ¸":2826,"ĠÐĴÐ¾Ð»Ð¾Ð´":2827,"ĠÐ¿ÐµÑĢÐµÐ±":2828,"ÑĩÑĸÐ¿":2829,"ĠÑĶÐ²":2830,"ĠÐ´Ð¾ÑĢÐ¾Ð·Ñĸ":2831,"Ð¥ÑĢÐ¸":2832,"ÑĸÑĢÑĥ":2833,"ÐºÑĥÐ²Ð°Ð²":2834,"ĠÑģÐ¾Ð»Ð¾Ð´":2835,"ÑĩÐ°ÑĤÐ¸":2836,"ĠÐ¼Ð°Ñģ":2837,"ĠÑĢÐ¾ÐºÐ¸":2838,"Ð°ÐºÑĸÐ²":2839,"ĠÐ±ÑĥÐ´Ñĥ":2840,"ÑĩÐµÐ¿":2841,"ÑĩÐµÐ·":2842,"ĠÐ³Ð¾Ð»Ð¾ÑģÐ¾Ð¼":2843,"Ð½Ð°Ð¼Ð¸":2844,"ĠÑĤÐ°ÑĤ":2845,"Ð±ÑĸÐ´":2846,"Ð°ÑĤÐºÑĥ":2847,"ĠÑģÐ°Ð¼Ð¾ÑĤ":2848,"ĠÐĳÐ¾Ð¶Ðµ":2849,"ĠÑģÐµÐ»Ð°":2850,"Ð²ÐµÑģÑĮ":2851,"ĠÐºÐ¾Ð»ÑĸÐ½Ð°":2852,"ĠÐ³ÑĥÐ±":2853,"ĠÐľÐ°ÐºÑģÐ¸Ð¼Ð°":2854,"ÑĢÐ°Ð»Ð¸":2855,"ĠÐ·Ð¸Ð¼":2856,"ĠÐ±ÑĢÐµ":2857,"ĠÑħÐ»Ð¾Ð¿ÑĨÑĸ":2858,"ĠÐ²Ð¾Ð³Ð¾Ð½ÑĮ":2859,"Ð½ÐµÐ±ÑĥÐ´ÑĮ":2860,"ĠÐ¶Ð¸Ð´":2861,"ĠÐ¿ÑĢÐ¸Ð²ÑĸÑĤ":2862,"ĠÐĿÑĸÑĩ":2863,"ĠÐ´Ð¸Ð²Ð¸ÑĤÑĮÑģÑı":2864,"Ð²ÐµÑĨÑĮ":2865,"ĠÐ±Ð°Ð³Ð°ÑĤ":2866,"ÑĢÐ°Ð¼":2867,"ÑĢÐ¸Ñħ":2868,"ĠÑħÑĢÐ¸":2869,"ĠÐ¿Ð¾ÑĹ":2870,"ĠÐ½ÑĸÐºÐ¾Ð¼Ñĥ":2871,"ĠÐ¾Ð´ÑĢÐ°Ð·Ñĥ":2872,"ĠÐ½Ð°Ð´ÑĤÐ¾":2873,"ĠÐ»ÑİÐ´Ð¸Ð½Ð¸":2874,"ĠÐ·ÑĢÐ¾Ð±Ð¸ÑĤÐ¸":2875,"ĠÑģÐ¸Ð´ÑĸÐ»Ð¸":2876,"ÑĤÑĤÑı":2877,"ĠÑĸÑģÐº":2878,"ÐµÑĢÐµÐ´Ñĥ":2879,"ĠÐ¢ÑĢÐµÐ±Ð°":2880,"ĠÑģÐ¸Ð´Ð¸ÑĤÑĮ":2881,"ĠÐ´ÑĥÐ¼ÐºÐ°":2882,"ĠÐ·Ð°ÐºÐ¾Ð½":2883,"ÑĥÑĶÑĪ":2884,"ĠÐ¿Ð»ÐµÑĩÑĸ":2885,"ĠÐ¿Ð¾Ð³Ð»ÑıÐ´Ð¾Ð¼":2886,"ĠÐłÐ¾ÐºÑģÐ¾Ð»Ð°Ð½Ð°":2887,"ĠÐ¿Ð»Ð¸Ð²":2888,"Ð¾Ð³Ð°Ð´":2889,"ĠÐ¹ÑĪÐ»Ð¸":2890,"Ð¶ÐµÐ½Ð½Ñı":2891,"ĠÐ³Ð¾Ð¹Ð´":2892,"ÑĩÐ¸Ðº":2893,"ÑĩÐµÐ½Ñĸ":2894,"ĠÐ¼ÑĸÑģÑĤÐ¾":2895,"ĠÐ²Ð¾Ð»Ñİ":2896,"ĠÐ²Ð³Ð¾ÑĢÑĥ":2897,"ÑıÐ½Ð¸":2898,"ĠÐ¿Ð°Ð»Ð¸":2899,"ÑĪÐµÐ½Ñĸ":2900,"ĠÐ¾Ð±ÑĸÐ·":2901,"ĠÐºÐ°Ð¼ÐµÑĢÑĸ":2902,"ĠÐ»ÑİÐ´ÑĮÐ¼Ð¸":2903,"ĠÐ½ÐµÐ²ÑĸÐ´Ð¾Ð¼":2904,"Ð°ÑĢÐµÑĪÑĤÑĸ":2905,"ĠÐ½Ð°Ð¼Ð¸":2906,"ĠÑĤÐµÑĢ":2907,"Ð°Ð½Ð½Ñĸ":2908,"ĠÐ·Ð½Ð°Ð»Ð¸":2909,"ĠÐºÐ¾Ð½ÐµÐ¹":2910,"ĠÐºÐ°ÑĢÑĤÐ¸":2911,"ĠÐ²ÐµÑĢÑĤ":2912,"ÑĩÐ½Ñĸ":2913,"ÑģÑĤÐ¾Ð¼":2914,"ĠÑĢÑĸÐº":2915,"Ð¾ÑĢÐµ":2916,"ĠÐ·Ð°Ð²ÑĤÑĢÐ°":2917,"ĠÐ³Ð¾ÑĢÑĸÐ»":2918,"ÑĩÐ¸Ð²ÑģÑı":2919,"ÑĢÐ°Ð½ÑĨÑĸ":2920,"ĠÐ³ÑĢÑĥÐ´ÑıÑħ":2921,"Ð½Ð½Ñı":2922,"ÑģÐ½Ðµ":2923,"Ð²Ð¾Ñİ":2924,"ĠÐ²Ð½Ð¸Ð·":2925,"ĠÐ¿Ð°Ð´Ð¸":2926,"ĠÐ¡Ðµ":2927,"ĠÐ¿ÑĸÐ´Ð½Ñı":2928,"ĠÐĹÐ½Ð°":2929,"Ð´ÐµÑĤÑĮÑģÑı":2930,"ĠÐ¿Ð¾Ð»Ðµ":2931,"ĠÑĤÑĸÐ»Ð°":2932,"ĠÐ³ÑĥÐ±Ð¸":2933,"Ð¿ÑĥÑģ":2934,"ÐĻ":2935,"ĠÐ±Ð¾ÐºÑĥ":2936,"Ð¿Ð¾":2937,"ĠÐ½ÐµÑĤ":2938,"ÐµÐ½Ñı":2939,"ĠÐ±ÑĥÐ´Ð¸Ð½":2940,"ĠÐ±ÑĥÐ´ÑĥÑĤÑĮ":2941,"ĠÐĽÑİ":2942,"ĠÐ¿Ð¾Ð»Ð¾Ð²Ð¸":2943,"ĠÐºÑĢÐ¸Ðº":2944,"ĠÐ²Ð´Ð°ÑĢÐ¸":2945,"ĠÐ²Ð¾ÑĢÐ¾Ð¶":2946,"ĠÑĸÐ¼Ð¿ÐµÑĢ":2947,"ĠÑĤÐ¾Ð²Ð°ÑĢÐ¸ÑĪ":2948,"ĠÐĶÐ¾Ð±ÑĢÐµ":2949,"ÑĤÑĥÑĢ":2950,"ĠÐ±Ð¾Ð´Ð°Ð¹":2951,"ĠÐºÐ»Ð¾Ð¿":2952,"ĠÐ¿Ð¾ÑĨÑĸÐ»":2953,"Ð¾ÑĩÐºÐ°":2954,"ĠÐ¿Ð¾Ð´Ð²ÑĸÑĢ":2955,"ĠÐºÑĸÐ½ÑĨÑı":2956,"ĠÐ²ÑĸÐ¹ÑģÑĮÐº":2957,"Ð²Ð¾ÑĢÐ¸":2958,"ĠÑģÑĸÐ¼":2959,"ÑģÑĤÐµÑĢ":2960,"ĠÐºÑĢÐ¾Ð²Ñĸ":2961,"ĠÑĢÐ°Ð·Ñĥ":2962,"ĠÐºÑĢÑĸÐ¼":2963,"ĠÐ»ÐµÐ¶Ð°Ð²":2964,"ĠÑĩÐ¾Ð¼ÑĥÑģÑĮ":2965,"ĠÐ¼ÑĥÑĢ":2966,"Ð¾Ð¼Ð¾":2967,"ĠÐ»ÑĸÐ²":2968,"ĠÐ¾Ð±ÐµÑĢ":2969,"ĠÐĨÐ½":2970,"ĠÐŀÑĨÐµ":2971,"ĠÐłÑĥÐ±":2972,"ĠÐ²ÐµÐ»Ð¸ÑĩÐµÐ·":2973,"ĠÐ²ÑĸÐºÐ½Ð¾":2974,"ĠÐºÐ¾Ð·Ð°":2975,"ĠÐ±Ð¾Ñģ":2976,"ĠÐ¼ÑĸÑĢ":2977,"Ð»Ð¸Ð·":2978,"Ð»Ð¸ÐºÐ°Ð²":2979,"ĠÐ³Ð½ÑĸÐ²":2980,"ĠÑħÐ°ÑĢ":2981,"ĠÐ¡Ð¸":2982,"ĠÐĶÐ°Ð²":2983,"ĠÐĵÐ»Ð¸Ð½":2984,"ĠÐ¿Ð¾ÑĩÑĥÑĤÑĤÑı":2985,"ĠÐ·ÑĢÐ¾Ð±Ð¸Ð²":2986,"ĠÐ¿Ð¾ÐµÑĤ":2987,"ĠÑĩÐ¾ÑĤÐ¸ÑĢÐ¸":2988,"ĠÑģÑĥÑĤ":2989,"ĠÐ¿ÑĢÐµÐ´":2990,"ÐµÐ¼Ð°":2991,"ĠÐ¡Ð¾Ðº":2992,"ĠÐ½Ð°Ð¿ÐµÐ²":2993,"ĠÐ·Ð°ÑĢÐ¾Ð±":2994,"ĠÐ²ÐµÐ»Ð¸ÑĩÐ½ÑĸÑģÑĤÑĮ":2995,"ÑĥÑİÑĤÑĮ":2996,"ÑħÐ¾Ð²":2997,"ĠÐ¼Ð¾Ð³Ð¾":2998,"Ð½ÑĸÑĪ":2999,"ĠÐ¿ÑĢÐ¾Ð»":3000,"ĠÐ¿ÑĢÐµÐº":3001,"Ð°ÑĶÑĤÐµ":3002,"Ð°Ð±ÑĸÑı":3003,"Ð»ÑĸÑĩ":3004,"ĠÐ¾Ð´Ð½Ð¸Ð¼":3005,"ĠÐ±Ð°Ñĩ":3006,"ÐľÐ°ÐºÑģÐ¸Ð¼":3007,"ĠÐ¿ÑĢÐµÐºÑĢÐ°Ñģ":3008,"Ð²Ð¾ÑĶ":3009,"ĠÑģÑħÐ¸":3010,"ĠÐºÐ¸Ð¼":3011,"ĠÑģÑĤÑĥ":3012,"ĠÑĢÐ¾Ð·ÐºÐ°Ð·":3013,"ĠÐĳÑĥÐ²":3014,"ĠÐŀÐ»Ðµ":3015,"ĠÑĤÐ²Ð¾ÑĶ":3016,"ÐºÐ¾Ð²Ð¾":3017,"ÑİÐ²Ð°Ð²":3018,"Ð¿Ð°ÑĪÐ°":3019,"ÐµÑĢÐµÐ´Ð¸Ð½Ñĸ":3020,"Ð¾ÑģÑı":3021,"ÑıÐ»Ð¸ÑģÑı":3022,"ĠÐ½ÐµÐ²Ð¸":3023,"ĠÐĴÐ°":3024,"ÑģÑĤÐ¸Ð¹":3025,"ĠÐ®":3026,"Ð¼Ð°ÑĢÐ¸":3027,"Ð¿Ðµ":3028,"Ð°Ð·Ð´":3029,"ĠÐĵÐ°Ñģ":3030,"ĠÐ·Ð°Ð¼Ð¾Ð²":3031,"ĠÐ¼Ð¾ÑĢÐµ":3032,"ÐºÑĸÐ¹":3033,"ĠÐ´Ð¾Ð½":3034,"ĠÑĥÑĤÑĸ":3035,"ĠÐŁÐ¾Ð²":3036,"ĠÐ¾Ð±ÑĸÐ¹":3037,"ĠÑģÑĥÐ´":3038,"ĠÐ©Ð¾Ð±":3039,"Ð¡ÑĤ":3040,"ĠÐ¼Ð¾Ð¶Ñĥ":3041,"ĠÐºÐ¾ÑĢÐ¸Ð´":3042,"ĠÐ½ÐµÑģÐ¿Ð¾Ð´ÑĸÐ²Ð°Ð½Ð¾":3043,"ÐµÑĢÐ³ÑĶ":3044,"Ð»ÑıÑĢ":3045,"ÑĨÑĸÐ¾Ð½":3046,"ÑĪÐµÐ¹":3047,"ĠÐŀÑģ":3048,"Ð¾Ð²Ð¸Ñĩ":3049,"ĠÐ·Ð°Ð³Ð¸":3050,"ĠÐ¼ÐµÑĢÑīÑĸÐ¹":3051,"ĠÑĢÐ°Ð½ÑĸÑĪÐµ":3052,"Ð¾Ñī":3053,"ĠÐ¿Ð°Ð½Ð°":3054,"ĠÑĢÐ°Ð¹":3055,"ĠÑħÐ°Ð¿":3056,"ĠÐ¶Ð°Ð´":3057,"ĠÑģÐ»ÑĸÐ²":3058,"ĠÐ²ÐµÐ»Ð¸ÐºÑĸ":3059,"ĠÑģÐµÑĢÐ´Ð¸":3060,"ĠÐ²ÑĥÑħ":3061,"ĠÑģÑĤÑĢÐ°ÑĪÐ½Ð¾":3062,"ĠÐ±Ð°ÑĤ":3063,"Ð±ÑĤÐ¾":3064,"Ð·Ð´Ð¸":3065,"ÑĢÐ¸Ð²ÑģÑı":3066,"ĠÑĸÐ½Ð¾Ð´Ñĸ":3067,"ĠÐ¼ÑĥÐ·Ð¸":3068,"ĠÐ±ÑĢÐ°ÑĤÐ¸":3069,"ĠÐ·Ð±Ð°Ð³":3070,"ĠÐĳÐ°ÑıÐ·Ð¸Ð´":3071,"ĠÑĸÑģÑĤÐ¾ÑĢÑĸ":3072,"Ð±Ð°Ð²":3073,"ÑģÑĤÐ²Ñĸ":3074,"ĠÑĩÐµÐº":3075,"ĠÐ¶Ð°Ð»":3076,"ĠÑģÐ²Ð¸":3077,"ĠÐ½ÑĸÑıÐº":3078,"ÐµÐ½ÑĮÐºÐ¸Ð¹":3079,"ÑĸÐ½Ð½ÑıÐ¼":3080,"ĠÐ±Ð»ÑĸÐ´":3081,"ĠÐ·Ð°Ð»Ð¸ÑĪ":3082,"ÑĹÑħÐ°Ð²":3083,"ĠÐ´ÐµÑģÑıÑĤÑĮ":3084,"ÐºÐ»Ð°Ð´":3085,"ĠÐºÑĸÐ½ÑĮ":3086,"ĠÐ¿ÑĸÐ´ÑĸÐ¹ÑĪÐ¾Ð²":3087,"ĠÐļÐ¾Ð¶":3088,"ÑĦÐµÑģ":3089,"ĠÐ¿Ð¾ÑģÐ¿ÑĸÑĪ":3090,"ĠÐ±Ð¾Ð¶ÐµÐ²ÑĸÐ»ÑĮ":3091,"Ðĺ":3092,"Ð¾Ð»Ð°":3093,"ĠÐŁÐ°Ð²":3094,"ĠÑĩÑĥÑĤÐ¸":3095,"ĠÐ²Ð°ÑĪÐ°":3096,"ĠÑĥÐ²ÐµÑģÑĮ":3097,"ÐµÐ½Ð½Ñĸ":3098,"ĠÐ»ÑĸÐ¿":3099,"Ð¸ÑĤÐ°":3100,"Ð¾Ð´Ð¸ÑĤÑĮ":3101,"ĠÐ¿Ð¾ÑĩÑĥ":3102,"ĠÐĽÑĥÐº":3103,"ĠÐ±Ð»Ð¸ÑģÐºÑĥ":3104,"ĠÐĨÐ±ÑĢÐ°Ð³ÑĸÐ¼Ð°":3105,"ĠÐ³Ð¾Ð²Ð¾ÑĢÐ¸Ð²":3106,"Ð¥ÑĢÐ¸ÑģÑĤÑı":3107,"ĠÐ¿Ð¾Ð±ÑĸÐ³":3108,"Ð¼ÑĸÑĢ":3109,"Ð¾ÑĢÑĸÐ²":3110,"ĠÐ¾Ð½":3111,"ĠÑĥÐ¼":3112,"ĠÐ¿ÑĢÐ¸Ð·":3113,"ĠÐ¿ÑĸÐ´Ñģ":3114,"ĠÐ³Ð¾Ð»Ð¾Ð´":3115,"ĠÐ¿Ð¾ÐºÐ»Ð°Ð²":3116,"ĠÑģÑĥÐ»ÑĤÐ°Ð½Ð¾Ð²Ñĸ":3117,"ĠÐľÐ¸ÐºÐ¾Ð»Ð°":3118,"ÐºÑĤ":3119,"ĠÐ²Ð¾ÑĢÑĥ":3120,"ĠÑģÑĸÐ½":3121,"ĠÐ´Ð¾Ð»Ð¸":3122,"Ð¿Ð¾Ð¼":3123,"ĠÑħÐ¾Ð´Ð¸Ð²":3124,"ĠÑģÑĤÐ¾Ð³":3125,"ĠÐ·Ð°Ñĩ":3126,"ĠÐ´ÑĢÑĥ":3127,"Ð¿Ð°ÑĢ":3128,"ĠÐºÑĢÐ°ÑĹ":3129,"Ð½Ð¸Ð±ÑĸÐ´":3130,"ĠÐ¿Ð¾ÑĪ":3131,"ĠÑģÑĤÑĸÐ»ÑĮÐºÐ¸":3132,"ĠÐ·Ð°ÑħÐ¸":3133,"ĠÑĢÐ¾Ð·Ð¼Ð¾Ð²":3134,"Ð¾ÑĩÑĸ":3135,"ÐµÐ½ÑĮÐºÐ°":3136,"ÑħÐ¾Ð´Ð¸Ð»Ð°":3137,"ĠÐŁÐµÑĤÑĢÐ¾":3138,"ĠÑĩÐ°ÑģÑĤÐ¾":3139,"ÑĢÐ°ÑĤÐ¸":3140,"Ð²Ð°Ð»":3141,"ÑıÑĤÑĸ":3142,"ĠÐºÐ»Ðµ":3143,"ĠÑģÑĤÐ°ÑĤÐ¸":3144,"ÐºÐ¾ÑĤ":3145,"ĠÐĴÐ¶Ðµ":3146,"Ð¾ÑĤÐ¾Ð¼":3147,"ÑĪÐ¸Ð»Ð¸":3148,"ĠÐ¿ÐµÑĢÐµÑģ":3149,"ÑĸÐ·Ð½Ð°Ð²":3150,"ĠÐ·Ð°Ð³Ð°Ð´":3151,"Ð½Ð³":3152,"Ð²Ð¶Ðµ":3153,"ĠÐ¿Ð¸Ð²":3154,"ÑĩÑİ":3155,"ĠÐºÐ°Ð½":3156,"ĠÐĲÐ¶":3157,"ĠÐ¿Ð¾Ð´Ð°Ð²":3158,"ĠÐ¤Ð°Ð±ÑĸÑı":3159,"ÑĩÐ½Ð¸Ð¹":3160,"ĠÐ´Ð¶":3161,"ĠÐ¾ÐºÐ¾":3162,"ĠÐ¢Ð¸Ð¼":3163,"ĠÐ³ÑĥÐºÐ½ÑĥÐ²":3164,"ĠÐ¡ÑĥÐ»ÑĤÐ°Ð½":3165,"ĠÐ³Ð»ÑıÐ½ÑĥÐ²":3166,"Ð¸Ð½Ð°":3167,"ÑĢÐ°Ñħ":3168,"ĠÐ´Ð½ÑĸÐ²":3169,"Ð»Ð°ÑģÑĤÐ¸":3170,"ĠÐ¿Ð¾ÑģÑĤÐ°":3171,"ĠÑĢÑĥÐ±":3172,"ĠÑĩÐ°ÑģÑĤÐ¸":3173,"ĠÐ¤ÐµÐ´":3174,"ÑĥÑģÑĤÑĢÑĸÑĩ":3175,"Ð´Ð°ÑĤ":3176,"ĠÐ½ÐµÐ±Ñĸ":3177,"ĠÑĥÐ±":3178,"ĠÐ¿Ð¾ÑģÐ¸":3179,"ĠÐ¿Ð¾ÑĩÐ¸Ð½":3180,"ĠÑĹÑģÑĤÐ¸":3181,"Ð½ÐµÑİ":3182,"ÑĢÑıÐ´":3183,"ĠÐ´ÑĢÑĥÐ³Ð°":3184,"ĠÐ·Ð°Ð¿Ð¸ÑĤÐ°Ð²":3185,"ĠÐľÐ°Ð»ÑĮÐ²Ð°":3186,"ĠÐ²ÐµÐ»ÐµÑĤÐµÐ½":3187,"ĠÐ²Ð°Ð³":3188,"ÑģÑıÐ³":3189,"Ð°ÑĢÐµÐ¼":3190,"Ð¾ÑĩÑĥ":3191,"ĠÑģÐ°Ð¼Ð¾Ð¼Ñĥ":3192,"ĠÐĵÑĢ":3193,"ÑĦÑĸ":3194,"ĠÐ¿Ð¾ÑĩÐ°Ð»Ð¸":3195,"ĠÐ¿ÐµÑĢÑĪ":3196,"ĠÐ²ÑĸÐºÐ¾Ð½":3197,"ĠÐľÐ¾ÑĤÑĢÑı":3198,"ĠÐ¿Ð°Ð´Ð¸ÑĪÐ°Ñħ":3199,"Ð²ÑĸÐ¹":3200,"ĠÐ½Ð°Ð»":3201,"Ð¾Ð²Ð¾ÑĢ":3202,"ÑģÑĮÐºÐ¸Ð¼Ð¸":3203,"ĠÐ²Ð¸Ð³Ñĥ":3204,"ĠÑģÑĤÐ°Ð»Ð¾ÑģÑı":3205,"ĠÐ¡ÐµÑĢÐ³ÑĶ":3206,"ĠÐľÐ¾Ð²":3207,"ĠÐĶÐ»Ñı":3208,"ĠÑĢÑĥÐºÐ°":3209,"ĠÐ·Ð°Ð¿Ð¾Ð²":3210,"ĠÑĸÐ½ÑĪÐµ":3211,"ĠÐ£Ð¶Ðµ":3212,"ĠÐ½ÐµÐ´Ð°Ð²":3213,"ĠÐŁÑĢÐ¾ÑĨÐµÐ½":3214,"ĠÐ³Ð¾ÑģÐ¿Ð¾Ð´Ð¸":3215,"ĠÑıÐ½Ð¸ÑĩÐ°ÑĢ":3216,"ĠÐ¡ÑĤÐ°Ð¼Ð±ÑĥÐ»Ð°":3217,"ĠÐ¿Ð»Ð¾":3218,"ÑħÐ½ÑĥÐ²":3219,"ĠÐ¼Ð¾ÑģÐº":3220,"ĠÐ¾ÑģÑĤÑĢ":3221,"Ð¾Ð±Ñĥ":3222,"Ð»ÑıÐ²ÑģÑı":3223,"Ð¾ÑĤÑĸÐ»Ð°":3224,"ĠÑģÐ°Ð¼Ð¸Ð¼":3225,"ÐĿÑĸ":3226,"ĠÐ±ÑĸÐ»Ñĸ":3227,"ĠÐ¿ÐµÑĩ":3228,"ÐĹÐ°":3229,"ĠÐľÑĥÑģÑĤÐ°":3230,"ÑģÐ½Ñĥ":3231,"Ð´Ð¾":3232,"ĠÑĢÐ¾Ð·Ñģ":3233,"Ð½ÐµÐ½Ñĸ":3234,"ĠÐ¼ÑĥÑģÐ¸ÑĤÑĮ":3235,"ĠÑģÐ»ÑĥÑħÐ°Ð²":3236,"Ð¨":3237,"Ð»Ð°Ð»Ð¸":3238,"Ð»Ð°Ð¼Ð¸":3239,"ÑħÑĸÐ²":3240,"ĠÑĥÑģÑĮÐ¾Ð³Ð¾":3241,"ÑĸÐ½Ñĥ":3242,"ĠÐ»ÑĸÐ¶":3243,"ĠÐ¶Ð°Ð»ÑĮ":3244,"ĠÑģÐ¿ÐµÑĢ":3245,"ĠÐ¡ÑĸÑĢ":3246,"Ð»Ð¸Ð²Ð¾Ð³Ð¾":3247,"ĠÐ¿Ð¾Ð²Ð¸Ð½":3248,"ĠÑĸÐ½ÑĪÐ¸Ð¹":3249,"Ðĸ":3250,"Ð°ÑģÑĤÑĮ":3251,"ĠÐ²ÑģÑĮÐ¾Ð¼Ñĥ":3252,"ĠÑģÐ½":3253,"Ð±Ð¾Ð½ÑĮ":3254,"ĠÐ¼Ð°ÑİÑĤÑĮ":3255,"ÑĹÐ´":3256,"ÑĶÐ´":3257,"ĠÐ»Ð°Ð½":3258,"ĠÑģÐ²ÑĸÐ´":3259,"ĠÑĪÐ°ÑĢ":3260,"ĠÑĢÑĥÑĨÑĸ":3261,"ĠÐ§Ð¾ÑĢ":3262,"ĠÑĸÐ½ÑĪÐ¾Ð³Ð¾":3263,"ĠÑĢÐ¾Ð±Ð¾ÑĤÐ¸":3264,"ĠÐ´Ð¾ÑĢÐ¾Ð³":3265,"ĠÐ¼Ð¾Ð³ÑĥÑĤ":3266,"ĠÐ²Ð¸Ð³Ð°Ð´":3267,"ĠÐĶÐ¾Ð²Ð±":3268,"ÑĥÑĢÐ¸":3269,"ĠÐ·Ð»ÑıÐº":3270,"ÑĸÐ´Ð½Ð¾":3271,"ĠÐŁÐ¾ÑĢ":3272,"Ð°ÑĢÐ¸Ð½":3273,"Ð¡Ñĥ":3274,"ĠÑĤÐ²Ð¾Ñı":3275,"ĠÐ±ÑĸÐ»ÑĮÑĪ":3276,"ĠÐ½Ð°Ð³Ð»ÑıÐ´":3277,"ĠÐļÐ¸ÑĢÐ¸Ð»Ð¾":3278,"Ð²ÑĪÐ¸":3279,"ÑıÑĤÑĮÑģÑı":3280,"ĠÑģÑĸÐ»ÑĮ":3281,"ĠÐ·Ð±ÑĢ":3282,"ĠÐ±Ð°Ð·":3283,"ĠÐ»Ð°":3284,"Ð°Ð¹ÑģÑı":3285,"ĠÑħÐ¾ÑĩÐµÑĪ":3286,"ĠÐ¿Ð¾Ð±Ð°ÑĩÐ¸Ð»Ð°":3287,"ĠÐĽÐ¸ÑĪÐµ":3288,"ĠÐ´Ð·Ð²ÑĸÐ½":3289,"ÐµÐ½Ð¸":3290,"ĠÑĤÑĸÐ½ÑĮ":3291,"ĠÐ±Ð»Ñĥ":3292,"Ð¾Ð»Ð¾Ð²":3293,"Ð°Ð½Ñı":3294,"ĠÐ²Ð¸Ð½":3295,"ĠÐ³Ð¾Ð»ÑĥÐ±":3296,"ĠÐ¿Ð¾Ð»Ñı":3297,"Ð¾ÑĢÑĥÑĩ":3298,"ĠÐ³Ð»Ð¸Ð±Ð¸":3299,"ĠÑģÐ»ÑĮÐ¾Ð·":3300,"ĠÑĶÐ²Ð½Ñĥ":3301,"ĠÐĿÑĸÑĩÐ¾Ð³Ð¾":3302,"ĠÐ´ÑıÐ´ÑĮ":3303,"ĠÐ±Ð¾Ð»Ñİ":3304,"ÑģÑĤÑĸÐ²":3305,"ĠÐ³Ð»Ñĥ":3306,"ĠÑģÐ¿Ð¾":3307,"Ð°Ð±Ñĥ":3308,"ĠÐĹÐ°Ð¿":3309,"ĠÐ¿Ð¾Ð¿ÐµÑĢÐµÐ´":3310,"ĠÑģÐ¾Ð½ÑıÑĩ":3311,"ĠÑĤÑĢÐ°Ð¿":3312,"ĠÐ´Ð¾Ð»Ñı":3313,"ĠÐ³ÑĢÐ¾Ð¼Ð°Ð´":3314,"Ð²ÑĸÑĩ":3315,"ÐºÑĥÐ²":3316,"ĠÑĸÑīÐµ":3317,"ĠÑĤÐ°ÐºÐ¾Ñİ":3318,"ĠÐ´ÑĥÐ¼Ð°Ð»Ð°":3319,"ĠÐ¿Ð¾ÑĤÑĢÐ°Ð¿":3320,"ĠÐ»ÑİÐ´Ð¸Ð½Ñĥ":3321,"ĠÐ´Ð¸ÑĤÐ¸Ð½":3322,"ĠÑĢÐµÐ²Ð¾Ð»Ñİ":3323,"ĠÐ¥Ð»Ð¾Ð¿ÐµÑĨÑĮ":3324,"ĠÐľÐµÑħÐ¼Ðµ":3325,"Ð²Ð°Ð»Ð°":3326,"ĠÐ·Ð»Ð¸":3327,"ĠÑĤÐ¸Ð¼Ð¸":3328,"ĠÐ´ÑĸÐ»Ð°":3329,"ĠÐ´ÑĸÑģÑĤ":3330,"Ð¶Ð°Ð²":3331,"ĠÐ»Ð°Ð³":3332,"Ð»ÑıÐ¼Ð¸":3333,"ĠÐ¿Ð¾ÑģÐµÑĢÐµÐ´":3334,"ĠÐ¿Ð¾Ð¼Ð¸":3335,"ĠÐ³Ð°ÑĢÑı":3336,"ĠÐ¶ÑĸÐ½Ð¾Ðº":3337,"ĠÐ¿ÑĢÐ¸Ð¹Ð¼":3338,"ĠÐµÐº":3339,"ĠÐ³ÑĢÐ¾ÑĪÐµÐ¹":3340,"ĠÐ½Ð°ÐºÐ°Ð·":3341,"ĠÐ¾ÐºÑĢÐµÐ¼":3342,"ĠÐ¿ÑĢÐ¾ÑĤÐµ":3343,"ĠÐ½ÐµÑīÐ°Ñģ":3344,"Ð²Ð¾ÑĹ":3345,"ĠÐ¿Ð»Ð°Ð²":3346,"ÑħÐ°Ð²":3347,"ÑĤÐ¸Ð¼Ðµ":3348,"ĠÐ¼Ð¸Ð¼":3349,"ĠÐ¾Ð¿Ð¾Ð²ÑĸÐ´":3350,"ĠÐ³Ð½Ñĸ":3351,"ĠÐ¿ÑĢÐ¸Ð·Ð½Ð°":3352,"ĠÑģÐ¿Ð¾Ðº":3353,"ĠÐ¿Ð¾Ð²Ð°Ð¶":3354,"ĠÐ±ÐµÐ·Ð³":3355,"ĠÐºÑĢÐ°Ð¿":3356,"ĠÐºÑĢÐ°Ñİ":3357,"ĠÐ³Ð°ÑĢÑıÑĩ":3358,"ĠÐ±Ð»Ð¸Ñģ":3359,"ĠÐºÐ¾ÑĤÑĢÐ¸Ð¹":3360,"ĠÐ¿ÑĢÐ¸Ð³Ð°Ð´":3361,"ĠÐ²Ð¸ÑĤÑĢÐ¸Ð¼":3362,"ÑĤÑĢÐ¸Ð¼":3363,"ĠÐ·Ð²Ð¸Ñĩ":3364,"ĠÐ±ÐµÑĢÐµÐ·":3365,"ĠÐ¼ÑĸÐ½":3366,"ĠÑĥÑĢ":3367,"Ð¾ÑĩÐ¾Ðº":3368,"ĠÐĨÑģÐ»Ð°Ð¼":3369,"ĠÐļÑĥÐ´Ð¸":3370,"Ð»Ð¸Ð²Ð¸Ð¼":3371,"Ð½ÑĮÐ¾":3372,"ĠÑĤÐ²ÑĸÐ¹":3373,"ĠÐ¼Ð¾Ð²ÑĩÐ°Ð²":3374,"ĠÐŀÑĤÐ°Ðº":3375,"ĠÐĲÐ½Ð´ÑĢÑĸÑĶÐ²Ñĸ":3376,"ĠÑĤÑİÑĢÐµÐ¼":3377,"ĠÑĢÐ¸Ð±":3378,"ĠÑģÐ¸Ð´ÑĸÐ»Ð°":3379,"ĠÑıÑģÐ½Ð¾":3380,"ĠÐľÐ°ÑĢÐ¸Ð½Ð°":3381,"ĠÑģÐ°Ð¼Ð¸":3382,"ĠÑĤÑĥÐ¿":3383,"ĠÐ±Ð°Ð»":3384,"ĠÐ±ÑĸÐ¹":3385,"ĠÐ¼Ð¾Ðº":3386,"ĠÐ¼ÑĢÑĸ":3387,"ĠÐºÐ¸Ð»Ð¸":3388,"Ð³Ð¾Ñİ":3389,"ĠÐ¿ÑĢÑı":3390,"Ð»ÐµÐ½Ð¸Ñħ":3391,"ĠÐĶÐ¼Ð¸":3392,"ĠÐ·Ð°Ð²Ð¾Ð´":3393,"!..\"":3394,"Ð¢Ð¾Ð´Ñĸ":3395,"ĠÐ·Ð°ÐºÑĸÐ½":3396,"ĠÑĢÐ°Ð´ÑĸÑģÑĤÑĮ":3397,"ĠÐ¿Ð°ÑĢÑĥÐ±":3398,"ĠÐ±Ð°ÑĤÑĮÐºÑĸÐ²":3399,"ĠÐ²ÑĸÐ·Ð¸":3400,"\"...":3401,"Ð²Ð¸Ñħ":3402,"ÐµÑĢÐ²Ð¾Ð½":3403,"ĠÑıÑĢ":3404,"ĠÐ´Ð¾ÑģÑĤ":3405,"ĠÐĴÐ°ÑģÐ¸":3406,"ĠÐ»ÑİÐ±Ð¸Ð²":3407,"ĠÐĹÐ°Ð²":3408,"ĠÑģÑĥÐ»ÑĤÐ°Ð½Ð¾Ð¼":3409,"ĠÐºÐ°Ð¼ÑĸÐ½ÑĮ":3410,"ĠÐ²Ð¿ÐµÑĢÐµÐ´":3411,"ĠÐ»ÐµÐ´ÑĮ":3412,"ĠÐ±Ð°Ð¹Ð´ÑĥÐ¶Ðµ":3413,"Ð¸Ð½Ñı":3414,"Ð½Ð°ÑĢ":3415,"ĠÐ²Ð¾ÑĹ":3416,"ĠÐ¾Ð¿ÑĥÑģÑĤÐ¸":3417,"ĠÑĥÑıÐ²":3418,"ĠÐ¶Ð°Ð»Ñĸ":3419,"ÑĸÐ¹Ð½Ð¾":3420,"ĠÐ²ÑĸÐ´ÑĩÑĥ":3421,"Ð¾Ð´Ð¸ÑĤÐ¸":3422,"ĠÐ´ÑĥÐ¶ÑĩÐµ":3423,"ĠÐ´ÑĥÐ¼ÐºÑĥ":3424,"ĠÑģÐ¼ÑĥÑĤ":3425,"ĠÐ½Ð°ÑĢÐ¾Ð´Ñĥ":3426,"ÑģÑĤÐ²Ð¾Ð¼":3427,"ÑĤÐ¸Ñģ":3428,"ĠÐ½ÐµÐ¼Ð¸":3429,"Ð°Ð½ÑĸÐ²":3430,"ÑģÑĤÑĢÑĥ":3431,"ĠÑĥÐ¿ÐµÑĢ":3432,"ÑĸÐ²ÑģÑı":3433,"ÑĢÑĥÑĤÐ¸":3434,"ĠÐ²ÐµÐ»ÑĮ":3435,"Ð¾Ð´Ð¸Ð»Ð°":3436,"ÑģÐ¸Ð»Ð¸":3437,"ĠÐłÑĥÑģÑĤ":3438,"ĠÑĢÐ°Ð·ÑĸÐ²":3439,"ĠÑģÑħÐ¾Ð²":3440,"ĠÐ½Ð°Ð·ÑĥÑģÑĤÑĢÑĸÑĩ":3441,"ĠÐ¾Ð·Ð¸ÑĢ":3442,"ĠÐ²Ð»Ð°ÑģÐ½Ðµ":3443,"ĠÐ¿Ð¾Ð´Ð¸Ð²Ð¸Ð²ÑģÑı":3444,"ÐºÐ»Ð¸":3445,"ÐºÐ°Ð»Ð°":3446,"ÑıÐ½Ð¸Ð¹":3447,"ĠÐ¿Ð°Ð²":3448,"Ð»Ð¸Ð¶":3449,"Ð¾Ð½Ð¾":3450,"Ð°Ð´ÑĤÐ¾":3451,"ĠÐŁÐµÑĢ":3452,"ÑĪÐµÐ½Ð¸Ð¹":3453,"ĠÐ¿Ð¾Ð²ÐµÐ»Ð¸":3454,"ĠÐ±ÐµÐ·Ð½Ð°Ð´":3455,"ĠÐ·Ð´Ð°Ð»Ð¾ÑģÑı":3456,"ĠÐ¯ÐºÑīÐ¾":3457,"ĠÑħÐ¾ÑĤÑĸÐ»Ð¾ÑģÑı":3458,"ĠÐ½ÐµÐ½Ð°Ð²Ð¸":3459,"ĠÐ¿Ð¾ÑģÑĤÐ°ÑĤÑĮ":3460,"ÑĤÐ¾Ð³Ð¾":3461,"ĠÑĤÐ¾Ð¿":3462,"ĠÐ²ÑĸÐ´ÐºÑĢÐ¸":3463,"ĠÐºÐ¾Ð»Ð¸ÑĪ":3464,"ĠÐ¼Ð¾Ð¶ÑĥÑĤÑĮ":3465,"ĠÐ´ÑĸÐ²ÑĩÐ°ÑĤ":3466,"Ð¼Ð¾Ð¶":3467,"ĠÐ´ÐµÑĢ":3468,"ĠÐ¼Ð°Ð½Ð´":3469,"ĠÐ¿ÑĢÐ¾Ñī":3470,"ĠÐĶÑĥ":3471,"ÐŀÐ´":3472,"ĠÐ»ÑİÐ´ÑıÐ¼":3473,"ÑħÐ¾Ð´ÑıÑĩÐ¸":3474,"ĠÑĤÐµÐ¼Ð½Ð¾":3475,"ĠÐ´Ð¾Ð¿Ð¸ÑĤ":3476,"ĠÐ¿Ð¸ÑĤÐ°ÑĶ":3477,"II":3478,"Ð½Ð¾Ð²Ñĥ":3479,"ĠÐ²ÑģÑĤÐ°Ð²":3480,"ĠÐ½Ð¾Ð²Ñĸ":3481,"Ð±ÑĥÑĤ":3482,"ÑĩÐ¸ÑĤ":3483,"ÑĸÐ¹ÑĪÐ»Ð°":3484,"ĠÑĹÑħÐ½ÑĸÑħ":3485,"ĠÑĩÐ¸Ñģ":3486,"ÐĵÑĢÐ¸":3487,"ĠÐ¾ÑĢÐ³Ð°Ð½":3488,"ĠÐ±ÑĢÑĥÐ´":3489,"ĠÐ²Ð¼ÐµÑĢ":3490,"ĠÐ¿ÑĤÐ°":3491,"ÑĩÐ°ÑĶ":3492,"ÑģÑĮÐºÐ¾Ñİ":3493,"ĠÐ¾ÑĤÐµ":3494,"Ð³Ð°Ð´":3495,"Ð¾Ð½ÑĸÐ²":3496,"ĠÑĩÐµÑĤ":3497,"ĠÐĴÐµ":3498,"Ð¾ÑģÐ¾ÑĦ":3499,"ĠÑĪÐ°Ð±":3500,"ĠÐ¾Ð±Ñĸ":3501,"ĠÐ¼Ð¾Ð²Ð¸Ð²":3502,"ĠÐ²ÑĸÐ·ÑĮ":3503,"ĠÑģÐºÐ°Ð¶Ðµ":3504,"ĠÐ¿Ð°Ð»Ð°ÑĨ":3505,"ĠÐĹÐ°Ð³Ð½Ð¸Ð±ÑĸÐ´":3506,"ĠÐ·ÐµÐ»ÐµÐ½":3507,"ÐºÑĥÐ²Ð°ÑĤÐ¸":3508,"ĠÐ·Ð°Ð¼Ð¸":3509,"Ð°Ð²ÑĪÐ¸ÑģÑĮ":3510,"ĠÐ¼Ð¾Ñİ":3511,"ĠÐ¹ÑĪÐ»Ð°":3512,"Ð°ÑĢÑĥ":3513,"Ð°Ð´ÑĮ":3514,"ĠÐŁÑĸ":3515,"ÑĸÑģÑĸÐ½ÑĮ":3516,"ĠÑİÐ½Ð°Ðº":3517,"ĠÐ¡ÐµÐ»ÑĸÐ¼":3518,"ÐºÑĤÐ¸":3519,"Ð¾Ð»ÑĸÐ²":3520,"Ð°Ð½Ð¾Ðº":3521,"ĠÑĪÑĥÐ¼":3522,"ÑĨÑĮÐºÐ°":3523,"ĠÐŀÑĢÐ¸":3524,"ĠÐ·Ð²ÑĸÐ´ÑĤÐ¸":3525,"ĠÐ³Ð¾Ð²Ð¾ÑĢÐ¸ÑĤÐ¸":3526,"ĠÑģÐºÑĢÐ¸ÐºÐ½ÑĥÐ»Ð°":3527,"ĠÐ¿Ð°Ð»ÑĮÑĨÑĸ":3528,"ĠÑħÐ²Ð¸Ð»Ð¸Ð½Ñĥ":3529,"ĠÐ³Ð¾ÑģÐ¿Ð¾Ð´Ð°ÑĢ":3530,"ÐºÑĢÐ°":3531,"ĠÑģÐ¾Ð»Ð¾Ð¼":3532,"ĠÑģÐ¿ÑĢÐ¾Ð±":3533,"ĠÐ¿ÑĸÐ´Ð²":3534,"ĠÐ¾Ð±Ð¸Ð´":3535,"ĠÐ¼ÐµÐ´":3536,"ĠÐºÑĢÐ°Ð¼":3537,"ĠÐ¶ÑĸÐ½ÐºÑĥ":3538,"ÑĸÑĶÑİ":3539,"ÑĩÑĸÐ¿Ð»ÑıÐ½":3540,"ĠÐ²Ð¿ÐµÑĢÑĪÐµ":3541,"ĠÐ´Ð¾Ð¼Ð°":3542,"ĠÐ¾ÑģÐµ":3543,"ÑĸÐ»Ð¾ÑģÐ¾ÑĦ":3544,"ĠÐ¶ÑĥÑĢ":3545,"ĠÑģÐ²ÑıÑĤ":3546,"ĠÐ¡Ð¾Ð½":3547,"Ð²Ð¸Ñī":3548,"ĠÑģÐºÑĸÐ½":3549,"ĠÑģÐ¼ÐµÑĢÑĤ":3550,"ĠÐºÐ¾ÑĢÐ°Ð±":3551,"ĠÐ¡ÑĥÐ»ÐµÐ¹Ð¼Ð°Ð½Ð°":3552,"Ð¾Ð²Ð°Ð½Ð°":3553,"Ð·Ñı":3554,"ÑĩÐ¸ÑĪ":3555,"ĠÑĩÑĥÑĶ":3556,"Ð°Ð·Ñĸ":3557,"Ð¾ÑĹÐ²":3558,"ĠÐ¿ÑĸÐ´Ðº":3559,"Ð°Ð±Ð¸":3560,"ĠÐĶÐ°Ð½ÑĮÐºÐ¾":3561,"ĠÐŀÑħ":3562,"ĠÐ·Ð¼Ð°Ð³":3563,"ĠÐ·ÑĸÑĤÑħÐ½ÑĥÐ²":3564,"ĠÐ·Ð°Ð·Ð´":3565,"Ð½Ð°Ð¹Ð¾Ð¼":3566,"ĠÐºÑĢÑĥÐ³Ð¾Ð¼":3567,"ĠÐ¾ÑģÐ¾Ð±Ð»Ð¸Ð²Ð¾":3568,"ĠÐ·ÑĸÐ³":3569,"ĠÑĢÐ¾ÑĤÐ°":3570,"ĠÑıÐºÐ¸Ð¼Ð¸":3571,"ÑĶÐ¼Ð¾":3572,"Ð»ÑıÑħ":3573,"ÑĢÐµÐ²":3574,"Ð°Ð»ÑĮÐ½Ð¸Ð¹":3575,"ĠÐ§ÐµÑĢÐµÐ·":3576,"ĠÐ·Ð²Ð°Ð¶":3577,"ĠÐ·Ð°Ð³Ð¾ÑĢ":3578,"ĠÐ·Ð½Ð°Ð¹ÑĪÐ¾Ð²":3579,"Ð§Ð¸":3580,"ĠÑħÐ°Ð·ÑıÐ¹":3581,"ĠÑĤÐ¸Ð¶Ð´ÐµÐ½ÑĮ":3582,"Ð»ÑĸÐ¹":3583,"Ð²Ð°Ð½Ð°":3584,"ĠÐ³Ð°Ñģ":3585,"ĠÑħÐ¸Ð¼":3586,"ÑĥÑĤÑĥ":3587,"ĠÑģÐµÐ»Ñĸ":3588,"ĠÐĽÐ¾Ð±":3589,"ÑĢÑıÑģ":3590,"ĠÐ¿ÑĢÐ¸Ð¹ÑĪÐ»Ð°":3591,"ĠÐ´Ð¾ÑĢÐ¾Ð³Ð¸":3592,"ĠÐ¼Ð°Ð¼Ð¾":3593,"ÐºÐ°Ð¼":3594,"Ð¾Ð²Ð¸Ð¼":3595,"ĠÐºÐ°Ð±":3596,"ĠÐ»Ð¾Ð¶":3597,"ĠÐ¿ÑĢÐµ":3598,"ĠÐ¡Ð¸Ð½Ð¸":3599,"Ð½ÐµÑĪ":3600,"ÑĢÐ°ÑĦ":3601,"ÑĸÐ·Ð°":3602,"ĠÐ¼Ð¾Ð²Ð»ÑıÐ²":3603,"ĠÐ¿Ð¾ÑģÐ»ÑĥÑħ":3604,"ĠÐ¿Ð¾ÑĤÑĢÐµ":3605,"ĠÑĩÐ¾ÑĢÑĤ":3606,"ĠÐ©Ð¾ÑģÑĮ":3607,"ĠÐĿÑĸÑħÑĤÐ¾":3608,"ĠÐ·ÑĸÐ±ÑĢ":3609,"ĠÑıÐºÐ¾Ð³Ð¾ÑģÑĮ":3610,"ÑĩÑĸÐ²":3611,"ĠÐ³Ð°Ð·":3612,"ĠÐ³Ð¾Ð´Ñĸ":3613,"Ð½ÐµÐ½Ð¸Ð¹":3614,"Ð»Ð¸Ð²ÑĸÑģÑĤÑĮ":3615,"ÑĨÐµÐ²Ñĸ":3616,"ĠÐ´Ð²Ð¾ÑĶ":3617,"ĠÐ¿Ð¾Ð¼Ð°Ð»Ñĥ":3618,"ĠÑĨÑĸÐ»ÐºÐ¾Ð¼":3619,"ĠÐ²Ð¸ÐºÐ¾Ð½":3620,"ĠÐ¼Ð¾Ð»Ð¾Ð´Ñĸ":3621,"ĠÐ´Ð°ÑĤÐ¸":3622,"ÑĪÐ½Ðµ":3623,"Ð°Ð½ÐºÐ¸":3624,"Ð·ÐµÐ¼":3625,"ĠÐ¾Ð¿ÐµÑĢ":3626,"ĠÐ³ÐµÐ½ÐµÑĢ":3627,"ĠÑĩÐ¾Ð²":3628,"ÑĸÑĤÑĤÑı":3629,"ĠÐ¿ÑĸÐ´Ð±":3630,"ĠÐ¿ÑĸÐ´Ð²ÑĸÐ²":3631,"ĠÑģÐ°Ð¼Ð¾ÑĹ":3632,"ĠÑģÐ¾ÑĢÐ¾Ð¼":3633,"Ð²ÐµÑĩÐµÑĢÑĸ":3634,"ĠÐ·Ð°Ð½Ð°Ð´ÑĤÐ¾":3635,"Ð¸Ðº":3636,"ÑĢÐ¾Ð³Ð¾":3637,"ĠÐ¿ÑĤÐ°Ñħ":3638,"ĠÐ·Ð¼Ñĥ":3639,"ÑĢÐ¸Ð´":3640,"ĠÐ³Ð¾Ð´":3641,"ĠÐ²Ð¸ÑģÑĤÑĥÐ¿":3642,"Ð»ÑıÐ»Ð°":3643,"ÐµÑĢÐµÑħ":3644,"ĠÐ²ÑĸÐ´Ðº":3645,"ĠÐ´Ð¸Ð²Ð¸Ð»Ð°ÑģÑı":3646,"ĠÐ¿Ð¾Ð¿ÑĸÐ´":3647,"ĠÑĤÐ²ÐµÑĢ":3648,"ĠÐ¿ÑĢÐ¸Ð¹Ð´Ðµ":3649,"ĠÐ¿Ð¾Ð·Ð°":3650,"ĠÐºÑĢÑĥÑĤÐ¸":3651,"ĠÐ¾Ð´ÐºÐ°Ð·Ð°Ð²":3652,"ĠÐ±Ð°Ð¶Ð°Ð½Ð½Ñı":3653,"ĠÐ´Ð¾Ð·Ð²":3654,"ĠÐ´Ð¾Ð½ÑĮ":3655,"ĠÐ±Ð¾Ð¼":3656,"ĠÐºÑĸÑģÑĤ":3657,"ÑĸÐ½Ð½Ñĸ":3658,"ÐµÐ½Ð¾ÑĹ":3659,"ÐµÐ½Ð½Ð¸Ð¹":3660,"ĠÐ»Ñĸ":3661,"ĠÐ²Ð¸Ð±Ñĥ":3662,"ĠÐ±ÑĥÐ¹":3663,"ÑĸÑĤÐ½Ð¾":3664,"ĠÐľÐ°Ð»":3665,"Ð¾ÑĩÐ½Ð¾":3666,"ĠÐ¿ÐµÑĢÐµÑģÑĤ":3667,"ĠÐĵÑĥ":3668,"ĠÐ´Ð²Ð¾ÑĢÑĸ":3669,"ÐĴÑĸÐ´":3670,"ĠÐ¿Ð¾ÑģÐ°Ð´":3671,"ĠÐ¿Ð¾Ð¼ÐµÑĢ":3672,"ĠÐ¿Ð°Ð½Ðµ":3673,"ĠÑĪÐ²Ð¸Ð´ÑĪÐµ":3674,"ĠÑģÐ½ÑĸÐ³Ñĥ":3675,"ÑĸÐ±ÑĢ":3676,"ÑĢÐ°Ð±":3677,"ÑĤÐ°Ð¼Ð¸":3678,"ĠÑģÐ°Ð½":3679,"Ð¼Ð°Ñħ":3680,"ĠÑĤÐ¾ÑĹ":3681,"ĠÑģÑĤÐ°ÑĶ":3682,"Ð½ÑıÐ»Ð°":3683,"ĠÐŁÐµÑĢÐµÐ´":3684,"ĠÐŁÑĸÑģÐ»Ñı":3685,"ĠÐ¯ÐºÐ¸Ð¹":3686,"Ð½ÑĮÐ¾Ñİ":3687,"ĠÐ¼Ð¾Ð³Ð»Ð¾":3688,"ĠÐ±ÑĢÐ°ÑĤÐ°":3689,"ĠÐĳÑĥÐ»Ð¾":3690,"ĠÑħÐ¾ÑĩÐµÑĤÑĮÑģÑı":3691,"ĠÐ¼Ð¾Ð»Ð¾Ð´Ð¸Ð¹":3692,"ÑĤÐºÐ¸":3693,"ĠÐ¿Ð°Ð½Ñĸ":3694,"Ð¼Ð°ÑĤÐ¸":3695,"ĠÐ·Ð±Ð¸":3696,"Ð¾Ð²ÑĸÐ¹":3697,"ĠÐ¼Ð°Ñİ":3698,"Ð¾Ð½Ð¾Ð¼":3699,"ĠÑħÐ¼Ð°ÑĢÐ¸":3700,"ĠÐ²Ð¸ÑīÐµ":3701,"ĠÐ²ÑĸÐ´Ð´Ð°Ð²":3702,"ĠÐ¿ÑĢÐ¸Ð´":3703,"ĠÑģÐ°Ð¼Ð¸Ñħ":3704,"ĠÐŀÐ½":3705,"ĠÐ¼Ð¸ÑĢ":3706,"ĠÐ·Ð°Ð¿Ð¸Ñģ":3707,"ĠÐ²ÐµÐ»Ð¸ÐºÐ°":3708,"ĠÐ´Ð¾Ð±ÑĢÐ¸Ð¹":3709,"ĠÐ¶Ð¸ÑĤÑĤÑĸ":3710,"ĠÐ¼Ð°Ð¹Ð±ÑĥÑĤ":3711,"ĠÑĤÑĥÐ¼Ð°Ð½":3712,"ĠÑģÐ°Ð¼Ð¸Ð¹":3713,"Ð¸Ð»Ð¾ÑģÑı":3714,"ĠÐ·Ð¾ÑĢÑĸ":3715,"ĠÐ´Ñı":3716,"ÑĪÑĤÐ¾Ð²":3717,"Ð¿ÑĢÐ°Ð²":3718,"ĠÐ½ÐµÑģÑĤ":3719,"Ð»ÑıÐ³":3720,"ĠÑģÐ²ÑĸÑĩ":3721,"ĠÑģÐ¿Ð°Ð´":3722,"ĠÑĪÐ°Ð»":3723,"ĠÐ¿ÑĸÐ´Ð²Ðµ":3724,"ĠÑģÐºÐ¾ÑĢ":3725,"ĠÐ¯ÐºÐ°":3726,"ÑĢÐ¾ÑĩÐ¸":3727,"Ð»Ð¸Ð²Ñĥ":3728,"ĠÐ·Ð²Ñĥ":3729,"ĠÑĢÐ¾Ð±Ð¾ÑĤÑĥ":3730,"ĠÐ·Ð°ÑģÐ¿Ð¾Ðº":3731,"ĠÑĤÐ²ÐµÑĢÐ´":3732,"ĠÑģÐ¾Ð½ÑĨÐµÐ¼":3733,"ĠÐ´Ð¾Ð»Ð¾Ð½":3734,"ÑĢÐµÑĪÑĤÐ¾Ñİ":3735,"Ð¾ÑĨÑĸ":3736,"ĠÐ²Ð±":3737,"ĠÐ²ÑĤÐµ":3738,"ĠÐ±Ð¾ÐºÐ¸":3739,"ĠÐºÐ°":3740,"ĠÐ½Ð°ÑģÑĤÑĥÐ¿":3741,"Ð½Ð°ÑĶ":3742,"Ð°Ð±Ð°ÑĢÐ¾Ð¼":3743,"ĠÐ¿ÐµÑĢÐµÑħ":3744,"ĠÐ±ÐµÐ·Ð»ÑĸÑĩ":3745,"Ð¢Ðµ":3746,"ĠÐºÐ¸Ð½ÑĥÐ²":3747,"ĠÐ¼Ð¾ÑĢÑı":3748,"ÐĵÑĸ":3749,"ĠÐ²Ð¸Ð¹ÑĪÐ»Ð°":3750,"ÐłÐ¾Ð·":3751,"ĠÑĩÐµÐºÐ°Ð²":3752,"ĠÑģÐ¿Ð¸Ð½Ð¾Ñİ":3753,"ĠÐ·Ð°ÑģÐ¼ÑĸÑıÐ²ÑģÑı":3754,"ÑĢÐ°Ð¶":3755,"ĠÐ½Ð¸ÑĤ":3756,"ĠÑģÐ»Ñĸ":3757,"ÐµÐ½Ð½Ð¾":3758,"ĠÐ¶Ð´":3759,"Ð¸Ð¼Ð°":3760,"ÑĪÐ¸Ð»Ð°":3761,"ĠÐ·Ð½Ð°Ðº":3762,"Ð¾Ð¹Ð½Ð¾":3763,"ĠÐ·Ð´ÑĢÐ¸Ð³":3764,"ĠÐ²ÑĥÑħÐ°":3765,"ÐºÐ¾Ð²Ð¸Ð¹":3766,"ĠÐ»ÑĸÑĤÐµÑĢ":3767,"ĠÑĤÐ°Ð½ÑĨÑİ":3768,"Ð¸ÑģÑĮ":3769,"Ð²Ð¾Ð³Ð¾":3770,"ÑıÐºÑĸ":3771,"ĠÑģÐ¼Ñĥ":3772,"ĠÑĸÑģÐ½ÑĥÐ²":3773,"ĠÑĢÐ¾ÐºÑĥ":3774,"ĠÑĥÑĩ":3775,"Ð°ÑĢÐµ":3776,"ĠÐŀÐ´Ð¸Ð½":3777,"ĠÐ·ÐµÐ¼Ð»ÐµÑİ":3778,"ĠÐ·Ð½Ð°ÑİÑĩÐ¸":3779,"ĠÑģÐµÑĢÑĨÐµÐ¼":3780,"ĠÑĩÑĥÐ»Ð°":3781,"ĠÑģÑĤÐµÐ¿":3782,"ĠÐ·Ð½Ð°ÑĶÑĤÐµ":3783,"ĠÐºÐ¾Ð¼Ð°Ð½":3784,"ĠÐ¿Ð¾Ð´ÑĸÐ±":3785,"ĠÐ¾Ð´Ð½Ð°ÐºÐ¾Ð²Ð¾":3786,"ÑĸÑģÑĤÑİ":3787,"ÐµÑģÑĤÐ¸":3788,"ĠÐºÐ½Ñı":3789,"ĠÐ½ÐµÐ±Ðµ":3790,"Ð»Ð¸ÑĤÐ¸":3791,"ĠÑĥÐº":3792,"ĠÐ²ÑĸÐ´ÑģÑĤÑĥÐ¿":3793,"ĠÐŁÐ¾Ñģ":3794,"ĠÐĿÐ°Ð¹":3795,"ĠÐľÐ°ÑĤ":3796,"ĠÐ¿ÑĸÐ´ÑģÑĤÑĥÐ¿":3797,"ÑĢÐ¾Ñī":3798,"Ð¼ÐµÐ½Ñĸ":3799,"ĠÐ¿Ð¾Ð»Ñĸ":3800,"ĠÐ´Ð¾Ð±ÑĢÐ¾":3801,"ĠÐ¿Ð¸Ð»ÑĮ":3802,"ĠÐ±Ð°ÑĩÐ¸Ð»Ð¸":3803,"ĠÐ»ÐµÐ¶Ð°Ð»Ð°":3804,"ĠÐºÑĥÑĤÐºÑĥ":3805,"ĠÐ´ÑĸÐ²ÑĩÐ°ÑĤÐ°":3806,"ĠÐ¡ÐµÑĢÐ³ÑĶÑĶÐ²":3807,"ĠÐ²Ð¼Ð¸ÑĢ":3808,"ĠÐ·Ð¾ÑĢ":3809,"ĠÑĤÐ°Ð±":3810,"Ð¾Ð²Ð¶":3811,"Ð¾Ð²ÑĸÑĢ":3812,"ĠÐºÐ°ÑĤ":3813,"ĠÐļÐ°ÑĤ":3814,"ĠÐ´Ð²Ð°Ð´ÑĨÑıÑĤÑĮ":3815,"ĠÐ¿Ð¾Ð¼ÑĸÐ¶":3816,"ĠÑĩÐ¾ÑĢÐ½Ð°":3817,"ĠÐ¿ÑĸÑģÐ½Ñı":3818,"ĠÐºÑĸÐ½ÐµÑĨÑĮ":3819,"ĠÐ¿Ð¾Ð´ÑĥÐ¼Ð°Ð»Ð°":3820,"ĠÐºÑĢÐ°ÑģÑĥ":3821,"Ġ19":3822,"ÑģÐ²ÑĸÑĤ":3823,"ĠÐ´ÑĸÑı":3824,"ÐµÑĢÐ²":3825,"Ð·Ð°Ð´Ðµ":3826,"ĠÐ²ÑĸÐ´ÑĩÐ¸Ð½Ð¸":3827,"ĠÐ¿ÑĸÐ´ÑĸÐ¹Ð¼":3828,"ĠÑģÐ¸Ð½ÑĸÐ²":3829,"ÐĴÐ¾Ð½Ð¸":3830,"ÑĢÑĥÐ³Ðµ":3831,"ĠÑĸÐ½ÑģÑĤÐ¸":3832,"ĠÐ·Ð½Ð°ÑĩÐ¸ÑĤÑĮ":3833,"ĠÑĤÑĢÐ¸Ð²Ð¾Ð¶":3834,"ĠÑħÐ¸Ð¼ÐµÑĢ":3835,"Ð»ÐµÐ½Ðµ":3836,"ĠÐ·ÑĢÑĥ":3837,"ĠÐ´Ð¾Ð¼Ñĥ":3838,"ÑģÑıÑĤÑĮ":3839,"Ð¾Ð»Ð¾Ð²Ñĸ":3840,"ĠÑīÐ¾ÑĢ":3841,"Ð½ÑĸÐ¼Ð¸":3842,"ĠÐ»Ð°Ð´":3843,"ĠÑħÐ°":3844,"Ð»ÑıÑİÑĩÐ¸":3845,"Ð½ÑıÐ»Ð¸":3846,"ĠÐĲÐ´Ð¶Ðµ":3847,"Ð°Ð¶Ð¸":3848,"ĠÐ±ÐµÐ·Ñģ":3849,"Ð°ÑĢÐ¸Ð¹":3850,"Ð´ÑĸÑĤÑĮ":3851,"ĠÐºÐ¸Ð½ÑĥÐ²ÑģÑı":3852,"ĠÑĤÑĢÐ°Ð³":3853,"ĠÑħÐ°ÑĤÐ°":3854,"ĠÐ·Ð°Ð´Ð¾Ð²Ð¾Ð»":3855,"ĠÑħÐ²Ð¸Ð»Ñĸ":3856,"ĠÐºÑĥÐ´Ð¸ÑģÑĮ":3857,"ĠÐ½Ð°Ð²ÑĸÐºÐ¸":3858,"ÐºÑĤÐ¾ÑĢ":3859,"ĠÐ²Ð°Ð²Ð¸Ð»Ð¾Ð½":3860,"ĠÐ±Ð¾Ñİ":3861,"Ð±Ð»Ñĥ":3862,"ĠÑĸÑĤÐ¸":3863,"ĠÐ½Ð°Ñħ":3864,"ĠÐ¾ÐºÐ¾Ð¼":3865,"ĠÐ¿ÑĢÐ¸ÑĶÐ¼":3866,"ĠÐŁÑĢÐ¸Ð¹":3867,"ĠÐ¿ÑĸÐ´Ðµ":3868,"ĠÐ¿ÑĸÐ´ÑģÑĤÐ°Ð²":3869,"ĠÐ¿ÐµÑĢÐµÐºÐ¾Ð½":3870,"ÑĸÐ¼Ð¾":3871,"ĠÑģÐ¸Ð»ÑĮ":3872,"ĠÐłÐ°Ð´":3873,"ĠÐ´Ð¸Ð²Ð¸Ð»Ð¸ÑģÑı":3874,"ĠÐºÑĥÐ»ÑĮ":3875,"ĠÑĦÑĸÐ»Ð¾ÑģÐ¾ÑĦ":3876,"ĠÑĢÐµÑĪ":3877,"ÐľÐ¸":3878,"ĠÐ±Ð°ÑĩÐ¸ÑĤÑĮ":3879,"ĠÐ¿Ð¾ÑħÐ¼Ñĥ":3880,"ÑħÐ¾Ð¿Ð¸Ð²":3881,"ĠÑĪÐºÑĸÑĢ":3882,"ĠÐ±ÐµÐ·Ð³Ð»Ñĥ":3883,"Ð¾ÑĤÑĮ":3884,"ÑĩÐ½Ð¾Ð³Ð¾":3885,"ÑģÑĤÑĢÐ¸":3886,"Ð¾ÑĢÐ´":3887,"ÑĸÐ½ÐºÐ¸":3888,"ĠÐ¶ÐµÑĢÑĤ":3889,"ĠÐĲÐ»Ñĸ":3890,"Ð¾ÑģÐ»Ð¾Ð²":3891,"Ð¼ÑĸÑĪ":3892,"Ð¼ÐµÑĪ":3893,"ĠÐ³Ð¾ÑĢÑĥ":3894,"ĠÐ¿Ð¾Ð±Ð°ÑĩÐ¸ÑĤÐ¸":3895,"ĠÐ²ÐµÑĩÐ¾ÑĢÐ°":3896,"ĠÑģÑĥÐ¼Ð½Ð¾":3897,"ĠÑĪÐ¸Ñİ":3898,"Ð»ÑĥÐ¼":3899,"ÑĩÐ¾Ð¼Ñĥ":3900,"ĠÐºÑĥÐ¼":3901,"ĠÐ½Ð°ÑģÑĤÐ°Ð²":3902,"Ð½Ð¸Ñī":3903,"Ð¾ÑĢÐ¾Ð±":3904,"ĠÐ¿Ð¾ÑĢÐ¸Ð²":3905,"ĠÐ¢Ñĸ":3906,"ĠÑĪÐ¸Ð½":3907,"Ð´ÑĥÑĩÐ¸":3908,"ÑĢÑĥÐ³Ð¸":3909,"ĠÐ¿Ð¾Ð·Ð¸":3910,"ĠÑĨÑĸÐ»Ñĥ":3911,"ĠÐ»ÐµÐ¶Ð¸ÑĤÑĮ":3912,"ÑĥÑĪÐ½Ñı":3913,"ĠÐ·ÐµÐ»ÐµÐ½Ñĸ":3914,"ĠÐĵÐ°ÑģÐ°Ð½":3915,"Ð¼Ð¾Ðº":3916,"Ð»Ð¸ÑĨÑĸ":3917,"ĠÐ¿ÑĢÐ¾ÐºÐ¸":3918,"ĠÐŁÐ¾Ñĩ":3919,"ĠÐ´ÑĥÑĪ":3920,"ĠÐ±Ð°ÑĩÑĥ":3921,"ĠÐ·Ð´Ð¾ÑĢ":3922,"ĠÐłÐ¾Ð¼Ð°Ð½":3923,"ĠÐ´Ð¾Ð±ÑĢÑĸ":3924,"ĠÑģÑħÑĸÐ´":3925,"ĠÐ¿Ð¸ÑĪ":3926,"!!.":3927,"Ġ*":3928,"ÐµÑĤÑĥ":3929,"ÐºÑĢÐµÑĤ":3930,"ĠÐºÐ¾Ð»Ð¾Ð´":3931,"Ð½Ð¸Ð²ÑģÑı":3932,"Ð½ÑĸÐ¿":3933,"ĠÐ¿ÑĢÐ°Ð³":3934,"Ð°Ð±Ð¸ÑĢ":3935,"ĠÐ¾Ð±ÐµÑĢÐµÐ¶":3936,"ĠÐ¾Ð´Ð½ÑĸÐ¹":3937,"ÑĤÐ¾ÑĢÐ¸":3938,"ĠÐĶÐ¾Ð½":3939,"ĠÐŀÐ¹":3940,"ĠÐ¿Ð¾Ð´ÑĥÑĪ":3941,"ĠÐºÐ¾Ð»ÑĸÐ½":3942,"ĠÐĳÑĥÐ±Ðµ":3943,"ĠÑĢÐ¾Ð·Ð³ÑĥÐ±":3944,"ĠÐ¿Ð¾Ð½Ð°Ð´":3945,"ĠÐºÑĸÐ¼Ð½Ð°ÑĤÐ¸":3946,"ĠÐ¼Ð¾Ð»Ð¸ÑĤ":3947,"Ð½ÐºÐ¸":3948,"Ð»Ð°Ð³":3949,"ĠÐ·Ð°Ð¶":3950,"Ð¿ÑĢÐ¸":3951,"ÐµÑĢÑħ":3952,"ÐµÑĢÐ±":3953,"ĠÐ½Ð°Ñĥ":3954,"Ð³Ð¾ÑĢÑĸ":3955,"ĠÐ»Ð¾Ð²":3956,"Ð½Ð¾ÑĩÐ°Ñģ":3957,"ĠÑģÑĤÑĸÐ»ÑĮ":3958,"Ð½ÑĥÐ»Ð¸ÑģÑĮ":3959,"Ð¶ÐµÐ½Ð¸Ð¹":3960,"ĠÐĶÐ¶":3961,"ĠÐ´ÑĥÐ¼Ð°ÑĤÐ¸":3962,"ÑħÐ¾Ð´Ð¸ÑĤÐ¸":3963,"ĠÐ´ÐµÑĢÐµÐ²Ð¾":3964,"ĠÐ²ÑĥÐ»Ð¸ÑĨÑİ":3965,"ĠÑģÑĤÐ°Ð½Ð¾Ð²Ð¸":3966,"Ð»Ð°Ð»Ð°":3967,"ÐºÐ¾Ð²Ñĥ":3968,"ĠÐ·Ð¸ÑĢ":3969,"ÐµÑĢÑĸÐ²":3970,"Ð»Ð°ÑĤÐ¸":3971,"ĠÑħÑĥÑģÑĤ":3972,"ĠÑģÑĤÑĢÐ¸Ð±":3973,"ÐµÑĢÐµÐ³":3974,"ĠÐ¢Ð¾Ð¼Ñĥ":3975,"ÑĸÑĤÑĸ":3976,"ĠÐŁÐ¾Ð´":3977,"Ð¾Ð´Ð¸Ð»Ð¸":3978,"ĠÑĹÑħÐ½ÑĸÐ¹":3979,"ĠÐ»Ð¸Ð±Ð¾Ð½ÑĮ":3980,"ĠÐ´Ð¸Ð²Ð¸ÑĤÐ¸ÑģÑı":3981,"ĠÑĢÐ¾Ð±Ð¸ÑĤÑĮ":3982,"ĠÐ´ÑĢÑĥÐ³Ñĸ":3983,"ĠÐºÐ°Ð·Ð°ÑĤÐ¸":3984,"ĠÐ²Ð¸ÑģÐ¾ÐºÐ¸Ð¹":3985,"ĠÐ¾Ð´ÐºÐ°Ð·Ð°Ð»Ð°":3986,"ĠÐ³Ð»Ð¸Ð±Ð¾ÐºÐ¾":3987,"ĠÐ½Ð°Ð¹Ð±ÑĸÐ»ÑĮÑĪÐµ":3988,"ĠÐ·Ð²ÐµÐ»ÑĸÐ²":3989,"ĠÐĵÐ¾ÑģÐ¿Ð¾Ð´Ð¸":3990,"ÑıÑĤÐ¸ÑģÑı":3991,"ĠÐ²ÑĸÑģ":3992,"ĠÐ½Ð¾Ð¶":3993,"ĠÐ·Ð°Ð½Ðµ":3994,"ĠÑĩÐ°ÑĢÑĸÐ²":3995,"ĠÐ¿Ð¾ÑĤÑĸ":3996,"Ð´Ð¸Ñħ":3997,"ĠÐ½ÑĸÑģ":3998,"ĠÐ¿ÑĸÐ´Ð´":3999,"ÑĤÑıÐ¼":4000,"ĠÑĤÐ¸ÑĪÐ°":4001,"ĠÐ´ÑĥÑĪÐµÑİ":4002,"ĠÐ¿Ð¾Ð´Ð°ÑĢ":4003,"ĠÑģÐ²ÑĸÑĤÐ¾Ð¼":4004,"ĠÐ³Ð¾ÑĢÐ±":4005,"ĠÐ½Ð°Ð¿ÑĸÐ²":4006,"ĠÐ¥ÑĢÐ¸ÑģÑĤÐµ":4007,"ÐĶÐ¾":4008,"ĠÑģÑħÐ¾Ð¶":4009,"ÑģÐºÑĢÐ°Ð²":4010,"ĠÐ´Ð¾Ð´Ð°Ð²":4011,"ĠÐºÐ¾Ð³Ð¾ÑģÑĮ":4012,"ĠÐ»Ð¸ÑħÐ¾":4013,"ĠÑĤÐµÐ¿Ð»Ð¾":4014,"ĠÐĶÐ¼Ð¸ÑĤÑĢÐ¸":4015,"ĠÐ¾Ð±ÑĸÑĨÑı":4016,"ĠÐ±ÑĢÐ°Ð²":4017,"ĠÐ³ÑĢÐ¸Ð¼":4018,"ĠÐ²Ð¸ÑıÐ²Ð¸":4019,"Ð»ÑıÑĤÑĮÑģÑı":4020,"ĠÐ¶Ð¸Ð»Ð°":4021,"Ð¾Ð¶Ð¸Ð²":4022,"Ð´Ð¸ÑĤÐ¸":4023,"ĠÑĢÑĥÐºÐ°Ð²":4024,"ĠÑģÐ¸Ð½Ñĥ":4025,"ĠÐ½Ð°Ð¿Ð¾Ð²":4026,"ĠÑģÐ¾Ð±Ð¾ÑĢ":4027,"ĠÐ·Ð½Ð°Ð¹ÑĤÐ¸":4028,"ĠÐŁÐµÑĤÑĢ":4029,"Ð²Ð°ÑĢÐ´Ð¾Ð²":4030,"ĠÐ¿ÐµÐ²Ð½Ð¾":4031,"ĠÐ¶Ð¾Ð´Ð½Ð¾Ð³Ð¾":4032,"ĠÐºÑĢÐ¸Ð²Ð°Ð²":4033,"ĠÐ¿ÑĸÑĢ":4034,"ĠÑģÐ»ÑĸÐ¿":4035,"ÑĩÐ°Ñħ":4036,"Ð¾Ð²Ð¾Ñİ":4037,"ÑĪÐ¾Ð¼Ñĥ":4038,"ÑĤÐ¸ÑĢ":4039,"ĠÐ±Ð¾Ð³Ð°":4040,"ĠÑĢÐ°Ð½ÐºÑĥ":4041,"ĠÑıÐ±Ð»Ñĥ":4042,"ĠÐ°ÑĢÐµÑĪ":4043,"ÐºÐ¾ÑĩÐ¸Ð²":4044,"ĠÑģÐ°Ð¼Ñĥ":4045,"Ð»Ð¸Ð²Ð¸Ñħ":4046,"ÑıÐ²Ð¸Ð²ÑģÑı":4047,"ĠÐ»Ð¸ÑģÑĤÑı":4048,"ĠÐ´Ð¸Ð²Ð½Ð¾":4049,"Ð¼ÐµÑĨÑĮ":4050,"ÐŁÐ¾ÑĤ":4051,"ĠÑģÑĤÑĢÑĸÐ»":4052,"ĠÑģÐ»ÑĸÐ´ÑĩÐ¸Ð¹":4053,"ĠÐ±ÑĥÐ´ÑĸÐ²":4054,"ÑģÐµÑĢÐ´":4055,"ĠÐ²ÑĤÐ¾Ð¼":4056,"Ð¾Ð²Ð³Ð¾":4057,"ĠÑĢÐµÐ¼":4058,"ÑĩÐ¸ÑĤÐµ":4059,"ĠÑĨÑĸÐ»Ð¸":4060,"ĠÐ¿ÑĢÐ¸ÑģÑĤ":4061,"ĠÐŁÐ¾Ð¼":4062,"ĠÑĪÑĤÐ°Ð½":4063,"ÑĩÐµÐ½Ð¸Ñħ":4064,"ĠÑīÐµÐ´":4065,"ĠÐ·Ð°Ð¿Ð»Ð°Ðº":4066,"ĠÐ¿Ð¾Ð»Ñĥ":4067,"ĠÐ¼ÑĥÑģÐ¸Ð²":4068,"ĠÐ¿Ð¾Ð³Ð°Ñģ":4069,"Ð¼Ð¾Ð²ÑĸÑĢ":4070,"ĠÑĤÐµÐ¼Ð½Ñĸ":4071,"Ð§ÑĸÐ¿":4072,"ĠÑģÐºÑĢÐ¸ÐºÐ½ÑĥÐ²":4073,"ÐºÑģÐ°Ð½Ð´":4074,"ĠÐĿÐ°ÑĤÐ°Ð»ÐºÐ°":4075,"ĠÐ¡Ð¾ÐºÐ¾Ð»Ñİ":4076,"ĠÐ²ÑĸÐ·Ð¸ÑĢÐ°":4077,"ÐµÐ»Ñİ":4078,"Ð²Ð°Ð»Ð°ÑģÑı":4079,"ĠÐ±ÑĸÐ¶":4080,"ÐµÑĢÐ·":4081,"ĠÐºÐ»Ð°":4082,"Ð°Ð½Ð¸Ð¼":4083,"ĠÐ½Ð°ÑĪÐ°":4084,"Ð¾Ð·Ð½Ð°":4085,"ĠÑģÐ²Ð¾Ð±":4086,"ĠÑģÐ¿Ð¾Ñģ":4087,"Ð´ÐµÑģÑı":4088,"ÑĸÑĩÐ½Ð¾":4089,"ĠÐºÐ¾Ð»ÑĮ":4090,"ĠÐ·Ð°ÐºÑĢÐ¸Ð²":4091,"ĠÐ¥ÑĢÐ¸ÑģÑĤÑİ":4092,"ĠÐ²ÑĸÑĩÑĸ":4093,"ĠÑĪÐ»ÑıÑħÑĥ":4094,"ĠÐ±Ð»Ð¸Ð·ÑĮÐºÐ¾":4095,"ĠÐ²Ð°ÑĤ":4096,"ĠÑģÐ¸Ð¼":4097,"ÑĩÐ½Ðµ":4098,"ĠÐ¼Ð°Ð½":4099,"ÑĩÐ¸Ð½Ñĸ":4100,"ĠÐľÐ°Ñħ":4101,"ĠÐ¿ÐµÑĢÐµÐ»ÑıÐº":4102,"ĠÑĢÑĥÑĹ":4103,"ĠÑĤÑĸÐ½Ñĸ":4104,"ĠÑĢÐ¾Ð±Ð¸Ð²":4105,"ĠÐ±ÑĢÐ¾Ð²Ð¸":4106,"ĠÑĩÐ¾ÑĢÐ½Ð¸Ð¹":4107,"ĠÐ³Ð°ÑĢÐ½Ð¾":4108,"ĠÐ·Ð³Ð¾ÑĢ":4109,"ÑħÐ¾Ð´ÑıÑĤÑĮ":4110,"ĠÐ¿Ð¾Ð²ÑĸÑĤÑĢÑĸ":4111,"ĠÑĨÐ¸Ð³Ð°ÑĢ":4112,"ĠÐ°Ð»Ð»Ð°Ñħ":4113,"Ġ2":4114,"ĠÐ½Ð°ÑĪÐ¾Ð³Ð¾":4115,"Ð·Ð»ÑıÑĢ":4116,"Ð¾ÑĢÐ¾ÑĪ":4117,"ĠÑĩÑĸÐ¿":4118,"ĠÑģÑĤÑĢÐ¸Ð¼":4119,"ÑĸÐ¹ÐºÐ°":4120,"ÐºÑĥÐ´Ð¸":4121,"ĠÐĲÐ·":4122,"ĠÐĶÑĥÐ¼":4123,"Ð±Ð¸ÑĤÐ¸":4124,"ĠÑĸÐ½Ð°Ðº":4125,"Ð¢Ð¾":4126,"ĠÐ²Ð¸Ð´Ð°Ð²":4127,"ĠÐºÐ¾Ð¶Ð½Ð¾Ð¼Ñĥ":4128,"ĠÐ½Ð¸Ð·":4129,"ĠÐ¿Ð»Ð°Ñĩ":4130,"ĠÐ³ÑĸÑĢÐºÐ¾":4131,"ĠÐ´Ð¸ÑĤÐ¸Ð½Ð°":4132,"ĠÑīÐ¾Ð´Ð½Ñı":4133,"ĠÐ¿Ð¾Ð¼ÑĸÑĤÐ¸Ð²":4134,"ÑĢÐ¾Ðº":4135,"ĠÐ²Ð¸Ð½Ð¾":4136,"ĠÑģÐ²ÑĸÐ´Ð¾Ð¼":4137,"ĠÐĿÐ°ÑĢÐµÑĪÑĤÑĸ":4138,"ĠÐľÐ¾Ð¶":4139,"ĠÐ»ÑİÐ»ÑĮ":4140,"ĠÐ´ÑĥÐ±":4141,"ĠÐ±Ð¾ÑıÐ²ÑģÑı":4142,"ĠÑģÑĤÐ°ÑĢÑĪÐ¸":4143,"ÐŀÑĤ":4144,"ĠÐ³Ð¾Ð»Ð¾ÑģÐ½Ð¾":4145,"ÑĥÐ²Ð°Ð»Ð°ÑģÑĮ":4146,"ĠÐ¿Ð¸ÑģÑĮ":4147,"ĠÑģÑĤÑĢÐ°Ð¶":4148,"ĠÑģÑĤÐ¾ÑĢÐ¾Ð¶":4149,"ĠÐ²ÑĸÐ´Ð¿Ð¾Ð²Ñĸ":4150,"ÐºÐ°Ð½Ð½Ñı":4151,"ĠÐ²ÑĢÑı":4152,"ĠÐ²Ð±Ð¸Ð²":4153,"Ð´ÑĸÐ²":4154,"Ð°Ð»Ð¾Ð¼":4155,"Ð»Ð¸Ð¿":4156,"Ð½Ð¸ÑĨÐµÑİ":4157,"Ð½ÑĸÑĪÐ¸Ð¹":4158,"ĠÑĥÐ»ÑİÐ±":4159,"Ð°Ð¹Ð½Ð¾":4160,"Ð°Ð¿Ð¸":4161,"Ð²Ð¸Ð½":4162,"Ð»ÑĥÐ¶":4163,"ÑĤÑıÑĤÑĮ":4164,"ĠÐ¼Ð¸Ð½Ñĥ":4165,"ĠÐ±ÑĥÐ²Ð°ÑĶ":4166,"ĠÐ´ÑĥÐ¼Ð°ÑĶ":4167,"ĠÑĩÐµÑĢÐ³":4168,"ĠÐ½Ð°ÑĢÐ¾Ð´Ð¶":4169,"ĠÐ¿Ð»ÐµÑĩÐµ":4170,"ÑİÐ²Ð°ÑĤÐ¸":4171,"ÑĥÐ½Ð¾Ðº":4172,"ĠÐ½ÑĥÐ´ÑĮ":4173,"ĠÐ´Ð°ÑĶ":4174,"Ð¾Ð»Ðµ":4175,"ÑĸÐ»Ðµ":4176,"ĠÐ·Ð°ÑĤÐµ":4177,"ĠÐŁÐ°ÑĢ":4178,"ĠÐ¿Ð¾Ð»Ñİ":4179,"ÐºÐ¾Ð²Ðµ":4180,"Ð»Ð¸Ð²Ð¾ÑģÑĤÑĸ":4181,"ĠÐºÐ°ÑĢÐ±":4182,"ĠÑıÐºÐµÑģÑĮ":4183,"ĠÐ½Ð°ÑĩÐ°Ð»ÑĮÐ½Ð¸Ðº":4184,"ĠÑĤÐµÐ¼ÑĢÑıÐ²Ñĸ":4185,"ĠÐŁÑĢÐ¾ÑĨÐµÐ½ÐºÐ¾":4186,"ĠÐ´ÑĸÐ¼":4187,"ĠÐºÐ°Ð»":4188,"ĠÑĸÑĢ":4189,"Ð½ÑĸÑĪÑĸ":4190,"ĠÐ¿Ð¾ÑħÐ¾Ð´":4191,"ĠÐ¶Ð¸Ð»Ð¸":4192,"Ð¸Ð¼Ð¸ÑĢ":4193,"ĠÐ¿ÑĢÐ¸ÑĤÑĥ":4194,"ĠÐ¡Ð°Ð²":4195,"ĠÐ¿Ð¾Ð²Ð¾Ð»Ñĸ":4196,"Ð¸ÑĤÐ¸Ð¹":4197,"ĠÐ²ÐµÐ»Ð¸ÐºÑĥ":4198,"ĠÐ´ÑĢÑĥÐ³Ñĥ":4199,"ĠÐ¿ÐµÐº":4200,"ÑħÐ¾Ð´Ð¸Ð»Ð¾":4201,"ĠÐ½Ð¾Ð²Ð¾Ð³Ð¾":4202,"ĠÐ·Ð³Ð°Ð´Ð°Ð²":4203,"ĠÑĥÑģÑĸÐ¼Ð°":4204,"ĠÑģÐ¾Ðº":4205,"ĠÐ·Ð»Ñĸ":4206,"ÑĢÐ¸ÑģÑĤ":4207,"ĠÐ³Ð°Ð½":4208,"ĠÑĥÑĢÐ¾ÑĩÐ¸":4209,"ÑĸÐ²Ð½Ð°":4210,"ĠÑĩÐ°Ð¹":4211,"ĠÑħÐ°Ð»":4212,"Ð»ÑıÑİÑĤÑĮ":4213,"ĠÐ·Ð°ÑģÑĤÑĥÐ¿":4214,"ÐºÐ¾Ñħ":4215,"ĠÐĲÑħÐ¼Ðµ":4216,"ĠÐ²ÑĸÐ´Ñģ":4217,"Ð¾ÑĤÑĸÐ»Ð¸":4218,"ĠÑģÐ¿ÑĸÐ´":4219,"ĠÐ¾Ð±ÐµÑĢÑĤ":4220,"ĠÐ·Ð½Ð°ÑİÑĤÑĮ":4221,"ĠÐ´Ð¾Ð²ÑĸÐ´":4222,"ÑĥÐ²Ð°Ð»Ð¸ÑģÑĮ":4223,"ĠÐ¼Ð¾ÑĢÐ¾Ð·":4224,"ĠÐ¼Ð°ÑĶÑĪ":4225,"ĠÐ²Ð¾Ð³Ð½ÐµÐ¼":4226,"ĠÑĥÐ·ÑıÐ²":4227,"ĠÐ·ÑĢÐ¾Ð·ÑĥÐ¼ÑĸÐ²":4228,"ĠÐ¯Ð²ÑĤÑĥÑĪÐ¾Ðº":4229,"ÑĨÑĤÐ²Ð¾":4230,"ĠÑĨÐµÑĢÐºÐ²Ð¸":4231,"Ð°ÑĩÑĸ":4232,"ÑĢÐ°Ð¼Ð¸":4233,"ÐºÑĸÑĤ":4234,"ĠÐ²Ð°Ð¼Ð¸":4235,"ĠÐ½Ð°Ð»Ð¸Ð²":4236,"ÑĪÐºÐ¾Ð¼":4237,"Ð·Ð²Ð¸ÑĩÐ°Ð¹":4238,"ĠÑıÑģÐºÑĢÐ°Ð²":4239,"ĠÐ²ÑĸÐ´ÑĢÐ°Ð·Ñĥ":4240,"ĠÐŁÐ¾Ð¿":4241,"ĠÐ¾Ð±Ð´":4242,"ĠÐĶÐ°Ð½ÑĮ":4243,"ĠÐĶÐ½ÑĸÐ¿":4244,"ĠÐĵÐ¾Ð»":4245,"ĠÐĽÐµ":4246,"ĠÐ¿Ð¾Ð¿ÑĢÐ¾Ñģ":4247,"ĠÑĤÐ²Ð¾ÑĢ":4248,"ĠÐĶÐµÑģÑĮ":4249,"ĠÐ½Ð°Ð²ÑĸÑīÐ¾":4250,"Ð¸Ð¿":4251,"ĠÐ²Ð¾Ð´Ñĸ":4252,"ĠÑģÐ»ÑĸÐ·":4253,"ĠÐ·Ñĥ":4254,"ÑĩÐ½Ð¸Ñħ":4255,"ĠÐºÐ¾ÑĤÐ¸":4256,"Ð³ÑĸÑĢ":4257,"ĠÑģÑĤÑĥÐ´":4258,"ĠÑĨÐ²ÑĸÑĤ":4259,"ĠÑģÐ¿Ð°Ð²":4260,"ĠÑģÐ¿ÑĥÑģÑĤÐ¸":4261,"ĠÐ²ÑģÐ¼ÑĸÑħ":4262,"ĠÑģÐºÐ°ÑĢ":4263,"ĠÐ³Ð¾ÑĢÑĸ":4264,"ĠÐ¿Ð¾Ð»ÑĮ":4265,"ĠÐ´ÑĥÐ¼Ð°Ñİ":4266,"ĠÐ½Ð°Ð¹Ð¼ÐµÐ½":4267,"ĠÐ¿ÐµÑĢÑĪÐ¾Ð³Ð¾":4268,"ĠÑĤÑĢÐµÑĤÑĸÐ¹":4269,"ĠÐ²ÐµÑĢÐ±":4270,"ĠÐ³ÑĢÑĸÐ·":4271,"ĠÑĢÐ¾Ð·Ð³Ð»ÑıÐ´":4272,"ÑĸÑĢÑĥÐ½ÑĮ":4273,"ĠÐ½Ð°Ð¿ÐµÐ²Ð½Ð¾":4274,"ÑĤÑĥÐ²Ð°Ð²":4275,"ÑĩÐ½Ð°":4276,"ÐµÐ½ÐºÐ¾":4277,"ĠÐ²Ð¸ÑģÑĤÐ°Ð²":4278,"ĠÐĴÐ¾Ð½Ð¾":4279,"ĠÐ¢Ð¸Ñħ":4280,"ĠÑĤÐ°ÐºÐ¾Ð¼Ñĥ":4281,"ÑĢÑĥÐ±":4282,"ĠÐ¼ÑĸÑģÑĤ":4283,"ÑĤÑĥÑĶ":4284,"ĠÑĤÑĸÑĶÑİ":4285,"ĠÐ¿ÐµÑĢÑĪÐµ":4286,"ĠÐ´ÑĢÑĥÐ³Ðµ":4287,"Ð»ÐµÐ½Ð¾Ð³Ð¾":4288,"ÐºÐ¾Ð²Ð¾Ð³Ð¾":4289,"ĠÐ½ÐµÐ¿Ð¾Ð¼":4290,"ĠÐľÐ°ÐºÑģÐ¸Ð¼Ð¾Ð²Ñĸ":4291,"ĠÑģÑĤÑĢÐ°ÑħÑĥ":4292,"ĠÑĥÑģÑİ":4293,"ĠÐ²ÑĸÐ´ÑĩÑĥÐ²Ð°Ð²":4294,"ĠÑģÑĥÐ¿ÑĢÐ¾Ð²":4295,"ĠÐºÐ¾Ð·Ð°ÑĨÑĮ":4296,"ĠÐ½ÐµÐ´Ð°Ð²Ð½Ð¾":4297,"ĠÐŀÑĢÐ¸ÑĪÐºÐ°":4298,"ÑħÑĸÐ´":4299,"ÑĪÐ°Ð²":4300,"Ð¿ÐµÑĤ":4301,"ĠÐ¹Ð´ÑĥÑĤÑĮ":4302,"Ð¾Ð´ÑĮ":4303,"Ð¾ÐºÐ¾":4304,"ĠÐ·Ð°ÑĤÑĥ":4305,"ĠÐ¢Ð²Ð°ÑĢÐ´Ð¾Ð²":4306,"ĠÐ¡ÐºÐ°Ð·":4307,"ĠÑĪÐºÑĸ":4308,"Ð¾ÑĩÑĨÑĸ":4309,"ĠÐ½Ð°Ð´ÑĸÑĹ":4310,"ĠÐĽÑĥÑĪÐ½Ñı":4311,"ÐŁÑĸÐ´":4312,"Ð¢Ð¸":4313,"ĠÐ¿Ð¾Ð¿ÐµÑĢÐµÐ´Ñĥ":4314,"ĠÑĢÐ°Ð´Ð¾ÑģÑĤÑĸ":4315,"ĠÐ±Ð»Ð¸Ð¶ÑĩÐµ":4316,"ĠÐľÐ¸ÐºÐ¾Ð»":4317,"ĠÐ½Ð¸Ð·ÑĮ":4318,"ĠÐ»ÑİÐ±Ð¾Ð²Ñĸ":4319,"ĠÐ»Ð¸ÑħÐ°":4320,"ÑĹÑħÐ°Ð»Ð¸":4321,"ĠÐ¿Ð¾ÐºÐ°Ð·Ð°Ð²":4322,"ĠÐ´ÑĸÑģÑĤÐ°Ð²":4323,"ÑĤÐ¾Ðº":4324,"Ð²Ð¾Ñħ":4325,"ÑĩÐºÐ¾Ñİ":4326,"Ð»Ð¸Ð½Ð°":4327,"ĠÑĥÑģÑı":4328,"ĠÑĨÑĸÐ¼":4329,"ĠÐĴÐ°ÑĢ":4330,"Ð°Ð³Ð°ÑĤÐ¾":4331,"ĠÐŁÐ¾Ðº":4332,"ĠÑĢÐ¾Ð·ÐºÑĸ":4333,"ĠÐ¿ÑĢÐ¾ÑĪÐµÐ¿":4334,"Ð°Ð¶Ñĥ":4335,"ĠÐ¿Ð¾Ð²ÑĸÐ»ÑĮÐ½Ð¾":4336,"ĠÐĿÐµÐ²Ð¶Ðµ":4337,"Ð²ÑĸÑģÑĤ":4338,"ĠÐ¼ÑĥÐ¶":4339,"ĠÐ·Ð±ÑĥÐ´":4340,"ĠÑģÐ¾Ð±Ð¾ÑĢÑĥ":4341,"ĠÐ»ÑİÐ´ÑģÑĮÐºÐ¾Ð³Ð¾":4342,"ĠÑĨÑĸÐ»Ñĸ":4343,"ĠÐ±Ð»Ð°Ðº":4344,"ĠÐ²Ð¾Ð´Ð½Ð¾ÑĩÐ°Ñģ":4345,"ĠÑħÐ¾Ð´Ð¸ÑĤÑĮ":4346,"ĠÑĤÐ¸ÑģÑıÑĩÑĸ":4347,"ĠÐºÐ²Ð°Ð¿":4348,"ĠÐ¿Ð¾Ð½ÑĥÑĢÐ¾":4349,"Ð§ÑĸÐ¿ÐºÐ°":4350,"ÑıÐ½Ð°":4351,"ÑıÑĤÑĥ":4352,"Ð³Ðµ":4353,"Ð³Ð°Ð²":4354,"Ð³Ð¾Ð´Ð¸":4355,"ĠÐ¿ÑĢÐ¸Ð²Ðµ":4356,"ĠÑģÐ¿Ð¾ÑģÑĤ":4357,"ÑĢÑĸÐ¿":4358,"ĠÐ¿ÐµÑĢÐµÑģÑĤÑĥÐ¿":4359,"ĠÑģÐ¸Ð»Ð¾Ñİ":4360,"ĠÐ§Ð°Ñģ":4361,"Ð±Ð°Ñĩ":4362,"Ð½Ð¸ÐºÐ°Ð¼Ð¸":4363,"ÐŁÐ¾":4364,"ĠÑģÑĥÐ»ÑĤÐ°Ð½ÑĪÑĸ":4365,"Ð¾ÑĢÑĥÑĪ":4366,"ĠÐ·Ð³Ð¾Ð´Ð¾Ð¼":4367,"ĠÐ²Ð¾Ð»Ñı":4368,"ĠÑħÐ²Ð¸Ð»Ñİ":4369,"ÑģÑĤÑĢÑĸÐ»":4370,"ĠÐ²Ð¸Ð¹ÑĪÐ»Ð¸":4371,"ĠÐ´Ð¾Ð»Ñĸ":4372,"ĠÑĥÐ¿ÑĢÐ°Ð²":4373,"ĠÑģÑĤÐ¸Ñģ":4374,"ĠÐ¿Ð¸ÑģÐ°Ð²":4375,"ĠÑĢÐ¾Ð·Ð¼Ð¾Ð²Ñĥ":4376,"ĠÐ·Ð¾":4377,"ÑĢÐ¸Ð¼Ð¸":4378,"Ð½Ð¸ÐºÑĥ":4379,"ĠÑĥÐ¼Ð¾Ð²":4380,"Ð°ÐºÑĤ":4381,"ĠÐ¿Ð¾ÑĤÐ¸":4382,"ĠÐ¿ÑĢÐ¸ÑħÐ¸":4383,"Ð¶ÐµÐ½Ñĸ":4384,"ĠÑĪÐ°Ð½":4385,"ĠÐ¿ÐµÑĢÐµÑĤ":4386,"ĠÐĵÐ»Ñı":4387,"ÐµÐ½ÑĮÐºÑĸ":4388,"ĠÐ¿Ð¾ÐºÑĸÑĢ":4389,"ĠÐ´ÑĸÐ²ÑĩÐ¸Ð½Ñĥ":4390,"Ð¾Ð½ÑĸÑĦÐ°":4391,"Ð¾Ð²Ð°Ð½Ð¸Ñħ":4392,"ĠÐ¡ÐºÑĸÐ»ÑĮÐºÐ¸":4393,"ĠÐ½Ð¾Ð³Ð°Ñħ":4394,"ĠÐ¿ÑĸÐ´Ð¿Ð¸Ñģ":4395,"ĠÑĥÐ³Ð¾ÑĢÑĥ":4396,"ĠÐ¼ÑĸÑĨÐ½Ð¾":4397,"ĠÐ±ÑĸÐ»Ð¸Ñħ":4398,"ĠÐ²ÑģÑĤÑĥÐ¿":4399,"ĠÐ¿Ð°ÑĤ":4400,"Ð´ÑĮ":4401,"ĠÑģÐºÑĥ":4402,"ĠÑĢÐ¾ÑĤ":4403,"ÑģÑĮÐºÐ¸":4404,"ĠÐ¾ÑĤÐ¾":4405,"ÑĥÐ²Ð°Ð»Ð¾ÑģÑı":4406,"ĠÑĥÑģÑĤÐ°":4407,"ĠÐ¿ÑĢÐ¸ÑĢ":4408,"ĠÑģÐ°Ð¼ÑĸÐ¹":4409,"ÐŁÑĸÑģÐ»Ñı":4410,"ĠÐ¿Ð¾Ð»Ð¾ÑĤ":4411,"ĠÑĢÐ¾Ð±Ð¾ÑĤÐ°":4412,"ĠÐ²ÑĥÐ·":4413,"ĠÐ±ÑĥÐ´ÐµÑĪ":4414,"ĠÐ½Ð°Ð¼ÑĸÑĢ":4415,"ĠÑħÐ²Ð¸Ð»Ð¸Ð½":4416,"ĠÐ¿Ð°Ð»ÑĮÑĨÐµÐ¼":4417,"Ð©Ðµ":4418,"ĠÐ²Ð¸Ð¼Ð°Ð³":4419,"ĠÐ°Ð²ÑĤÐ¾Ð¼":4420,"ĠÑħÐ²Ð¸Ð»Ð¸Ð½Ð¸":4421,"ĠÑĤÐ°ÑĤÐ°ÑĢ":4422,"ĠÐŀÐ»ÐµÐºÑģÐ°Ð½Ð´":4423,"Ð¾ÑģÑĤÑı":4424,"Ð´ÐµÐ½":4425,"ĠÐ½ÐµÐ¹":4426,"ĠÐ¾Ð³Ð¾ÑĢ":4427,"Ð¸Ð²Ð»Ñı":4428,"ĠÐ²Ð¸ÑĢÐ°Ð·":4429,"ĠÐ²Ð¸Ð±Ð¸ÑĢ":4430,"ÑīÐ°Ð»Ð¸":4431,"Ð¸ÑĤÑĤÑı":4432,"ĠÐļÑĥ":4433,"ĠÐ¿Ð¾Ð²ÑĤÐ¾ÑĢ":4434,"Ð°Ð»ÑĮÐ½Ð¾Ð³Ð¾":4435,"ĠÐ§Ñĥ":4436,"ĠÑĸÐ½ÑĪÐ¸Ð¼":4437,"ĠÐ½Ð°Ð¹Ð¼Ð¸":4438,"ĠÑĢÐ¾Ð±ÑĸÑĤ":4439,"ĠÐ´Ð¾Ð»Ð¾Ð½Ñĸ":4440,"ĠÑģÐ¸Ð´ÑĸÑĤÐ¸":4441,"ĠÑĩÐ°ÑģÑĤ":4442,"ĠÐ¼Ð¾ÑĹÑħ":4443,"ÑģÐ¾Ð¼":4444,"Ð¾Ð³Ð»ÑıÐ´":4445,"ĠÐ½ÐµÐ½Ð°ÑĩÐµ":4446,"Ð°Ð½Ð¾Ñİ":4447,"Ð¾Ð´Ð¸Ð²ÑģÑı":4448,"ĠÐ³Ð¾Ð½":4449,"ÑĥÐ²ÑģÑı":4450,"Ð°ÑĢÐ½Ñĸ":4451,"Ð»ÐµÐ¼":4452,"ĠÑĪÐµÐ»Ðµ":4453,"ĠÐ¿ÐµÑĢÐµÐ³":4454,"ĠÑģÐ¸Ð»":4455,"ÑĦÑĥ":4456,"ÑĢÑıÐ¼":4457,"ĠÑĤÑĥÑĢÐµÑĨÑĮ":4458,"Ð»ÐµÐ½Ñĥ":4459,"ĠÐ²Ð·ÑıÑĤÐ¸":4460,"ĠÐ¿Ð¾Ð²ÐµÑĢÑħ":4461,"ĠÐ¿Ð»ÐµÑĩÐ¸Ð¼Ð°":4462,"Ð¥ÑĤÐ¾":4463,"ĠÐ²ÑĸÐ¹ÑģÑĮÐºÐ¾":4464,"ĠÑĤÑĢÑĥÐ´":4465,"ÐµÐ³Ð¾ÑĤ":4466,"ĠÐ²Ð»Ð°Ð´Ð¸":4467,"ĠÐ¼Ð¸Ð¼Ð¾Ð²":4468,"Ð»Ð°Ð·":4469,"Ð»ÑĥÑĤ":4470,"ĠÐ²ÑĤÑĢÐ°":4471,"ĠÑģÐ½Ð¸":4472,"ĠÐ¼Ð¾Ð·":4473,"Ð»Ð¸Ð¼Ð¸":4474,"Ð»Ð¸ÑĨÑİ":4475,"ĠÑīÐ¾Ð¹Ð½Ð¾":4476,"ĠÐ³Ð°":4477,"ĠÑĩÐµÑģ":4478,"ÐºÑĥÑİÑĩÐ¸":4479,"ĠÐĴÑĸÑĢÑĥÐ½ÑĮ":4480,"Ð´Ð¸Ð¹":4481,"ĠÐ¡ÑĤÐ¾":4482,"ĠÐ¡ÐµÐ²":4483,"ĠÑĪÐ¿":4484,"ĠÐ¿ÑĢÐ¾ÑĦÐµÑģ":4485,"ĠÑģÐºÐ°ÑĢÐ±":4486,"ĠÐĵÐ°ÑĢ":4487,"ĠÐ½Ð°Ð´Ð·Ð²Ð¸ÑĩÐ°Ð¹":4488,"ĠÐ¿Ð¾ÑĩÑĥÐ²Ð°Ð²":4489,"ĠÐ²ÐµÐ»Ð¸ÐºÐµ":4490,"ĠÐ½Ð°Ð¹ÐºÑĢÐ°":4491,"ĠÐ³ÑĢÑĥÐ´ÐµÐ¹":4492,"ĠÐ½Ð¸Ð½Ñĸ":4493,"ĠÑģÑĤÐ¸Ñħ":4494,"ĠÑģÑıÐ¹":4495,"ĠÐºÑĸÐ¼Ð½Ð°ÑĤÑĸ":4496,"........":4497,"ĠÑģÐ¿ÐµÑĢÑĪÑĥ":4498,"ĠÐ¿ÑĢÑıÐ¼Ð¾":4499,"Ð¸Ð³":4500,"ÑĢÑİ":4501,"ÐºÐ½ÑĥÐ²ÑģÑı":4502,"ĠÐ¿ÑĸÑĩ":4503,"ĠÐºÑĢÑĥÐ¶":4504,"Ð°Ð½ÑĨÑĸ":4505,"Ð¾ÑĢÑıÐ´":4506,"Ð¶Ð½Ð¾":4507,"ĠÑĥÑĤ":4508,"ÑĸÐ½ÐºÐ°":4509,"ĠÑħÐ²Ð¾ÑĢ":4510,"ĠÑģÑĤÐ¾Ð»Ñĸ":4511,"ĠÐ¶Ð°Ð»Ñİ":4512,"ÐºÑĥÑĶ":4513,"Ð½ÑıÑĤ":4514,"Ð½ÑıÐ¼Ð¸":4515,"ĠÑģÐ²ÑıÑĤÐ¸":4516,"Ð½ÐµÑĨÑĮ":4517,"ĠÐ¿ÑĸÐ´Ð½ÑıÐ²":4518,"Ð²Ð¸ÑīÐµ":4519,"ĠÐļÐ½Ð¸":4520,"ĠÑģÑĥÐº":4521,"ĠÐ¿ÐµÑĢÐµÑĢ":4522,"ĠÑģÑĤÐ°ÑĢÑĸ":4523,"ĠÑģÐ¿ÑĢÐ°Ð²Ð¸":4524,"ĠÐ¯ÐºÐ±Ð¸":4525,"ĠÐ¶Ð¸Ð²Ð¸Ð¹":4526,"ĠÑħÐ¾ÑĤÑĸÐ»Ð¸":4527,"ĠÐ¼Ð¾Ð²ÑĩÐ°Ð»Ð°":4528,"ĠÐ·Ð°Ð»Ð¸Ð²":4529,"ĠÑĤÑĢÐ¸Ð¼Ð°Ð²":4530,"ĠÑĤÑĢÐ°Ð²Ð¸":4531,"ĠÑħÐ°Ð·ÑıÑĹÐ½":4532,"ĠÐłÑĥÑģÑĤÐµÐ¼":4533,"ĠÑĸÐ½Ð°ÐºÑĪÐµ":4534,"Ð´ÑĨÑı":4535,"Ð¼Ð¾Ð¼":4536,"Ð°Ð¼Ð°":4537,"Ð°Ð¼Ð°Ð½":4538,"ÑĥÐ²Ð°Ð¶":4539,"ÑĩÐ¸Ð¼Ð¸":4540,"ĠÐ²Ð¸Ð·Ð½Ð°":4541,"ĠÐŁÐ°Ð»":4542,"ĠÐŁÑĸÑģ":4543,"ĠÐŁÐ¾ÑģÑĤ":4544,"ĠÐĿÑĸÐº":4545,"ĠÑģÐºÑĢÑĸÐ·ÑĮ":4546,"ĠÐĹÐ°ÑĢ":4547,"ĠÐ¥Ð¾Ð´":4548,"ÑĥÐ²Ð°ÑĤÐ¸ÑģÑĮ":4549,"ĠÑģÑĥÐ»ÑĤÐ°Ð½ÑģÑĮÐºÐ¾Ð³Ð¾":4550,"ÐµÐ½Ð½ÑıÐ¼":4551,"ĠÐ½Ð°Ð¿ÑĢÑĥÐ¶":4552,"ĠÐºÑĢÐ¸Ð»Ð°":4553,"ĠÐ½Ð°ÑģÑĥÐ¿":4554,"ÐĶÐµ":4555,"ĠÐ´Ð°Ð²Ð°Ð¹":4556,"ĠÐ²ÑĸÐ¹ÑģÑĮÐºÐ°":4557,"ĠÐ¼ÐµÑĤÐ°Ð»":4558,"ĠÐ½Ð°Ð¼Ð°Ð³Ð°Ð²ÑģÑı":4559,"ĠÐ¿Ð¾ÑģÐ¼ÑĸÑħÐ½ÑĥÐ²ÑģÑı":4560,"ĠÐĴÐ°ÑĪÐ°":4561,"ĠÐĵÑĢÑĸÑĤÑĸ":4562,"ÐºÐ½ÑĥÑĤÐ¸":4563,"ĠÐ½Ð¾Ð³Ñĥ":4564,"ĠÐ·Ð·":4565,"ĠÐºÐ»Ð°Ð´":4566,"ĠÐºÐ°ÑĪ":4567,"ĠÑĢÐ¾Ð¶Ðµ":4568,"ÑĨÐµÑĢ":4569,"ĠÐ²Ð¸Ð±ÑĢ":4570,"ĠÐ¿ÑĢÐ¸Ð¼Ñĥ":4571,"ĠÐ¿ÑĢÐ¸Ð½ÐµÑģ":4572,"ĠÐ¾Ð±Ð¾Ð²":4573,"Ð°Ð¶Ðµ":4574,"ĠÐĶÑĸÐ²":4575,"ĠÐĹÐ²ÑĸÐ´":4576,"ĠÐĳÐ¾Ð½ÑĸÑĦÐ°":4577,"ĠÐ¿ÑĸÑĤÐ¸":4578,"ĠÑĢÐ°Ð´ÑĸÑģÐ½Ð¾":4579,"ĠÐ¿Ð°ÑĢÐ°":4580,"ĠÐ¿Ð°ÑĢÑĥ":4581,"ĠÐ²ÐµÑĢÑħ":4582,"ĠÐ²Ð¾Ð³Ð½Ñİ":4583,"ĠÑģÐ»ÑĥÑħÐ°ÑĤÐ¸":4584,"ĠÑĥÐ´Ð°ÑĢÐ¸":4585,"ĠÐ½ÑĸÑıÐºÐ¸Ñħ":4586,"ĠÑģÐ¿Ð¸Ð½Ñĥ":4587,"ĠÐ´Ð¸Ð¼Ñĥ":4588,"ĠÐ¿ÑĢÐ¾Ð¹ÑĪÐ¾Ð²":4589,"ĠÑģÐ»Ð¾Ð²Ð¾Ð¼":4590,"ĠÐ³Ð¾Ð¼ÑĸÐ½":4591,"ĠÐ½ÐµÑģÐ°Ð¼Ð¾Ð²Ð¸ÑĤÐ¾":4592,"ĠÐĶÐ¾Ð²Ð±Ð½Ñı":4593,"ÐºÐ¾Ð²Ð°":4594,"Ð´ÐµÐ¼Ð¾":4595,"ĠÐ´Ð¾Ð»Ñİ":4596,"ĠÐºÐ¸Ð²":4597,"ÐµÐ½Ð¾Ñİ":4598,"ĠÐ»Ð¾Ð¿":4599,"ĠÐ°Ð´":4600,"ĠÐ½ÑĸÑīÐ¾":4601,"ÑīÐ¸Ð¹":4602,"ĠÐĿÐ°Ñģ":4603,"ÑĢÑĸÑģÑĤÑĮ":4604,"ÑĨÑıÐ¼":4605,"ĠÐ±ÐµÐ·Ð¶":4606,"ĠÐ·Ð°Ð¿ÐµÑĢÐµ":4607,"ĠÑģÐ»Ð°Ð±":4608,"ĠÐ²ÐµÐ»Ð¸ÐºÐ¾ÑĹ":4609,"ĠÐºÑĢÐ¸ÑĩÐ°Ð²":4610,"ÐŀÑģÑĮ":4611,"ĠÐ²Ð¾ÑĢÐ¾Ð³Ð°":4612,"ĠÐĵÑĢÐ¸Ð³Ð¾ÑĢÑĸ":4613,"?!.":4614,"ĠÐ¿ÑĸÐ²Ð½Ñĸ":4615,"ĠÐ·Ð´Ð°Ð²Ð°Ð»Ð¾ÑģÑĮ":4616,"ĠÐ·Ð¼ÑĸÐ½Ð¸":4617,"ĠÑĢÐ¾Ð·Ð¼Ð¾Ð²Ð¸":4618,"ĠÐ¿Ð°Ð¿ÑĸÑĢ":4619,"ĠÑıÑĢÐ¼Ð°ÑĢ":4620,"ÑĢÐ°Ð¹":4621,"ĠÐ½ÑĸÐ´Ðµ":4622,"ÑĪÐ»Ð¾ÑģÑı":4623,"Ð°Ð»ÑĸÐ²":4624,"ÑĤÐ¸Ðº":4625,"ĠÐ±ÑĸÐ»Ð¸Ð¹":4626,"Ð¾Ð³ÑĥÑĤ":4627,"ĠÐ»ÑĮ":4628,"ĠÐ¿Ð¾ÑģÑĤÑĥÐ¿":4629,"ĠÐĴÐ°Ñģ":4630,"ĠÑĢÐ¾Ð·Ð³Ð¾ÑĢ":4631,"ĠÐĿÐ°Ð¿":4632,"Ð¸ÑĤÐ°Ð²":4633,"ÑĪÐµÐ²":4634,"ĠÐĨÐ²Ð°Ð½Ð°":4635,"ĠÐ²ÐµÐ»Ð¸ÐºÐ¸Ð¼":4636,"ĠÐ¿Ð¾ÑĢÐ¾Ñħ":4637,"ĠÐ¢Ð¸ÑĩÐ¸Ð½Ð¸":4638,"ĠÐ²ÑĸÐ¹Ð½Ð¸":4639,"ĠÐºÐ¾ÑĤÑĢÑĸ":4640,"ĠÐ·Ð°Ð»Ð¸ÑĪÐ¸":4641,"ĠÐ¿ÑĢÐ°ÑĨÑĸ":4642,"ĠÐ·ÑĥÐ±Ð°Ð¼Ð¸":4643,"Ð°Ð±Ð¸ÑĢÐ»Ð¸":4644,"Ð»ÑĸÐ½Ð½Ñı":4645,"ÑıÑĢ":4646,"ĠÐ²Ð¿ÐµÑĢ":4647,"Ð°Ð»ÑĸÐ·":4648,"ĠÐ³ÐµÐ½Ñĸ":4649,"ĠÐ¿ÑĢÐ¸ÑĹ":4650,"ĠÐ¡Ð¸Ð´":4651,"Ð°ÑģÐµ":4652,"ĠÑģÐ²ÑĸÑĤÐ»Ð°":4653,"ĠÐĿÐµÑħÐ°Ð¹":4654,"ÑĢÑıÐ·":4655,"ĠÐ·Ð°ÑĢÐµÐ³Ð¾ÑĤ":4656,"ĠÐ³ÑĢÐ°Ð±":4657,"ĠÐ±Ð¾ÑĢÐ¾ÑĤÑĮ":4658,"ĠÑĤÐ¾ÑĢÐ³":4659,"Ð°ÑģÐ¸Ð±Ñĸ":4660,"ĠÑĪÑĥÐºÐ°ÑĤÐ¸":4661,"ĠÐ½ÐµÐ±ÐµÐ·":4662,"ĠÑģÐ²ÑıÑĤÐ¾":4663,"ĠÐ·Ð²Ð¸ÑĩÐ°Ð¹Ð½Ð¾":4664,"ÑĨÑĤÐ²Ð°":4665,"ĠÐ³Ð°ÑĢÐµÐ¼Ñĥ":4666,"ĠÑĢÑıÑĤÑĥ":4667,"ĠÐ½Ð°Ð³Ð»ÑıÐ´Ð°Ñĩ":4668,"ĠÐ½ÐµÐ¹Ð¼Ð¾Ð²ÑĸÑĢ":4669,"ÐµÑĤÐ¸":4670,"Ð²ÐµÑĢÑĤ":4671,"ĠÑĤÐ°Ð¹":4672,"ÑĪÐ¸Ð¼Ð¸":4673,"Ð±Ð°Ð³":4674,"Ð±ÑĥÑĢ":4675,"ĠÐ¼ÐµÑĢÐµÑħ":4676,"Ð¾Ð´Ð¾Ð±":4677,"Ð¾Ð´ÑıÑĩÐ¸":4678,"ĠÑīÐµÐ·":4679,"ĠÐ¿ÑĢÐ¾Ð½Ð¸":4680,"ĠÐĲÐ±Ð¾":4681,"ĠÐľÐ°Ð½":4682,"Ð°Ð±ÑĢÐ¸":4683,"ĠÐĶÐ¶Ñĥ":4684,"ĠÑģÐ¸Ð¿":4685,"ĠÐ·Ð²ÑĸÐ»ÑĮ":4686,"ĠÐ·Ð²ÐµÑĢÑĤ":4687,"ĠÐ·Ð´ÑĸÐ¹Ð¼":4688,"Ð¼ÐµÐ»ÑĮ":4689,"Ð¥Ð»Ð¾Ð¿":4690,"ĠÐ½ÑĸÑıÐºÐ¾Ð³Ð¾":4691,"ĠÐ´Ð¾Ð±ÑĢÐ¾Ð³Ð¾":4692,"Ð¸Ð½Ñĸ":4693,"ÑĤÐ¾ÑĹ":4694,"Ð½ÑĸÐ»Ð¾":4695,"ÑĩÐ¸Ñģ":4696,"ĠÐ°Ðº":4697,"ĠÑıÐºÑĢÐ°Ð·":4698,"ĠÐ´Ð¾ÑĩÐºÐ°":4699,"ĠÐ²ÑĸÐ´Ð¾Ð¼":4700,"ĠÐĿÐµÐ¼Ð°":4701,"ĠÐĹÐ°Ðº":4702,"ĠÐ·Ð½Ð°Ð¼":4703,"ĠÐ¿Ð¾ÐºÑĢÐ¸":4704,"ĠÐ·Ð´Ð¾Ð±":4705,"ĠÐ¿Ð¾ÑģÑĥ":4706,"ÑĸÑĤÑĮÐ¼Ð¸":4707,"ĠÐ¿ÑĢÐ¸Ð¹ÑĪÐ»Ð¸":4708,"ĠÑģÐ¾Ð±Ð°ÐºÐ¸":4709,"ĠÐ¿ÑĢÐ°Ð²Ð´Ñĥ":4710,"ĠÐ¾Ð±Ð»Ð¸ÑĩÑĩÑĸ":4711,"ĠÑħÐ²Ð¸Ð»ÑİÐ²":4712,"ÑİÐ²Ð°Ð»Ð¸":4713,"ĠÐ½Ð¾Ð²Ð¸Ð¹":4714,"ĠÐ·Ð²ÑĸÐ´ÑģÐ¸":4715,"ĠÐ¿ÑĢÐ¸ÑģÐ»ÑĥÑħ":4716,"ĠÐ·Ð°Ð¹ÑĪÐ¾Ð²":4717,"ĠÐ¾Ð³Ð»Ñı":4718,"ĠÑģÐ»Ð¾Ð²Ð°Ð¼Ð¸":4719,"ĠÑĩÐµÑĢÐµÐ²Ð¸":4720,"ĠÐ·ÑĥÐ¿Ð¸Ð½Ð¸Ð²ÑģÑı":4721,"ĠÐ³ÑĢÐµÐ±":4722,"ĠÑĢÐ°Ð½Ð¾Ðº":4723,"ĠÑīÐ¸ÑĢÐ¾":4724,"ÑĤÑĸÐ»Ð¾":4725,"ÐºÑĩÐµÐ¼":4726,"ĠÐ²ÑħÐ¾Ð¿":4727,"ĠÐ±ÑĸÑģ":4728,"ĠÐ±Ð¸Ð»Ð¸":4729,"Ð¾Ð³ÑĤÐ¸":4730,"ĠÐ¼Ð¸ÑĤ":4731,"ĠÐºÐ»Ñİ":4732,"Ð»Ð¸Ð½Ð¸":4733,"ÑĸÐ´ÑĮ":4734,"ÑĸÐ´Ð½Ð¸Ð¹":4735,"ĠÐ¾ÐºÑĥ":4736,"ÑĶÑĢ":4737,"ĠÐ¿Ð¾ÑĤÑĥ":4738,"Ð¾ÑģÑĸ":4739,"ÑĢÑĸÑĪ":4740,"Ð¾ÑĩÐ°ÑĤÐºÑĥ":4741,"ĠÐ¾Ð±Ð¾Ñħ":4742,"ĠÑģÐ¸ÑĢ":4743,"ĠÐ»Ð¸ÑĨÐµÐ¼":4744,"ĠÐ·Ð²Ð°Ð»Ð¸":4745,"ĠÐºÑĥÐ»Ð°Ðº":4746,"ĠÐ½Ð°Ð¿ÐµÑĢÐµÐ´":4747,"ĠÐ²ÐµÑĢÑĪ":4748,"ĠÐ¿Ð¾Ð²ÐµÑĢÐ½ÑĥÐ²":4749,"ĠÐ¼Ð¾Ð²ÑĩÐ°Ð·":4750,"ĠÐ¿ÑĢÐ¸ÑģÑĥÑĤ":4751,"ĠÑĩÐµÑĢÐ²Ð¾Ð½Ñĸ":4752,"ÑĩÐµÐ½ÐºÐ¾":4753,"ĠÐ±Ð°Ð±Ð°":4754,"ĠÐ¿Ð¸ÑģÐ°ÑĤÐ¸":4755,"ĠÐ·Ð°Ð¿Ð¸ÑĤÐ°Ð½Ð½Ñı":4756,"ĠÐŁÑĢÐ¾Ðº":4757,"ĠÑħÑĢÐµÑģÑĤÐ¸":4758,"ĠÐ¼Ð°ÑĪÐ¸Ð½Ð¸":4759,"ĠÐ¼ÐµÐ½ÑĪÐµ":4760,"ĠÐ¾Ð¿Ð¸Ð½Ð¸Ð²ÑģÑı":4761,"ÐŁÐ¾ÑĤÑĸÐ¼":4762,"ÑĸÑīÐ¾":4763,"Ð²Ð¾ÑĢÑĸ":4764,"ĠÐ¿Ð¸ÑĤÐ¸":4765,"Ð´Ð°Ð»Ñĸ":4766,"ÑİÑĢ":4767,"ĠÐºÐ¾ÑģÑĤ":4768,"ĠÐ½ÐµÑħÐ°Ð¹":4769,"ĠÐ½Ð°ÑĤÐ¾Ð²":4770,"ĠÐ³Ð¸":4771,"Ð°ÐºÐ¾Ð¼":4772,"ĠÐ¶Ð¸":4773,"ĠÐ´Ð¾ÑģÑıÐ³":4774,"Ð½ÑĥÐ»Ð¾ÑģÑı":4775,"ĠÐŁÐ¾ÐºÐ¸":4776,"ĠÑģÐ¿Ñĥ":4777,"ĠÑĢÐ¾Ð·ÐºÐ¾":4778,"ÑĢÐ¾ÑĶ":4779,"ĠÑĩÐ¸ÑģÑĤ":4780,"ĠÐ²ÐµÐ»Ð¸ÐºÐ¸Ñħ":4781,"ÐŁÑĢÐ¾":4782,"ĠÐºÐ¸Ð·Ð»ÑıÑĢ":4783,"ĠÐ¿Ð¾Ð·Ð¸ÑĢ":4784,"ÑģÑĤÑĢÐ¾Ð¼":4785,"ĠÐºÐ¾Ð¼Ð¿":4786,"ĠÐ²Ð¸ÐºÐ»Ð¸Ðº":4787,"ĠÐ¿ÑĢÐ¾Ð´Ð°Ð²":4788,"ĠÐ±ÐµÑĢÐµÐ·Ñĸ":4789,"ĠÐ½ÐµÐ±ÐµÑģ":4790,"ĠÐºÐ°ÑĢÐ±Ð¾Ð²Ð°Ð½":4791,"Ð½ÐºÐ°":4792,"ÑģÑĸÐ²":4793,"ĠÐ¿Ð»Ð¸":4794,"ĠÑĤÐ¾Ð¶":4795,"ÑİÑģ":4796,"Ð°Ð²ÑĢÐ¸":4797,"ĠÐ¼Ð¾Ð²Ð¸":4798,"ĠÐºÐ¾":4799,"ĠÐ½Ð°ÑĪÐ¸Ñħ":4800,"Ð°ÑĤÐºÐ¸":4801,"Ð»Ð¸Ð²Ð¾Ñİ":4802,"ĠÐ¿Ð¾ÐºÐ»Ð¸Ðº":4803,"ĠÐ¼ÐµÑĩÐµ":4804,"ĠÐ´Ð¸Ð²Ð¾":4805,"ĠÑģÑĥÐ»ÑĤÐ°Ð½ÑĪÐ°":4806,"ĠÐ´ÑĥÐ¼Ð¾Ðº":4807,"ĠÐ·Ð°Ð±Ð¾ÑĢÐ¾Ð½":4808,"ĠÑģÐ¿ÑĢÐ°Ð²Ð°":4809,"ĠÐ²Ð¸Ð¿ÑĢÐ°Ð²":4810,"ĠÐ²Ð¾Ð³Ð½ÐµÐ½":4811,"ĠÐ²Ð¸ÐºÐ»Ð¸":4812,"ĠÐ¿Ð»Ð°ÑĩÐµ":4813,"ÑĥÐ½ÐºÐ¸":4814,"ĠÐ²ÐµÑĩÐµÑĢ":4815,"ĠÐ¾ÑģÑĤÐ°Ð½Ð½ÑĸÐ¹":4816,"ĠÐ±Ð°Ð¹Ð´ÑĥÐ¶":4817,"ĠÑĩÐ¾Ð±Ð¾ÑĤÐ¸":4818,"ĠÐºÐ¾ÑĪÑĤÐ¾Ð²":4819,"ĠÑħÑĢÐ¸ÑģÑĤÐ¸":4820,"ÑĤÐ°Ð»Ð°":4821,"ÑıÐ½Ð¸Ñħ":4822,"ĠÐ·ÑĸÐ¹":4823,"ĠÐ¼Ð°ÑİÑĩÐ¸":4824,"ĠÐºÐ°Ð´":4825,"ĠÐ½ÐµÐ¾Ð±":4826,"Ð¾ÑĢÐ¾Ð·":4827,"ĠÐ»ÑĸÐ³":4828,"ĠÐ¿ÑĢÐµÐ·":4829,"ÐµÐ¼Ð½Ð¾":4830,"ĠÐ½ÑĸÐ¼ÐµÑĨÑĮ":4831,"ĠÐ½ÑĸÐºÑĩÐµÐ¼":4832,"ĠÐ¡Ð»ÑĥÑħ":4833,"ÑĨÑĸÐ¿":4834,"ĠÐ¿ÑĸÐ´Ñĥ":4835,"ĠÐ±ÐµÐ·ÑģÐ¸":4836,"ĠÐ¿Ð¾ÑĢÐ°":4837,"ĠÐºÐ¾Ð»ÐµÑģ":4838,"ÐºÑĸÑģÑĤÑĮ":4839,"ĠÐ½Ð°Ð¹Ð´":4840,"ĠÐ»ÑİÐ´Ð¸Ð½Ñĸ":4841,"ĠÐ¿ÐµÑģ":4842,"ĠÐ³Ð°ÑĢÑıÑĩÐ¸":4843,"ĠÑģÐ¿ÑĢÐ°Ð²Ñĥ":4844,"ĠÐ¿ÑĸÑģÐ½Ñĸ":4845,"ĠÐ¶Ð¸ÑĤÑĤÑıÐ¼":4846,"ĠÐ¾ÑģÐ¼Ð°Ð½":4847,"ĠÐĹÐ°ÑĩÑĸÐ¿Ð»ÑıÐ½":4848,"Ð²ÑĸÐ´Ð¾Ð¼":4849,"ĠÐ²Ð¸ÑģÐ¾ÐºÐ¾":4850,"ĠÐ¥ÑĤÐ¾ÑģÑĮ":4851,"ĠÑĢÑĸÑĩÐºÐ¸":4852,"ĠÐ¿Ð¾Ð³Ð»ÑıÐ´Ñĥ":4853,"ĠÐ¤Ð°Ð±ÑĸÑıÐ½":4854,"Ð¢ÐµÐ¿ÐµÑĢ":4855,"ÑĩÐ¾ÑĹ":4856,"ĠÐ±Ð¸Ð²":4857,"ĠÐ±Ð¾ÑĹ":4858,"Ð»Ð¸Ð»Ð°":4859,"ĠÐ½Ð°ÑģÐ¸":4860,"ĠÐ»Ð°Ð¹":4861,"ÑĸÐ»ÑĮÐ¹":4862,"ÑĨÑĸÐºÐ°Ð²":4863,"ĠÑģÐµÐºÑĢÐµÑĤ":4864,"ĠÐ·Ð°Ð¿Ð»ÑİÑī":4865,"ĠÐºÐ°Ð¼ÑĸÐ½Ð½Ñı":4866,"ĠÐ¿ÑĸÑģÐ½Ñİ":4867,"ĠÐ¾Ð³Ð»ÑıÐ´":4868,"ĠÐ¿Ð¾ÐµÑĤÐ°":4869,"ĠÐ¿Ð¾ÑģÑĤÐ°Ð²Ð¸Ð²":4870,"ĠÑģÑĤÐ¾Ð»Ð¸ÑĨÑĸ":4871,"ĠÐŁÐ°Ð½Ð°Ñģ":4872,"ĠÐĴÐ¾Ð»Ð¾Ð´Ð¸Ð¼Ð¸ÑĢ":4873,"Ð¡ÑĥÐ»ÑĤÐ°Ð½":4874,"Ð±Ð¸ÑĤÐ¾":4875,"Ð°Ð½Ð¾ÑĹ":4876,"Ð¾ÑĢÐ°Ð¼Ð¸":4877,"Ð³Ð°Ð¹":4878,"ĠÐ³Ð¾ÑģÑĤÐ¸":4879,"ÑĸÐ²ÑĪÐ¸":4880,"ĠÐ°Ð±":4881,"ĠÐ²ÑĸÐ´ÑĤ":4882,"ĠÐ²ÑĸÐ´Ð¼Ð¾Ð²":4883,"ÐµÐ¼ÐµÐ½":4884,"ÑĢÑĥÐ´":4885,"ĠÐŁÐ¸":4886,"ĠÑģÐºÐ¾ÑĢÐ¾":4887,"ĠÐĹÐ°Ð±":4888,"ĠÑĹÑħÐ½ÑĮÐ¾Ð³Ð¾":4889,"ĠÐ·Ð´Ð¾Ð³Ð°Ð´":4890,"ĠÐ£ÑģÑĸ":4891,"ĠÐ¢Ð°ÐºÐ°":4892,"ĠÐ²ÑĸÐºÑĥ":4893,"ĠÐ½ÐµÐ´Ð¾Ð±":4894,"ĠÑĤÑĢÐ¸Ð´ÑĨÑı":4895,"ĠÐŀÐ´Ð°ÑĢÐºÐ°":4896,"ĠÐ´Ð¸ÑĤÐ¸Ð½Ñĥ":4897,"ĠÐ±Ð°Ð±Ñĥ":4898,"ĠÑħÐ¾Ð´Ð¸ÑĤÐ¸":4899,"ĠÐ·Ð°Ð·Ð¸ÑĢ":4900,"ĠÑĤÑİÑĢÐ¼Ð¸":4901,"ĠÐ±Ð»Ð°ÐºÐ¸ÑĤ":4902,"Ð°ÑģÐµÐºÑĸ":4903,"ÑģÐ°Ð¼Ð¸":4904,"Ð»ÑĸÐ½":4905,"Ð»Ð»Ñı":4906,"ÐºÐ°ÑĢ":4907,"ĠÐ¿Ð¾Ð¶Ðµ":4908,"Ð¾Ð³Ð°ÑĤÐ¸":4909,"ĠÐ³Ð»Ð°Ð´":4910,"Ð¾Ð¿Ð¸":4911,"ĠÐ¥Ð°ÑģÐµÐºÑĸ":4912,"ĠÐ¦ÐµÐ¹":4913,"ÐµÑĤÐ°":4914,"ĠÐ¿Ð¾Ð¿Ð°Ð´":4915,"ÑĩÑĥÐº":4916,"ĠÐ²Ð¾Ð»Ð¾":4917,"ĠÑĢÐ°Ð´ÑĸÑģ":4918,"ĠÐ²Ð·ÑıÐ»Ð°":4919,"ĠÐ´Ð¾ÑĢÐ¾Ð³Ð°":4920,"ĠÑħÐ»Ð¾Ð¿ÑĨÑĸÐ²":4921,"ĠÑĩÐµÑģÑĤÑĮ":4922,"ĠÑħÐ¾Ð´Ð¸Ð»Ð¸":4923,"ĠÐ²Ð¸ÑĢÑĸÑĪÐ¸Ð²":4924,"ĠÑģÐ¿Ð°Ð»Ð°Ñħ":4925,"ĠÐ´Ð¸ÑĤÑı":4926,"ĠÐĴÐ°ÑģÐ¸Ð»ÑĮ":4927,"ÑĤÑĥÐ²Ð°ÑĤÐ¸":4928,"Ð²Ñı":4929,"ÐºÑĥÐ²Ð°Ð»Ð¸":4930,"ĠÑģÐ°Ð»":4931,"ĠÑģÐ½Ñĥ":4932,"ĠÑģÐºÐ¸Ð´":4933,"ÑİÐº":4934,"ĠÐ±Ð¾Ð¶":4935,"ĠÐ½Ð°ÑĤÑı":4936,"Ð³Ð¾Ð¼":4937,"ĠÐ¿ÑĢÐ¸Ñħ":4938,"ĠÐ¿ÑĢÐ¸Ð¼Ñĸ":4939,"ÑĸÑĤÐ½Ñĸ":4940,"ĠÑĤÐ°ÐºÐ¸Ð¼Ð¸":4941,"ĠÐ¡Ð¾Ð»Ð¾Ð¼":4942,"Ð¾ÑĩÐºÐ¾":4943,"ÑĥÑĤÑĸ":4944,"Ð±ÐµÑĨÑĮ":4945,"ÑģÑĤÐ¸Ð³":4946,"ĠÐ´ÑĥÑħÑĥ":4947,"ĠÐ¼ÐµÑĤÐµ":4948,"ĠÐĽÑĥ":4949,"Ð´ÑĸÐ»Ð°":4950,"ĠÐ¿Ð¾ÑĢÐ°Ð´":4951,"ÐŁÐµÑĤ":4952,"ĠÐ¿ÐµÑĢÑĪÐ°":4953,"ĠÐ±ÑĢÐ°Ðº":4954,"ĠÐ²ÑĥÑģÑĤÐ°":4955,"ĠÐĿÐ°ÑģÑĤ":4956,"ĠÑģÑĤÐµÐ¿Ñĥ":4957,"ĠÐ·Ð¼Ð¾ÑĢ":4958,"ĠÐ±ÑĢÐ°ÑĤÑĸÐ²":4959,"ĠÐ»ÑĸÑģÑĥ":4960,"ĠÐ´Ð·Ð²Ð¾Ð½":4961,"ĠÑĪÐ¸ÑĹ":4962,"ĠÐ±Ð»Ð°Ð³Ð¾ÑģÐ»Ð¾Ð²":4963,"ĠÐ²Ð¾Ð·Ð°":4964,"ĠÐłÑĥÐ±Ð°Ð½":4965,"ĠÑģÐ¿Ð¾ÑģÑĤÐµÑĢÑĸÐ³":4966,"Ġ3":4967,"ÑĸÑĢÐ¸":4968,"ÐµÐ´Ðµ":4969,"ĠÐ²ÐµÑĢÐµ":4970,"ÑĩÐ½Ð¾ÑĹ":4971,"ÑĤÐ¸Ð¼Ð¸":4972,"ĠÐ±Ð°Ð½":4973,"Ð»Ð¸Ð±":4974,"Ð°Ð½Ð¸Ð¼Ð¸":4975,"Ð¾ÑĢÑĸÐ´":4976,"Ð¾ÑĢÐ°Ñħ":4977,"Ð½ÑĸÐ»Ð¸":4978,"ĠÐ°Ð´Ð¶Ðµ":4979,"Ð»ÐµÐ¿":4980,"ĠÑģÐ¿ÑĸÐ»ÑĮ":4981,"ĠÑģÐ¿Ð¸Ñģ":4982,"Ð°Ð±Ð°Ð½":4983,"ĠÐĹÐ°ÑĤÐµ":4984,"ĠÐŀÑĩÑĸ":4985,"ĠÐ·Ð°Ð²ÑĪÐµ":4986,"ĠÐ·Ð°Ð²Ð¼ÐµÑĢ":4987,"Ð´ÑĸÑĤÐ¸":4988,"ĠÐºÑĢÐ¸Ñħ":4989,"ĠÐ´Ð°Ð²Ð°Ð²":4990,"ĠÐºÐ¸Ð¿":4991,"ĠÑĤÑĢÑĮÐ¾Ñħ":4992,"ĠÐ»ÑİÐ´ÑģÑĮÐºÑĸ":4993,"ĠÐµÐ¿":4994,"ĠÐ·Ð¼Ð¾Ð¶Ðµ":4995,"ĠÑĥÑģÐ¼Ñĸ":4996,"ĠÐ¿Ð°Ð»ÑĮÑĨÑıÐ¼Ð¸":4997,"ĠÐ±ÐµÑĢÐµÐ³Ð°":4998,"ĠÐ´ÑĸÐ´Ð°":4999,"ĠÐ¼Ð¾ÑĶÑĹ":5000,"ĠÐ¼Ð¸ÑģÐ»Ð¸Ð²":5001,"ĠÐĵÐ¾ÑĢÐ¿Ð¸":5002,"ĠÐºÐ»ÑĥÐ±":5003,"Ð»Ð¾Ð½Ð°":5004,"ÑĩÐµÐ½Ð¾":5005,"ĠÑĸÑĢÐ¾Ð½":5006,"ĠÐ½ÐµÐ²Ð¸Ð´":5007,"ĠÐ½Ð°ÑĤ":5008,"ĠÐ³Ð°Ð»":5009,"ÐºÐ¸Ð½ÑĥÐ²":5010,"ĠÑĥÐ±Ð¸Ð²":5011,"ĠÐ²Ð¸Ð¼Ð¾Ð²":5012,"ĠÐĨÐ·":5013,"ĠÐ²ÐµÐ´":5014,"ĠÐ²ÐµÐ·":5015,"ĠÐŀÐºÑģ":5016,"ĠÐµÐ½":5017,"ĠÐ²Ð´Ð¾Ð¼Ð°":5018,"ĠÐ²ÑĸÑĤÑĢÑı":5019,"Ð°ÑĶÑĪÑģÑı":5020,"ĠÐ·Ð¾Ð»Ð¾ÑĤÑĸ":5021,"ĠÐ²Ð¸Ð±ÑĸÐ³":5022,"ĠÐ»ÑĸÐ¿ÑĪÐµ":5023,"ĠÑģÐ¼ÐµÑĢÑĤÑİ":5024,"Ð´ÐµÑģÑıÑĤ":5025,"ÑıÐ½ÑĸÐ²":5026,"ĠÐ²Ð½Ñĥ":5027,"ÑĩÐ¾Ñİ":5028,"Ð¾Ð²Ð¾Ð¼Ñĥ":5029,"Ð¾Ð²Ð¸Ð¼Ð¸":5030,"ÑĢÐ¸Ð¼Ñĸ":5031,"ÑĢÐ¸Ð¼Ñĥ":5032,"ĠÑıÐ²":5033,"ÐµÐ½ÑĤÐ¸":5034,"ĠÑħÐ²ÑĸÑĢ":5035,"ĠÐ²Ð¸ÑģÑĤ":5036,"Ð½Ð°ÑĤ":5037,"Ð´Ð¸ÑĢ":5038,"ĠÑģÐ¿Ð°Ð»Ð¸":5039,"ÑĢÐ°Ð²Ð¸":5040,"ÑĸÐ·Ð¸":5041,"ĠÐ´Ð²Ð¾Ð¼Ð°":5042,"Ð¾ÑĢÐ¸Ð¹":5043,"ĠÐ¿Ð¾ÑģÐ¼Ñĸ":5044,"ĠÐ¿Ð¾Ð»ÑĥÐ¼":5045,"ÐĿÑĥ":5046,"ÑĩÐ¸Ð²ÑĪÐ¸":5047,"ĠÐ¾ÑĤÐ¾Ñĩ":5048,"ÑħÐ¾Ð´ÑĮ":5049,"ĠÑĩÐµÑĢÐ²":5050,"ĠÐ¿ÑĥÑģ":5051,"Ð»ÑİÐ²Ð°Ð²":5052,"ĠÐ·Ð»Ð°Ð¼":5053,"ĠÐ³Ð¾Ð´Ð¸Ð½Ñĥ":5054,"ĠÑĩÑĥÑĤÐ½Ð¾":5055,"ĠÐ¿Ð°Ð´Ð¸ÑĪÐ°ÑħÐ°":5056,"ĠÐ²ÑĢÐ°Ð½ÑĨÑĸ":5057,"Ð´Ð°ÑĤÐ¸":5058,"ĠÐ·ÑĥÑģÑĤ":5059,"ÑĩÐ°Ð»Ð¾":5060,"ĠÐ´Ð°Ð¼":5061,"Ð¿ÐµÑĢÐµÐ´":5062,"ĠÐºÐ²Ð°ÑĢ":5063,"ĠÑĢÐ¾ÑģÑĤ":5064,"Ð¶Ð´Ð¶":5065,"Ð½ÑĸÐ»Ð°":5066,"ĠÑĥÐ½Ð¸Ð·":5067,"ÑĩÐ¸ÐºÐ°":5068,"ÑĩÐ¸Ð»Ð¾":5069,"ÐµÐ½ÑĤÐµ":5070,"ÐµÑĢÐµÐº":5071,"ĠÐĴÐ¸Ð´":5072,"ÑĸÑĤÐµÑĢ":5073,"ĠÐĨÐ´Ð¸":5074,"ĠÐĶÐ°Ð»Ñĸ":5075,"ĠÐ¿Ð¾ÑĢÑĤ":5076,"ĠÐ¿Ð¾ÑĢÑĥ":5077,"ĠÐºÑĢÐ¸ÑĩÐ¸ÑĤÑĮ":5078,"ĠÐ¿ÑĸÑī":5079,"Ð½ÑĥÑĤÐ¸Ð¹":5080,"ĠÐºÐ¸ÑĪÐµÐ½Ñĸ":5081,"ĠÐ¿ÑĢÐ°Ð²Ð¾":5082,"ĠÐ¿ÑĢÐ¾Ð¼Ð¾Ð²Ð¸Ð»Ð°":5083,"ĠÐ³Ð»ÑıÐ½ÑĥÐ»Ð°":5084,"ĠÐ¡ÑĤÐ°Ð¼Ð±ÑĥÐ»Ñĸ":5085,"ĠÐ³Ð»ÑĥÐ·":5086,"ĠÐĽÐ¾Ð±Ð¾Ð´Ð°":5087,"ĠÐ·Ð½Ñĸ":5088,"ĠÑĤÑĸÐ»Ð¾Ð¼":5089,"ĠÐ´Ð°ÑģÑĤÑĮ":5090,"Ð¿Ð°Ð²":5091,"ÐµÑĢÑĨÐµ":5092,"ĠÑĢÑıÑģ":5093,"ĠÐ¾ÑĤÑĸ":5094,"ÑĶÑĤÐµ":5095,"ĠÐ¿ÑĢÐ°Ð¿":5096,"ĠÐ·Ð°ÑĪ":5097,"Ð½ÑĥÑĤÐ¾":5098,"ĠÐ¢ÐµÑģ":5099,"ĠÐ½ÑĸÐºÑĥÐ´Ð¸":5100,"ĠÐ¿ÑĸÐ´Ð½ÑĸÐ¼":5101,"ĠÐĳÐ¾Ð¶":5102,"ĠÐ¯Ð³Ð¾ÑĢ":5103,"ĠÐ¼ÑĸÑģÑĤÑĸ":5104,"ĠÑĤÑĥÐ³Ð°":5105,"ĠÐ³Ð¾Ð»Ð¾ÑģÐ¸":5106,"ĠÑĢÐ¾Ð·Ð¿Ð°Ñĩ":5107,"Ð»Ð°ÑģÐ½Ðµ":5108,"ĠÑģÐ»ÑĸÐ´Ð¾Ð¼":5109,"ĠÐ»ÐµÐ¶Ð°Ð»Ð¸":5110,"ĠÐ¿Ð»Ð°Ð½":5111,"ĠÐ¼Ð¾Ð»Ð¾Ð´Ð°":5112,"ĠÐ³Ð¾Ð²Ð¾ÑĢÐ¸ÑĤÑĮ":5113,"ĠÑĪÐºÐ¾Ð´Ð°":5114,"ĠÑĨÑĸÑĶÑİ":5115,"ĠÐ´Ð²ÑĸÑĩÑĸ":5116,"ĠÐ·ÑĥÐ¿Ð¸Ð½Ñı":5117,"ĠÑıÐ½Ð¸ÑĩÐ°ÑĢÐ¸":5118,"ĠÐ½Ð°Ð»ÐµÐ¶Ð¸ÑĤÑĮ":5119,"ĠÐļÐ°ÑĢÐ¿Ð¾":5120,"ĠÑĪÐ°Ð¿ÐºÑĥ":5121,"ĠÐ´Ð²ÐµÑĢÑıÑħ":5122,"ĠÑĩÐµÑĤÐ²ÐµÑĢ":5123,"ĠÐ¾Ð±Ð¸Ð´Ð²Ð°":5124,"ĠÐ°ÑĢÐµÑĪÑĤÐ°Ð½":5125,"Ð°ÑĩÑĥ":5126,"Ð¼Ð¾Ð½":5127,"ĠÐ·Ð½ÑĸÐ¼":5128,"ĠÐ´Ð°Ð»Ð°":5129,"ĠÐ±Ð¸ÑĤÐ¸":5130,"ĠÐ½Ð°ÑĹÐ²":5131,"Ð¾ÑĢÐ¾ÑĤ":5132,"ĠÐ²Ð¸ÑħÐ¾Ð´Ð¸ÑĤÑĮ":5133,"ĠÐ¶Ñĥ":5134,"ÑīÐ°Ð²":5135,"Ð¾ÑģÐ¸":5136,"ĠÐ¿ÑĢÐ¾ÑĨÐµ":5137,"ÑĥÑĤÐ°":5138,"Ð»ÑĸÐ³":5139,"Ð¾Ð²Ð¸Ð½Ñĥ":5140,"ĠÐ¿Ð¾Ð´Ð¾Ð±":5141,"ĠÐ·Ð°Ð¿Ð°Ð»":5142,"ĠÐºÑĢÐ¾Ðº":5143,"ĠÐ¿Ð¾ÑģÐ»Ð°Ð²":5144,"ĠÐºÐ°Ð¼ÐµÑĢÑĥ":5145,"ĠÐ½Ð°Ð·Ð°Ð²":5146,"ĠÐºÐ°Ð·Ð°Ð»Ð°":5147,"ĠÑĪÐ¸Ð±":5148,"ĠÐ¿ÑĸÐ·Ð½Ð¾":5149,"ĠÑĤÐ¾Ð±ÑĤÐ¾":5150,"ĠÐ²Ð¸Ð¿Ð°Ð´Ð¾Ðº":5151,"ĠÐ¿ÑĸÐ´Ð»Ð¾Ð³Ñĥ":5152,"ĠÐ£ÐºÑĢÐ°ÑĹÐ½Ð¸":5153,"ĠÐ²ÑĸÐ´ÐºÑĢÐ¸Ð²":5154,"ĠÐ¿ÑĢÐµÐ·Ð¸ÑĢ":5155,"ÑĢÐ¾Ð·ÑĥÐ¼":5156,"ĠÐ¿Ð»Ñİ":5157,"ĠÐ·Ð½Ñı":5158,"ĠÐ·ÑĥÑħ":5159,"ĠÐ´Ð°Ð»Ð¸":5160,"ĠÐ´Ð°Ð¹":5161,"ĠÐ´ÑĸÑĢ":5162,"ĠÐ´ÑĸÐ¶":5163,"ĠÑĢÐ°Ð½Ð¾":5164,"ĠÐ»Ð¾Ð²Ð¸":5165,"Ð»ÐµÐ½Ð¸Ð¼":5166,"ĠÐĴÐ°Ð²Ð¸":5167,"ĠÑĢÐ¾Ð·Ð±Ð¸":5168,"ĠÐľÐµÐ½Ðµ":5169,"ĠÐľÐ°Ð±ÑĥÑĤÑĮ":5170,"ÑĢÐµÑģÑĤÐ¸":5171,"Ð°ÑİÑģÑı":5172,"ÑģÑĤÐ¸Ð¼":5173,"ĠÐ¼ÐµÐ¶Ð¸":5174,"ĠÐ·Ð°Ð³Ð¾Ð²Ð¾ÑĢÐ¸":5175,"ĠÑĩÐ¾ÑĢÐ½Ñĥ":5176,"ĠÑĢÐ°Ð´Ð¸":5177,"Ð°ÑĩÐµÐ½Ð½Ñı":5178,"ĠÐ½Ð°Ð³Ð»Ð¾":5179,"ĠÐ·Ð°ÑħÑĸÐ´":5180,"ĠÐ½Ð°Ð±Ð»Ð¸Ð¶":5181,"ĠÑģÐ¾ÑĢÐ¾ÑĩÐºÑĥ":5182,"ĠÑģÑĤÐ¾ÑĢÐ¾Ð½":5183,"ĠÐĿÐ°Ð²ÑĸÑīÐ¾":5184,"ĠÐ´Ð²ÐµÑĢÐ¸Ð¼Ð°":5185,"ĠÐ¡ÑĸÑĢÐºÐ¾":5186,"ĠÑĢÐ¾Ð·ÐºÑĸÑĪ":5187,"Ð½Ð°Ð½Ð½Ñı":5188,"ÑģÐ¾ÑĤ":5189,"ÑģÐ¸ÑĤÐ¸":5190,"ÑıÐºÑĥ":5191,"ĠÐ½Ð¾ÑĢ":5192,"Ð°Ð»ÐºÐ¸":5193,"ĠÐ¼ÑĸÐ·":5194,"Ð·ÑĸÐ²":5195,"ÑĨÑĸÐ»ÑĮ":5196,"ÑĩÐ¸Ð½Ðµ":5197,"ÑĸÐ½Ð¾Ðº":5198,"ĠÐ»Ð°Ð¿":5199,"ĠÐ¿ÑĢÑĸÐ·":5200,"ĠÐ²Ð¸ÐºÐ°Ð·":5201,"ĠÐ·Ð°ÑģÑĤÐ°Ð²":5202,"Ð»ÐµÐº":5203,"ĠÐ¢Ñĥ":5204,"Ð¾ÑĤÐ¾Ñİ":5205,"ĠÑģÐ¿Ð¸ÑĤÑĮ":5206,"ĠÑĢÐ¾Ð·Ð·":5207,"ĠÑĢÐ¾Ð·ÑģÐ¸Ð¿":5208,"ĠÑĪÐºÑĥ":5209,"ĠÐ¿ÑĸÐ´Ð¾Ð·":5210,"Ð¾Ð²ÑĸÑģÑĤÐ¸":5211,"Ð¾Ð´Ð¸ÑĤÑĮÑģÑı":5212,"ĠÐ´ÐµÐ´Ð°Ð»Ñĸ":5213,"ĠÐ·Ð´Ð°Ð»Ðµ":5214,"ĠÐłÐ°Ð·":5215,"ĠÑĩÐ°ÑģÐ¸":5216,"Ð°Ð»ÐµÐºÐ¾":5217,"ĠÐ·Ð°ÐºÑĥ":5218,"ĠÐºÐ¾ÑĢÐ¾Ð»Ñı":5219,"ĠÐ²ÑĥÐ·ÑĮ":5220,"ĠÐ¾ÑģÐ¾Ð±Ð¸":5221,"ĠÑģÑĤÐ¾ÑıÑĤÑĮ":5222,"ĠÐ´Ð¾Ð»ÑĸÐ²":5223,"ĠÐĸÐ¸Ð²":5224,"ĠÑģÑĥÐ¼Ð½ÑĸÐ²":5225,"ĠÐĳÑĥÐ»Ð°":5226,"ĠÐ³ÑĸÑĢÑĪÐµ":5227,"ÑĩÐµÐ½Ñı":5228,"ĠÐ¿Ð¾ÐµÐ·":5229,"ĠÐ³ÑĢÑĸÑħ":5230,"ÑĩÐ°ÑģÐ½Ð¾":5231,"ĠÑıÐºÐ¾ÑĹÑģÑĮ":5232,"ĠÑĤÐ°ÑĶÐ¼Ð½Ð¸":5233,"ĠÐºÑĥÑħÐ½Ñĸ":5234,"ĠÐ²ÑĤÑĢÐ°ÑĤÐ¸":5235,"ĠÐŀÑģÐ¼Ð°Ð½":5236,"ĠÐ»Ð°Ð½ÑĨÑİ":5237,"ĠÐ¢Ð²Ð°ÑĢÐ´Ð¾Ð²ÑģÑĮÐºÐ¸Ð¹":5238,"Ð¤":5239,"ÑıÐ»Ð°ÑģÑĮ":5240,"ĠÐ²Ð»Ð°":5241,"ĠÐ½Ð°Ð»Ð¸":5242,"ĠÐ´Ð¾Ð¶":5243,"Ð°Ð»ÑĸÑģ":5244,"ĠÐ»ÑĸÐ·":5245,"ĠÐ²Ð¸Ð½ÑĥÐ²":5246,"ĠÐ²Ð¸ÑıÐ²":5247,"ĠÐ·Ð°ÑĥÐ²Ð°Ð¶":5248,"ĠÐĲÑħ":5249,"ĠÐĲÐ½Ñĥ":5250,"ÑīÐ°Ñħ":5251,"ĠÐļÑĸÐ½":5252,"ĠÐ¯ÐºÑĸÐ²":5253,"ĠÐ´ÐµÐ²":5254,"ĠÐ»Ð¸ÑģÑĤÐ°":5255,"Ð¾Ð²Ð¸Ð½":5256,"ĠÐłÐ¾Ð¼":5257,"ĠÐ²Ð¸ÑģÐ»Ð¾Ð²":5258,"ÐºÐ¾Ð²Ð¸Ñħ":5259,"ĠÐ³Ð¾Ð»Ð¾ÑģÑĥ":5260,"ĠÐŀÑĤÐ¶Ðµ":5261,"ĠÐ¾Ð±Ð»Ð¸ÑĩÑĩÑıÐ¼":5262,"ĠÐ²Ð¸ÑģÐ¾ÐºÑĸ":5263,"ĠÑĤÑĢÐ°Ð²Ñĥ":5264,"ĠÑĩÑĥÐ¶Ð¸Ñħ":5265,"ĠÐĦÐ»ÑĮÐºÐ°":5266,"ĠÐ¿Ð¾ÑĩÑĥÐ»Ð°":5267,"ĠÑģÐ¿Ð¾ÐºÐ¾Ñİ":5268,"ĠÐ½ÐµÐ¼Ð¸Ð½Ñĥ":5269,"ĠÑĥÐ¿ÐµÑĢÑĤÐ¾":5270,"Ð°ÑĩÐ°":5271,"ÑĤÐºÑĥ":5272,"ÑģÑİ":5273,"ÑıÐ½Ðµ":5274,"ĠÐ²Ð¾Ñı":5275,"ĠÑģÐ¾Ð¿":5276,"ĠÐ·ÑĸÐ»Ð»Ñı":5277,"ĠÐ´Ð¾Ð²Ñĸ":5278,"ĠÐ¼Ð¾ÑĤÑĥ":5279,"ĠÐ¾Ð½Ñĥ":5280,"Ð¾Ð´ÑĸÐ¹":5281,"ĠÑıÐ³":5282,"ÑĩÐ¸ÑĤÑĮÑģÑı":5283,"Ð°Ð´Ð¶":5284,"ĠÐ²ÑĸÐ´ÑģÑĤ":5285,"ĠÐ¿ÑĢÐ¸Ð½Ð¾":5286,"Ð°Ð³Ð¾Ñİ":5287,"ĠÐŁÑĢÐ°Ð²Ð´Ð°":5288,"ĠÑģÐ¿Ð¾ÑĢ":5289,"Ð°Ð±Ð°":5290,"ĠÐĹÐµÐ¼":5291,"ĠÐĳÐ°ÑĤÑĮ":5292,"ĠÐ¿Ð¾Ð²Ð½Ñĸ":5293,"ĠÐ¿Ð¾Ð²ÑĸÐ²":5294,"Ð´ÑĸÐ»Ð¸":5295,"ĠÑģÐºÐ°Ð·Ð°Ð½Ð¾":5296,"ĠÑĦÑĢÐ¾Ð½":5297,"ĠÐ¿Ð¾Ð¿ÑĢÐ¸":5298,"ĠÐ³Ð°ÑĢÐ°Ð·Ð´":5299,"ÑıÑĤÑĤÑı":5300,"ĠÐºÐ°Ð¼ÐµÑĢÐ°":5301,"ĠÐ½Ð°ÑĩÐµÐ±ÑĤÐ¾":5302,"ĠÑħÐ²Ð¸Ð»Ñı":5303,"ĠÐ²ÑĸÑĤÑĢÐ¸":5304,"ÑİÐ²Ð°Ð½Ð½Ñı":5305,"ĠÐ¿ÑĥÑħ":5306,"ĠÐ²Ð¸ÐºÑĢÐ¸":5307,"ĠÐ½Ð¾Ð²Ðµ":5308,"ĠÑĥÐ²Ð°Ð³Ð¸":5309,"ĠÑģÑĤÑĢÑĥÐ¼":5310,"ĠÐ¼Ð°ÑħÐ½ÑĥÐ²":5311,"ĠÐ²ÑĩÐ¾ÑĢÐ°":5312,"ĠÐ¤ÐµÐ´ÑĸÑĢ":5313,"ĠÑīÐ¾ÑĢÐ°Ð·Ñĥ":5314,"ĠÐ·Ð·Ð°Ð´Ñĥ":5315,"ÑĤÐ°Ð»Ð¸":5316,"ÑĩÐ°Ð¼Ð¸":5317,"Ð±Ð½Ð¾":5318,"ĠÐ¼Ð¾Ð¼":5319,"ĠÐºÐµÑĢ":5320,"ĠÑĢÐ¾Ð´Ñĥ":5321,"ĠÐ²Ð¸Ñĩ":5322,"ĠÐ·Ð°ÑĤÑı":5323,"ÐºÑĥÐ½":5324,"ĠÐľÐ°Ð¹":5325,"ÑĨÑĸÑĶÑİ":5326,"ĠÐĶÑĢÑĥÐ³":5327,"ĠÐ¥Ð°":5328,"ĠÐ³Ð¾Ð»ÑĸÐ²":5329,"ÐµÐ½ÑĮÐºÑĥ":5330,"ĠÐ¿Ð¾ÐºÐ»Ð°Ð´":5331,"ĠÐ´Ð¸Ð²ÑĸÐ·":5332,"ĠÐ³ÑĥÑģÑĤÐ¾":5333,"Ð¡Ð¾Ð½":5334,"ĠÐ¾ÑĤÑĢÑĥ":5335,"ĠÐ¿ÐµÑĢÑĪÑĸ":5336,"ĠÐ³Ð°ÑĢÐ¼Ð°ÑĤ":5337,"ĠÐ·Ð±Ð¾ÐºÑĥ":5338,"ĠÐ´ÑĸÐ²ÑĩÐ¸Ð½":5339,"ĠÐ²ÐµÑĢÐ½ÑĥÐ²ÑģÑı":5340,"ÑģÑĥÐ»ÑĮ":5341,"ÐĳÑĥ":5342,"ĠÐ¿ÑĢÐ¾ÑĤÑıÐ³":5343,"ĠÐ½ÐµÑĢÐ²":5344,"ĠÐ½Ð°Ð²Ð¿Ð°ÐºÐ¸":5345,"ĠÐºÐ¾ÑħÐ°Ð½Ð½Ñı":5346,"ĠÑħÐ¸Ð¶":5347,"ĠÑĸÑģÑĤÐ¾ÑĢÑĸÑĹ":5348,"ĠÐ¿Ð¾Ð²ÐµÐ»Ð¸ÑĤÐµ":5349,"ÑĪÑĸÐ²":5350,"Ð¹Ð¾Ð·":5351,"ÐµÑĢÐ½Ñĸ":5352,"ĠÑĢÑıÑĤ":5353,"ĠÐ³Ð¾ÑģÑĤÑĸ":5354,"Ð¾Ð½Ðµ":5355,"ÑĩÐ¸Ð½Ñı":5356,"Ð¾ÐºÐ°Ñħ":5357,"ĠÐ²Ð¸ÑĢÑĥ":5358,"ĠÐ¢Ð¾Ð¿":5359,"ÑīÐµÐ½":5360,"ĠÑĢÐ¾Ð·Ð»Ñĥ":5361,"Ð¼Ð¸ÑĤÑĮ":5362,"ÑĩÐµÐ²Ð¸Ð´":5363,"ĠÐĹÐ½Ð¾Ð²Ñĥ":5364,"ĠÐĳÐ°Ñĩ":5365,"ĠÐ§ÑĥÐ¼":5366,"ĠÐ¿Ð¾Ð´Ð°Ð²ÑģÑı":5367,"Ð°Ð»ÐµÐ½Ð¸Ð¹":5368,"ĠÑĤÐ¸ÑħÐµÐ½ÑĮÐºÐ¾":5369,"ĠÑĤÐ²Ð¾ÑĢÐ¸":5370,"ĠÑĩÑĥÐ¶Ñĸ":5371,"ĠÐ¾Ð¿Ð°Ð½":5372,"ĠÑģÑĤÑĢÐ°ÑĪÐµÐ½Ð½Ð¾":5373,"ÐºÐ¾Ð½ÐµÑĩ":5374,"ĠÑĪÐ¸ÑĢÐ¾ÐºÐ¾":5375,"ÑĸÑħÑĤ":5376,"ĠÐ»ÑİÐ±Ð¸ÑĤÑĮ":5377,"ĠÐ¾Ð±ÑĸÐ·Ð²Ð°Ð²ÑģÑı":5378,"ĠÐ·Ð±ÑĢÐ¾ÑĹ":5379,"ĠÐ±Ð¾Ð¼Ð±":5380,"ĠÐ¼Ð¸Ð¼Ð¾Ð²Ð¾Ð»Ñĸ":5381,"Ð»Ð¾Ð²Ñĸ":5382,"ÐºÐ¾Ð¿":5383,"ÑıÑĪ":5384,"ĠÐ¿Ð°ÑĢÐ¸":5385,"ĠÑĤÐ°ÑĢ":5386,"ÑĤÐ¸Ð½":5387,"ĠÐ¼ÑĸÐ´":5388,"ĠÐºÐ°Ð»Ñİ":5389,"ĠÑĸÑģÐ½Ñĥ":5390,"Ð¾Ð»Ð¾":5391,"ÑģÑĤÐ°ÑĢ":5392,"ĠÐ³ÑĸÐ»Ð»Ñı":5393,"ĠÑģÑĤÐ¾Ð»Ð¾Ð¼":5394,"ĠÑĨÑĸÐ½":5395,"ĠÐ¿ÐµÑĢÐµÑģÑĤÐ°Ð²":5396,"ÑĥÐ¿Ð¸":5397,"Ð°Ð»ÑĮÐ½Ð¾ÑĹ":5398,"ÑĦÐµÑĢ":5399,"ĠÐ»ÐµÐ²":5400,"ĠÐ¿Ð¾Ð»ÐµÐ³":5401,"ĠÐºÐ¾Ð½ÑĤÑĢ":5402,"ĠÐ¢Ð¸ÑĩÐ¸Ð½Ð°":5403,"ĠÐ¼Ð°ÑĤÐµÑĢÐ¸":5404,"ĠÐ²Ð¾ÑĢÐ¾ÑĤÐ°":5405,"ĠÐ·Ð¼ÑĸÐ½":5406,"ĠÑģÐºÐ°Ð¶Ñĥ":5407,"ĠÑĢÑĸÐ·Ð½Ñĸ":5408,"ĠÐ¿ÑĢÐ¸Ð²ÐµÐ·":5409,"ĠÐ¼Ð°ÑĢÐ½Ð¾":5410,"ĠÐ¡Ð¿ÑĢÐ°Ð²":5411,"ĠÐ¼ÐµÑĢÐ·":5412,"ĠÐ½Ð°Ð¼Ð°Ð³Ð°ÑİÑĩÐ¸ÑģÑĮ":5413,"ĠÐĹÐ°Ð³Ð½Ð¸Ð±ÑĸÐ´Ð°":5414,"ĠÐ¡Ð¾Ð½ÑĨÐµ":5415,"ÑģÑĥÐ»ÑĮÐ¼Ð°Ð½":5416,"Ð½Ð¾Ð±":5417,"ĠÐ·ÐµÑĢ":5418,"ÑĩÐ½Ð¸Ð¼":5419,"ÑĩÐµÐ½Ð°":5420,"Ð¿ÑĢ":5421,"ĠÐ½ÐµÑīÐ°":5422,"ÑģÑĤÐµÐ¹":5423,"ÑĥÐ²Ð°ÑĶÑĤÑĮÑģÑı":5424,"ÑĸÐ½ÐºÑĥ":5425,"ĠÑĨÑĥÐº":5426,"Ð»ÐµÑģ":5427,"ĠÐ¿ÑĢÐ¸Ð½ÑĸÑģ":5428,"Ð¸ÑħÐ°":5429,"ĠÐĿÐµÐ·":5430,"ĠÐ¡ÑĸÐ½":5431,"ÑĪÐ¸ÑĤÑĮ":5432,"Ð½ÐµÑģÐµ":5433,"ĠÐ¾Ð±ÑĸÐ¹Ð¼":5434,"ÑģÑĤÐ¸Ñħ":5435,"ÑĦÐ¸":5436,"ĠÐ¿Ð¾ÐºÐ¸Ð´":5437,"ĠÐ¿Ð¾ÑĢÐ¾Ð·":5438,"ĠÐ¿Ð¾ÑĢÐ¾Ð·Ñĸ":5439,"ÐºÐ¾Ð¼Ð°":5440,"ĠÐ¿Ð¾Ð¼Ð°Ð³":5441,"ĠÐ·Ð°ÐºÐ¾Ñħ":5442,"ĠÐ·Ð°Ð³ÑĢ":5443,"ĠÐ±ÑĢÐ°Ð¼":5444,"ÑīÐµÐ½Ñĸ":5445,"ĠÐĿÐ°ÑīÐ¾":5446,"ĠÐ¶ÑĸÐ½ÐºÐ¾Ñİ":5447,"ĠÐ²Ð¸Ð¿Ð¸Ð²":5448,"ĠÑĢÐ¾Ð·Ð¿Ð¸ÑĤ":5449,"ĠÑħÐ»Ð¾Ð¿ÑĨÑı":5450,"ĠÐ§ÑĸÐ¿ÐºÑĥ":5451,"ĠÑĩÐµÐºÐ°ÑĶ":5452,"ĠÐ³ÐµÑĤÑĮÐ¼Ð°Ð½":5453,"ĠÐ¿ÑĢÐ¸ÐºÐ»Ð°Ð´":5454,"ĠÐŁÑĢÐ¾ÑĤÐµ":5455,"ĠÑģÑĤÑĸÐ½Ñĥ":5456,"Ð²ÐµÑĩÑĸÑĢ":5457,"ĠÐ·Ð½ÐµÐ²Ð°Ð¶":5458,"ĠÐ²ÐµÐ»ÑĮÐ¼Ð¾Ð¶":5459,"ÐĵÑĸÑĢÐµÐ¹":5460,"ĠÐ¾Ð±ÐµÑĢÐµÐ¶Ð½Ð¾":5461,"ÐµÐ»Ñı":5462,"ĠÐ½Ð¾Ð²Ñĥ":5463,"Ð´Ð°Ð½Ð½Ñı":5464,"ÑĩÐ½Ñĥ":5465,"ĠÑĤÐ¾Ñĩ":5466,"Ð±ÑĸÑĢ":5467,"ĠÐºÐ°ÑĤÐ¾ÑĢ":5468,"ĠÐ½ÐµÐ¾Ð´":5469,"Ð¾Ð»Ð¾Ð´Ð¸":5470,"Ð¾ÑĢÐ³":5471,"ÑĸÐ²Ð½Ñı":5472,"ĠÐ»ÑĸÐ½Ñĸ":5473,"ĠÑģÑĤÑıÐ³":5474,"ĠÑĨÑĸÐ»Ð°":5475,"ĠÐ¿ÑĢÐ¸ÑħÐ¾Ð´Ð¸ÑĤÑĮ":5476,"ĠÐĹÐ°Ð¼":5477,"ĠÐ¥Ð¼ÐµÐ»ÑĮ":5478,"ĠÐĳÑĥÐ´ÑĮ":5479,"Ð´ÑĥÐ¶":5480,"ĠÐĽÐµÐ²":5481,"ĠÑģÑĥÐ»ÑĤÐ°Ð½ÑģÑĮÐºÐ¸Ñħ":5482,"ĠÐ¿Ð¾ÑĤÐ¾Ð¼":5483,"ĠÐºÐ°Ð¼ÐµÐ½":5484,"ĠÐ¶Ð¸Ð²ÑĥÑĤÑĮ":5485,"ÑģÐºÐ°Ð»Ð¸":5486,"ĠÐ¡ÑĤÐ°ÑĢÐ¸Ð¹":5487,"ĠÐ²Ð´ÐµÐ½ÑĮ":5488,"ĠÐ»ÑĸÑģÑĸ":5489,"ĠÑħÐ¾Ð´Ð¸Ð»Ð°":5490,"ĠÐ¶Ð¾Ð´Ð½Ð¾ÑĹ":5491,"ĠÑĤÑĥÑĢÐ±":5492,"ĠÐĴÐµÐ»Ð¸ÐºÑĸÐ½":5493,"ĠÐľÑĥÑģÑĤÐ°ÑĦÐ°":5494,"ĠÑģÐ»ÑĸÐ¿Ñĥ":5495,"ĠÐ±ÐµÐ·Ð³Ð»ÑĥÐ·Ð´":5496,"ĠÐ²ÑĸÑģÑĸÐ¼":5497,"ÐµÐ´Ñĸ":5498,"ĠÐ²ÐºÑĢÐ¸":5499,"ÑĩÑĸÑĢ":5500,"ÑħÐ°Ð½":5501,"ÑĤÐ¸ÐºÐ¸":5502,"ĠÐ¼ÑĸÐ»Ñĸ":5503,"ĠÐºÐ»Ñı":5504,"ÑĨÑĥ":5505,"ĠÐ³Ð°Ð²":5506,"ÑĶÐ²Ð°":5507,"ĠÐ»ÑĸÑħÑĤ":5508,"ĠÐ²Ð¸ÐºÐ¾":5509,"ĠÑģÑĤÑĸÐ½Ñĸ":5510,"ĠÐ¿ÑĢÐ¸ÑģÑĤÑĢÐ°":5511,"ÐµÐ¼Ð¾Ð³ÑĥÑĤ":5512,"ĠÐ½ÑĸÑĩÐ¸Ð¼":5513,"ÑīÐ°Ð¼Ð¸":5514,"ÑĢÑĸÐ»Ð°":5515,"ĠÐ²ÑģÑİÐ´Ð¸":5516,"ÐŁÑĢ":5517,"ĠÐºÑĥÑĩ":5518,"ĠÐ¿Ð¾ÑĤÐ¾Ð¿":5519,"ĠÐ½Ð°Ð¹Ð±":5520,"ĠÑĢÐµÑĪÑĤ":5521,"ĠÑģÐ¼Ð°Ðº":5522,"ĠÑĤÐ²Ð¾Ð³Ð¾":5523,"ĠÐ¿ÑĢÐ°Ð²Ð°":5524,"ĠÐºÐ¾Ð¶Ð½Ð°":5525,"ĠÐ²Ð¿ÑĸÐ·":5526,"ĠÐ¿Ð»Ð°ÑĤÐ¸":5527,"ĠÐ½ÑĸÑıÐºÐ¾ÑĹ":5528,"ĠÑĨÐ¸Ð³Ð°Ð½":5529,"ĠÐ·Ð´Ð¸Ð²ÑĥÐ²Ð°Ð²ÑģÑı":5530,"ĠÐºÑĸÐ¼Ð½Ð°ÑĤÑĥ":5531,"ĠÐĵÐ»Ð¸Ð½ÑģÑĮÐºÐ°":5532,"ĠÐŁÐ¾ÑĢÐ¾Ñħ":5533,"Ð½Ð°Ð²ÑģÑı":5534,"Ð½ÐµÐ½Ð°":5535,"ÑıÐ½Ñĥ":5536,"ĠÐ²ÑĸÐ»ÑĮÐ½Ð¾":5537,"ĠÐ½ÑĥÐ´":5538,"ĠÑģÐ¾Ñģ":5539,"ĠÐ´Ð°Ñħ":5540,"ĠÐ´Ð°ÑİÑĤÑĮ":5541,"ĠÐºÐ°Ñĩ":5542,"ĠÐ³Ð°Ð¼":5543,"ÑĩÐ¸ÐºÐ¸":5544,"ĠÐ»Ð°Ð²Ð¸":5545,"Ð°Ð´Ð°Ð²":5546,"ĠÐ±ÑĥÑĢÑı":5547,"ĠÐĲÐ³Ð°":5548,"ÑĢÑĥÑĤ":5549,"ĠÐ½ÑĸÐ±Ð¸ÑĤÐ¾":5550,"ĠÐľÑĸ":5551,"ĠÐ¾Ð±Ð²Ð¸":5552,"ĠÐĹÐ´Ð°Ð²":5553,"ÑĤÐµÑģÑĮ":5554,"ĠÑģÐ¸Ð»Ñĸ":5555,"ÑĨÑĮÐºÐ¾":5556,"ĠÑĤÐ¸ÑĪÑĸ":5557,"ĠÑģÑĥÐ´Ð¸":5558,"Ð°Ð»ÑĮÐ½Ð¸Ñħ":5559,"ĠÐ±ÑĥÐ²Ð°":5560,"ÐĴÐ¸":5561,"ÑĪÑĥÑİÑĩÐ¸":5562,"ĠÐ·Ð°Ð±Ð¸ÑĢ":5563,"ĠÐ·Ð°ÑģÐ¿ÑĸÐ²":5564,"ĠÐºÐ¾Ð¶Ð½Ð¸Ð¼":5565,"ÐµÑģÑĸÐ´":5566,"ĠÐ²Ð¾Ð³Ð½Ð¸":5567,"Ð¾ÑĪÐ°Ðº":5568,"ĠÐ»ÑĸÑĤÐ°":5569,"ĠÐ»ÐµÐ³ÑĪÐµ":5570,"ĠÐ°Ð½ÑĸÐ¶":5571,"ĠÑĢÑĸÑĪÑĥ":5572,"ĠÐ»Ð°ÑģÐºÐ°Ð²":5573,"ĠÑĸÑģÐºÑĢÐ¸":5574,"ĠÐ¿Ð¸ÑģÑĮÐ¼ÐµÐ½":5575,"ÐµÐ»Ð°":5576,"Ð²Ð¸Ð¼":5577,"ÐºÐ²":5578,"ĠÐ¿ÑĸÑĤ":5579,"ĠÐ½Ð¾Ð³Ð¾Ñİ":5580,"Ð¼Ð°Ð³":5581,"ĠÐ·Ð°Ð»ÐµÐ¶":5582,"ĠÐ±ÐµÑĢ":5583,"ĠÑīÑĸÐ»Ð¸":5584,"ĠÑĥÐ²Ð°Ð¶":5585,"ÐºÐ°ÑĶÑĤÑĮÑģÑı":5586,"ĠÐ¿ÑĢÑĸÑĢ":5587,"ĠÐ¿ÑĢÐ¸ÑĤ":5588,"ĠÑģÐ¿Ð¾Ð³Ð°Ð´":5589,"ÑĢÑĸÐ»Ð¸":5590,"ĠÐĳÑĸÐ»Ñı":5591,"ĠÐĵÐ°":5592,"ĠÐĵÐ°Ð»Ñİ":5593,"ĠÐ±ÐµÐ·Ð´":5594,"ĠÐ§Ð¾Ð»Ð¾Ð²Ñĸ":5595,"ĠÐ£ÑģÐµ":5596,"ÐµÑĤÑĸÐ²":5597,"ĠÐºÑĢÐ¸ÐºÐ½ÑĥÐ²":5598,"ĠÑĩÐ¾ÑĢÐ½Ð¸Ñħ":5599,"ĠÑĩÐ¾ÑĢÐ½Ð¸Ð¼Ð¸":5600,"ÐĨÐ²Ð°Ð½":5601,"ÑĩÐ°ÑĹ":5602,"ĠÑĩÐ¾Ð»Ð¾Ð²ÑĸÐºÐ¸":5603,"ĠÐ½ÐµÐ·Ð²Ð¸ÑĩÐ°Ð¹":5604,"ĠÐ²Ð¿ÑĢÐ°Ð²":5605,"ĠÐ²Ð¾ÑĢÑĸÑĤ":5606,"ĠÐºÐ°Ð·Ð°Ð»Ð¸":5607,"ĠÐ¤Ð°ÑĤÑĸ":5608,"ĠÑĥÐ¿Ð°Ð²":5609,"ĠÐĦÐ²":5610,"ĠÐ±Ð°ÑĢÐ²Ð¸":5611,"ĠÐ³Ð»ÑĥÑħÐ¾":5612,"ĠÐ·Ð»Ð¾ÑĩÐ¸Ð½":5613,"ĠÐ¾ÑĢÐ³Ð°Ð½ÑĸÐ·Ð°":5614,"ĠÐ³Ð°Ð½ÑĩÑĸÑĢ":5615,"ĠÐ¿Ð°Ðº":5616,"ĠÐ¿Ð°Ð¹":5617,"ĠÐ·Ð±Ñĥ":5618,"ÑĩÐ°ÑĢ":5619,"ÑİÑģÑı":5620,"Ð¿Ð°ÑĤÐ¸":5621,"Ð±Ð»Ñĸ":5622,"ĠÐ²Ð¸ÑĢÐ¾Ð±":5623,"Ð¾Ð·Ñĥ":5624,"ĠÐ·Ð°ÑĩÐµÐ¿":5625,"Ð¾ÑĤÑĸÐ»Ð¾":5626,"ÑĢÑĸÑĹ":5627,"ĠÑĪÑĥÐº":5628,"Ð½ÐµÑģÑĤÐ¸":5629,"ĠÐĹÐ°Ñħ":5630,"ĠÑģÐ¸Ð½Ð¸":5631,"ÑĥÑĢÐ³":5632,"ĠÑĹÑħÐ½Ñİ":5633,"ĠÑģÐµÐ¹":5634,"ĠÐ»Ð¸ÑĨ":5635,"ÐĴÐĶ":5636,"ĠÐ²ÐµÐ»Ð¸ÐºÐ¸Ð¼Ð¸":5637,"ĠÑĦÐ°Ð½ÑĤ":5638,"ĠÐ¾ÑĤÐ¾Ð¹":5639,"Ð½ÑĥÑĤÐ¸ÑģÑĮ":5640,"ÐŀÐ¹":5641,"ĠÐ´ÑĸÐ²ÑĩÐ¸Ð½Ð¸":5642,"ĠÐ¡ÑĤÐ°ÑĢ":5643,"ĠÑĥÑģÑĸÑĶÑĹ":5644,"ĠÐ²ÑĸÑĤÑĢÑĥ":5645,"ĠÑĢÐ¾Ð·ÑĥÐ¼Ñĥ":5646,"ĠÐ²ÑĸÑĢÑĪÑĸ":5647,"ĠÐ¼Ð¾Ð»Ð¾Ð´Ð¾Ð³Ð¾":5648,"Ð¿Ð°ÑĪÑĥ":5649,"ĠÑħÐ¾Ð»Ð¾Ð´Ð½Ð¾":5650,"ĠÑģÐ¾ÑĢÐ¾Ðº":5651,"ĠÐ´Ð·ÐµÑĢÐº":5652,"ĠÐ²ÑĸÑĩÐ½Ð¾":5653,"ĠÐłÐ¾ÐºÑģÐ¾Ð»Ð°Ð½Ð¸":5654,"ĠÐ´Ð¾Ð·Ð²Ð¾Ð»":5655,"ĠÐ¿Ð¾ÑĩÐ¸Ð½Ð°ÑĶ":5656,"ĠÐ³ÐµÑĢÐ¾ÑĹ":5657,"ĠÐ·Ð¸Ð¼Ñĥ":5658,"ĠÐ³Ð¾ÑĢÑĸÐ»ÐºÐ¸":5659,"ĠÐ±Ð°Ð·Ð°ÑĢ":5660,"ĠÐľÐµÑħÐ¼ÐµÐ´Ð°":5661,"ĠÐ±Ð»Ð¸ÑģÐºÐ°Ð²":5662,"!)":5663,"Ðĩ":5664,"ÑĤÐ¾Ð²Ñĸ":5665,"ĠÐ·ÑĢÐ¸":5666,"ĠÐ±Ð¾Ð»Ð¾ÑĤ":5667,"ĠÑĢÐ¾Ð¼Ð°Ð½":5668,"Ð¾ÑĢÐ°Ð´":5669,"Ð¸Ð²Ð°Ð²ÑģÑı":5670,"ĠÐ²Ð¸Ð½Ð°":5671,"ĠÐ²Ð¸ÑģÑĤÐ°":5672,"Ð»ÑıÑĶÑĤÑĮÑģÑı":5673,"Ð½Ð°ÑİÑĩÐ¸":5674,"ÑĸÐ¹ÑĪÐ»Ð¸":5675,"ĠÐĿÐ°ÑĢ":5676,"ĠÐ¿ÐµÑĢÐµÐ²ÐµÑĢ":5677,"ĠÐĳÐ¾Ð³Ð°":5678,"Ð»ÑİÑĶ":5679,"ĠÐ±ÐµÐ·ÐºÐ¾Ð½ÐµÑĩ":5680,"ÑģÑĤÑĸÑĪÐµ":5681,"ĠÐ½Ð°Ð´ÑĸÑı":5682,"ĠÐłÐ¸":5683,"ĠÐ³Ð¾ÑĢÑĸÐ»Ð¸":5684,"ĠÑĸÐ½ÑĤ":5685,"ĠÑĢÐ¾Ð±Ð¸Ð»Ð¸":5686,"ĠÐ½ÐµÐ¿ÐµÐ²":5687,"ĠÐ±Ð°ÑĤÑĮÐºÐ¾Ð²Ñĸ":5688,"ĠÐ½ÐµÐ²ÑĸÐ´":5689,"ĠÐ½Ð¸ÑĪÐºÐ¾Ð¼":5690,"ĠÐ½Ð¾Ð²Ð¸Ñħ":5691,"ĠÐ²ÑĸÐ´Ð¿Ð¾Ð²ÑĸÐ´ÑĮ":5692,"ĠÐ´Ð¾Ð¿Ð¾Ð¼Ð°Ð³":5693,"ĠÐ¿Ð°Ð½Ð¸Ñĩ":5694,"ĠÐ¶Ð°Ð´ÑĸÐ±":5695,"ĠÐ¡Ð¸Ð½Ð¸ÑĨÑı":5696,"ĠÐĴÐ°Ð²Ð¸Ð»Ð¾Ð½Ð°":5697,"Ð¸Ð½Ñĥ":5698,"ÑĢÐ¾Ñİ":5699,"Ð½Ðº":5700,"ĠÐ·ÑĢÐµÑĪÑĤÐ¾Ñİ":5701,"ĠÐ·Ð½Ð¸Ñī":5702,"ÑĩÑĥÑĤÑĤÑı":5703,"ĠÐ±Ð¸ÑĤ":5704,"Ð¾Ð³Ð»Ð¸":5705,"ÐµÑĢÐ¾":5706,"ÑĨÑĸÐ½":5707,"ĠÐ³Ð°Ð½ÑĮ":5708,"ÑĩÐ¸ÑģÑĮ":5709,"ĠÐ²ÑĸÐ´Ð¾Ð¼Ð¾":5710,"Ð°Ð³Ð¾Ð¼":5711,"ĠÐŁÐ¾Ð·":5712,"ĠÐŁÐ¾Ð±Ð°":5713,"ĠÑģÐ¿Ð»Ñİ":5714,"ÑīÐµÐ½Ð½Ñı":5715,"Ð»ÑĸÑģÑĤÑĮ":5716,"Ð»Ð¸Ð²ÑĪÐ¸ÑģÑĮ":5717,"ĠÑĹÑħÐ½Ñı":5718,"ĠÐ´ÑĥÑĪÐµÐ²":5719,"ĠÐ·Ð´ÑĸÐ¹":5720,"ÐĴÑģÐµ":5721,"ĠÐ¿Ð¾Ð»ÑĸÑĤÐ¸":5722,"ĠÐ¦Ñı":5723,"Ð½ÑİÐ¿":5724,"ĠÐ²ÑĥÐ»Ð¸Ñĩ":5725,"Ð¾ÑĢÑĸÑĪÐµ":5726,"ĠÑģÐ¿ÑĢÐ°Ð²ÐµÐ´":5727,"ÐľÐ°ÑĢ":5728,"Ð»Ð°Ð²Ð°":5729,"ĠÐ»ÑİÐ´ÑģÑĮÐºÐ¸Ñħ":5730,"ÐļÐĴÐĶ":5731,"ĠÐ²Ð¿Ð°Ð»Ð°":5732,"ĠÑģÑĤÐ¾ÑıÐ»Ð¾":5733,"ĠÐ±Ð°ÑĩÐ¸ÑĪ":5734,"ĠÐºÑĢÑĸÐ¿":5735,"ĠÑĢÐµÐ³ÑĸÑĤ":5736,"ĠÐ¿Ð»Ð°ÐºÐ°Ð»Ð°":5737,"ĠÐ·Ð°ÐºÑĢÐ¸ÑĩÐ°Ð²":5738,"ÑĸÐ»Ð¾Ð¼ÐµÑĤ":5739,"ĠÑģÐ»ÑĮÐ¾Ð·Ð°Ð¼Ð¸":5740,"ĠÐ²Ð°ÑĢÐ¸":5741,"ĠÑģÐ»Ð¸":5742,"ĠÑĤÐ°Ð»":5743,"Ð¾Ð²Ð½Ñĸ":5744,"ĠÐ±Ð¾ÐºÑĸÐ²":5745,"ĠÐ±Ð´Ð¶":5746,"ĠÐ¼ÑĸÐ»ÑĮÐ¹":5747,"ĠÐºÑĸÐ»Ð¾Ð¼ÐµÑĤ":5748,"ĠÐ¿Ð¾ÑĩÐµ":5749,"ĠÐ´Ð¾ÑĤÐµ":5750,"ĠÐ¿ÑĢÐ¸ÑĢÐµ":5751,"Ð¾ÑĤÑĸÐ»Ð¾ÑģÑı":5752,"ÐµÐ¼ÐµÐ½ÑĤ":5753,"ĠÑĤÐ°ÐºÑĸÐ¹":5754,"ĠÐ¿ÐµÑĢÐµÐºÐ¸":5755,"ĠÐļÐ°Ð·":5756,"ĠÐĵÐ¼":5757,"ĠÐ±ÐµÐ·Ð·":5758,"Ð¢ÑĥÑĤ":5759,"ĠÑĢÐµÑĩÐµÐ¹":5760,"ĠÐ¿Ð¾Ð³Ð°Ð½Ð¾":5761,"Ð¡ÑĤÐµ":5762,"ĠÑģÑĤÐ°ÑĢÑĥ":5763,"ĠÐ²ÑĥÑģÑĤ":5764,"ĠÐ²ÑĸÑĢÑĥ":5765,"ĠÐ½ÐµÐ²Ð´Ð¾Ð²":5766,"ĠÐºÑĸÐ½ÑĨÑĸ":5767,"ĠÐ±Ð¾ÑĢÐ¾Ð´":5768,"ĠÑĥÐ²ÑĸÐ¹ÑĪÐ¾Ð²":5769,"ĠÑĤÑİÑĢÐ¼Ñĸ":5770,"ĠÐ²ÑĸÐ´ÑĩÑĥÐ»Ð°":5771,"ĠÐĹÐ°ÑĢÐ°Ð·":5772,"ĠÐĵÐ¾ÑĢÐ¿Ð¸Ð½Ð°":5773,"ÑĥÑİ":5774,"ĠÐ¿ÑĪÐµ":5775,"ĠÑģÑĸÐ»Ð°":5776,"ĠÐ±ÐµÑģÑĸÐ´":5777,"ÑģÑĤÑĢÐ¾":5778,"Ð·Ð°Ð²":5779,"Ð¾ÑĢÐ¾Ð´":5780,"Ð¶Ñı":5781,"Ð¾ÐºÐ¸Ð¹":5782,"ĠÐ¿Ð¾ÑĩÐ¸":5783,"ĠÐ²Ð¸ÑĢÑı":5784,"ÐºÐ¾ÑĩÐ¸Ð»Ð°":5785,"Ð°Ð³Ð°Ð½":5786,"ĠÐŁÐ¾Ð³":5787,"ĠÐ¾Ð´Ð²ÐµÑĢ":5788,"ĠÑģÐºÑĢÐ¸Ð²":5789,"ĠÐĵÐ°Ð²ÑĢÐ¸":5790,"Ð¿ÐµÑĢÑĪÑĥ":5791,"ÑĪÑĥÑĶ":5792,"ĠÐ½Ð°Ð¹Ð¼":5793,"Ð¾ÑģÑĤÐ°":5794,"ĠÐ¼ÑĥÑģÑĥÐ»ÑĮÐ¼Ð°Ð½":5795,"ĠÐ±ÑĸÐ»Ð¾Ð¼Ñĥ":5796,"ĠÐ½ÐµÐ·Ð²Ð¸Ñĩ":5797,"ĠÐ²Ð¿ÑĸÐ·Ð½Ð°Ð²":5798,"ĠÐ±Ð°Ð³Ð°ÑĤÑĮ":5799,"ĠÐ¿Ð»Ð°ÑĤ":5800,"ĠÐŁÐµÑĤÑĢÑĥ":5801,"ĠÐ·Ð¾Ð»Ð¾ÑĤÐ¾":5802,"ÐµÑĢÐµÐ´Ð¸Ð½Ð¸":5803,"ĠÐºÐ°Ð¿ÑĸÑĤ":5804,"ĠÐ½ÐµÐ¿ÑĢÐ¸ÑĶÐ¼":5805,"ĠÐ¾Ð´ÐµÐ¶Ñĥ":5806,"ĠÐ¾Ð´ÐµÐ¶Ñĸ":5807,"ĠÐ½ÐµÐ³Ð°Ð¹Ð½Ð¾":5808,"ĠÑĸÐ¼Ð¿ÐµÑĢÑĸÑĹ":5809,"ĠÐ³Ð°ÑĢÑıÑĩÐµ":5810,"ÐĵÑĢÐ¸Ð³Ð¾ÑĢÑĸÐ¹":5811,"ĠÐĴÐµÑģÐµ":5812,"Ð±Ð°Ð³Ð½ÐµÐ½":5813,"ĠÐ¼Ð¾ÑĤÑĥÐ·":5814,"ĠÐ¥Ð¼ÐµÐ»ÑĮÐ½Ð¸ÑĨÑĮ":5815,"Ð¾ÑĩÐ¸Ð¹":5816,"Ð½Ð°Ð´ÑĨÑıÑĤÑĮ":5817,"Ð´Ð¾Ñİ":5818,"ĠÐ·Ð»Ðµ":5819,"ĠÑĤÑĮ":5820,"ÑħÐ°Ð»Ð¸":5821,"ÑİÑĶ":5822,"Ð¾Ð²ÑĥÐ²Ð°Ð²":5823,"Ð°Ð»ÐºÑĥ":5824,"ĠÐ½Ð°ÑĪÐµ":5825,"ĠÐ¾ÑĨÑĸ":5826,"ĠÐ³ÑĸÐ´":5827,"ĠÐ³Ð°Ð»Ð°":5828,"ĠÐ³Ð¾Ð²Ð¾ÑĢ":5829,"ÑĸÐ½Ð½Ñİ":5830,"ÐµÐ½Ð¾Ð¼Ñĥ":5831,"ĠÐ¿Ð¾ÑģÑĤÐµ":5832,"Ð°ÑĤÐ¾Ðº":5833,"ĠÐŁÐ°":5834,"ĠÑĢÐ¾Ð·Ð²Ð°Ð¶":5835,"ĠÐĶÐ¸":5836,"Ð»ÑİÑİÑĩÐ¸":5837,"ĠÑĢÐµÐ¿":5838,"ĠÑĤÐ¸ÑħÐ¸Ð¹":5839,"ĠÐ·Ð°Ð³ÑĢÐ¾Ð·":5840,"ĠÑģÑĤÐ°ÑĢÐµ":5841,"ÐºÐ¾Ð²Ð¾ÑĹ":5842,"ĠÑĩÑĥÑİ":5843,"ĠÐ¶Ð¸Ð²Ñĥ":5844,"ĠÑģÑĤÐ°Ð²Ð°Ð»Ð¾":5845,"ĠÐ½ÐµÐ·Ð°Ð±Ð°ÑĢÐ¾Ð¼":5846,"ĠÐ¾ÑģÐ²ÑĸÑĤ":5847,"ĠÐ³ÑĢÑĥÐ±":5848,"ĠÐ´Ð¾Ð²Ð³Ñĸ":5849,"ÑģÑĤÐ°Ð½Ð¾Ð²":5850,"ĠÑģÐ»ÑĸÐ´ÑĩÐ¾Ð³Ð¾":5851,"Ð¿Ð°ÑĪÑĸ":5852,"Ð·Ð´Ð¸Ð²":5853,"ĠÐ¿Ð¾Ð´ÑĥÐ¼Ð°ÑĤÐ¸":5854,"ĠÐºÐ¾ÑĢÐ¸ÑģÑĤ":5855,"ĠÐ´Ð¾Ð¼Ð¾Ð²Ð¸":5856,"ĠÑĩÐ¸ÑĤÐ°ÑĤÐ¸":5857,"ĠÐ¿ÐµÑĢÐµÐ¼Ð¾Ð¶":5858,"ĠÐ´Ð¾ÑģÐ»ÑĥÑħ":5859,"ĠÐ°Ð»Ð»Ð°":5860,"ĠÑıÐ·Ð¸Ðº":5861,"ĠÐ½ÐµÑĤÐµÑĢÐ¿":5862,"ĠÐ¼Ð°Ð½Ð´ÑĢÑĸÐ²":5863,"Ð¿ÑĢÐ°Ð²Ð´Ñĸ":5864,"ĠÐļÐ½Ð¸ÑĪ":5865,"ÑĸÑĪÐµ":5866,"ÑĢÐ½Ðµ":5867,"Ð½Ð°Ð´ÑĨÑı":5868,"Ð²Ð¾Ð¼":5869,"ÐºÑĢÑĥÐ³Ð¸":5870,"ĠÑģÐ°Ð´Ñĥ":5871,"ÑİÑİÑĩÐ¸":5872,"Ð¾Ð²Ð¾Ð»ÑĮ":5873,"Ð°Ð»ÑĸÐº":5874,"Ð±ÐµÑĢ":5875,"ĠÐºÐ°Ð²":5876,"ĠÑĸÐ¼ÐµÐ½":5877,"Ð¾Ð»Ð¾Ñĩ":5878,"Ð³Ð°Ð¼Ð¸":5879,"ĠÐ³ÐµÐ½":5880,"ĠÐ³ÑĸÐ»":5881,"ĠÑĥÐ¼ÐµÑĢ":5882,"ĠÐ»ÑıÐº":5883,"ĠÐ°Ð½":5884,"ĠÐ²Ð¸Ð´Ñĥ":5885,"Ð»Ð¾ÑĹ":5886,"Ð½ÑĥÑĤÑĸ":5887,"Ð½ÑĥÑĤÐ°":5888,"Ð°Ð¹Ð²Ð¾ÑĢ":5889,"ĠÐ²ÑĸÐ´Ð²":5890,"ĠÐ²ÑĸÐ´ÑĮ":5891,"ĠÐľÐ°ÑĤÐ¸":5892,"ĠÑĪÑĤÐ¾Ð²":5893,"ĠÐ²ÑģÐµÐ¼Ð¾Ð³ÑĥÑĤ":5894,"ĠÐ¿ÑĸÐ´Ð½ÐµÑģ":5895,"ĠÐ¾Ð±Ð¿":5896,"Ð±Ð¸Ð»Ð¸":5897,"ĠÐļÐ¾Ð¼Ñĥ":5898,"ÑĥÑĢÐ±":5899,"ĠÐ¿Ð¾ÐºÑĸÐ¹":5900,"Ð¼ÐµÑĤ":5901,"Ð¼ÐµÑĤÑĮÑģÑı":5902,"ĠÐ³Ð¾ÑĢÐ»Ð¾":5903,"ĠÐĽÐ¾ÑĪÐ°Ðº":5904,"ÐŁÑĢÐ¸":5905,"ĠÐ¿Ð¾ÑĤÐ°Ð¹":5906,"ĠÐ·Ð°Ð±ÑĢÐ°Ð»Ð¸":5907,"ĠÑĢÐ¾Ð±Ð»ÑıÑĤÑĮ":5908,"ĠÐ²Ð¸ÑģÐ¾Ñĩ":5909,"ĠÐ´ÑĢÑĥÐ³Ð¸Ð¼":5910,"ĠÑģÑħÐ¾Ð´":5911,"ĠÐ·Ð±ÑĸÑĢ":5912,"ĠÐ²Ð·ÑıÐ»Ð¸":5913,"ĠÐ²Ð¾ÑĢÐ¾Ð½":5914,"ĠÐ³Ð¾Ð»Ð¾Ð²Ð½Ðµ":5915,"ĠÑĩÐµÐºÐ°ÑĤÐ¸":5916,"ĠÐ»Ð¸ÑĪÐ¸Ð²ÑģÑı":5917,"!!!":5918,"ĠÐ´Ð¾ÐºÑĥÐ¼":5919,"ĠÑĪÑĥÐºÐ°ÑİÑĩÐ¸":5920,"Ð¿ÑĥÑģÑĤÐ¸Ð²":5921,"ĠÐ´ÑĥÑħÐ¾Ð¼":5922,"ĠÐ³Ð¾ÑĢÐ¸ÑĤÑĮ":5923,"ĠÑıÐ½Ð¸ÑĩÐ°ÑĢÑĸÐ²":5924,"ĠÐĶÐ¾Ð²Ð³Ð¾":5925,"ĠÐ·Ð²Ð¸Ðº":5926,"ĠÐ·Ð°ÑģÐ¼ÑĸÑıÐ»Ð°ÑģÑı":5927,"ĠÑģÑĥÐ²Ð¾ÑĢÐ¾":5928,"ĠÐ²Ð¾Ñİ":5929,"ĠÐ·Ð´Ð¸":5930,"ĠÐ·Ð¼Ð¸":5931,"ÑĩÐºÐ°Ð¼Ð¸":5932,"ÑħÐ¾Ð¼":5933,"Ð¹ÑģÑı":5934,"ĠÑĢÑĥÐ¼":5935,"Ð½Ð¸ÑĤÑĮ":5936,"ĠÐ¾ÑĦÑĸ":5937,"ĠÑĥÑģÑĤÐ°Ð²":5938,"ÑĩÐ¸Ð»Ð°ÑģÑı":5939,"Ð¸Ð²Ð°ÑĶÑĤÑĮÑģÑı":5940,"ĠÐ·Ð°ÑģÐ¸":5941,"ĠÐ·Ð°ÑĩÐ¸Ð½Ð¸":5942,"ĠÐĴÐ¸Ñģ":5943,"ĠÐ¡Ð²ÑĸÑĤ":5944,"ĠÐ¡Ð°Ð½ÑĮÐºÐ¾":5945,"ĠÑĪÑĤÑĥ":5946,"ĠÑĹÑħÐ½ÑĮÐ¾ÑĹ":5947,"Ð¾Ð²ÑĥÑĶ":5948,"ĠÐ¿Ð¾ÐºÐ°ÑĢ":5949,"ĠÐ·Ð´ÑĸÐ±":5950,"ĠÐ³Ð¾ÑĢÐµ":5951,"ĠÐºÑĥÑĢÐ¸":5952,"ĠÑĦÐ°Ð±ÑĢÐ¸":5953,"ĠÑĤÑĢÐµÑĤÑĮ":5954,"Ð¸Ð½ÐºÑĥ":5955,"ÑģÐ¿ÐµÐº":5956,"ĠÑģÑĤÐ¾ÑıÑĤÐ¸":5957,"ĠÐĿÑĸÐ±Ð¸":5958,"ĠÑĨÑĸÐ»Ðµ":5959,"ĠÑģÑĤÑĢÐ°ÑĪÐ½Ð¸Ð¹":5960,"ĠÑĢÐ¾Ð·ÑĥÐ¼ÑĸÐ²":5961,"ĠÐºÑĸÐ»ÑĮÐºÐ¾Ñħ":5962,"ĠÑĤÑİÑĤÑİ":5963,"ĠÑĩÐ¾Ð»Ð¾Ð²ÑĸÐºÐ¾Ð²Ñĸ":5964,"ĠÑıÐºÐ¸ÑħÐ¾ÑģÑĮ":5965,"Ð´Ð¾Ð²Ð¶":5966,"ĠÐ¿ÑĸÐ·Ð½Ð°Ð²":5967,"ĠÐ½Ð°ÑģÑĤÑĢÑĸÐ¹":5968,"ĠÑĪÐ¼Ð°ÑĤÐ¾Ðº":5969,"ĠÑģÑĤÐ¾Ð²Ð¿":5970,"ĠÐºÐ½Ð¸Ð¶ÐºÐ¸":5971,"ĠÑĢÐµÐ²Ð¾Ð»ÑİÑĨÑĸÑĹ":5972,"Ð¾ÑīÑĸ":5973,"Ð°ÑĨÑĸÑĹ":5974,"Ð½ÑģÑĮÐºÐ¸Ð¹":5975,"Ð»Ð°Ð¹":5976,"ÐºÐµÑĤ":5977,"ĠÐ²Ð¾ÑĶ":5978,"ĠÐ²Ð´Ð°":5979,"Ð´Ñİ":5980,"ÑĪÐµÐ½Ð¾":5981,"Ð°Ð»Ð¸Ð²ÑģÑı":5982,"Ð±ÑĸÐ³":5983,"ĠÑĸÐ³":5984,"ĠÑĸÑģÐ¿":5985,"ÑĢÐ¸Ð¶":5986,"ÑĥÐ²Ð°ÑĶ":5987,"Ð°ÐºÑĤÐ¸":5988,"Ð°ÐºÐ°Ð¼Ð¸":5989,"ÑĩÐ¸ÑĤÐµÐ»ÑĮ":5990,"ĠÑħÐ°Ð½Ð°":5991,"ĠÑħÐ¾Ð´Ñĥ":5992,"ĠÐ¶ÑĥÑĢÐ¸":5993,"ÑĸÑĤÐºÐ¾":5994,"ĠÐĿÐļÐĴÐĶ":5995,"ĠÑĪÐºÐ¾Ð»":5996,"ĠÑĪÐ¿Ð¸":5997,"ĠÑĪÐ²ÐµÑĨÑĮ":5998,"ĠÐ¾Ð´Ñĩ":5999,"ĠÐ²ÐµÐ´Ðµ":6000,"ĠÐ¯ÐºÑĸ":6001,"Ð°Ð»ÑĮÐ½Ð°":6002,"ĠÐ¼Ð¸ÑģÑĤÐµ":6003,"ÑĥÐ²Ð°Ð²ÑĪÐ¸":6004,"ĠÐ¿ÐµÑĢÑĪÑĥ":6005,"ĠÐºÐ°Ð¼ÑĸÐ½":6006,"ĠÐ·Ð°Ð¼Ðº":6007,"ĠÐ½ÐµÐ·Ð±Ð°Ð³Ð½ÐµÐ½":6008,"ĠÐ²Ð¿Ð°Ð²":6009,"ĠÐ·Ð°Ð´Ñĥ":6010,"ĠÐļÐ¾Ð»Ð¸ÑģÑĮ":6011,"ĠÑģÐ¿ÑĸÐ²Ð°Ð»Ð¸":6012,"ĠÑĢÐ¸Ð¿":6013,"ĠÐ¾ÐºÑĢÑĸÐ¼":6014,"ĠÑĩÐ¸ÑĤÐ°Ð²":6015,"ĠÑħÑĢÐµÑģÑĤ":6016,"ĠÐ²ÑģÑĸÐ¼Ð°":6017,"ĠÐ»Ð°ÑģÐºÐ°":6018,"ĠÐ¿ÑģÐ¸Ñħ":6019,"ĠÑģÐ¿ÐµÑĨÑĸ":6020,"ĠÐ¾ÑģÑĤÐ°ÑĤ":6021,"ĠÑħÑĢÐ¸Ð¿":6022,"ĠÑĪÐ°ÑĢÐ¿":6023,"ĠÐ¿ÑĢÐµÑģÑĤ":6024,"Ð°ÑĹ":6025,"ÑĤÐµÐ¼":6026,"ÐºÐ°Ð¿Ð¸":6027,"ĠÑģÑĮÐ¾Ð³Ð¾":6028,"ĠÐ·Ð½Ð¸Ð·":6029,"ÑĩÑĨÑĸ":6030,"ĠÑĤÑĸÐ»":6031,"ÑĪÐ½Ð¸Ð¹":6032,"Ð¿ÐµÑĩ":6033,"Ð¾Ð»Ð¾Ñħ":6034,"ĠÐ¾Ð²ÐµÑĨÑĮ":6035,"Ð½ÑĸÐ¶":6036,"ÑĩÐ¸ÑĤÐ°Ð²":6037,"ĠÐ´Ð¾ÑĩÐºÑĥ":6038,"ĠÑĨÑĸÐ½Ñĥ":6039,"Ð½ÑĥÑĤÑĮÑģÑı":6040,"ĠÐĴÐ»Ð°ÑģÐ½Ðµ":6041,"Ð¾ÑģÑĥ":6042,"ĠÐĵÐ°ÑĦ":6043,"ĠÐ´ÐµÑīÐ¾":6044,"ÑģÑĤÐ¸Ð½Ð°":6045,"ĠÐ´Ð¸Ð²Ð¾Ð²Ð¸":6046,"ĠÐ¿Ð¾ÑĢÑĸÐ³":6047,"ĠÐ¿Ð¾ÑģÐµÑĢÐµÐ´Ð¸Ð½Ñĸ":6048,"ÐĿÐ°ÑĢÐµÑĪÑĤÑĸ":6049,"ĠÐ·Ð°ÑģÐ²ÑĸÑĤÐ¸":6050,"ĠÐºÐ°Ð¼ÐµÑĢ":6051,"ĠÑĩÐ¾Ð»Ð¾Ð²ÑĸÐºÐ¾Ð¼":6052,"ĠÐ¿Ð¾Ð·Ð°Ð´Ñĥ":6053,"ĠÐ¿Ð°ÑĢÑĤÑĸ":6054,"ĠÑģÑĤÑĢÑĸÐ»Ñı":6055,"ĠÐºÑĥÐ¿Ð¸":6056,"ĠÐ·ÑĸÐ±":6057,"ĠÑģÐ¸Ð´ÑıÑĤÑĮ":6058,"ĠÐ³Ð¾Ð²Ð¾ÑĢÐ¸Ð»Ð¸":6059,"ĠÑĥÐ²Ð°Ð³Ñĥ":6060,"ĠÐ½ÐµÑģÐ¿Ð¾ÐºÑĸÐ¹":6061,"ĠÐ·ÑĸÑĤÑħÐ½ÑĥÐ²ÑĪÐ¸":6062,"ĠÐ²ÐµÑģÑĸÐ»Ð»Ñı":6063,"ĠÐĽÐ¸ÑĪ":6064,"ĠÐ²Ð¾ÑĢÐ¾Ð³ÑĸÐ²":6065,"ÑĢÐµÐ²Ð¾Ð»Ñİ":6066,"ĠÑĪÑĤÐ°Ð½Ð¸":6067,"ĠÐ²ÑĸÐ´Ð¿Ð¾Ð²ÑĸÐ»Ð°":6068,"ĠÐ½Ð°Ð·Ð°Ð²Ð¶Ð´Ð¸":6069,"ÑĢÑĸÐ´":6070,"Ð½Ð¾Ð³":6071,"ÐºÐ°Ð²ÑģÑı":6072,"ĠÑĤÑĸÑģ":6073,"Ð°Ð»ÑĸÐ¹":6074,"Ð¾Ð³Ð¾Ð¼":6075,"ĠÐ¼Ð¾Ð²Ñĥ":6076,"ĠÐ¼Ð¾ÑĢÑĸ":6077,"ĠÐºÐ»Ð¸":6078,"ĠÐºÑĸÑĪ":6079,"Ð»Ð¸ÐºÐ¸":6080,"ĠÐ½Ð°ÑħÐ¸":6081,"ĠÑĢÐ¸Ñģ":6082,"ĠÑĥÐ¿ÐµÑĢÑĪÐµ":6083,"ÐºÐ°ÑİÑĩÐ¸ÑģÑĮ":6084,"ĠÐ¿ÑĢÑĥ":6085,"ĠÐ¿ÑĢÑıÐ¼":6086,"ĠÑģÐ¿ÑĢ":6087,"ÑīÐµÐ¼":6088,"ĠÐ¡Ð°Ð±Ð¸ÑĢÐ»Ð¸":6089,"ĠÑģÐ°Ð¼ÑĸÑģÑĸÐ½ÑĮ":6090,"ĠÐļÐ¾ÑĢ":6091,"Ð»Ð¸Ð²ÑĪÐ¸":6092,"ĠÐĵÐµÑĤÑĮ":6093,"Ð¾Ð¹Ð¾Ð²":6094,"Ð¾ÑĶÐ¼":6095,"ĠÐ¼Ð¾Ð²Ð¾Ñİ":6096,"ĠÑħÐ¾ÑĩÐ°":6097,"ĠÐ¿Ð¾Ð±Ð»Ð¸":6098,"ĠÑĩÐ¾Ð»Ð¾":6099,"ĠÐľÐ°ÑĢÑĸÑĹ":6100,"ĠÐ»ÐµÐ³ÐµÐ½":6101,"ĠÐ±ÑĥÐ´ÐµÐ¼Ð¾":6102,"ĠÐĸÐ¸":6103,"ĠÐ²ÐµÑģÐµÐ»Ð¸Ð¹":6104,"ĠÑĩÐµÑĢÐ²Ð¾Ð½Ð¸Ð¹":6105,"ÑĥÑģÑİ":6106,"ĠÐ·ÑĸÑĤÑħÐ½ÑĥÐ»Ð°":6107,"ĠÐ´Ð¸Ð¼Ð¾Ð¼":6108,"ĠÐ³Ð¾Ð´Ð¸Ð½":6109,"ĠÐ³Ð¾Ð´Ð¸Ð½Ð¸":6110,"ĠÐ²ÐµÑģÐ½Ñı":6111,"ĠÐ·ÑĢÐ¾Ð·ÑĥÐ¼ÑĸÑĤÐ¸":6112,"ĠÐĩÑĹ":6113,"ĠÐ·Ð°Ð±ÑĥÐ»Ð°":6114,"ĠÐ²Ð¾Ð»Ð¾Ð´Ð°ÑĢ":6115,"ĠÐľÐµÑħÐ¼ÐµÐ´":6116,"ÑıÐ»Ð¾":6117,"ĠÐ¿ÑģÐ¸":6118,"Ð´Ð¾Ð±":6119,"Ð¼Ð°Ð¼Ð¸":6120,"ĠÐ±ÑĸÐ±":6121,"ÐµÑĢÐ¾Ð¼":6122,"ĠÐºÐ»ÑĸÑĤ":6123,"ĠÐºÐ°ÑĦ":6124,"ĠÑĢÐ¸Ð´":6125,"Ð³ÑĢÐ°Ð´":6126,"Ð½ÑĸÑĪÐ°":6127,"ÑĸÐ»Ñİ":6128,"ĠÐĲÐ²":6129,"ĠÐ¿ÑĢÐ¸ÑģÑĤÑĥÐ¿":6130,"ĠÐ¿ÑĢÐ¸Ð³Ð¾ÑĢ":6131,"ÑīÐ¾Ð³Ð¾":6132,"ÑīÑĸÐ²":6133,"Ð¾Ð»Ð¸ÑĤÑĮ":6134,"Ð¶ÐµÐ½Ð¸Ñħ":6135,"ÑĢÐµÐºÑĤÐ¾ÑĢ":6136,"ĠÐ¾Ð±Ð¼Ð¸":6137,"ĠÐŀÑĤÐ¾":6138,"Ð°Ð»ÑĮÐ½Ð¸Ð¼":6139,"ĠÑĹÑħÐ½ÑĶ":6140,"ĠÐ¼Ð¸Ð³":6141,"ĠÐ·Ð´Ð°ÑĤ":6142,"ĠÐ¼Ð¾Ð²ÑĩÐ¸ÑĤÑĮ":6143,"ĠÑħÐ¾ÑĩÑĥÑĤÑĮ":6144,"ÑģÑĸÐ±":6145,"ĠÑĦÐ°ÑĢ":6146,"ÐĨÐ±ÑĢÐ°Ð³ÑĸÐ¼":6147,"ĠÐ·Ð±Ð¸Ð²":6148,"ĠÐ·Ð±ÑĸÐ³":6149,"ÐľÐ¾Ð²":6150,"ĠÐ¶Ð¸Ð²Ð¾Ð³Ð¾":6151,"ĠÐ³Ð¾Ð»Ð¾ÑģÑĸ":6152,"ĠÐ½ÐµÐ·Ð½Ð°Ð¹Ð¾Ð¼":6153,"ĠÐ²ÑĸÑĤÑĢÐ¾Ð¼":6154,"ĠÐ²Ð¸Ð¹ÑĤÐ¸":6155,"ĠÐĲÐ½Ð´ÑĢÑĸÑĶÐ²":6156,"ĠÐ´Ð¸ÑıÐ²":6157,"ĠÑģÐºÑĢÐ¸Ð¿":6158,"ĠÑħÐ¾ÑĩÐµÑĤÐµ":6159,"ĠÐ²Ð°ÑĢÑĤÐ¾Ð²":6160,"ĠÐ·Ð´Ð¸Ð²Ð¾Ð²Ð°Ð½Ð¾":6161,"ĠÐ²ÐºÐ»Ð¾Ð½":6162,"ĠÐºÐ°Ð¿ÐµÐ»Ñİ":6163,"ĠÐ³Ð¾Ð¼Ð¾Ð½":6164,"ĠÐĳÐ°Ð³Ð»Ð°":6165,"ĠÐ½Ð°Ð¿ÐµÐ²Ð½Ðµ":6166,"ĠÐ²ÑĥÑħÐ¾":6167,"ĠÐľÐ°Ð»Ð°Ð½ÐºÐ°":6168,"ĠÐ½ÐµÑģÑĤÐµÑĢÐ¿":6169,"ĠÐĳÑĥÐ±ÐµÐ»Ð°":6170,"ĠÑĤÑĢÐ¸Ð´ÑĨÑıÑĤÑĮ":6171,"ÐĦ":6172,"ÑģÐ¾Ð½":6173,"Ð²Ð°Ð»Ð¾":6174,"ĠÐ´Ð±":6175,"ĠÐ´Ð¾Ð³Ð¾":6176,"Ð¾Ð²ÑĤ":6177,"ĠÐ¼Ð¾Ð²Ð¸Ð»Ð°":6178,"ĠÐºÐµÐ¿":6179,"ĠÐ½ÐµÑģÐµ":6180,"ĠÑĥÑĤÐ¾Ð¼":6181,"ÑĩÐ¸Ð½Ð¾Ñİ":6182,"ĠÐ¿Ð¾ÑĢÐ¸":6183,"ĠÐ²Ð¸Ð»ÑĸÐ·":6184,"ĠÐ´Ð¾ÑĤÐ¸":6185,"ĠÐ¿ÑĢÐ¸Ð½":6186,"ÑĸÐ»ÑĮÐºÐ°":6187,"Ð¸ÑħÐ°Ð½":6188,"ĠÑĢÐ¾Ð·Ñħ":6189,"Ð¾ÑģÐµÑĢÐµÐ´":6190,"Ð¸ÑĤÐµÐ»ÑĮ":6191,"ĠÐĹÐ°Ñģ":6192,"ĠÐļÐ»Ð¸":6193,"ÑĤÑıÐ¼Ð¸":6194,"ÐµÐ½ÑĮÐºÐ¸Ñħ":6195,"ÑİÑĩÐ¸Ð¹":6196,"ĠÐ½Ð°Ð´ÑĸÐ¹":6197,"ÐµÐ½ÐµÑĨÑĸ":6198,"ĠÐłÐ¾Ð´":6199,"ĠÐłÐ¾Ð³Ð°ÑĤÐ¸":6200,"ĠÐ³Ð¾ÑĢÐ´Ð¾":6201,"ĠÐĽÑĮ":6202,"Ð²ÐµÐ»Ð¸":6203,"ĠÑĸÐ½Ð¶":6204,"ÐĿÐ°Ð´":6205,"ĠÐ±ÑĸÐ»Ð¾Ð³Ð¾":6206,"ĠÑĩÐ¾Ð»Ð¾Ð²ÑĸÐºÑĸÐ²":6207,"ĠÐ¿ÑĢÐ¸Ð¹ÑĤÐ¸":6208,"ĠÐ¶Ð¸Ð²Ñĸ":6209,"ĠÐºÐ¾Ð¶Ð½Ð¾ÑĹ":6210,"Ġ(\"":6211,"ĠÐ¿ÑĢÐ¾ÑģÑĤÐ¸":6212,"ĠÐ¿ÑĢÐ¾ÑģÑĤÑĸÑĢ":6213,"ĠÐ½ÐµÑĢÑĥÑħ":6214,"ĠÑĢÐ°Ð±Ð¸":6215,"ĠÑģÐ¾ÑĤÐ½Ñĸ":6216,"ĠÑħÐ°Ð·ÑıÑĹÐ½Ð°":6217,"ĠÑĩÐ°ÑĢÐºÑĥ":6218,"ĠÐ±ÑĢÐµÑħ":6219,"ĠÑĸÐ½ÑģÑĤÐ¸ÑĤ":6220,"ÑĤÑĢÑĸÑĪ":6221,"Ð´Ð°Ð½Ñĸ":6222,"ĠÑģÐ¼Ð°":6223,"Ð¼Ð°Ðº":6224,"Ð¼ÐµÑĢÑĤ":6225,"ĠÐ±ÑĸÐ»Ð°":6226,"Ð°Ð½ÑĸÐ¹":6227,"ÑģÑĤÐ²Ñĥ":6228,"ĠÐ½Ð°ÑĨÑĸÐ¾Ð½":6229,"Ð·Ðµ":6230,"ÑĥÐ²ÑĪÐ¸":6231,"ĠÑĥÑıÐ²Ð¸":6232,"Ð°Ð´Ñĸ":6233,"ĠÐ¿ÑĢÐ¾Ð¶":6234,"ĠÐ²Ð¸ÑħÐ¾Ð´Ð¸Ð²":6235,"ĠÐ¿ÑĢÐ¸Ð½Ð¸":6236,"ĠÐ¿ÑĢÐ¸ÑĤÐ¸Ñģ":6237,"ĠÐŁÐ¸Ð»Ð¸":6238,"ÑīÐ¸Ñħ":6239,"Ð¸ÑĤÐ°Ð¹":6240,"Ð²Ð¸Ð³":6241,"ĠÐĹÐ²":6242,"ĠÐļÐ»Ð¸Ð¼":6243,"ÑĢÐ¾ÑħÐ¸":6244,"ĠÑĹÑħÐ°ÑĤÐ¸":6245,"ÐµÐ½ÑĮÐºÐ¸":6246,"ĠÐ·Ð²ÑĸÐ²ÑģÑı":6247,"ĠÐ¿Ð¾ÐºÐ»Ð¾Ð½":6248,"ĠÑģÐ²ÑĸÑĤÐ»Ñĸ":6249,"ĠÐ²ÐµÐ»Ð¸ÐºÐ¾Ð¼Ñĥ":6250,"ÑģÑĤÑıÐ¼":6251,"ĠÐ´Ð°Ð²Ð°Ð»Ð¸":6252,"ĠÑģÑĤÐ°Ð²Ð°Ð²":6253,"ÐºÐ°Ð·Ð°Ð²":6254,"ĠÐ¿Ð¸ÑĪÐµ":6255,"ĠÐºÐ°ÑĢÑĤÐ¾Ð¿":6256,"ĠÐ¿Ð¾Ð²ÐµÑĢÐ½ÑĥÐ»Ð°ÑģÑı":6257,"ĠÐºÑĥÐ¿Ð¸Ð²":6258,"ĠÑģÐ»ÑĸÐ´Ð¸":6259,"ÐµÑĩÐºÐ¾":6260,"ĠÐĨÐ²Ð°Ð½ÑĸÐ²Ð½Ð°":6261,"ĠÑģÐºÐ°Ð¶Ð¸":6262,"ÐĽÑİÐ´Ð¸":6263,"Ð¾Ð²Ð°Ð½Ð¾Ð³Ð¾":6264,"ĠÐ´Ð¾ÐºÐ°Ð·":6265,"ĠÐľÐ°Ð»ÑĮÐ²Ñĥ":6266,"ĠÐ¡ÑĤÐ°Ð¼Ð±ÑĥÐ»":6267,"ĠÑĶÐ´Ð¸Ð½Ð¸Ð¹":6268,"ĠÐ½Ð°Ð¿Ð¸ÑģÐ°Ð²":6269,"ĠÑĦÐ¾ÑĢÑĤÐµ":6270,"ĠÑĨÐ°Ð¿Ð°":6271,"ĠÑĤÐ¾Ð²Ð°ÑĢÐ¸ÑĪÑĸÐ²":6272,"ĠÐ´Ð¸ÑĤÐ¸Ð½ÑģÑĤÐ²Ð°":6273,"ĠÐ·Ð»Ð¸Ð´":6274,"ĠÐ½ÐµÐ¿Ð¾Ð¼ÑĸÑĤÐ½Ð¾":6275,"ĠÑħÑĢÐ¸ÑģÑĤÐ¸ÑıÐ½":6276,"ĠÑĤÐ»Ñĸ":6277,"ĠÐ´Ð°":6278,"ÑĪÐ¾Ñİ":6279,"Ð°Ð»Ð°Ðº":6280,"ĠÐºÑĢÐ¸Ð¼":6281,"ĠÐ¾Ð¿Ñĥ":6282,"ĠÐ¾ÑĩÐµÐ²Ð¸Ð´":6283,"Ð½ÑĸÑĪÐ¸Ñħ":6284,"ĠÑĥÐ³Ð¾ÑĢ":6285,"ĠÑĩÐ°Ñİ":6286,"ĠÐ±ÑĥÐ±":6287,"ĠÐ²ÑĸÐ´Ð·Ð½Ð°":6288,"ĠÐ¿ÑĢÐ¸Ð´Ð¸Ð²":6289,"ĠÑĢÐ¾Ð·Ð¿Ñĥ":6290,"ĠÑĪÑĸÑģÑĤÑĮ":6291,"Ð¾ÑĩÐºÐ°Ð¼Ð¸":6292,"ĠÐ¿ÐµÑĢÐµÐ¶Ð¸Ð²":6293,"ĠÐļÐ¾ÑģÑĤÐ¸":6294,"ĠÐ·Ð½ÐµÐ½Ð°":6295,"Ð»ÑİÐ¿":6296,"ĠÐ§Ð¸Ð¼":6297,"ĠÐ»Ð¸ÑĨÑı":6298,"ĠÐ¼ÐµÑĤÑĥ":6299,"ĠÐ³Ð¾ÑĢÑı":6300,"Ð²ÐµÐ¹":6301,"ĠÐ¿Ð¾ÑĢÑıÑĤÑĥ":6302,"ĠÐ¿Ð¾ÑģÐ»":6303,"ĠÐ½Ð°Ð¿ÑĢÑıÐ¼":6304,"ĠÐ·Ð°Ð±ÑĢ":6305,"ĠÑģÑĤÐ°ÑĢÐ¾ÑĹ":6306,"ĠÐ½Ð°ÑģÐ¼Ñĸ":6307,"ĠÐ¶ÑĸÐ½Ð¾Ñĩ":6308,"ĠÐ½ÐµÐ¿ÐµÑĢÐµ":6309,"ĠÐ»ÑİÐ´ÑģÑĮÐºÐ°":6310,"ĠÐ¿Ð¾Ð·ÑĸÑħ":6311,"ĠÐ²ÐµÑĢÑĪÐ¸":6312,"Ð²Ð¸Ð´ÐºÐ¾":6313,"ĠÐ²Ð¸Ð³Ð»Ñı":6314,"ĠÐ¿Ð¾ÑħÑĸÐ´":6315,"ĠÐ¿Ð¾ÑħÐ½ÑİÐ¿":6316,"ĠÑĤÑĢÐ¸Ð¼Ð°ÑİÑĩÐ¸":6317,"ĠÐ»ÑİÐ±Ð»Ñİ":6318,"ĠÑĢÑĸÐ·Ð½Ð¸Ñħ":6319,"ĠÐ¼Ð°ÑĢÐ¼ÑĥÑĢ":6320,"ĠÐ¿Ð¾ÑģÑĤÐ°Ð²Ð¸ÑĤÐ¸":6321,"Ð°Ð½ÑĤÐ°Ð¶":6322,"ĠÑĩÐ¾ÑĤÐ¸ÑĢ":6323,"ĠÐ´Ð¾Ð²ÐµÐ»Ð¾ÑģÑı":6324,"ĠÐ±ÑĥÐ´Ð¸Ð½ÐºÑĥ":6325,"ĠÑģÐµÑĢÐ´Ð¸ÑĤÐ¾":6326,"ĠÐ¿Ð¾ÑĤÑĢÐµÐ±Ñĥ":6327,"ĠÐ§Ð°ÑģÐ¾Ð¼":6328,"ĠÐµÐ½ÐµÑĢÐ³":6329,"ĠÐ·Ð½ÐµÐ½Ð°ÑĨÑĮÐºÐ°":6330,"Ð½Ð°Ð¶":6331,"Ð²Ð°ÑĤ":6332,"ÑıÑĤÐµ":6333,"ĠÐ¿ÑĤÐ¸":6334,"ĠÐ¿Ð°Ð·Ñĥ":6335,"ĠÐ½Ð¾ÑĤ":6336,"Ð´ÑĸÐ¹":6337,"Ð¼Ð¾ÑĤÑĸÐ²":6338,"ĠÐ·Ð¾Ð¹":6339,"ĠÐ·Ð°Ð»Ñĸ":6340,"ÑĩÐ°ÑĤÐ°":6341,"ĠÐ´ÑĸÑĶ":6342,"ĠÐ´ÑĢÑĸÐ¼":6343,"ÑĢÐ¸Ð»Ð°":6344,"ĠÐ½Ð°ÑīÐ¾":6345,"ĠÑĢÐ¾Ð´":6346,"ĠÐ¾ÑĤÑĥ":6347,"ĠÐ³ÑĢÐ¸Ð·":6348,"ĠÑĩÐ°Ð´":6349,"Ð¾Ð±Ð¸Ð²":6350,"ĠÐ°Ð³":6351,"ĠÑħÐ¾ÑĢÐ¾":6352,"Ð°Ð´ÑĥÑĤÑĮ":6353,"ÐºÑĥÑİÑĤÑĮ":6354,"ĠÐ¢Ð°Ð¹":6355,"Ð¾ÑģÐºÐ¾Ð²":6356,"ĠÐĿÐµÐ¼":6357,"ĠÐ¿ÑĸÐ´Ð½Ð¾":6358,"ĠÐ¾Ð±Ð¾ÑĶ":6359,"Ð¾Ð´Ð¸Ð»Ð°ÑģÑı":6360,"ÑĢÐ¾ÑģÑĤÑĸ":6361,"ÑĨÑĮÐºÑĸ":6362,"Ð»ÑİÑģÑı":6363,"ĠÑģÑĥÑĨÑĸÐ»ÑĮ":6364,"Ð¾Ð²Ð¸ÑīÐµ":6365,"ĠÐ»ÑİÐ´Ð¸Ð½Ð¾Ñİ":6366,"ĠÐ¼ÑĥÑĦ":6367,"ĠÐ³ÑĥÐ»ÑĮ":6368,"ĠÐ¾ÑĤÐ°":6369,"ĠÑĤÐ²Ð¾Ñİ":6370,"ÐĶÐ¸Ð²":6371,"ĠÐ·Ð±ÐµÑĢÑĸÐ³":6372,"ĠÐ½ÐµÐ¿Ð¾Ðº":6373,"ĠÐ¡ÑĤÑĢÐ°ÑĤ":6374,"ĠÐ¿Ð°ÑĢÐºÐ°Ð½":6375,"ÐĵÐ°Ð»Ñı":6376,"ĠÐºÑĸÐ½Ñĩ":6377,"ĠÐ½Ð¾ÑģÐ¾Ð¼":6378,"ÑĶÑĪÑģÑı":6379,"ĠÐ²Ð°ÑĪÑĸ":6380,"ĠÐ¿Ð°Ð´Ð°Ð»Ð¸":6381,"ĠÑĪÐ»ÑıÑħÐ¾Ð¼":6382,"ĠÐ¿Ð¾ÑĤÑĢÑĸÐ±Ð½Ñĸ":6383,"ĠÐºÐ¾ÑĢÐ¾ÑĤÐºÐ¾":6384,"ĠÐ½ÑĥÐ¶":6385,"ĠÐ·Ð°ÑĤÐ¸Ñħ":6386,"ĠÐ´Ð¾Ð²ÐµÐ´ÐµÑĤÑĮÑģÑı":6387,"ĠÐ¢Ð¾Ð¿ÐºÐ°Ð¿Ð¸":6388,"ÑĤÐ½Ð¾":6389,"ÑĤÐ¾Ð¼Ñĥ":6390,"Ð»Ð¾Ð¼Ñĥ":6391,"Ð²Ð°ÑĤÐ¸ÑģÑı":6392,"ĠÐ²Ð¾ÑģÐº":6393,"ĠÐ¿Ð¸Ð»Ð¸":6394,"ĠÑģÐ¼Ð¸":6395,"ĠÑģÑĸÐ½Ð¸":6396,"ĠÑģÐ¸ÑĤÑĥ":6397,"ÑĩÑĥÑĤ":6398,"ÑĩÑĥÑĤÑĮ":6399,"ĠÐ´ÑĸÑĤÑĮÐ¼Ð¸":6400,"Ð¾Ð³ÑĢÐ°ÑĦ":6401,"Ð¿Ñĸ":6402,"Ð±Ð°Ð½":6403,"ĠÐºÐ»":6404,"ÑĢÐ¸Ð¿":6405,"Ð¾Ð»Ð¾ÑĪ":6406,"ÑģÑĤÐ¾Ñİ":6407,"ĠÐ°Ð½Ð³":6408,"ĠÐ²Ð¸Ð±Ð¸Ð²":6409,"ĠÑģÑĤÐ°ÑĤ":6410,"Ð°ÑĤÐ¾Ð³Ð¾":6411,"ĠÐ¿ÑĢÐ¸ÑħÐ¾Ð´Ð¸Ð²":6412,"ĠÐĿÐ°Ð¼":6413,"Ð»Ð¸Ð²Ð¾ÑĹ":6414,"Ð»Ð¸Ð²Ð¸Ð¼Ð¸":6415,"ĠÑģÐ¸Ð½Ñĸ":6416,"ĠÐ¿Ð¾Ð²Ð¸":6417,"ÑĥÑĢÑħ":6418,"Ð¾Ð²ÑĥÑİÑĩÐ¸":6419,"ĠÐ·Ð°Ð¿Ð»Ð°":6420,"ĠÐºÐ¾Ð»Ð¾Ñģ":6421,"ĠÐ¼Ð¾Ð¶ÐµÑĪ":6422,"ĠÐ·Ð°Ð³ÑĥÐ±":6423,"ĠÐ±ÑĢÐ°Ð»Ð¸":6424,"ĠÐºÑĢÐ¸ÑĩÐ°Ð»Ð¸":6425,"ĠÐ¿Ð°Ð½ÑĸÐ²":6426,"ÐºÐ¾Ð²Ð¸Ð¼":6427,"ĠÐ»ÑİÐ´ÑģÑĮÐºÐ¾ÑĹ":6428,"ĠÐ·Ð°ÑħÐ¾Ð²":6429,"ĠÐ¿Ð¾ÐºÐ¸Ð½ÑĥÐ²":6430,"ĠÑĢÐ°Ð¿ÑĤÐ¾Ð²":6431,"ĠÐ½ÐµÐ¼Ð¾Ð¶":6432,"ÑĥÐ²Ð°Ð½Ð½ÑıÐ¼":6433,"Ð»ÑİÐ²Ð°Ð»Ð¸":6434,"ĠÐ¡ÐºÐ°ÑĢÐ±":6435,"ĠÐ¿Ð¾Ð±Ð°ÑĩÐ¸Ð²ÑĪÐ¸":6436,"ĠÐ³Ð¾ÑģÑĤÑĢÐ¾":6437,"Ð½Ð°Ð¹Ð¼":6438,"ĠÐ²Ð»Ð°Ð´Ñĥ":6439,"ĠÐ²Ð°ÑĪÐ¾Ð³Ð¾":6440,"Ð¼ÑĸÐ½Ð½Ð¾":6441,"ĠÐłÑĥÐ±ÐµÑĨÑĮ":6442,"ĠÑĩÐ¾Ð±ÑĸÑĤ":6443,"ĠÑĢÐ¾Ð·Ð¿Ð¾Ð²ÑĸÐ´Ð°Ð²":6444,"ĠÐ¿Ð¾Ð¼Ð¸Ð»":6445,"ĠÑĤÐ²ÐµÑĢÐ´Ð¾":6446,"ĠÑĸÑģÐ½ÑĥÐ²Ð°Ð½Ð½Ñı":6447,"ĠÐĶÐ¶Ð¸ÑħÐ°Ð½":6448,"ĠÐºÐ»Ð°ÑĢÐ½Ðµ":6449,"ĠÐĿÑĸÐºÐ¾Ð»Ð¸":6450,"ĠÐ·Ð½Ð°Ð¼ÐµÐ½Ð¸":6451,"],":6452,"ĠÐ¿Ð¾Ð³Ð¾":6453,"ÑĩÐ¾ÑĢ":6454,"ĠÑĤÑĸÐ»Ñĸ":6455,"ĠÐ´Ð¸Ñģ":6456,"ĠÐ½Ð°ÑĪÑĥ":6457,"Ð¶ÐµÐ½Ð¾":6458,"ĠÐ³Ð½Ð¸":6459,"ĠÐ³ÑĥÐ¼":6460,"ĠÐ³ÑĥÐ´":6461,"Ð¾Ð½Ð½Ñı":6462,"Ð¾Ð½Ð°Ð¼Ð¸":6463,"Ð¾Ð±Ð»Ð¸Ð²Ð¾":6464,"ÐºÐ°Ñİ":6465,"Ð¾ÐºÐ°Ð¼Ð¸":6466,"ĠÑĨÑĸÐ¿":6467,"ĠÑĹÐ·Ð´Ð¸":6468,"Ð»ÐµÐ½Ð¸Ð¼Ð¸":6469,"ĠÐĲÐ±Ð¸":6470,"ĠÑģÐ¿ÑĥÑģ":6471,"ĠÐ¡ÐµÑĢÑĨÐµ":6472,"Ð¾Ð»Ð¸Ð¹":6473,"ĠÑĪÐ°ÑĤ":6474,"ĠÐ¿ÑĸÐ´Ð³":6475,"ĠÐ¿ÑĸÐ´ÑħÐ¾Ð¿":6476,"Ð±Ð¸ÑĢÐ°Ð²":6477,"ĠÑĢÑĥÐ¹":6478,"ĠÐŀÑĢ":6479,"Ð°Ð»ÑĮÐ½Ðµ":6480,"ĠÑģÐµÐ»ÑıÐ½":6481,"ĠÐ´Ð²Ð¾ÑĢÐ¸":6482,"ĠÐ¿Ð¾ÐºÐ¾ÑĤÐ¸":6483,"ĠÐ¿Ð¾ÐºÐ°Ð·Ñĥ":6484,"ĠÐ¼ÐµÐ»":6485,"ĠÐ¼Ð¾Ð²Ð°":6486,"Ð¢ÑĸÐ»ÑĮÐºÐ¸":6487,"ĠÐ½Ð°Ð¹Ð²Ð¸Ñī":6488,"ĠÐ·Ð°Ð³Ð»ÑıÐ´":6489,"ĠÑģÑĤÐ°ÑĢÑĪÐ¸Ð¹":6490,"ĠÐºÐ¾ÑĢÐ¾Ð»ÑĮ":6491,"ĠÐ´ÑĢÑĥÐ³Ð¾Ð¼Ñĥ":6492,"ĠÐ¢Ð°ÐºÐ¸Ð¹":6493,"ĠÐ·Ð³Ð¾ÑĢÐ¸":6494,"ĠÑĩÑĥÐ¶Ðµ":6495,"ĠÐ¼Ð¾Ð¶Ð»Ð¸Ð²Ð¾":6496,"ĠÐ·Ð±ÑĢÐ¾":6497,"ĠÑĤÑĢÐ°Ð¼":6498,"ĠÐ²Ð·Ð´Ð¾Ð²Ð¶":6499,"ĠÐ²ÑĸÑĢÐ¸Ð²":6500,"ĠÐ¿Ð»ÐµÑĩÐ°Ñħ":6501,"ĠÑģÐ¿Ð¸ÑĤÐ°Ð²ÑģÑı":6502,"ĠÑģÐ¼ÑĸÑĶÑĤÑĮÑģÑı":6503,"ĠÑĢÑĸÐ´Ð½Ð¾Ð³Ð¾":6504,"ĠÐºÐ¾ÑĤÑĢÐ°":6505,"ĠÐĳÑĥÐ»Ð¸":6506,"ĠÐ²Ð¸ÑĤÑĢÑĸ":6507,"ĠÐ´ÑĥÑĢÐ½Ð°":6508,"ÑīÐ¸Ð½Ñĥ":6509,"ĠÐ½Ð¾ÑģÐ°":6510,"ĠÐ¿Ð°Ð¿ÐµÑĢÑĥ":6511,"ĠÐľÐ°Ð»ÑĮÐ²Ð¸":6512,"ĠÑĤÑĢÐµÐ¼ÑĤÑı":6513,"ĠÐľÐ°ÑĢÐ¸Ð½ÑĮ":6514,"ĠÑĢÑĸÐºÐ¸":6515,"ĠÐ³Ð¾ÑĤÐ¾Ð²Ð¸Ð¹":6516,"ĠÑħÐ¾Ð´ÑıÑĤÑĮ":6517,"ĠÐ¡ÐµÐ»ÑĸÐ¼Ð°":6518,"ĠÐ²Ð´Ð°ÑĢÐ¸Ð²":6519,"ĠÐĶÐ¾Ð½ÐµÑĨÑĮ":6520,"ĠÐºÐ°Ð»Ð°Ð¼":6521,"ĠÐ¿ÑĢÐ¾ÑĪÐµÐ¿Ð¾ÑĤÑĸÐ²":6522,"ÑĢÐ¾Ð¼Ñĥ":6523,"Ð½Ð°Ð¼":6524,"ĠÐ½Ð°ÐºÐ¸":6525,"ĠÑģÑıÐ³":6526,"ĠÐ·Ñģ":6527,"ĠÐ·Ð¾Ð±":6528,"ĠÐ·ÑĸÐ¿":6529,"ĠÐ±Ð°Ð¹":6530,"ĠÐ¹Ð´Ð¸":6531,"ĠÑĢÐ°Ñħ":6532,"Ð³Ð¾ÑģÐ¿":6533,"ĠÑĥÐ·Ð´":6534,"ĠÐ²Ð¸Ð¼Ñĥ":6535,"ĠÑģÑĤÐ¾Ð»":6536,"ĠÐ·Ð°ÑħÐ¾Ð´":6537,"ĠÐĲÑĤ":6538,"ĠÐ¿ÑĢÐ¸ÑģÑĤÐ°Ð²":6539,"Ð´Ð¸ÑĪ":6540,"Ð°ÑĶÑĨÑĮ":6541,"ĠÐľÑĸÐ¹":6542,"ÑĢÐµÐ±":6543,"ÑĥÐ¼Ð°Ð²":6544,"ĠÐ¾Ð´Ð´":6545,"ĠÐ¾Ð´Ð°Ð»ÑĸÑģ":6546,"Ð±Ð¸Ð»Ð°":6547,"ĠÐĳÐµÐ»":6548,"ĠÐ¿Ð¾Ð²Ð½Ð¾":6549,"ĠÑģÐµÑģÑĤÑĢÐ¸":6550,"ĠÐ¿Ð¾ÐºÑĢÐ¸Ð²":6551,"Ð¾Ð²Ð¸ÑĩÐ°":6552,"ĠÐ·Ð°Ð²Ð°Ð¶":6553,"ĠÐ¦ÑĮÐ¾Ð³Ð¾":6554,"ĠÐºÐ¾ÑĢÐ¾Ð»ÑĸÐ²":6555,"ĠÑĩÐ¾ÑĢÐ½Ð¾":6556,"ĠÐºÐ¾Ð¶Ð½Ñĥ":6557,"ÐłÐ¾ÐºÑģÐ¾Ð»":6558,"ĠÑģÑĤÐ¸ÑħÐ°":6559,"ĠÑģÐ¾ÑĢÐ¾ÑĩÐºÐ¸":6560,"ĠÐ½Ð°ÑĪÐ¾ÑĹ":6561,"ĠÐ¼Ð°Ð»Ð¸Ð¹":6562,"ĠÐ¼Ð¾ÑĹÐ¼":6563,"ĠÐ²Ð°ÑĢÑĤÐ¾":6564,"ĠÐ´ÑĸÐ¹Ñģ":6565,"ĠÒĳÐ°Ð½ÐºÑĥ":6566,"ĠÑģÐ¿Ð¾Ð´ÑĸÐ²Ð°Ð²ÑģÑı":6567,"ĠÐ»Ð°Ð²Ñĸ":6568,"ĠÐ²ÑĤÑĢÐ°ÑĤÐ¸Ð²":6569,"ĠÐ²Ð¾ÑĢÑĥÑĪÐ¸":6570,"ĠÐºÐ»ÐµÐºÐ¾":6571,"ĠÐ´Ð¶ÐµÑĢÐµ":6572,"ĠÐ¿Ð¾Ð²Ð¸Ð½ÐµÐ½":6573,"ĠÐ²ÐµÐ»ÑĮÐ¼Ð¸":6574,"ĠÐ¿ÑĸÐ´Ð²ÑĸÐ²ÑģÑı":6575,"ĠÐ²Ð½ÑĥÑĤÑĢÑĸÑĪ":6576,"ĠÐ°Ð»Ð»Ð°ÑħÐ°":6577,"Ð°ÑĩÐ¸":6578,"ÑĸÑĤÑĮÑģÑı":6579,"ÑĤÐµÐ½":6580,"ÑĤÐ²ÐµÑĢ":6581,"ÑĥÐ·":6582,"ÑģÐºÐ¸":6583,"ĠÐ·Ð»Ð°":6584,"ĠÐ·Ð»ÐµÐ³":6585,"Ð¾Ð²Ð°ÑĢ":6586,"ĠÐ¼Ð°Ð³":6587,"ĠÐ¼Ð¾Ð³Ð¸":6588,"ĠÐºÑĢÐµÐ¹":6589,"ĠÐºÐ²ÑĸÑĤÐ¸":6590,"Ð¾Ð¼Ð¸":6591,"Ð¾Ð»Ð¾Ð³":6592,"Ð¾Ð»Ð°ÑĪ":6593,"ĠÐ¾ÑħÐ¾Ð¿":6594,"ÑĩÐ¸ÑĤÐ¸ÑģÑı":6595,"ĠÑģÑĤÐ°Ð¼Ð±Ñĥ":6596,"Ð¸Ð¼Ñĸ":6597,"ÐºÐ¾ÑģÑĮ":6598,"ĠÐĲÑģ":6599,"Ð°ÑĤÑĥÑĢ":6600,"ĠÐ¿ÑĢÐ¸Ð±ÑĢ":6601,"Ð°Ð¿ÑĤÐ¾Ð¼":6602,"ĠÑģÐ¿ÑĢÐ¸":6603,"ĠÐ¡ÑĮÐ¾Ð³Ð¾Ð´Ð½Ñĸ":6604,"ĠÑĪÑĤÑĥÑĢ":6605,"ĠÐ¾Ð±Ð¼":6606,"ĠÐ¾Ð´ÐµÑĢÐ¶":6607,"ĠÐĶÑĸÐ´":6608,"ĠÐĶÐ°ÑĢÐ¸Ð½":6609,"ÑĢÐ¾Ñħ":6610,"ĠÑģÐ¸ÑģÑĤ":6611,"ÑĤÑĸÑĤÐ¸":6612,"ĠÐ´ÐµÑıÐºÑĸ":6613,"ÑģÑĤÐ¸Ð¼Ð¸":6614,"ÑıÐ²Ñĥ":6615,"ĠÐ·Ð°Ð¿Ð°Ð¼":6616,"ĠÐ¼ÑĥÑĢÐ¸":6617,"ĠÐ³ÑĥÐº":6618,"ĠÐ½Ð°ÑģÐº":6619,"ÑģÑĤÐ°ÑģÑı":6620,"ĠÑĩÑĥÐ»Ð¸":6621,"ĠÐ·Ð°Ð¼Ð°Ñħ":6622,"ĠÐ¼Ð°ÑĤÐµÑĢ":6623,"ĠÐ´Ð¾Ð²Ð³Ð¸Ð¹":6624,"ĠÐ±Ð°Ð³Ð°ÑĤÐ¸":6625,"ĠÐ¼Ð¾ÑĢÐµÐ¼":6626,"Ð¶ÑĥÑİÑĩÐ¸":6627,"ĠÐ³Ð¾Ð»Ð¾Ð²Ð°Ð¼Ð¸":6628,"ĠÐ¿Ð¾ÑħÐ¸ÑĤ":6629,"ÑİÐ²Ð°Ð²ÑģÑı":6630,"ĠÐ§ÑĸÐ¿ÐºÐ¾":6631,"ĠÑĩÐµÐºÐ°ÑİÑĩÐ¸":6632,"ĠÐ¼Ð¾Ð»Ð¾ÐºÐ¾":6633,"Ð°Ð´ÑĥÑİÑĩÐ¸":6634,"ĠÑģÐ¸Ð´ÑıÑĩÐ¸":6635,"ĠÑĤÐ¾ÑĢÐ±Ð¸":6636,"ÑĩÐµÐ½Ð¾Ð³Ð¾":6637,"ĠÐ²Ð³Ð°Ð´":6638,"ĠÐ¡Ð¿Ð°ÑģÐ¸Ð±Ñĸ":6639,"ĠÐ¼Ð°Ð»ÐµÐ½ÑĮÐºÐ¸Ð¹":6640,"ĠÑģÑĤÑĸÐ½Ð¾Ñİ":6641,"ĠÐĶÐ¸Ð²Ð¸Ð²ÑģÑı":6642,"ĠÐ¿Ð»Ð°ÐºÐ°ÑĤÐ¸":6643,"ĠÐ·Ð°Ð±ÑĥÐ»Ð¸":6644,"ĠÐ¿ÑĸÐ´Ð»Ð¾Ð·Ñĸ":6645,"ĠÐ´Ð·Ð²Ð¾Ð½Ð¸":6646,"ĠÐ¾Ð´Ð½ÑĸÑĶÑĹ":6647,"ĠÐ½ÐµÐ²ÑĸÐ´Ð¾Ð¼Ð¾":6648,"ĠÐ³Ð½ÑĸÐ²Ñĥ":6649,"ĠÑģÐ¿Ð¾ÑģÑĸÐ±":6650,"ĠÐĴÐ¸Ð´Ð½Ð¾":6651,"Ð½Ð°Ð¹Ð¼Ð½Ñĸ":6652,"ĠÑģÑĤÐ°Ð¼Ð±ÑĥÐ»ÑĮ":6653,"Ð°ÑĪÐ¸":6654,"Ð²Ð¾Ð´":6655,"ĠÐ¼Ð°Ð»Ðµ":6656,"ĠÐºÐ»Ð¸Ðº":6657,"ĠÐ½Ð°ÑĤÑĥ":6658,"ÑĸÐ´Ð°ÑĤÐ¸":6659,"Ð¾Ð´Ð½Ð¾":6660,"ĠÑīÐ¾Ð½":6661,"ÐµÐ½Ð´Ñĸ":6662,"ÐµÐ½ÑıÑĤ":6663,"ĠÐ¿Ð¾Ñī":6664,"ĠÐ¿Ð¾ÑģÐ¸Ð»Ð°":6665,"ĠÑģÑĤÐµÑĢ":6666,"Ð»ÑıÐ»Ð¸ÑģÑı":6667,"ĠÑĢÐ¾Ð·ÑĸÐ³":6668,"ÑĢÑĸÑı":6669,"ĠÐ¿ÑĸÐ´ÑĤÑĢÐ¸Ð¼":6670,"ĠÐĶÐ°Ð¹":6671,"ĠÐĹÐ³":6672,"ĠÐ³Ð¾Ð»Ñĸ":6673,"ĠÐ§ÐµÐ²":6674,"ĠÐ·Ð´Ð¾Ð±Ð¸":6675,"Ð½Ð¸ÐºÐ¾Ð²Ñĸ":6676,"ĠÐ´Ð¸Ð²Ð¸ÑģÑĮ":6677,"ÐŁÐ¾Ð²":6678,"ĠÐ¿Ð¾Ð»ÑĸÐ·":6679,"ĠÐ¿ÐµÑĢÐµÐ´Ð°Ð²":6680,"ĠÐ²Ð¸ÑģÑĥ":6681,"ĠÐĿÐ°ÑĩÐµ":6682,"ĠÐ»ÑİÐ´ÑģÑĮÐºÐµ":6683,"ĠÐºÐ¾Ð¶Ð½Ðµ":6684,"ĠÐ·Ð°Ð´Ð¸Ñħ":6685,"ĠÐĴÐ¸Ð¿":6686,"ĠÐ²Ð¸Ð¹Ð´Ðµ":6687,"ĠÐ·ÑĢÐ¾Ð±Ð¸Ð»Ð¸":6688,"ĠÐŀÐ´Ð½Ð°":6689,"ĠÑģÑĤÐ¸ÑĢ":6690,"ĠÐ¾ÑģÑĤÐ°Ð½Ð½Ñĸ":6691,"ĠÐºÐ½Ð¸Ð³Ð¸":6692,"ĠÑģÑĤÑĸÐ½Ð°Ñħ":6693,"ĠÐ»ÑĥÐºÐ°Ð²":6694,"ĠÑģÐ¾Ð»Ð¾Ð²":6695,"ĠÐĨÐ½Ð¾Ð´Ñĸ":6696,"ĠÐ·Ð°Ð¼Ð¾Ð²Ðº":6697,"ĠÑĩÐµÐºÐ°Ð»Ð¸":6698,"ĠÐ·Ð±ÑĢÐ¾Ñİ":6699,"ĠÐ¿Ð°Ð»Ð°ÑĨÑĥ":6700,"ĠÐ²Ð¸Ð±ÑĥÑħ":6701,"ĠÐ±ÑĸÐ¶Ð¸ÑĤÑĮ":6702,"ĠÑĸÑģÐ½ÑĥÑĶ":6703,"ÑĸÐºÑĥ":6704,"Ð²Ð°Ð¼Ð¸":6705,"Ð²Ð¾ÑĢÑĥ":6706,"ÑıÑİÑĩÐ¸ÑģÑĮ":6707,"ĠÐ´ÑıÐº":6708,"ĠÐ´ÑĸÐ¹ÑĪÐ¾Ð²":6709,"ĠÑıÐ½Ð³":6710,"Ð½ÑĸÑĪÐ¾Ð³Ð¾":6711,"ĠÐ»Ð°Ð·":6712,"ĠÑħÐ¾Ð»":6713,"ĠÐ²Ð¸ÑģÑĸ":6714,"ĠÐ¿ÑĢÐ¸ÑĤÐ¸":6715,"ĠÐ½ÑĸÐ·Ð´":6716,"ÑĸÐ»ÑĮÑĪÐµ":6717,"ÑīÐ¸Ð½Ð¸":6718,"Ð¾Ð¿ÑĢÐ°Ð²Ð´Ð°":6719,"ÑĢÑĸÑĶ":6720,"ĠÐ²ÑģÑĸÐ¹":6721,"ĠÐ¿ÑĢÐ¾ÑĪÑĥ":6722,"ĠÐ¾Ð±ÑĸÑĢ":6723,"ĠÑģÐºÐµÐ»Ñĸ":6724,"Ð»ÑĥÐ³":6725,"ĠÐ´ÑĥÐ¶":6726,"ĠÐ½Ð°Ð²ÐºÑĢÑĥÐ³Ð¸":6727,"ĠÐ½Ð°Ð´Ð²ÑĸÑĢ":6728,"ĠÐ¿Ð¾Ð»Ð¾Ð½":6729,"ÑĪÑĥÑĤÑĮ":6730,"Ð°Ð»ÐµÐ½Ñĸ":6731,"ĠÐ¼ÑĥÐºÐ¸":6732,"ÑĥÑĶÑĤÐµ":6733,"ĠÐ±ÑĸÐ»Ñĥ":6734,"ÑıÐ·Ð½Ñĸ":6735,"ĠÑģÐ¾Ð½ÑĨÑĸ":6736,"ĠÐ¿ÑĸÑģÐµÐ½ÑĮ":6737,"ĠÑģÐ¾Ð±Ð°Ðº":6738,"ĠÑģÑĤÑĢÑĸÐ»ÑĮ":6739,"Ð§Ð¾ÑĢ":6740,"ĠÑĥÐ¿ÐµÑĢÐµÐ´":6741,"ĠÐ¿Ð¸ÑĤÐ°Ð²":6742,"ĠÐŁÐµÑĤÑĢÐ°":6743,"ĠÑĤÐ¾Ð²Ð°ÑĢÐ¸ÑĪÐ°":6744,"ĠÐ·Ð¾Ð»Ð¾ÑĤÐ°":6745,"ĠÐ·Ð¾Ð»Ð¾ÑĤÐ¾Ð¼":6746,"ĠÐ·ÑĸÑĤÑħÐ°Ð½Ð½Ñı":6747,"ĠÐ¼ÑĸÑģÑıÑĨÑĸ":6748,"ĠÐ¾Ð´ÐºÐ°Ð·ÑĥÑĶ":6749,"ĠÑģÐ¾Ð»Ð´Ð°ÑĤ":6750,"ĠÑģÐ¿ÑĢÐ°Ð²Ð¶Ð½ÑĸÐ¹":6751,"ĠÐ»ÑıÐ³Ð»Ð°":6752,"ĠÐ¼Ð¸Ð»Ð¾ÑģÑĤÐ¸":6753,"ĠÐ´Ð¸ÑĤÑıÑĩÐ¸":6754,"ĠÐ¿ÑĢÐ¾Ð»ÐµÑĤ":6755,"ĠÐ¾Ð¿Ð¾Ð²ÑĸÐ´Ð°Ð½Ð½Ñı":6756,"ĠÐ¼Ð¾Ð¼ÐµÐ½ÑĤ":6757,"Ð»ÐµÑĢ":6758,"ÑıÐºÐ°":6759,"ÑıÐ»Ð¸ÑģÑĮ":6760,"ĠÐ½Ð¸Ð²":6761,"Ð¼Ð¾Ñİ":6762,"ĠÐ·ÑĨÑĸÐ¿":6763,"ÑĩÑĥÐ²":6764,"ĠÐ±Ð¾Ð»Ñı":6765,"Ð¾Ð³Ð»Ð°":6766,"Ð±ÑĢÐ¾ÑĶ":6767,"Ð¾ÑĢÐ¾Ð½Ð¸":6768,"ĠÐ¾ÑĩÐ¸":6769,"ÑĸÐ²Ð½Ð¸":6770,"ĠÑħÐ²Ð°Ð»Ð¸":6771,"ĠÐ¿Ð¾ÑĹÑħÐ°Ð²":6772,"ĠÐ¿ÑĢÐ¾ÑĹ":6773,"ĠÑģÑĤÐ°Ð½Ñĥ":6774,"ĠÐ·Ð°ÑģÐ¸Ð¿":6775,"ĠÐ±ÑĥÐ½":6776,"Ð»ÐµÐ¶":6777,"ĠÐ¿ÑĢÐ¸ÑĢÐ¾Ð´":6778,"Ð°Ð¿Ñĥ":6779,"ĠÑģÐ¿Ð¾Ð´Ð¾Ð±":6780,"ĠÑĢÐ¾Ð·Ð»Ð¸Ð²":6781,"ĠÑĢÐ¾Ð·ÐºÑĢÐ¸":6782,"ÑĢÑĸÐ¼ÐµÐ½":6783,"ÑĢÐµÐ½Ñĸ":6784,"ĠÐ¾Ð±Ð»Ð¸":6785,"ĠÐ³Ð¾Ð»Ñĥ":6786,"ĠÑģÐµÐ»Ð¸":6787,"ĠÐ´ÑĥÐºÐ°":6788,"ÑĦÐµ":6789,"ĠÐ±ÑĥÐ²Ð°Ð»Ð¾":6790,"ĠÐºÑĢÐ°ÑĶ":6791,"ĠÑĩÐ°ÑģÑĸÐ²":6792,"ĠÐ¦Ñĸ":6793,"Ð¾ÑģÑĤÐ°Ð½":6794,"ĠÐ¿ÐµÑĢÑĪÐ¸Ð¼":6795,"ĠÐ±ÑĢÐ°Ð¼Ð¸":6796,"ĠÑģÑħÐ¾Ð´Ð¸":6797,"ĠÐ¶Ð¸Ð²Ð°":6798,"ĠÑĤÑĢÐ¾ÑĶ":6799,"ĠÐľÐ¸ÐºÐ¾Ð»Ð¸":6800,"ĠÐ¿Ð¾ÑħÐ¾Ð²":6801,"ĠÐºÐ¾Ð¼ÑĸÑģ":6802,"ÐłÐŀ":6803,"ĠÐ¿Ð¸ÑĤÐ°":6804,"ĠÐºÐ¾Ð·Ð°ÐºÐ¸":6805,"ĠÐ·Ð°ÑĤÑĢÐ¸Ð¼":6806,"ĠÑģÑĤÐ°ÑĢÐ¸Ñħ":6807,"ĠÑĢÐ¾Ð·Ð´ÑıÐ³":6808,"ĠÐ¡ÑĥÐ»ÐµÐ¹Ð¼Ð°Ð½Ð¾Ð²Ñĸ":6809,"ĠÑĤÑĢÐ°Ð²Ñĸ":6810,"ĠÐ¿Ð¾ÐºÐ°Ð·Ð°ÑĤÐ¸":6811,"ĠÑĤÑİÑĢÐ¼Ñĥ":6812,"ĠÑģÐ²ÑıÑīÐµÐ½":6813,"ĠÐ±ÐµÐ·Ð¿ÐµÑĢÐµ":6814,"ĠÑĤÐ²Ð¾ÑĹÑħ":6815,"ĠÐĳÐ°ÑıÐ·Ð¸Ð´Ð°":6816,"ĠÐ·Ð°ÑĩÐ°ÑĢ":6817,"ĠÐ´ÑıÐ´ÑĮÐºÐ¾":6818,"ĠÐ³ÐµÐ½ÐµÑĢÐ°Ð»ÑĮ":6819,"ĠÐ¾ÑģÑĤÐ°ÑĤÐ¾ÑĩÐ½Ð¾":6820,"Ð°ÑĨ":6821,"ÑĤÐ¾Ð½":6822,"ÑģÑİÐ´Ð¸":6823,"ĠÐ²Ð¾Ñģ":6824,"ĠÐ¿ÐµÑĤ":6825,"ĠÐ½ÑĥÑĤ":6826,"ĠÐ½Ð¾Ð²Ð°":6827,"Ð´Ð¾Ñħ":6828,"ĠÑĤÐ¾ÑģÐº":6829,"ĠÐ´ÑĸÐ»":6830,"ĠÐ±Ð°Ð´ÑĮ":6831,"Ð±ÑĢÐ°":6832,"ÑģÑĤÐ¾Ð³Ð¾":6833,"ĠÐ½Ð°ÑĹ":6834,"ĠÐ½Ð°ÑģÑĤÑĢ":6835,"ÑĸÐ´ÐºÐ°":6836,"ĠÐ³Ð»ÑĥÐ¼":6837,"ÑĸÐ½Ðµ":6838,"ĠÑģÑĤÐ°Ð¹":6839,"Ð¾Ð·Ð°":6840,"Ð½Ð°Ñĩ":6841,"ĠÑĨÐµÑĢ":6842,"Ð½ÑıÑħ":6843,"ĠÑģÐ²Ð¾Ñı":6844,"ĠÐĴÐ·":6845,"ÐµÐ¼Ð¸":6846,"ĠÐŁÐ¾Ð»ÑĮ":6847,"ĠÑĢÐ¾Ð·Ð²Ñĸ":6848,"ĠÐľÐ¾ÑĢÐ´":6849,"Ð¼Ð¸ÑģÐ½Ðµ":6850,"ĠÑģÐºÐ¾ÑĢÑĸÑĪÐµ":6851,"ĠÐļÑĢÐ¸Ð¼":6852,"ĠÐ³Ð¾Ð»Ð¾Ð´Ñĥ":6853,"ĠÐ±ÐµÐ·Ð¾Ð´":6854,"Ð¾Ð²Ð¸Ð»Ð¸":6855,"ĠÐ·Ð°Ð¿ÑĢÐ¾Ð¿":6856,"ĠÐ¿Ð¾ÑĩÐ°ÑĤÐºÑĥ":6857,"ĠÐºÑĢÐ°ÑģÐ¸":6858,"ÐŁÐ°Ð½":6859,"ĠÐ·Ð°Ð±ÑĸÐ³":6860,"ĠÐ·Ð°ÑģÐ½ÑĥÐ²":6861,"Ð¾ÑĢÑĸÐ¶":6862,"ĠÐĿÐ°ÑģÑĤÐ°ÑģÑı":6863,"ĠÑĩÑĥÐ´Ðµ":6864,"ĠÐ¯ÐºÐµ":6865,"ĠÐ»ÑİÐ´ÑģÑĮÐºÐ¸Ð¹":6866,"ĠÑĢÐ¾Ð·Ð¿Ð»ÑİÑī":6867,"?..\"":6868,"ĠÐ²Ð´ÑĢÑĥÐ³Ðµ":6869,"ĠÐ²ÑĸÐ´ÑĩÑĥÑĤÑĤÑı":6870,"ĠÐ½Ð¸Ð¶ÑĩÐµ":6871,"ĠÐ²Ð¸ÑģÐ¾ÐºÐ°":6872,"ĠÑģÐ¼ÑĸÑıÐ²ÑģÑı":6873,"ĠÐ¼Ð¾Ð»Ð¾Ð´Ð¸Ñħ":6874,"ĠÐŀÐ´Ð½Ð°ÑĩÐµ":6875,"ĠÐ¿Ð¸ÑĤÐ°Ð½Ð½Ñı":6876,"ĠÑģÐ¸Ð½Ð¾Ð²Ñĸ":6877,"ĠÑģÐºÐ°Ð¶ÐµÑĪ":6878,"ĠÐ·Ð¼ÑĸÐ³":6879,"ĠÑĤÑĢÐ°Ð²Ð°":6880,"ĠÑĪÑĥÐºÐ°Ð²":6881,"ĠÐ¿Ð¾ÑģÑĤÐ°ÑĤÑĸ":6882,"ĠÐ¿Ð¾Ð¶Ð¸Ð²":6883,"ĠÐ½ÐµÐ¿ÑĢÐ¸ÑģÑĤÑĥÐ¿":6884,"ĠÐ²ÑĸÐ²ÑĨÑĸ":6885,"ĠÑīÐ¾Ð´Ð¾":6886,"ĠÐ¶Ð°ÑħÐ¾Ð¼":6887,"ĠÐ¼Ð¾ÑĤÐ¾ÑĢÐ¾ÑĪ":6888,"Ð²Ð¾ÑĶÐ¼Ñĥ":6889,"ĠÐ´Ð¾Ð½Ð¾Ñģ":6890,"ĠÐļÐ¾Ð¶ÐµÐ½":6891,"ĠÐ¿Ð°Ð²ÑĥÑĤÐ¸":6892,"ĠÐ´ÐµÑĢÐ²Ñĸ":6893,"ĠÐŁÐµÑĤÑĢÐ¾Ð²Ð¸Ñĩ":6894,"ĠÐ»ÑİÐ»ÑĮÐºÑĥ":6895,"ĠÐ±Ð¾ÑĹÑĤÑĮÑģÑı":6896,"ÐµÐ½ÐµÑĨÑĸÐ°Ð½":6897,"ÐµÐ²Ñĸ":6898,"Ð²Ð°Ñħ":6899,"Ð²ÑĪÐ¸ÑģÑĮ":6900,"ÑıÑĶ":6901,"ÑĪÐµÐ½Ð½Ñı":6902,"Ð·Ð½Ñĸ":6903,"ĠÐ¾ÐºÐ¾Ð»Ð¸":6904,"ĠÐ³ÑĢÐ¸":6905,"ĠÐ³ÑĢÐ°":6906,"ĠÐ»Ð°ÑĤ":6907,"ĠÐ¿Ð¾ÑĪÐµÐ¿":6908,"ĠÐ¿ÑĢÐ¾Ð³Ñĥ":6909,"ĠÐ¶Ð²Ð°Ð²":6910,"ĠÐ¿ÑĢÐ¸Ð±Ñĥ":6911,"ĠÐ¿ÑĢÐ¸ÑĹÑħÐ°Ð²":6912,"Ð¾ÑĤÑĢÑĸÐ±":6913,"ĠÑģÐ¿ÑĢÐ¸Ð¹":6914,"ĠÑĢÐ¾Ð·ÑĤ":6915,"ĠÐ¡ÐµÑĢÐµÐ´":6916,"ĠÐ¡Ð¿ÐµÑĢÑĪÑĥ":6917,"ĠÐ²ÑģÐµÑĢÐµÐ´Ð¸Ð½Ñĸ":6918,"ĠÐ¿ÑĸÐ´Ð¼":6919,"ĠÐ¾Ð±Ñģ":6920,"ĠÐ¾Ð´Ð½Ð¾ÑĹ":6921,"ÑĤÐµÐ¹":6922,"ĠÐĵÐ¾Ð²Ð¾ÑĢÐ¸":6923,"ĠÐ¿Ð¾Ð²ÑĤÐ¾":6924,"ĠÐ¿Ð¾Ð²ÑĸÐ´Ð¾Ð¼":6925,"Ð»ÑĮÑĦ":6926,"ÑĤÑıÐ¶":6927,"ÑıÐ²Ð°":6928,"ÐĴÑģÑĸ":6929,"ĠÐ²ÐµÐ»Ð¸Ðº":6930,"ÐŁÐµÑĢÐµ":6931,"ĠÐ´ÑĥÐ¼Ð°ÑĶÑĪ":6932,"ĠÐ±ÑĸÐ»Ðµ":6933,"ĠÑĤÐ²Ð°ÑĢÐ¸":6934,"ĠÐ¿ÐµÑĩÐ°Ð»ÑĮ":6935,"ÑıÐ·Ð¾Ðº":6936,"ĠÐºÐ¸Ð½ÑĥÐ»Ð°ÑģÑĮ":6937,"ÑģÐºÐ°Ð»Ð°":6938,"ĠÐ³ÑĢÐ°Ð¼":6939,"ĠÐ³ÑĢÐ°ÑĤÐ¸":6940,"ĠÐ´Ð¾ÑĢÐ¾Ð³Ð¾Ñİ":6941,"ĠÐ²Ð´Ð°Ð²":6942,"ĠÐ²ÑĸÐºÐ½Ð¾Ð¼":6943,"ĠÐ²Ð¾Ð³Ð½Ñĸ":6944,"ĠÐ²Ð¸Ð¹ÑĪÐ»Ð¾":6945,"ĠÑģÑĤÑĢÐ°ÑĪÐ½Ð°":6946,"ĠÐ¿Ð»ÑĥÑĤ":6947,"ĠÐ¿Ð»Ð°ÑĩÑĥ":6948,"ĠÐ»Ð¸ÑĪÐµÐ½ÑĮ":6949,"ĠÑħÐ¾Ð»Ð¾Ð´Ð½Ð¸Ð¹":6950,"Ð»ÑİÐ²Ð°Ð²ÑģÑı":6951,"ĠÐ¿Ð¸ÑĤÐ°Ñİ":6952,"ĠÑĢÐ¸Ð±Ð°":6953,"ĠÐ¼Ð°Ð»ÐµÐ½ÑĮÐºÐ°":6954,"ĠÐ²Ð°ÑĪÐµ":6955,"ĠÐ²ÐºÐ»Ð°Ð´":6956,"ĠÐºÐ¾Ð¿Ð¸ÑĤ":6957,"ĠÐ·ÑĥÑģÑĤÑĢÑĸÑĩ":6958,"ĠÑĢÐµÐ³Ð¾ÑĤ":6959,"ĠÐ¾Ð±ÑĸÐ´Ñĥ":6960,"ĠÐĳÐ°Ð³Ð°ÑĤÐ¾":6961,"ĠÑģÐ¿Ð¸Ð½Ð¸Ð²ÑģÑı":6962,"ĠÐ·Ð±Ð°Ð³Ð½ÑĥÐ²":6963,"ĠÐºÐ¾ÑĢÐ°Ð±ÐµÐ»ÑĮ":6964,"ĠÐ·Ð°ÑģÐ¿Ð¾ÐºÐ¾ÑĹ":6965,"ĠÐ¼Ð¸ÑĤÑĤÑİ":6966,"ÐŁÐµÑĤÑĢÐ¾":6967,"ĠÐ½ÐµÑīÐ°ÑģÑĤÑı":6968,"Ð¡ÑĤÐµÐ¿Ð°Ð½":6969,"ÑĤÐ°ÑĤÐ¸":6970,"ÑĤÐ¾ÑĢÐ°":6971,"Ð»Ð¾Ð½Ð¸":6972,"ÑıÐ½Ð¾Ð³Ð¾":6973,"ÑıÐ½Ð¸Ð¼Ð¸":6974,"ĠÐ¿Ð¾Ð½Ð¸":6975,"ĠÑģÐ¾ÐºÐ¸":6976,"ĠÑģÐºÑĥÐ¿":6977,"Ð¾Ð²Ð°Ð½Ðµ":6978,"Ð¿ÐµÑĢÐµ":6979,"ĠÐ¼Ð°Ðº":6980,"ĠÐ¼Ð¾Ð»Ð¾ÑĤ":6981,"Ð½Ð¸Ð»Ð¸":6982,"ĠÑģÑĤÐ¾Ñģ":6983,"ĠÑĨÐ¸Ð¼Ð¸":6984,"ĠÐ²ÑĸÐ´Ð±Ð¸Ð²":6985,"ĠÑĪÐµÑĢ":6986,"Ð¸ÑĤÐ¾Ð³Ð¾":6987,"ĠÐ¾Ð±ÑģÑĤÐ°Ð²":6988,"Ð°Ð¶ÑĥÑĤÑĮ":6989,"ĠÐ»ÑİÐ±Ð¾":6990,"ĠÐ¥Ð°ÑĢ":6991,"ĠÐĳÐ°Ð±":6992,"ÑĢÐ°Ð²ÑĪÐ¸":6993,"ĠÑĩÐ¸ÑĹ":6994,"ĠÐ¼ÐµÐ¶Ñĸ":6995,"ĠÐ»ÐµÐº":6996,"ĠÐ¿Ð¾ÑĩÐ°Ð»Ð¾":6997,"ĠÑģÑĥÐ»ÑĤÐ°Ð½ÑģÑĮÐºÐ¾ÑĹ":6998,"ĠÐºÐ¾Ð»Ð¾Ð½Ð°":6999,"ĠÑĦÑĸÐ»ÑĮ":7000,"ĠÐ·Ð°Ð±ÑĥÑĤÐ¸":7001,"ĠÐ³ÑĥÐºÐ°Ð²":7002,"Ð¡Ðº":7003,"ĠÐ¿ÐµÑĢÑĪÐ¾ÑĹ":7004,"ĠÑĩÐ¾ÑĢÐ½Ðµ":7005,"ĠÐ²ÑĥÐ³":7006,"ĠÐ¿ÑĸÑĪÐ»Ð¾":7007,"ĠÐ¿ÐµÐºÑĥ":7008,"ĠÐ¿ÐµÐºÐ»Ð°":7009,"ÑıÐ·ÐºÑĥ":7010,"ĠÑģÐ¾Ð±Ð°ÐºÐ°":7011,"ĠÐ»ÑİÐ´ÑģÑĮÐºÑĥ":7012,"ÑģÐ¿ÑĢÐ°Ð²":7013,"ĠÐºÐ°Ð¶ÐµÑĪ":7014,"ĠÐ¼Ð°Ð¹ÑģÑĤÐµÑĢ":7015,"ĠÐ²ÐµÑģÐµÐ»Ñĸ":7016,"ĠÑĩÐµÑĢÐ²Ð¾Ð½Ð¸Ð¼":7017,"ĠÐ±Ð°Ð±Ð¸":7018,"ĠÐ¿ÑĢÐ¾ÑĤÐ¾Ðº":7019,"ĠÐ½ÐµÐ¼Ð¾Ð²Ð±Ð¸":7020,"ĠÐ²ÐµÐ»Ð¸ÑĩÐ½Ð¾ÑģÑĤÑĸ":7021,"ĠÑģÐ²ÑıÑĤÐ°":7022,"ĠÐ´Ð¸ÑħÐ°Ð½Ð½Ñı":7023,"ĠÐ¾ÑħÐ¾ÑĩÐµ":7024,"ĠÑĩÐµÑĢÐµÐ¿":7025,"ĠÐ±ÑĸÐ»Ð¸Ð¼Ð¸":7026,"ĠÑĪÐ°Ð¿ÐºÐ¸":7027,"ĠÐ¼Ð¸Ð»Ð¾ÑģÐµÑĢÐ´":7028,"ĠÐ²Ð½Ð¸Ð·Ñĥ":7029,"ĠÐ¿Ð¾Ð»Ð¾Ð²Ð¸Ð½Ñĥ":7030,"ÐĵÑĢÐ¸ÑĨÑĮÐºÐ¾":7031,"ĠÑģÑĤÐ°ÑĢÑĪÐ¸Ð½Ð°":7032,"ĠÑģÑĤÑĥÐ´ÐµÐ½ÑĤ":7033,"ĠÐ³Ð¾ÑģÑĤÐ¸Ð½":7034,"ĠÐ±Ð°Ð³Ð°ÑĤÑĮÐ¾Ñħ":7035,"ĠÐ¾Ð´ÑĩÐ°Ð¹Ð´Ñĥ":7036,"ĠÐĶÐ¶Ð¸ÑħÐ°Ð½Ð³ÑĸÑĢ":7037,"\"?":7038,"ÐµÑģÐµ":7039,"Ð½ÐµÐ½Ð¾":7040,"ĠÐ¿ÑģÐ°":7041,"ĠÑģÐ°Ð¶":7042,"ĠÐ·ÑĥÐ¼":7043,"ĠÐ·ÑĢÐ¸Ð²":7044,"ÑħÐ½Ñĸ":7045,"ÑĪÐµÐ½Ð°":7046,"ĠÐ±Ð°Ñģ":7047,"Ð±Ð¾Ð²":7048,"Ð±Ð¾Ñİ":7049,"Ð»Ð¸Ð»Ð°ÑģÑı":7050,"ÑĸÐ´ÐµÐ²":7051,"Ð¾Ð´ÑıÐ³":7052,"ÑĨÐ²ÑĸÑĤ":7053,"ÐµÐ½Ð½Ð°":7054,"ĠÑħÐ»ÑĸÐ²":7055,"Ð°Ð´Ð°ÑĶ":7056,"ĠÐ¿Ð¾Ð¾Ð±":7057,"ĠÐĴÐ¸Ñħ":7058,"ĠÐĴÑĸÐ·":7059,"Ð°Ð³Ð¾ÑĢ":7060,"ÑīÐ°Ð´":7061,"ÑĢÑĸÑģ":7062,"ĠÐ¿ÐµÑĢÐµÐ¶":7063,"ĠÐ¿ÐµÑĢÐµÐ¼Ñĸ":7064,"Ð²Ð¸Ð»ÑĮ":7065,"ĠÑģÐºÐ»Ð°Ð²":7066,"ĠÑĢÑĥÐ´":7067,"ĠÐ±Ð¾ÑıÐ»Ð°ÑģÑı":7068,"ÑģÑĸÑĹ":7069,"ÐŁÐ¾Ð¿":7070,"ĠÐ¿Ð¾Ð»Ð¾Ð½Ð¸":7071,"ĠÑģÑĥÐ»ÑĤÐ°Ð½ÑģÑĮÐºÐ¸Ð¹":7072,"ĠÑģÐµÑĢÐ¹Ð¾Ð·":7073,"ĠÑĢÐµÐ¶":7074,"ĠÑĢÐ°Ð·Ñĸ":7075,"Ð¸Ð´ÑĸÐ²":7076,"ĠÐºÐ¾ÑĢÐ¾Ð²Ð¸":7077,"ĠÐ½Ð°ÑģÐ¾Ð»Ð¾Ð´":7078,"ÑıÐ·Ð½ÑĸÐ²":7079,"ĠÐ²Ð¾Ð»Ð¾Ð´Ñĸ":7080,"ĠÐºÐ¸Ð½ÑĥÐ»Ð°":7081,"ÐµÑģÐ½Ñĸ":7082,"ĠÐ½ÐµÐ²ÑĸÑĢ":7083,"ÑıÑĤÐ¸Ð¹":7084,"ĠÐ±Ð°ÑĩÐ¸ÑĤÐµ":7085,"ĠÐ²ÑĸÐ´ÑĩÐ°Ñİ":7086,"ĠÐºÑĢÑĸÑģ":7087,"ĠÐ»ÑĸÑĤÐ¾":7088,"Ð»ÑİÐ²Ð°ÑĤÐ¸":7089,"ĠÐĵÑĢÐ¸ÑĨÑĮÐºÐ°":7090,"ĠÐ¿ÑĢÐ¸Ð²ÑĸÐ·":7091,"ĠÐ´ÑĥÑĢÐ½Ð¸Ð¹":7092,"ĠÐ±ÑĸÐ³Ð»Ð¸":7093,"ĠÑĢÐ¾Ð·Ð¼Ð¾Ð²Ð°":7094,"ĠÐ¡Ð°Ð¼Ð°":7095,"ĠÐ½ÐµÐ²ÐµÐ»Ð¸":7096,"ĠÐ»ÑİÐ±Ð¸Ð»Ð°":7097,"ĠÑģÐ¼ÑĸÑħÐ¾Ð¼":7098,"ĠÐĹÐ´Ð°ÑĶÑĤÑĮÑģÑı":7099,"ĠÐ²Ð¼ÑĸÐ²":7100,"ĠÐ¶Ð¸Ð´ÑĸÐ²":7101,"ĠÐºÐ¾ÑĢÐ¸Ð´Ð¾ÑĢ":7102,"ĠÑģÐ¼ÑĥÑĤÐ¾Ðº":7103,"ĠÐŀÑħÑĢÑĸÐ¼ÐµÐ½":7104,"ĠÐ¿ÐµÐºÐ»Ð¾":7105,"ĠÐ¿ÑĸÐ²Ð½ÑĸÑĩ":7106,"ĠÐ´Ð¾Ð¶Ð¸Ð´":7107,"ĠÐ¢Ð°Ð¹Ð°Ñħ":7108,"ÑĸÐ´ÐµÐ²ÑĢÐ°Ð½":7109,"\"!":7110,"Ð»Ð°Ð¶":7111,"ÑıÐºÐ¸Ñħ":7112,"ĠÐ²ÑĸÑı":7113,"ĠÐ·Ð´Ðµ":7114,"ĠÑĤÑĢÑıÑģ":7115,"ÑĪÐ½ÑĸÐ¹":7116,"Ð¿Ð°ÑĤ":7117,"Ð¿Ð¸Ñģ":7118,"ĠÐºÑĢÐµ":7119,"ÑĢÐ¸Ð»Ð¸":7120,"Ð°Ð½Ð½Ð¾":7121,"ĠÐ³Ð°Ð¹":7122,"Ð¾Ð½Ð¾Ñģ":7123,"ĠÑĩÐ¸Ð¹":7124,"Ð°Ð´Ð¸Ð²":7125,"ĠÐ¿Ð¾ÑħÐ¸":7126,"Ð»ÑıÑĩÐµ":7127,"Ð»ÑıÑİÑĩÐ¸ÑģÑĮ":7128,"ĠÐ·Ð°ÑĤÑıÐ³":7129,"Ð½ÑıÐ²ÑģÑı":7130,"ĠÐ¢Ð¾Ð¶":7131,"ÑĸÑĤÐºÐ¸":7132,"ĠÐ¡Ð°Ð½ÑĮ":7133,"ĠÐľÑĸÑħ":7134,"ĠÐĶÐ¾Ð»Ð¸":7135,"ĠÐ»ÑİÑĤÐ¾":7136,"ĠÐļÐ¾Ð³Ð¾":7137,"ĠÐļÐ¾Ð¿":7138,"ĠÐ¥Ð¾Ð»Ð¾Ð´":7139,"ÑĤÑĸÑı":7140,"ĠÐ§Ðµ":7141,"ĠÐ»Ð¸ÑģÑĤÐ¸":7142,"Ð½Ð¸ÐºÐ°Ð¼":7143,"ĠÑģÐ²ÑĸÑĤÐ»Ð¾Ð¼":7144,"ĠÐ³Ð¾ÑĢÐ´":7145,"ĠÐĽÐ¾Ð¹":7146,"Ð²ÐµÑģÑĤÐ¸":7147,"ĠÐºÑĢÐ¾ÐºÐ¸":7148,"ĠÐºÑĥÐ»Ðµ":7149,"ĠÑĢÐ¾Ð±Ð¸ÑĤÑĮÑģÑı":7150,"ĠÑģÑĤÐ°ÑĢÐ¾Ð¼Ñĥ":7151,"ÑģÐºÐ°Ðº":7152,"ĠÑĤÑĢÐ¾Ð½Ñĥ":7153,"ĠÐ¿ÑĢÐ°Ð²Ð¸":7154,"ĠÐ¿ÑĢÐ°Ð²Ð¾ÑĢÑĥÑĩ":7155,"ĠÑĢÐ°Ð´Ð°":7156,"ĠÐ¿Ð¾Ð·Ð±Ð°Ð²":7157,"ÐºÐ½ÑĥÐ²ÑĪÐ¸":7158,"ĠÐ»ÐµÐ¶Ð°ÑĤÐ¸":7159,"ĠÑĢÐ¾Ð·ÑĥÐ¼ÑĸÑĶ":7160,"ĠÐ¨Ðº":7161,"ĠÐ¾Ð·Ð½Ð°":7162,"ĠÐ²ÐµÑģÐµÐ»":7163,"ĠÑĤÐ¾ÑĢÐº":7164,"ĠÑĩÐ¸Ð¼Ð¾ÑģÑĮ":7165,"ĠÐ¾ÑģÑĤÐ°Ð½Ð½ÑĮÐ¾Ð³Ð¾":7166,"ĠÑĢÐ¾Ð·Ð´ÑĥÐ¼":7167,"ĠÑģÑĤÑĢÑĥÐ½":7168,"ĠÐ¿ÑĢÐ¾Ð´Ð¾Ð²Ð¶":7169,"ĠÑģÑĤÑĸÐ½Ð°Ð¼Ð¸":7170,"ĠÐ¿ÑĢÐ¸Ð±ÑĸÐ³":7171,"ĠÐ°Ð²ÑĤÐ¾ÑĢ":7172,"ĠÐ·Ð²ÐµÑĢÐ½ÑĥÐ²ÑģÑı":7173,"ĠÐ¿ÐµÑĢÐµÐ¹ÑĪÐ¾Ð²":7174,"ĠÑĨÐµÑĢÐºÐ²Ñĸ":7175,"ĠÐĳÐ°Ð³Ð»Ð°Ð¹":7176,"Ð¾ÑīÑĸÐ²":7177,"ĠÐ»Ð°Ð³ÑĸÐ´":7178,"ĠÐ±ÐµÐ·Ð½Ð°Ð´ÑĸÐ¹":7179,"ĠÐ±ÐµÐ·Ð½Ð°Ð´ÑĸÐ¹Ð½Ð¾":7180,"ĠÐľÐ°ÑħÑĸÐ´ÐµÐ²ÑĢÐ°Ð½":7181,"ĠÐ¿Ð¾Ð¿ÑĢÐ¾ÑģÐ¸Ð²":7182,"ĠÐ°Ð²ÑĤÐ¾Ð¼Ð°ÑĤ":7183,"ĠÐ½ÐµÐ±ÐµÐ·Ð¿Ðµ":7184,"ĠÐ°Ð±Ñģ":7185,"ĠÐ°ÑĢÐµÑĪÑĤÐ°Ð½ÑĤ":7186,"ĠÑĢÐµÑĪÑĤÐºÐ¸":7187,"ĠÐ·Ð´ÑĸÐ¹Ñģ":7188,"Ð½Ð´Ñĥ":7189,"Ð½Ð°ÐºÐ¸":7190,"ĠÑģÐ¾":7191,"ĠÐ±Ð¾Ð²":7192,"ĠÐ±ÑĢÑıÐ·":7193,"Ð¾Ð³Ñĸ":7194,"Ð±ÑĢÐµ":7195,"ĠÑĸÑģÐ»Ð°Ð¼":7196,"ĠÑĢÐ¾Ð³":7197,"ÑĸÐ´Ð°Ð²":7198,"Ð¾ÑĢÐºÐ¸":7199,"ĠÐ¾ÐºÐ°":7200,"ĠÐ¾Ð¶Ð¸Ð²":7201,"Ð¶Ð°Ñħ":7202,"ĠÑīÑĸÐ»ÑĮÐ½Ð¾":7203,"Ð¾Ð±Ð¾Ñİ":7204,"Ð¸Ð²Ð°Ð²":7205,"ĠÑħÐ¾ÑĢÐ¾Ð±":7206,"ĠÐ¿Ð¾ÑģÑĤÑĥ":7207,"ĠÐ¿ÑĢÐ¾Ð±ÑĸÐ³":7208,"ĠÐ²Ð¸ÑĢÐ¸Ð²":7209,"ĠÑģÑĤÑĥÐº":7210,"ĠÐ¡Ð»":7211,"ĠÑĪÐºÐ¾Ð»Ð¸":7212,"ÑĸÑĢÐ½Ðµ":7213,"ĠÐ¿ÐµÑĢÐµÐº":7214,"ĠÐ¾Ð±Ð»Ð¸Ð²":7215,"Ð±Ð¸Ð¹":7216,"Ð¾Ð´Ð¸Ð»Ð¾ÑģÑı":7217,"ĠÐ·Ð²Ð¾ÑĢÑĥÑĪ":7218,"ĠÐĿÐµÐ´":7219,"ĠÐ·Ð°Ð²ÐµÑĢ":7220,"ĠÐ¿Ð¾ÑĢÐ¾Ð³Ð°":7221,"ĠÑģÐºÐ°Ð·Ð°Ð»Ð¸":7222,"ĠÐ¿Ð¾Ð»Ð°Ð¼":7223,"ĠÐ¿Ð¾Ð»ÑĥÐ´":7224,"ĠÐ´Ð¾Ð²ÑĸÑĢ":7225,"ĠÐ½Ð°Ð¹Ð³":7226,"ĠÐ½Ð°Ð¿Ð¸":7227,"Ð¡Ð¿":7228,"ĠÐºÐ¾ÑĢÐ¼Ñĥ":7229,"ĠÐ½Ð°ÑģÐ¿ÑĢÐ°Ð²Ð´Ñĸ":7230,"ĠÑĩÐ¾ÑĢÑĤÐ°":7231,"Ð¸Ð½ÐºÐ¸":7232,"ĠÐ²ÐµÑĢÑģÑĤ":7233,"ĠÐ¼Ð°Ð¹Ð´Ð°Ð½":7234,"ĠÐºÑĥÐ¿Ð¸ÑĤÐ¸":7235,"ÑıÑĩÐ¸ÑģÑĮ":7236,"ÑİÐ²Ð°Ð»Ð°":7237,"Ð»ÐµÐ¹Ð¼Ð°Ð½":7238,"ÑıÑģÐ¾":7239,"ĠÐ¿ÑĢÐ¸Ð³Ð¾Ð»Ð¾Ð¼":7240,"ĠÐ´ÑĸÑĤÐ¾Ðº":7241,"ĠÐŁÑĢÑĸÑģÑı":7242,"ĠÐ³Ð¾ÑģÑĤÐµÐ¹":7243,"ĠÐ´Ð¾Ð¼Ð°Ð³":7244,"Ð´ÑıÐºÐ¸":7245,"ĠÐĩÐ¹":7246,"ĠÑĤÑĢÑĸÐ¿":7247,"ĠÐ·Ð²ÐµÑĢÐ½ÑĥÐ²":7248,"ĠÑħÑĥÐ´Ð¾Ð¶":7249,"ĠÐĹÐ´Ð¾ÑĢ":7250,"ĠÐ²ÑĢÐ°Ð¶ÐµÐ½Ð½Ñı":7251,"ĠÐĵÐ¾ÑģÐ¿Ð¾Ð´ÑĮ":7252,"ĠÐĹÐ½Ð°ÑĶÑĪ":7253,"ĠÐ¾Ð±ÐµÑĢÐ½ÑĥÐ²ÑģÑı":7254,"ĠÑģÐ¿Ð¾ÑĩÐ¸Ð²":7255,"ĠÐµÐºÑģÐ¿":7256,"ĠÐ¿ÑĢÐ¸ÑĶÐ¼Ð½Ð¾":7257,"ĠÐ½Ð°ÑĢÐ¾Ð´Ð¶ÐµÐ½Ð½Ñı":7258,"ĠÐĶÐ°Ð½ÑĮÐºÐ°":7259,"ĠÐ¿ÑĢÑĸÐ·Ð²Ð¸ÑīÐµ":7260,"ĠÐ¾Ð±Ð²Ð¸Ð½ÑĥÐ²":7261,"ÐłÐ¾ÐºÑģÐ¾Ð»Ð°Ð½Ð°":7262,"ĠH":7263,"ÑģÑĸÐ½ÑĮ":7264,"Ð´ÐµÑĢ":7265,"ĠÑģÐ¾Ð²":7266,"ĠÑģÐ°Ð´Ð¸":7267,"ÑĪÐ½Ñı":7268,"ĠÐ±Ðµ":7269,"ĠÐºÐ»Ð¸ÐºÐ°Ð²":7270,"ĠÑĸÐ¼ÐµÐ½Ñĸ":7271,"ĠÐ½ÐµÐ²ÑĸÑģÑĤ":7272,"Ð¾ÑĢÐ°ÑĪ":7273,"ĠÑĥÐ½Ð¾ÑĩÑĸ":7274,"ĠÐ»ÑĸÐ´":7275,"ĠÐ»Ð°Ñħ":7276,"ĠÐ²Ð¸ÐºÐ¸":7277,"ĠÐ¶Ð´Ðµ":7278,"ĠÑĨÐ²ÑĸÑĢ":7279,"ĠÐĴÐ¾Ð²":7280,"ĠÐĴÐ¾ÑĢ":7281,"ĠÐ¿ÑĢÐ¸ÑħÐ¾Ð²":7282,"ÑĢÑĥÑĤÐ¸Ð²":7283,"ÑĢÑĸÑİ":7284,"ÑĪÐ¸ÑĢ":7285,"ĠÐ¾Ð±ÑĥÑĢ":7286,"Ð»ÑĸÐºÐ°":7287,"ĠÐĶÐ²Ð°":7288,"ĠÑģÐ°Ð¼Ð¾Ñİ":7289,"ĠÐĹÐ°Ð¹":7290,"ĠÐĹÑĢÐµÑĪÑĤÐ¾Ñİ":7291,"ĠÐļÐ°Ð¼":7292,"ĠÐĵÐµÐ¹":7293,"ÑĨÑĮÐºÐ¸Ð¹":7294,"ÑĨÑĮÐºÐ¾Ð³Ð¾":7295,"ĠÑĤÐ¸Ð³":7296,"ÑģÑĤÐ¸Ð²":7297,"ĠÐ´Ð¸Ð²Ð¸Ð»Ð°ÑģÑĮ":7298,"Ð¼ÐµÐ½Ð¸":7299,"ĠÐ¿Ð¾ÑĩÐµÑĢÐ²Ð¾Ð½":7300,"ĠÐ²ÐµÐ»Ð¸ÑĩÑĸ":7301,"ÐŁÐµÑĢ":7302,"ĠÐ´ÑĥÐ¼ÑĨÑĸ":7303,"ĠÐ¼ÑĥÐ¶Ð¸":7304,"ĠÐ¿Ð¾Ð³Ñĥ":7305,"ĠÑĤÑĥÐ¶":7306,"ĠÐ½Ð°ÑģÐ»ÑĸÐ´":7307,"ĠÑĩÐ¾ÑĢÐ½Ð¸Ð¼":7308,"Ð¾ÑĢÑĸÑĹ":7309,"ĠÐ¢Ð°ÐºÑĸ":7310,"Ð»ÐµÐ½Ð¾ÑĹ":7311,"Ð¿ÑĥÐ±Ð»Ñĸ":7312,"ÑģÑĤÐ¾ÑıÐ²":7313,"ĠÐ½ÐµÐ¿Ð¾ÑĤÑĢÑĸÐ±":7314,"ĠÑĢÐ°Ð´Ñĸ":7315,"ĠÑĢÐ°Ð´ÑĸÑģÑĤÑİ":7316,"ĠÐ¿Ð¸Ð»":7317,"ĠÐľÐ°ÑĢÑĸÑĩ":7318,"ÑıÑĤÐ¸ÑģÑĮ":7319,"ĠÐ¼Ð¾Ð²ÑĩÐ°Ð»Ð¸":7320,"ĠÐ´Ð¾Ð´Ð¾Ð»Ñĥ":7321,"ĠÑģÐ¸Ð½Ð¾Ð¼":7322,"ĠÐ´Ð¸ÑĤÐ¸Ð½Ð¸":7323,"ĠÑĤÐ¾Ð²Ð°ÑĢÐ¸ÑģÑĤÐ²Ð¾":7324,"ÑĹÑħÐ°Ð»Ð°":7325,"ĠÐ¿ÑĢÐ¾Ð¹ÑĤÐ¸":7326,"ĠÐ´Ð¾Ð¼Ñĸ":7327,"ĠÐ¡Ð°Ð¼Ðµ":7328,"ĠÐĳÐ¾Ð³Ð´Ð°Ð½":7329,"ĠÐ¯Ð²ÑĤÑĥÑħ":7330,"ĠÐ´Ð¾Ð³Ð°Ð´":7331,"ĠÐ¼Ð°ÑĪÐ¸Ð½":7332,"ĠÐ½Ð°ÑĩÐ°Ð»ÑĮÐ½Ð¸ÐºÐ°":7333,"ĠÐ·Ð½Ð°Ð¹Ð¾Ð¼Ð¸Ð¹":7334,"ĠÐĴÐ°Ð²Ð¸Ð»Ð¾Ð½Ñĸ":7335,"ÑıÐ²Ð»ÑıÑĶÑĤÑĮÑģÑı":7336,"ĠÐ¿Ð»Ð¸Ð²Ð»Ð¸":7337,"ĠÐ±ÑĥÐ´Ð¸Ð½Ð¾Ðº":7338,"ĠÐĶÐ°Ð²Ð°Ð¹":7339,"Ð²Ð¶ÐµÐ¶":7340,"ĠÐ¾Ð¿ÐµÑĢÐ°ÑĤÐ¸Ð²":7341,"ĠÑģÐ¿Ð°Ð´ÐºÐ¾":7342,"ĠÐ¡Ð°Ð²ÐºÐ°":7343,"Ð¥Ð»Ð¾Ð¿ÐµÑĨÑĮ":7344,"ĠÑģÐ¿ÑĥÑģÐº":7345,"ĠÐ¯ÐºÑĸÐ²Ð½Ð°":7346,"ĠÐ¿Ð¾ÑĩÐ¸Ð½Ð°Ð²":7347,"Ð¾ÑģÑĤÐ°Ð½Ð½ÑĶ":7348,"yp":7349,"ĠÐ½Ð°Ð»Ñı":7350,"ĠÐ·Ð½Ð¸ÐºÐ°":7351,"ĠÐ·ÑĸÐ¹ÑĪÐ¾Ð²":7352,"ÑĩÑĥÐ²Ð°Ð²":7353,"Ð¾Ð²ÑĩÐ°Ð²":7354,"ĠÐ¼Ð»Ñı":7355,"Ð°Ð½Ð¾Ð¼":7356,"ÑģÑĤÑĢÐ°ÑĪ":7357,"ĠÑĢÐ¾ÑĤÑĸ":7358,"ĠÐ³Ðµ":7359,"ĠÐ³ÑĢÐ°Ð²":7360,"ĠÑĥÑģÐ¿":7361,"ÑĩÐ¸ÐºÑĥ":7362,"ÐµÐ½Ð½Ð¾Ð³Ð¾":7363,"ĠÑħÐ°Ð»Ð°":7364,"ĠÐ²Ð¸ÑħÐ¾Ð¿":7365,"ĠÑģÑĤÐ²Ð¾ÑĢ":7366,"Ð°Ð»Ð¸Ð»Ð¸":7367,"ĠÐĲÐ¼ÑĥÑĢ":7368,"ĠÐĿÐ°Ð·":7369,"ĠÐ¡Ð²":7370,"Ð°ÑģÐº":7371,"ĠÑģÐºÐ»Ñı":7372,"ĠÐĹÐ½Ð°Ð²":7373,"ĠÐĵÑĢÐµ":7374,"ĠÐ¿Ð¾Ð²ÑģÑĤ":7375,"ĠÑģÑĥÑĩÐ°Ñģ":7376,"Ð°Ð»ÑĮÐ½Ñĥ":7377,"ĠÐ»Ð¸Ð¿":7378,"ĠÐ´Ð²Ð°Ð½":7379,"ĠÐ½Ð°Ð´ÑĸÑİ":7380,"ĠÐ´Ð¸Ð²Ð¸ÑĤÐ¸ÑģÑĮ":7381,"ÑĢÐ¸Ð²Ð¾Ð¶":7382,"ĠÐ»ÐµÑĤÐ¸ÑĤÑĮ":7383,"ÐŁÑĸ":7384,"ĠÑĤÐ¸ÑħÐ°":7385,"ĠÑĢÐ¾Ð±Ð¾ÑĤÑĸ":7386,"ĠÐ½Ð°ÑģÑĸÐ½Ð½Ñı":7387,"ĠÐ¿Ð¾Ð¿Ð»Ð¸Ð²":7388,"ĠÐ¿Ð¾Ð¿ÑĢÐ¾Ñī":7389,"ĠÐ´ÑĢÑĥÐ³Ð¾ÑĹ":7390,"Ð¿Ð¾Ð²Ð·":7391,"ĠÐ³Ð°ÑĢÐ¼Ð°ÑĤÐ¸":7392,"ĠÐ¶ÑĸÐ½ÑĨÑĸ":7393,"ĠÐ´Ð°Ð²Ð°ÑĤÐ¸":7394,"ÐŀÐ±":7395,"ĠÐ²Ð¿Ð»Ð¸Ð²":7396,"ĠÐ³ÑĢÐ°Ð½":7397,"ĠÐ³ÑĢÐ°Ð»Ð¸":7398,"ĠÐ³ÑĢÐ°ÑĶ":7399,"ĠÐ¿Ð¸Ð»Ñİ":7400,"ĠÐ¿Ð¾Ð±Ð°ÑĩÐ¸Ð»Ð¸":7401,"ĠÐ³Ð»Ð¸Ð½Ñı":7402,"ÑĩÐ¸Ð½ÐºÑĥ":7403,"ĠÐ¿ÑĢÐ¾ÑģÐ¸Ð²":7404,"Ð¼ÐµÐ½ÑĤ":7405,"ĠÐĨÐ±ÑĢÐ°Ð³ÑĸÐ¼Ð¾Ð²Ñĸ":7406,"ĠÑģÐ»ÑĥÐ³":7407,"ĠÐŀÐ´Ð½Ð°Ðº":7408,"ĠÐ·Ð°Ð¹Ð¼":7409,"ĠÑģÐ¾ÑĢÐ¾ÑĩÑĨÑĸ":7410,"ĠÐ¾ÑĩÐµÑĢÐµ":7411,"Ð»ÑıÐ½ÐºÑĥ":7412,"ĠÐ´Ð¾ÐºÑĥÐ¿Ð¸":7413,"ĠÐ°ÑĢÐ¼Ñĸ":7414,"ĠÐ²ÑĸÐ´Ð¿Ð¾Ð²ÑĸÐ´Ñĸ":7415,"ĠÐ±ÑĸÐ´Ð°":7416,"ĠÐ¿Ð¾Ð²ÐµÑĢÑĤÐ°Ð²ÑģÑı":7417,"ĠÐ²Ð¸Ð¿Ð°Ð´ÐºÐ¾Ð²Ð¾":7418,"ĠÐ³Ð¾ÑģÐ¿Ð¾Ð´Ð°ÑĢÑı":7419,"ĠÐ´Ð¾Ð³Ð»ÑıÐ´":7420,"ĠÐ·Ð½Ð°Ð¹Ð¾Ð¼Ñĸ":7421,"ĠÑĥÑģÐ¼ÑĸÑħÐ°ÑİÑĩÐ¸ÑģÑĮ":7422,"ĠÑĢÐ¾Ð·ÐºÐ»Ð°Ð´":7423,"ĠÑģÐ¼ÑĸÑħÑĥ":7424,"ĠÐºÑĥÑħÐ½Ñİ":7425,"ĠÑħÑĥÑĤÑĸÑĢ":7426,"ĠÐ¿ÑģÑĸÐ²":7427,"ĠÐ¿Ð¾ÑĩÐ¸Ð½Ð°ÑĶÑĤÑĮÑģÑı":7428,"ÑĦÐ¾ÑĢÐ¼":7429,"ĠÐ¼ÑĥÑĢÐ°Ð¼Ð¸":7430,"ĠÐ³Ð¾ÑģÐ¿Ð¾Ð´Ð¸Ð½Ñı":7431,"Ð¡ÑĥÐ»ÐµÐ¹Ð¼Ð°Ð½":7432,"ĠÐĶÑĥÐ¶Ðµ":7433,"ĠÐ·ÑĥÑģÑĤÑĢÑĸÐ²":7434,"ĠÐĹÐ´Ð°Ð²Ð°Ð»Ð¾ÑģÑı":7435,"ĠÐ¿Ð¾ÑģÑĤÐµÐ»Ñĸ":7436,"ÑĢÐ°ÑĶ":7437,"ÑĥÐ¹":7438,"ÑıÐºÐ¸Ð¹":7439,"ĠÐ²Ð±ÑĢ":7440,"ĠÐ·Ð½Ñĥ":7441,"ÑħÑĸÑĤ":7442,"ÑħÐ¾Ñİ":7443,"ĠÐ±Ð»Ð¾":7444,"Ð½Ð¸ÑĤÑĮÑģÑı":7445,"ĠÐ³Ð¾ÑģÑĤÑı":7446,"ÑĸÐ»Ð»Ñĸ":7447,"ĠÑħÑĢÐ°Ð¼":7448,"Ð°Ð»Ð¸Ð¹":7449,"ĠÐ·Ð°ÑģÑĤÐ¸Ð³":7450,"Ð»Ð¾ÑģÐµÑĢÐ´":7451,"ĠÐ±ÑĥÑħ":7452,"ÐºÐ¾ÑĤÑĸÐ²":7453,"ĠÐĴÐ¸Ð¹":7454,"ĠÐ²ÑĸÐ´Ð±Ñĥ":7455,"ĠÐ²ÑĸÐ´Ð³Ñĥ":7456,"ĠÐ¢Ð¾Ð±Ñĸ":7457,"ĠÑĢÐ¾Ð·ÑĤÑĥ":7458,"ĠÑĢÐ¾Ð·Ð´Ð°Ð²":7459,"Ð°ÑģÑĸ":7460,"ÑĢÐµÐ³":7461,"ĠÐ¿ÑĢÐ¾ÑĩÐ¸ÑĤ":7462,"Ð°Ð¶ÑĸÑĤÑĮ":7463,"ĠÐĶÑĥÑĢ":7464,"ĠÐ§ÑĥÐ´":7465,"ĠÑĩÐ¸Ð½Ð¾Ð¼":7466,"Ð¾Ð²Ð¸ÑīÐ°":7467,"ÑĥÐ´Ð¶":7468,"ĠÐ´Ð¸Ð²ÑĥÐ²Ð°Ð²ÑģÑı":7469,"ÑĸÑĩÐ½Ð¸Ð¹":7470,"ĠÐ¿Ð¾ÑĩÑĥÑĤÐ¸":7471,"ĠÐ´ÑĥÐ¼ÐºÐ¾Ñİ":7472,"ĠÐ¿Ð¾ÑĤÑĢÐ¾":7473,"Ð¢Ð°Ð¼":7474,"ÐĿÐĲ":7475,"ĠÐ¦Ð°ÑĢ":7476,"ĠÐ¿ÐµÐºÐµ":7477,"ĠÐ¶Ð¸Ð²Ð¸Ñħ":7478,"ĠÑĤÑĢÐ°Ðº":7479,"ĠÐ´ÑĸÐ²ÐºÐ°":7480,"ĠÐ½ÐµÐ·Ð³":7481,"ĠÐ²ÐµÑĢÑħÐ¸":7482,"ĠÑħÐ¾ÑĤÑĸÐ»Ð¾":7483,"Ð³Ð¾ÑĢÐ¾Ð´":7484,"ĠÐ²Ð´ÑıÑĩ":7485,"ĠÐ¿Ð»ÐµÑģ":7486,"ĠÑģÑĤÑĢÐ°ÑĪÐ½Ð¾Ð³Ð¾":7487,"ĠÐ²Ð¸ÑģÐ¾ÐºÐ¸Ñħ":7488,"ĠÑĢÑĸÐ´Ð½Ð°":7489,"ĠÐ²ÑĸÑĢÑĪ":7490,"ĠÐ²ÑĥÐ»Ð¸ÑĨÑıÑħ":7491,"ÑĩÐµÐ½Ñĥ":7492,"ÑĩÐµÐ½ÐºÐ°":7493,"ĠÐ½ÐµÑģÐ¼Ñĸ":7494,"ĠÑĤÑıÐ³Ð½Ðµ":7495,"ĠÐ¿Ð¾Ð½ÐµÑģ":7496,"ĠÐ¼Ð¾ÑĹÐ¹":7497,"Ð»Ð¸Ð²ÑĸÑģÑĤÑİ":7498,"ĠÐ¿ÐµÐ²Ð½Ðµ":7499,"ĠÐ¼ÑĸÑģÑĨÑıÑħ":7500,"ĠÑģÑĸÑĢÑĸ":7501,"ĠÐ·Ð½Ð°Ð¹Ð¾Ð¼Ð¸Ñħ":7502,"ĠÐ¾Ð±ÑĢÐ°Ð·Ð¸":7503,"ĠÐĽÑİÐ´Ð¸Ð½Ð°":7504,"ĠÐ¼ÑĥÐ·Ð¸ÐºÐ°":7505,"ĠÐ¿Ð¾Ð±ÑĸÐ³Ð»Ð°":7506,"ĠÐ·Ð°ÑħÐ¸Ñī":7507,"ĠÐ±Ð°Ð»Ð°Ðº":7508,"ĠÐ¿Ð°ÑĢÑĥÐ±Ð¾Ðº":7509,"ĠÐ²ÑĸÐ·ÑĮÐ¼Ðµ":7510,"ĠÐºÐ½ÑıÐ·ÑĮ":7511,"ĠÐĵÐ¾Ð»Ð¾Ð²Ð°":7512,"ĠÐ¼ÐµÑĤÐ°Ð»ÑĥÑĢÐ³":7513,"ĠÐ´Ð¸Ð²Ð¾Ð²Ð¸Ð¶":7514,"ĠÐĸÐ¸Ð³Ð°":7515,"ĠÐ´Ð¾Ð³Ð¾ÑĢÐ¸":7516,"ĠÐ²Ð¾ÑģÐºÑĢÐµÑģ":7517,"ĠÐ·Ð´Ð¾Ð±Ð¸Ñĩ":7518,"ĠÐ·Ð°Ð¿ÑĢÐ¾Ð¿Ð¾Ð½":7519,"ÑĢÐ¾ÐºÑĥ":7520,"ÑĤÑĥÐ²Ð°Ð»Ð¸":7521,"Ð½Ð°Ð»":7522,"Ð»Ð¾Ðº":7523,"ÐºÑĥÐ²Ð°Ð½Ð½Ñı":7524,"ĠÐ²Ð°Ð»Ñı":7525,"ĠÐ¿ÐµÐ½":7526,"ĠÐ·Ð½ÑıÐ²":7527,"ÑĩÐºÐ¾Ð¼":7528,"ĠÐ´Ð°ÑİÑĩÐ¸":7529,"ÑİÐ¼":7530,"Ð¾Ð²Ð°ÑĢÐ¸":7531,"ÑĤÐ¸Ð½Ð°":7532,"ĠÐ±ÐµÑĢÐ¸":7533,"ĠÐ¼Ð°Ð»Ñĸ":7534,"ĠÐ¼Ð¸Ð¼Ð¾":7535,"ĠÑĸÑĪÐ»Ð¸":7536,"Ð·Ð²":7537,"ĠÑĢÐ°Ð¼":7538,"Ð°Ð¼Ð¾":7539,"ĠÑĥÐ½Ñĸ":7540,"ĠÑĥÑģÑĮÐ¾Ð¼Ñĥ":7541,"ĠÐ¶Ð°ÑħÑĥ":7542,"ĠÐ´Ð¾ÑĤÐ¾ÑĢ":7543,"ĠÑĨÐ²":7544,"ĠÐĲÐ²Ð¶ÐµÐ¶":7545,"Ð´Ð¸Ð»Ð¸":7546,"Ð´Ð¸Ð½Ð°":7547,"ĠÐ¡ÑĸÐ´":7548,"ĠÐ¡Ð¸Ð¼":7549,"ĠÑĪÑĤ":7550,"ÑĢÐµÑı":7551,"ĠÐ¿ÑĸÐ´ÑĸÐ¹ÑĪÐ»Ð°":7552,"ĠÐ¾Ð±Ð¾ÑĢÐ¾Ð½":7553,"ÑĩÐµÐ¿Ð¸":7554,"ĠÐļÐ¾Ð½":7555,"ĠÐĳÐ¾ÑĢÐ¸":7556,"ĠÑģÐ¸Ð½Ñı":7557,"ĠÑīÐµÐ±Ðµ":7558,"Ð¾Ð¶ÐµÐ²Ð¾Ð»":7559,"ĠÑģÐµÑģÑĤÑĢÐ°":7560,"ĠÐ¿Ð¾Ð´ÑĢÑĥÐ³":7561,"ÑĢÑıÐ³":7562,"ĠÐ½Ð°Ð¿Ð°Ð´":7563,"ĠÑĦÑĸÑĢ":7564,"ĠÐ·Ð°Ð³Ñĥ":7565,"ĠÐºÐ¾ÑĢÑĩ":7566,"ĠÑĩÐ¾ÑĢÐ½Ð¾Ð³Ð¾":7567,"ÑıÑĤÐ°Ñİ":7568,"ĠÐ²Ð¾Ð»Ð¾Ñħ":7569,"ĠÐ·Ð°ÑĢÐ¾Ñģ":7570,"ĠÐºÐ¾Ð¶Ð½ÑĸÐ¹":7571,"ĠÐ²Ð·ÑıÐ²ÑģÑı":7572,"ĠÐ²ÑĸÐ¹Ð½Ñĥ":7573,"ĠÑĢÐ¾Ð·ÑĥÐ¼Ð¾Ð¼":7574,"ÐĳÐ¾":7575,"ĠÐ´Ð°Ð»ÐµÐºÑĸ":7576,"ĠÐºÐ¾ÑĤÑĢÐ¾Ð³Ð¾":7577,"ĠÐ²Ð³Ð¾ÑĢÑĸ":7578,"ĠÐ²ÑĢÐ¾Ð´":7579,"ĠÐ¡ÑĤÐµÐ¿":7580,"ĠÐ¿Ð°ÑģÑĤÑĥ":7581,"ĠÐ½ÐµÑĢÐ²Ð¸":7582,"ĠÑĢÑĸÐ²Ð½Ð¾":7583,"ĠÐ²Ð°ÑĪÑĥ":7584,"ĠÑģÐ»Ð¾Ð²Ð°Ñħ":7585,"ĠÑıÐºÐ¾Ð¼ÑĥÑģÑĮ":7586,"ĠÐ´ÑĸÐ¹ÑģÐ½Ð¾":7587,"ĠÐĦÐ»ÑĮÐºÑĥ":7588,"ĠÑģÐ»Ð°Ð²Ð°":7589,"ĠÐ¿ÑĥÑģÑĤÐ¸Ð²":7590,"ĠÐ»Ð¸ÑĪÐ¸Ð»Ð¾ÑģÑı":7591,"ĠÐ³ÑĥÐ±Ð°Ð¼Ð¸":7592,"ĠÐºÐ»Ð¾Ð¿Ð¾ÑĤ":7593,"ĠÐ²ÑĸÐ¹ÑģÑĮÐºÐ¾Ð¼":7594,"ĠÐ»ÑĸÐ²Ð¾ÑĢÑĥÑĩ":7595,"ĠÐ¾Ð±Ð¸Ð´Ð²Ñĸ":7596,"ĠÐ¼Ð¾Ð»Ð¸ÑĤÐ²Ð¸":7597,"ĠÑĪÐºÑĸÑĢÑĥ":7598,"ĠÐºÐ°ÑĢÐ±Ð¾Ð²Ð°Ð½ÑĨÑĸÐ²":7599,"ĠÐ²Ð¸ÑĩÐµÑĢÐ¿":7600,"ĠÐĦÐ²ÑĢÐ¾Ð¿":7601,"ĠÐºÑĸÐ»Ð¾Ð¼ÐµÑĤÑĢÑĸÐ²":7602,"ĠÐ¿Ð¾ÐºÐ°Ð·ÑĥÑİÑĩÐ¸":7603,"ĠÐĳÐµÐ»Ð³ÑĢÐ°Ð´":7604,"!),":7605,"ÑĥÐ»ÑĮ":7606,"ÑģÐ½Ñĸ":7607,"ÐºÑĸÐ»Ñı":7608,"ÑıÐ½Ð¸Ð¼":7609,"ĠÐ²ÐºÐ°Ð·":7610,"ĠÐ²Ð²ÐµÑĩÐµÑĢÑĸ":7611,"ĠÐ¿Ð»Ð¸Ð²Ðµ":7612,"Ð¼ÑĸÐ»ÑĮ":7613,"ÑĩÐ½Ð¾Ñİ":7614,"ĠÑĤÑĸÐº":7615,"ĠÑĤÐ¾ÑĩÐ½Ð¾":7616,"ÑĪÐ°Ð»Ð¸":7617,"Ð±Ð°ÑĤÐ¸":7618,"ĠÐ¼Ð»Ð¾":7619,"ĠÐ¼ÑĢÑĸÐ¹":7620,"Ð·Ð¼":7621,"ĠÐ»Ð¾Ð±":7622,"Ð¸Ð²Ð°Ð»Ð¸":7623,"Ð¾ÐºÑĢÐµÐ¼":7624,"ĠÐ²Ð¸ÑĢÐ¾Ñģ":7625,"ĠÑģÑĤÑĢÐµ":7626,"Ð»ÑıÐ¼":7627,"Ð½ÑĥÑĩÐ¸":7628,"ĠÑĹÐ´":7629,"Ð°ÑĤÐ¾ÑĢÐ¸":7630,"ÐµÐ¼Ñĥ":7631,"ĠÑģÐ¿Ð¾ÑĩÐ°ÑĤÐºÑĥ":7632,"Ð¾ÑģÑĦ":7633,"ĠÐ¡Ð¼Ñĸ":7634,"ĠÐľÐ¾ÑģÐº":7635,"ĠÑĪÐ¿Ð°ÑĢ":7636,"ÑĥÐ¼Ð½Ð¾":7637,"ĠÐ¼ÑĸÑĪ":7638,"ÑĤÐ°Ð½Ð°":7639,"ĠÐ·Ð°Ð²Ð´ÑıÐºÐ¸":7640,"ĠÐ¿Ð¾ÑĢÑĥÑĪ":7641,"ĠÐ¿Ð¾Ð»ÑıÐ³":7642,"Ð°Ð»ÐµÑĨÑĮ":7643,"ĠÐ¿Ð¾ÑĤÐµÐ¼":7644,"ĠÑĤÑĸÑĹ":7645,"ĠÐ¿ÐµÑĢÑĪÐ¸Ñħ":7646,"ĠÐºÐ¾ÑĢÑĸÐ²":7647,"ĠÐ²ÑĥÑģÐ°":7648,"ĠÐ¥ÑĢÐ¸ÑģÑĤÐ¸":7649,"ÐĶÑĸÐ²":7650,"ÐĶÐ¾Ð±":7651,"ĠÐºÐ°Ð¼ÐµÐ½Ñĸ":7652,"Ð¸Ð½Ð¾Ðº":7653,"ÐľÐ¾Ð¶Ðµ":7654,"ĠÐ²Ð¸Ð¿Ð¸ÑĤÐ¸":7655,"ĠÑĤÑĢÐ¾Ð½":7656,"ÑģÐ¿ÑĸÐ²":7657,"ĠÐ´Ð¾Ð²Ð³Ð°":7658,"ĠÐ±Ð»Ð¸Ð¶":7659,"ĠÐ½ÐµÐ´ÑĸÐ»Ñİ":7660,"ĠÐ·Ð½Ð°Ð¹Ð´Ðµ":7661,"ĠÐ·Ð½Ð°Ð¹ÑĪÐ»Ð¸":7662,"ÑĤÑĢÐ°Ð¿":7663,"ĠÑģÐ»ÑĥÑħÐ°Ð»Ð°":7664,"ĠÐ¼Ð°Ð»Ð¾Ð³Ð¾":7665,"ĠÐ²Ð»Ð°ÑģÐ½Ð¾ÑĹ":7666,"ĠÐĵÑĢÐ¸ÑĨÑĮÐºÑĥ":7667,"ĠÑģÐºÑĢÐ¸Ð½Ñĸ":7668,"ĠÐŁÐµÑĤÑĢÐ¾Ð²":7669,"ĠÐ³ÑĢÑĸÑĪ":7670,"ĠÐ¼ÑĸÑģÑıÑĨÑı":7671,"ĠÐ±ÑĸÐ³ÑĤÐ¸":7672,"ĠÐºÐ¾Ð¼ÑĥÑģÑĮ":7673,"ĠÐ¾ÑģÑĤÐ°Ð½Ð½Ñİ":7674,"ÑĹÑħÐ°ÑĤÐ¸":7675,"ĠÑĤÐµÐ¿Ð»Ð°":7676,"ĠÐ²ÑĸÐ´Ð´Ð°ÑĤÐ¸":7677,"ĠÐ±ÑĢÐ¸Ð·":7678,"ĠÐ½ÐµÐ±Ð¾Ð¼":7679,"ĠÐ²Ð»Ð°Ð´Ð°":7680,"ĠÐ¼ÐµÑĢÑĤÐ²Ð¸Ð¹":7681,"ĠÐ·Ð²ÐµÑĢÑħÑĥ":7682,"ĠÐ¿Ð°ÑħÐ½Ðµ":7683,"ĠÐ·Ð°Ð±ÑĥÐ²ÑĪÐ¸":7684,"ĠÑģÐºÐ¸Ð½ÑĥÐ²":7685,"ĠÑıÐºÐ¾ÑİÑģÑĮ":7686,"ĠÐ·Ð¾Ð»Ð¾ÑĤÐ¸Ð¹":7687,"ĠÐ·Ð±Ð°Ð³Ð½ÑĥÑĤÐ¸":7688,"ĠÐ·Ð»ÑıÐºÐ°Ð½Ð¾":7689,"ĠÐ½Ð°ÐºÐ°Ð·Ð°Ð²":7690,"ĠÐ¿ÑĢÐ¸ÑħÐ¸Ð»ÑĮ":7691,"ĠÑĤÑĢÑĥÐ´Ð½Ð¾":7692,"ĠÐĵÑĢÐ¸Ð³Ð¾ÑĢÑĸÑı":7693,"ĠÐĴÐ°ÑģÐ¸Ð»Ð¸":7694,"ĠÐĳÐ°ÑĤÑĮÐºÐ¾":7695,"ĠÐ½Ð°Ð¹Ð±Ð»Ð¸Ð¶":7696,"?!\"":7697,"ÑĤÑĶ":7698,"Ð½Ð½Ñĸ":7699,"ÑıÑĩÑĸ":7700,"ĠÐ²ÐµÐ½ÐµÑĨÑĸÐ°Ð½":7701,"ĠÐ¿Ð¸Ñħ":7702,"ĠÑģÐ½ÑĥÐ²":7703,"ĠÐ±Ð°ÑĢÐ¸":7704,"Ð¾Ð³Ð¸Ð¹":7705,"ĠÐ¼Ð°Ð»ÑĮ":7706,"ĠÐºÐ¾Ð½Ð¸":7707,"ĠÐºÐ¾Ð·Ð¸":7708,"ĠÐ½ÐµÑĩÐ¸":7709,"ÑĢÐ¸ÑĤÑĮ":7710,"Ð·Ñİ":7711,"Ð½Ð¸Ð½Ñĸ":7712,"Ð½Ð¸Ð½Ñĥ":7713,"Ð½ÑĸÑĪÐ¸Ð¼":7714,"ÑĥÐ²Ð°Ð½Ð¾":7715,"ĠÑĥÑħ":7716,"ĠÑĥÐ²Ñĸ":7717,"ÑĩÐ¸Ð»Ð¸ÑģÑı":7718,"Ð°ÑĢÐºÐ¸":7719,"ĠÐ°Ð¼":7720,"ÐºÐ°ÑĩÐµ":7721,"Ð°Ð´Ð¸ÑĤÐ¸":7722,"ĠÐ²Ð¸Ð½Ð¸Ðº":7723,"ĠÑģÑĤÐ°Ð»Ðµ":7724,"ĠÐ·Ð°ÑģÑĤÐµ":7725,"ÐºÐ¾ÑĤÐ¾Ð¼":7726,"ĠÐĴÐ°ÑĪ":7727,"ĠÐĲÑĢ":7728,"ĠÐ²ÑĸÐ´ÐºÐ¸":7729,"ĠÑĢÐ¾Ð·Ð¿Ð¾Ð²ÑĸÐ²":7730,"ĠÐ¡Ð²Ð¸":7731,"ĠÐĶÐ°":7732,"ĠÐĶÐ¾ÐºÐ¸":7733,"ÑĩÐµÐ½Ð¸Ð¼Ð¸":7734,"ĠÐļÑĢÐ°Ñģ":7735,"ÑĸÐ·Ð½":7736,"ÑĤÑĸÑģÑĤÑĮ":7737,"ÑĤÑĥÑİÑĩÐ¸":7738,"ĠÐłÑĥÐ´":7739,"ĠÐ±Ð¾ÑıÐ·":7740,"ĠÐ³Ð¾ÑĢÐ¾Ð´Ð¸":7741,"Ð²ÑĸÑģÑĤÑĮ":7742,"ĠÐ´ÑĥÐ¼Ð°Ð»Ð¸":7743,"ÐĲÐ¶":7744,"ÐĿÐ°Ð²":7745,"ĠÑĦÐ¾ÑĤ":7746,"ĠÑĢÐµÐ¹":7747,"ĠÐ³ÑĥÐºÐ½ÑĥÐ»Ð°":7748,"ĠÐºÐ¸Ð½ÑĥÐ»Ð°ÑģÑı":7749,"ĠÐ¿ÑĸÑģÐ¾Ðº":7750,"ĠÐ½Ð°Ð·Ð²Ð°Ð²":7751,"ĠÐ´Ð¾ÑĢÐ¾Ñģ":7752,"ĠÐ¼Ð°Ð¹ÑģÑĤÑĢ":7753,"ĠÐºÑĥÐ¿Ñĥ":7754,"ĠÐºÑĸÐ½Ð¾":7755,"ĠÐŀÑĤÐ¾Ð¶":7756,"ĠÐ§ÑĸÐ¿ÐºÐ¸":7757,"ĠÐ¼Ð¾Ð»Ð¾ÐºÐ°":7758,"ĠÐ²Ð¸ÑģÐ¾ÐºÐ¾Ð³Ð¾":7759,"ĠÐ¿ÑĸÐ²Ð´":7760,"Ð»ÑİÐ²Ð°Ð»Ð°":7761,"ĠÐ²Ð»Ð°ÑģÐ½Ð¾Ð³Ð¾":7762,"ĠÐ¿ÑĢÐ¾Ð²Ð°Ð»":7763,"ĠÐ·Ð°ÑĤÑĢÐµÐ¼":7764,"ĠÐ¡ÐºÐ°Ð¶Ð¸":7765,"ĠÑĢÐ¾Ð·Ð´Ð¸Ð²":7766,"ĠÑģÐ¿Ð¸Ð½Ñĸ":7767,"ĠÐ¿Ð¾ÑģÑĤÑĸÐ¹":7768,"ĠÐºÑĢÐ°ÑģÐ¸Ð²":7769,"ĠÐķÐ³Ðµ":7770,"ĠÐºÐ²ÑĸÑĤÑĸÐ²":7771,"ĠÐ¾ÑħÐ¾ÑĢÐ¾Ð½":7772,"ĠÑĨÐ°ÑĢÑģÑĤÐ²Ð¾":7773,"ĠÐºÐ¾Ð²ÑĤ":7774,"ĠÐ·ÑĥÑģÑĤÑĢÑĸÑĩÑĸ":7775,"ĠÐ²Ð²Ð°Ð¶Ð°Ð²":7776,"ĠÐ·Ð¾Ð»Ð¾ÑĤÐ¸Ð¼Ð¸":7777,"ĠÐ¼Ð¾Ð½Ð°ÑģÑĤÐ¸":7778,"ĠÑģÑĸÐ½ÑıÑħ":7779,"ĠÐ¢Ð¸Ð¼Ð¾ÑĦ":7780,"ĠÑĩÐ°ÑģÑĤÐ¸Ð½Ð¸":7781,"ĠÐ»ÑĸÐ¶ÐºÐ°":7782,"ĠÐ»Ð°Ð³ÑĸÐ´Ð½Ð¾":7783,"ĠÐ»ÑĸÑĤÐµÑĢÐ°ÑĤÑĥ":7784,"ĠÑĥÑĩÐ¾ÑĢÐ°":7785,"ĠÑģÑħÐ¾Ð¶Ð¸Ð¹":7786,"ĠÑĨÐ¸Ð³Ð°ÑĢÐºÑĥ":7787,"ĠÑĥÑĢÐ¾ÑĩÐ¸ÑģÑĤÐ¾":7788,"ĠÐĹÐ²ÑĸÐ´ÐºÐ¸":7789,"ĠÐºÐ¸Ð²Ð½ÑĥÐ²":7790,"ĠÐ§Ð¾Ð»Ð¾Ð²ÑĸÐº":7791,"ĠÐ½ÐµÐ²Ð´Ð¾Ð²Ð¾Ð»":7792,"ĠÐ±ÑĸÐ±Ð»Ñĸ":7793,"ĠÑĨÐµÑĢÐºÐ¾Ð²":7794,"Ð»ÑĮÑĦÐµÐ¼":7795,"Ġ6":7796,"Ð»ÐºÑĥ":7797,"ÐºÐ°Ð½Ñĸ":7798,"ÑıÐ½Ð¾":7799,"ĠÐ²Ð°Ð±":7800,"ĠÐ²Ð»Ð°ÑģÑĤÐ¸":7801,"ĠÐ¿Ð°ÑħÑĥ":7802,"Ð´Ð°Ñħ":7803,"ÑĩÐµÐ½Ðµ":7804,"Ð¾Ð²Ð°Ð¼Ð¸":7805,"Ð¾Ð³Ð½Ð°Ð²":7806,"Ð¿Ð¸Ð½":7807,"ĠÐºÐ»Ð°Ñģ":7808,"Ð¾Ð¼Ð¾Ð½":7809,"ÑģÑĤÑĢÑĸ":7810,"ĠÐ¾Ð²Ðµ":7811,"Ð³ÐµÐ»ÑĮ":7812,"ÑĩÐ¸Ð¼Ð¾":7813,"ĠÑģÑĤÐ¾Ð¼":7814,"ĠÐ´Ð¾ÑĪÐºÑĥ":7815,"Ð½ÑĥÐ»Ð¾ÑģÑĮ":7816,"ĠÐĴÐ°Ð¼":7817,"Ð¾ÑĤÐ¾Ð²":7818,"ĠÐŁÐ¾Ð»":7819,"ĠÑĢÐ¾Ð·ÑĸÑĢ":7820,"ÑĪÐ¸Ð»Ð¾":7821,"ĠÐľÐ°Ðº":7822,"Ð¾ÑĩÐºÐ¾Ñİ":7823,"ĠÐ¿ÑĸÐ´Ð½ÑĸÑģ":7824,"ĠÐ¿ÑĢÐ¾ÑĩÐ¸ÑĤÐ°Ð²":7825,"ÑĸÑģÐ½Ð¸ÐºÐ°":7826,"ĠÐĶÐ²Ñĸ":7827,"ĠÐļÑĢÐ¸":7828,"ĠÑĢÑĥÑĪÐ¸Ð²":7829,"ĠÐ¿Ð¾Ð²ÑģÑĤÐ°Ð½":7830,"ĠÐ·Ð½Ð°Ð½Ð½Ñı":7831,"ÑĢÐ°Ð²Ð´Ñĥ":7832,"ĠÑĤÐ¾ÑīÐ¾":7833,"ĠÐ¼ÑĸÐ½Ñĸ":7834,"ĠÐ½Ð°Ð´Ð²Ð¾ÑĢÑĸ":7835,"Ð¾Ð²Ð¸Ð½Ð¸":7836,"ĠÑģÐ»Ð°Ð²Ð¸":7837,"ÐĴÐµÐ»Ð¸":7838,"ĠÐ³Ð¾ÑĢÐ¾Ñİ":7839,"Ð²ÐµÑĤÑĮÑģÑı":7840,"ĠÐ¿Ð¾ÑģÐ»Ð°Ð½":7841,"ĠÐ¿Ð¾Ð»ÐºÐ¾Ð²":7842,"ĠÑĩÐ°ÑģÑĸ":7843,"ĠÑģÐµÑĢÐ¶":7844,"ĠÐ·Ð°ÐºÑĥÑĤ":7845,"ĠÑĩÐ¾Ð»Ñĸ":7846,"ĠÐ±ÑĥÐ´ÐµÑĤÐµ":7847,"ĠÐ½ÐµÐ¿Ð¾Ð´":7848,"ĠÑģÑĤÐ°Ð²Ð°Ð»Ð°":7849,"ĠÐ½ÐµÐ·ÑĢÐ¾Ð·ÑĥÐ¼":7850,"ĠÐ¡ÑĤÑĢÐ°ÑĪ":7851,"ĠÑĢÐ¾Ð·Ð¿Ð°ÑĩÑĥ":7852,"ĠÐºÐ°Ð¶Ð¸":7853,"ĠÐ±Ð°ÑĤÑĮÐºÐ¾Ð¼":7854,"ĠÐ·Ð°Ð´Ð¸Ð²":7855,"ĠÑģÑĤÐ¾ÑıÑĩÐ¸":7856,"ĠÐ·Ð°ÑħÐ¾ÑĤÑĸÐ»Ð¾ÑģÑı":7857,"ĠÐ²Ð¸ÐºÐ»Ð°Ð´":7858,"ĠÐ·ÑĢÐ¾Ð±Ð¸Ð»Ð°":7859,"ĠÐ·Ð»Ð¾Ð²":7860,"ĠÑĤÑĢÐ¸Ð¼Ð°ÑĶ":7861,"ĠÑĤÑĢÐ¸Ð¼Ð°Ð²ÑģÑı":7862,"ĠÐ·Ð¼ÑĸÑĪ":7863,"ĠÐ¿Ð¾Ð´Ð¸Ð²Ð¸Ð»Ð°ÑģÑı":7864,"ĠÐºÐ¾ÑĢÐ¸ÑģÑĤÑĮ":7865,"ĠÑģÑĤÑĢÑĥÑģ":7866,"ĠÐ¼Ð°Ð»ÐµÐ½ÑĮÐºÑĸ":7867,"ĠÐ¯Ð²Ð´Ð¾Ñħ":7868,"ĠÐ¿ÐµÑĢÐµÐ¿Ð¾":7869,"ĠÐ²ÑĸÐ´Ð¿Ð¾":7870,"ĠÐ·Ð¾ÑģÑĤÐ°Ð²":7871,"ĠÐ³ÑĥÑĢÑĤÑĥ":7872,"ĠÐ¼ÐµÐ½ÑĪ":7873,"ĠÐºÐ¾ÑģÐ¸":7874,"ĠÑĤÑĥÐ¼Ð°Ð½Ñĸ":7875,"ĠÑģÑħÐ¾Ð¿Ð¸Ð²ÑģÑı":7876,"ĠÐ·Ð²ÑĸÑĢÐ°":7877,"ĠÐ·Ð¾Ð»Ð¾ÑĤÐ¸Ñħ":7878,"ÐºÑĥÐ¿Ñĸ":7879,"ĠÐ¿ÐµÑĢÐµÐ±ÑĸÐ³":7880,"ĠÐĶÐ°Ð²Ð¸Ð´":7881,"ĠÐĵÐ»Ð¸Ð½ÑģÑĮÐº":7882,"ĠÐŁÐ°Ð²Ð»Ñİ":7883,"ĠÑĶÐ²Ð½ÑĥÑħ":7884,"ĠÐ¶Ð°Ð»ÑĸÐ±Ð½Ð¾":7885,"ĠÐ¾Ð·Ð¸ÑĢÐ½ÑĥÐ²ÑģÑı":7886,"ĠÑĪÐ°Ð»ÐµÐ½Ð¾":7887,"ĠÐľÐ¾Ð¶Ð½Ð°":7888,"ĠÐ¿Ð¾ÐºÑĸÑĢÐ½Ð¾":7889,"ĠÐŀÐ»ÐµÐºÑģÐ°Ð½Ð´ÑĢÐ°":7890,"ĠÐ´Ð¸Ð²ÑĸÐ·ÑĸÑĹ":7891,"ĠÐºÑĥÑĩÐµÑĢ":7892,"ĠÐ·Ð»ÐµÐ³ÐºÐ°":7893,"Ð¬":7894,"Ġ4":7895,"Ð¸ÑĨÑĸ":7896,"Ð½Ð¾Ð²Ñĸ":7897,"ÑĥÑİÑĩÐ¸ÑģÑĮ":7898,"Ð²Ð¸Ð¼Ð¸":7899,"ÑıÐºÐ¸":7900,"ĠÐ¿ÑĥÑĤ":7901,"ĠÑģÑİ":7902,"ĠÑģÐ¾Ð²Ñĸ":7903,"ĠÑģÑĸÑģÑĤÐ¸":7904,"ĠÐ·Ð»Ñı":7905,"ĠÐ·ÑĢÑĸ":7906,"ÑĩÑĩÑı":7907,"ÑİÑİÑĤÑĮ":7908,"ĠÐ±Ð¾ÐºÐ¾Ð¼":7909,"ĠÐ¼Ð¾ÑģÑĤ":7910,"ĠÑĸÐº":7911,"ĠÐ½Ð°ÑĤÐ¾Ð¼":7912,"ĠÑĢÐ¾Ð¼":7913,"ĠÐ¾ÑģÑı":7914,"ÑĹÐ¶Ð´Ð¶":7915,"ĠÐ³Ð¸Ð´":7916,"ĠÑĥÐ¼Ñĸ":7917,"ĠÑĥÑĢÐ¸Ð²":7918,"ĠÑĥÐ²ÐµÑĩÐµÑĢÑĸ":7919,"ĠÑĩÑĤÐ¾":7920,"ĠÐ»ÐµÐ¼ÐµÐ½ÑĤ":7921,"ĠÑģÑĤÑĢÐ°Ð²":7922,"ĠÑģÑĤÐ°Ð½Ñĸ":7923,"Ð»ÑıÐ¹":7924,"ĠÑĨÐ¸Ð²":7925,"Ð°Ð»Ð°Ñħ":7926,"ĠÐŁÐ¾Ð´Ð¸Ð²":7927,"ĠÑĢÐ¾Ð·ÐºÐ¾Ð»":7928,"ĠÐĿÑĸÐ¼":7929,"ĠÐľÑĥÑĢ":7930,"ĠÐ¿ÐµÑĢÐµÐºÐ°Ð·":7931,"ĠÐ¾Ð±ÑģÑĤÑĥÐ¿":7932,"ĠÐĹÐ¾ÑģÑĮ":7933,"ĠÐļÐ¾Ð·":7934,"ĠÐĳÐ°Ð¹":7935,"ĠÐĵÐ°Ð»Ð¸":7936,"ĠÐ·Ð²Ñĸ":7937,"Ð¾Ð²Ð¸ÑĩÑĥ":7938,"ĠÐ³Ð¾ÑĢÐ¾Ð´Ñĸ":7939,"Ð¢Ð¸Ð¼":7940,"Ð¢Ðĺ":7941,"ĠÐºÐ¾ÑĢÐ¿Ñĥ":7942,"ĠÐ¿Ð¾Ð¿Ð¾Ð²":7943,"Ð»ÐµÐ½Ð¾Ñİ":7944,"ĠÐ·Ð±Ð»ÑĸÐ´":7945,"ĠÐºÐ¸ÑĪ":7946,"ĠÐ·Ð°ÑĢÑĸÐ·":7947,"ĠÑĢÐ°Ð´Ð¸Ð¹":7948,"ĠÐµÑĤ":7949,"ĠÐºÐ°ÑĢÐ°Ð²":7950,"ĠÐ²ÑĸÐ´ÑĩÑĥÐ²Ð°Ð»Ð°":7951,"ĠÐ½Ð¸Ð¶":7952,"Ð°Ð½Ð´Ð°ÑĢ":7953,"ĠÐĦÐ³Ð¸":7954,"ÑīÐ¸Ð½Ð°":7955,"ĠÐºÐ¾Ð·Ð°Ðº":7956,"ĠÑĥÐ´Ð°ÑĢ":7957,"ĠÑĪÑĥÐºÐ°ÑĶ":7958,"ĠÐºÐ½Ð¸Ð³":7959,"ĠÑĩÑĥÐ¶Ð¸Ð¹":7960,"ĠÐ°ÑĢÑĤÐ¸":7961,"ĠÐ³Ð¾ÑģÑĤÑĢÑĸ":7962,"ĠÐ´Ð¾Ð¼ÑĸÐ²":7963,"ĠÑĢÑĸÐ²Ð½Ñĸ":7964,"ÑĢÑĸÐ¼Ð°Ñħ":7965,"ĠÑģÐ»ÑĥÐ¶Ð¸ÑĤÐ¸":7966,"ĠÐ²ÑĤÐ¾Ð¿":7967,"ĠÑģÐ¿Ð¾Ð´ÑĸÐ²Ð°ÑİÑĩÐ¸ÑģÑĮ":7968,"ĠÑĦÐ¾ÑĢÐ¼":7969,"ĠÑĦÐ¾ÑĢÐ¼Ñĥ":7970,"ĠÑĢÐ¾Ð·ÐºÑĢÐ¸Ð²":7971,"ĠÐ¿Ð¾ÑĢÑıÐ´ÐºÑĥ":7972,"ĠÐ£ÐºÑĢÐ°ÑĹÐ½Ñĥ":7973,"ĠÐ¿ÑĢÐ¾ÐºÐ»ÑıÑĤÑĤÑı":7974,"ĠÑĸÑģÑĤÐ¾ÑĢÑĸÑİ":7975,"ĠÐ´ÑĢÑĥÐ·ÑĸÐ²":7976,"ĠÐ²Ð¸Ð³ÑĥÐºÐ½ÑĥÐ²":7977,"ĠÑĩÐµÑĤÐ²ÐµÑĢÑĤ":7978,"ĠÐ´Ð¾Ð½ÑĮÐºÐ°":7979,"ĠÐĵÑĥÐ»ÑĮÑĦÐµÐ¼":7980,"ĠÐ½ÐµÑģÑĤÑĢÐ¸Ð¼":7981,"ĠÑĤÑĢÐ°Ð³ÐµÐ´Ñĸ":7982,"ĠÐ¿ÑĢÐ¾ÐºÐ¸Ð½ÑĥÐ²ÑģÑı":7983,"ĠÑģÐ²Ð¾Ð±Ð¾Ð´Ð¸":7984,"ĠÐ¿ÑĢÐ¾Ð½Ð¸Ð·":7985,"ĠÑĸÐ½ÑĤÐµÑĢÐµ":7986,"ĠÐ±Ð¾Ð»ÑıÑĩÐµ":7987,"ĠHyp":7988,"!?":7989,"Ð¸Ð»Ð¾ÑģÑĮ":7990,"Ð²Ð°ÑĢÐ¸":7991,"ĠÐ²Ð¾ÑģÑĤÐ°Ð½Ð½ÑĶ":7992,"Ð´Ð°Ðº":7993,"ĠÑģÑĸÐ»":7994,"ĠÑģÐ¾ÑĨÑĸ":7995,"ÑİÐºÐ¸":7996,"ĠÐ¼Ð°Ð»Ñı":7997,"ĠÐºÐ°ÑĢÐ¸":7998,"ĠÐºÐ»Ð°Ð½":7999,"Ð°Ð½ÑĨÑĸÐ²":8000,"ĠÑĢÐµÐ·":8001,"ĠÐ¾ÑĤÐ¸Ñħ":8002,"ĠÐ³Ð°Ð»Ñı":8003,"ĠÑıÐ¹":8004,"ÑĶÑĤ":8005,"ÑĩÐ¸Ð½ÐµÐ½Ñĸ":8006,"Ð°ÑĢÐ°ÑĤ":8007,"ĠÐ´Ð¾ÑĩÐºÐ¾":8008,"Ð°Ð»Ð¸ÑĤÐ¸":8009,"ÑīÐ¸ÑĤÑĮ":8010,"ĠÑĢÐ¾Ð·ÐºÐ¸Ð´":8011,"ĠÐ¿ÑĸÐ´Ð·ÐµÐ¼":8012,"ĠÐ²ÐµÑģÑĤÐ¸":8013,"ĠÐĹÐ±":8014,"ĠÐĵÐµ":8015,"ĠÐĵÐ°Ð·Ñĸ":8016,"ĠÐ¿Ð¾Ð²ÑĸÐ»ÑĮ":8017,"ĠÐ·Ð½Ð°Ð´":8018,"ĠÐ§ÑĥÑĶÑĪ":8019,"ĠÐ²ÑģÐµÑģÐ²ÑĸÑĤ":8020,"ĠÐ½Ð°Ð´Ð²ÐµÑĩÑĸÑĢ":8021,"ĠÐ¼ÐµÑĤÐ¸":8022,"ÑĤÑĥÑĢÐ¸":8023,"ĠÐ¿Ð¾Ð´Ð¸Ñħ":8024,"ĠÐ¿Ð¾Ð´Ð¾ÑĢÐ¾Ð¶":8025,"ĠÐ³Ð¾ÑĢÐ¾Ð±":8026,"ĠÐ³Ð¾ÑĢÑĸÑħ":8027,"ÑĥÐ²Ð°ÑĤÐ¸Ð¼Ðµ":8028,"ĠÑĸÐ½ÑĪÐ¾ÑĹ":8029,"Ð¢Ð¾Ð¹":8030,"ĠÑĦÑĸÐ³":8031,"\",âĢĶ":8032,"ĠÐ²Ð¸ÑģÐ»ÑĥÑħ":8033,"ĠÐ·Ð°ÑģÐº":8034,"ĠÐ´Ð°Ð²Ð°Ð»Ð°":8035,"Ð°ÑĩÑĸÐ²":8036,"ĠÐ¿Ð°ÑĢÑĥÑģ":8037,"ĠÑħÐ»Ð¾Ð¿ÑĩÐ¸":8038,"ÐµÐ²Ð½Ð¾":8039,"ĠÑģÑĤÐµÐ³":8040,"ĠÑģÐ¼ÐµÑĢÑĤÐ¸":8041,"ĠÐºÐ¾Ð¼ÑĸÑĢ":8042,"ĠÑģÑĤÑĢÐ°ÑĪÐ½Ñĸ":8043,"ĠÑĢÐ¾Ð·ÑĥÐ¼Ñĸ":8044,"ĠÑģÐ»ÑĥÑħÐ°ÑĶ":8045,"ĠÑģÐ¿ÑĸÐ²Ð°ÑĤÐ¸":8046,"ĠÑĩÐµÑĢÐ²Ð¾Ð½Ð¸Ð¼Ð¸":8047,"ĠÐ·Ð»Ð¾Ð¼":8048,"ĠÐ»ÑĸÑģÐ¸":8049,"ĠÑĤÐ¾Ð²Ð°ÑĢÐ¸ÑĪÑĸ":8050,"ĠÐ¿ÑĢÐ¾Ð¿Ð°Ð²":8051,"ĠÑĢÑĸÑĩÐºÑĥ":8052,"Ð»ÑıÐ½ÐºÐ¸":8053,"ĠÐ³Ð¾Ð´Ð¸Ð½Ð°":8054,"ĠÐĳÐ°ÑĩÐ¸Ð²":8055,"ĠÑĥÐ·ÑıÑĤÐ¸":8056,"ĠÑĸÑģÑĤÐ¾ÑĢÐ¸":8057,"ĠÐ¿Ð¾ÑĩÑĥÐ²ÑģÑı":8058,"ĠÐ¶Ð¾Ð´Ð½Ð¸Ñħ":8059,"ĠÐ²Ð°ÑĪÐ¸Ñħ":8060,"ĠÐ²ÑĸÐ´Ð¿ÑĢÐ°Ð²":8061,"ĠÐºÐ¾Ð¿ÑĸÐ¹":8062,"ĠÐ¶Ð¾Ð²ÑĤÑĸ":8063,"ĠÐ³ÑĢÑĥÐ´ÑĮÐ¼Ð¸":8064,"ĠÐĩÑħ":8065,"ĠÑģÑĸÑĢÐ¸Ð¹":8066,"ĠÐ¼Ð°ÑĪÐ¸Ð½Ð°":8067,"ĠÐ¿Ð°ÑħÐ»Ð¾":8068,"ĠÑĢÐ¾ÑģÑĸÐ¹":8069,"ĠÐ±ÑĸÐ»Ð¸Ð¼":8070,"ĠÐ¿Ð»Ð°ÐºÐ°Ð²":8071,"Ð½ÑĸÑģÑĸÐ½ÑĮ":8072,"ĠÐ¿ÑĢÐ¾ÑħÐ¾Ð»Ð¾Ð´":8073,"ĠÐ±ÐµÐ·Ð¼ÐµÐ¶Ð½Ð¾":8074,"ĠÑģÐ½ÑĸÐ³Ð¾Ð¼":8075,"ĠÑĤÐµÐ¼ÑĢÑıÐ²Ñĥ":8076,"ĠÑĤÐ°ÑĤÐ°ÑĢÐ¸":8077,"ÐµÐ½ÑıÑĤÐ°":8078,"ĠÐ½ÐµÐ¼Ð¸Ð»Ð¾ÑģÐµÑĢÐ´":8079,"ĠÐ½ÐµÐ½Ð°Ð²Ð¸ÑģÑĤÑĮ":8080,"ĠÐ·Ð¼Ð°Ð³Ð°Ð½Ð½Ñı":8081,"ĠÐ·Ð²ÑĥÐºÐ¸":8082,"ĠÐ¿ÐµÑĢÐµÑħÑĢÐµÑģÑĤÐ¸":8083,"ĠÐ½Ð°ÑħÐ°Ð±":8084,"ÐµÑĢÐµÐ³ÑĤÐ¸":8085,"ĠÑģÑĥÐ¿ÑĢÐ¾Ð²Ð¾Ð´Ð¶":8086,"ĠÐ¡ÐºÐ°Ð·Ð°Ð½Ð¾":8087,"ĠÐ¿ÑĢÐ¸ÑĢÐ¾Ð´Ð¸":8088,"ĠÐĶÐ¶ÑĥÑĢÐ°":8089,"ĠÑĢÐ¾ÑģÑĤÐµ":8090,"ĠÐ·Ð°ÑĥÐ²Ð°Ð¶Ð¸Ð²":8091,"ĠÐ§ÑĥÐ¼Ð°Ðº":8092,"ĠÐºÐ°ÑĤÐ¾ÑĢÐ¶":8093,"ÑĢÐµÐ²Ð¾Ð»ÑİÑĨÑĸÐ¹":8094,"ĠÑĸÐ½Ð¶ÐµÐ½ÐµÑĢ":8095,"ĠÐľÑĸÑħÑĢÑĸÐ¼Ð°Ñħ":8096,"ĠÐ°Ð±ÑģÐ¾Ð»Ñİ":8097,"Ð²Ð°Ð»Ð°ÑģÑĮ":8098,"ÑıÑİÑĩÐ¸":8099,"ĠÐ²Ð»Ð¾Ð²":8100,"ĠÐ²Ð¼Ð¸ÑĤÑĮ":8101,"ĠÑģÐ½Ð¾Ð¼":8102,"ĠÐ·Ð¾ÑĢÐ¾Ð¼":8103,"ĠÑĤÐ°ÑĤÑĥ":8104,"ĠÐ´ÐµÐ¼":8105,"ĠÐ´ÑĸÐ»Ð¸":8106,"ÑĪÐ°Ð»Ð¾":8107,"ÑĪÐ»Ð¸ÑģÑı":8108,"ÑĤÐ¸Ð»ÑĸÑĤ":8109,"ĠÐ±ÐµÐ½":8110,"Ð¿Ð¾ÑĢ":8111,"ĠÑĸÑģÑĤÐ¸":8112,"Ð»Ð¸ÑĤÑĮ":8113,"ĠÑĢÐ°":8114,"ĠÑĢÑĸÑĪ":8115,"Ð½Ð¸Ð»Ð°":8116,"ĠÑĥÐ¼Ð¸ÑĢ":8117,"ÐµÐ½Ð°Ð²Ð¸":8118,"ÐºÐ°ÑĤÐ¸ÑģÑı":8119,"ĠÐ²Ð¸ÑħÐ¾Ð´Ð¸Ð»Ð¾":8120,"ĠÑıÐºÐ½Ð°Ð¹":8121,"ĠÐ±ÑĥÐ»ÑĮ":8122,"ĠÑĹÐ²":8123,"Ð»ÐµÐ´":8124,"ĠÐĴÑĸÑĢ":8125,"ĠÐ²ÑĸÐ´ÑĸÑĢ":8126,"ĠÐ¿ÑĢÐ¸ÐºÐ°Ð·":8127,"ĠÐ¿ÑĢÐ¸Ð½Ð°Ð¹Ð¼Ð½Ñĸ":8128,"ĠÐ¢ÐµÐ¼":8129,"Ð¾Ð¿ÐµÑĢÐµÐº":8130,"Ð°ÑİÑģÑĮ":8131,"ĠÐ¾Ð±Ð¾Ð¼Ð°":8132,"ÑĩÐµÐ½Ð¸Ð¼":8133,"ĠÐĹÐ°Ð¼Ð±Ñĥ":8134,"ĠÐĹÐ°Ð»Ð¸Ð²":8135,"ĠÐ¥Ð¾ÑĤÑĸÐ²":8136,"Ð»ÑĥÐ³Ð¸":8137,"ĠÐ¿Ð¾Ð²ÑĸÐ´":8138,"Ð±ÐµÐ»ÑĮ":8139,"ĠÐ´ÐµÐº":8140,"ÑĤÐ°Ð½Ñĸ":8141,"ÑģÐ¸ÑĪ":8142,"ĠÐ´Ð¸Ð²Ð½Ðµ":8143,"ĠÐ´Ð¸Ð²Ð¸Ð»Ð¸ÑģÑĮ":8144,"ÑĢÐ¸Ð²ÑĸÑĤ":8145,"ĠÐ³Ð¾ÑĢÐ°":8146,"ĠÐĽÐµÐ¹":8147,"ĠÑĸÐ½ÑĪÐ¸Ð¼Ð¸":8148,"ÑĢÑıÐ¿":8149,"ĠÑģÑĥÐ»ÑĤÐ°Ð½ÑĪÐµÑİ":8150,"ÐºÑĸÑģÑĤÑİ":8151,"ĠÐ·Ð°Ð±ÑĢÐ°Ð²":8152,"ĠÐ²Ð¸ÑģÐ½Ð¾Ð²":8153,"ĠÐºÑĢÐ¸Ð½Ð¸ÑĨÑĸ":8154,"ĠÑĶÐ´":8155,"ĠÐ¿Ð¾Ð¿ÑĢÐ°Ð²":8156,"ĠÐ¢Ð°ÐºÐµ":8157,"ÐĨÐĽ":8158,"ĠÐ·Ð±ÐµÐ½ÑĤÐµ":8159,"ĠÑģÑĤÐ°Ð²Ð°Ð»Ð¸":8160,"ĠÐºÐ¾Ð¶ÑĥÑĪ":8161,"ÐļÐ¸":8162,"ĠÑĢÐ¾Ð·Ð¿ÑĢÐ°Ð²":8163,"ĠÐ²ÑĸÑīÐ¾":8164,"ĠÑĥÑģÐ»ÑĸÐ´":8165,"ĠÑĥÑģÐ²ÑĸÐ´Ð¾Ð¼":8166,"ÑĩÐ¸Ð½Ð¾Ðº":8167,"ĠÐ´Ð°Ð»ÐµÐ±Ñĸ":8168,"ĠÐŁÑĢÐ¾ÑĦÐµÑģ":8169,"ĠÐ¾Ð·Ð±ÑĢÐ¾ÑĶ":8170,"ĠÐ½Ð¾Ð²Ð¾ÑĹ":8171,"ĠÐ²ÐµÑģÐµÐ»Ð°":8172,"ĠÑĢÐ¸Ð±Ð¸":8173,"ĠÐ¾Ð³Ð¾Ð½ÑĮ":8174,"ĠÑĩÐ¸Ð¼Ð°Ð»Ð¾":8175,"ĠÐ³ÑĢÑĸÐ¼":8176,"ĠÑĪÐºÐ¾Ð´":8177,"ĠÐ¿ÑĢÐ¸ÐºÑĢÐ¾":8178,"ĠÐ¿Ð¾Ð´Ð¸Ð²Ð¸ÑĤÐ¸ÑģÑı":8179,"ĠÐ¿ÑĢÐ¾Ð±Ð¸Ð²":8180,"ĠÐ¿ÑĢÐ¾Ð¹ÑĪÐ»Ð¸":8181,"ĠÐ°ÑĢÐºÑĥ":8182,"ĠÐ±ÑĥÑĢÐºÐ½ÑĥÐ²":8183,"ĠÐ±ÑĢÐ¸Ð³":8184,"ĠÐ¿ÑĢÐ¸Ð±ÑĥÐ²":8185,"ĠÑģÐ»ÑĥÐ¶Ð±Ñĥ":8186,"ĠÐ´Ð¾ÑģÐ²ÑĸÐ´":8187,"ĠÐ¿ÐµÑĢÐµÐ¹Ð¼":8188,"ĠÐ½Ð°Ð²Ð¿ÑĢÐ¾ÑĤÐ¸":8189,"ĠÐºÐ°Ð¶ÑĥÑĩÐ¸":8190,"ĠÐĵÐ»Ð¸Ð½ÑģÑĮÐºÑĥ":8191,"ĠÑĩÐµÐºÐ°Ð»Ð°":8192,"ĠÐ»ÑĸÐ¶ÐºÐ¾":8193,"III":8194,"ĠÐ¾ÑĢÐ³Ð°Ð½ÑĸÐ·":8195,"ĠÐĲÐ·Ð·ÐµÐ¼":8196,"ĠÐľÐ¾Ð¶Ð»Ð¸Ð²Ð¾":8197,"ĠÑĸÑĢÐ¶Ð°Ð²":8198,"ĠÐ²Ð¸ÑĢÐ°Ð·Ð½Ð¾":8199,"ĠÐĵÐ°ÑĢÐ°Ð·Ð´":8200,"ĠÐĳÐ¾Ð½ÑĸÑĦÐ°ÑĨÑĸÑı":8201,"ĠÐ¡Ð¾Ð»Ð¾Ð¼Ð¾Ð½":8202,"ĠÐ¶Ð°Ð´ÑĸÐ±Ð½Ð¾":8203,"ĠÑĪÑĤÐ¾Ð²Ñħ":8204,"ĠÐ¼Ð°ÑĤÐµÑĢÐ¸Ð½":8205,"ĠÐ±Ð»Ð¾ÑīÐ¸":8206,"ĠÐ¿ÐµÐºÐµÐ»ÑĮ":8207,"!\",":8208,"Ð¾ÑģÑĮÐºÐ°":8209,"ÐµÐ½Ð¸Ñħ":8210,"ÑĤÐ¾Ð·Ð½Ð°":8211,"Ð½Ð¾ÑĢ":8212,"Ð²Ð°Ð»Ð¸ÑģÑı":8213,"ĠÐ²ÐºÐ¸":8214,"ÑĪÐºÐ¾Ñİ":8215,"ĠÐºÐ°Ð»Ð°":8216,"ĠÐºÑĸÐ·":8217,"ĠÐºÐ¾ÑģÑĤÑĸ":8218,"Ð¾Ð»Ð¾Ð½":8219,"Ð°Ð½Ð¾Ð¼Ñĥ":8220,"Ð½Ð¸Ð½Ð¸":8221,"ĠÑīÐ¸ÑĤ":8222,"ĠÐ³Ñı":8223,"ĠÑĥÑħÐ¾Ð¿":8224,"ÐµÐ½ÐºÐ°":8225,"ĠÐ»ÑĸÐ½Ð¸":8226,"ĠÐ»ÑĮÐ¾Ñħ":8227,"Ð¾Ð·ÐµÐ¼":8228,"ĠÐ´Ð¾ÑĩÐµ":8229,"ÐºÑĥÑĤ":8230,"Ð¸Ð¼Ð¾Ð²":8231,"ĠÐ¿ÑĢÐ¸Ð¼Ð¾Ð²":8232,"ĠÐ¿ÑĢÐ¸ÐºÑĢÐ¸":8233,"ĠÐŁÑĢÐ¾Ñģ":8234,"ĠÑģÐ¿Ð¾ÐºÑĥ":8235,"Ð¶ÐµÑİ":8236,"ĠÑĪÑĸÑģÑĤ":8237,"Ð²Ð¸ÑīÐ°":8238,"ĠÐ¥Ð°ÑĤ":8239,"ĠÐ¥Ð¾Ð¼Ð°":8240,"ĠÐ¥ÑİÑģ":8241,"ĠÑĨÐµÐ³":8242,"ĠÐ³Ð¾Ð»ÑĥÐ±Ð¸":8243,"ÑģÑĤÐ¸ÑĤÐ¸":8244,"ĠÑĹÑħÐ°Ð²":8245,"Ð¿ÐµÑĢÐµÑĢÐ²":8246,"ĠÑĩÐ¸ÑģÑĤÐ¾":8247,"ÐµÐ½ÑĮÐºÐ¾Ð³Ð¾":8248,"ĠÐ´Ð²Ð¾ÑĢ":8249,"ĠÐ¼Ð¸ÑģÐºÑĥ":8250,"ĠÐ»ÐµÑĤÑĸÐ²":8251,"ĠÐ³Ð¾ÑĢÐ±Ð¸":8252,"ÑģÑĤÑıÐ¼Ð¸":8253,"ĠÑģÑĥÐ»ÑĤÐ°Ð½ÑĸÐ²":8254,"ĠÐ´Ð¾Ð±ÑĢÐ¸Ñħ":8255,"ĠÑĦÐ°ÑĢÐ±":8256,"ĠÐ¾ÑĤÑĢÐ¸Ð¼":8257,"Ð¾ÑĢÑĥÑħ":8258,"ĠÑĢÐ¾Ð±Ð¸Ð»Ð°":8259,"ĠÐºÑĢÐ¸ÑĩÐ°ÑĤÐ¸":8260,"ĠÑĩÐ¾ÑĢÐ½Ð¾ÑĹ":8261,"ĠÐ²ÑĥÑģ":8262,"ĠÐ¿Ð¾Ð¿Ðµ":8263,"ĠÐ´ÑĢÑĥÐ³Ð¸Ñħ":8264,"ĠÑĤÐ²Ð°ÑĢÐ¸Ð½":8265,"ĠÐ³Ð°ÑĢÐ½Ð¸Ð¹":8266,"ĠÐ·Ð±Ð¾Ð¶ÐµÐ²Ð¾Ð»":8267,"ĠÐ·Ð°Ð¼ÐµÑĢÐ·":8268,"ĠÐ¡ÑĤÐ°Ð²":8269,"ĠÐ²Ð´Ð¾Ð²Ð¾Ð»":8270,"ĠÑģÑĤÐµÐ»Ñĸ":8271,"ĠÑĨÑĸÐ»ÐºÐ¾Ð²":8272,"ĠÐ§ÑĸÐ¿ÑĨÑĸ":8273,"ĠÐ²Ð°Ð¶ÐºÑĸ":8274,"ÑĤÑĢÑĸÐ²":8275,"ĠÐ²Ð¸ÑģÐ¾ÐºÐµ":8276,"ĠÑģÐ»ÑĥÑħÐ½Ñı":8277,"ĠÐ·Ð°Ð¹Ð½Ñı":8278,"ĠÑĤÑĢÐ¸Ð¼Ð°ÑĤÐ¸":8279,"ĠÐ²ÑĥÐ»Ð¸ÑĨÑı":8280,"ĠÑģÐ¸Ð½ÐºÑĥ":8281,"ĠÑĤÐ¾Ð½ÐºÐ¾":8282,"ÑıÐ²Ð¸Ð»Ð°ÑģÑı":8283,"ĠÐ½Ð¾ÑģÐ¸Ð²":8284,"ĠÐ²Ð°ÑĪÐ¾ÑĹ":8285,"ĠÐ¿Ð¾ÑĢÐ¾Ð¶Ð½Ðµ":8286,"ĠÑģÑĥÐ¿ÑĢÐ¾ÑĤÐ¸":8287,"ĠÐ¿Ð¾ÑģÐ¼ÑĸÑħÐ°Ð²ÑģÑı":8288,"ĠÐ²ÑĢÐ°Ð¶ÑĸÐ½Ð½Ñı":8289,"ÐķÐł":8290,"ĠÑģÑĤÑĸÐ»ÐµÑĨÑĮ":8291,"ÑĶÐ´Ð½":8292,"ĠÐ¿Ð¾ÑĤÑĢÐ°Ð¿Ð¸Ð²":8293,"ĠÐ¿ÑĤÐ°ÑĪÐºÐ°":8294,"ĠÑģÐ¿ÑĢÐ¾Ð±ÑĥÐ²Ð°Ð²":8295,"ĠÐ»ÑĸÑĤÐµÑĢÐ°ÑĤÑĥÑĢ":8296,"ĠÐ½Ð¾Ð¶ÐµÐ¼":8297,"ĠÑĩÐµÑĢÐ³Ð¾Ð²Ð¸Ð¹":8298,"ĠÐĴÑĸÑĢÑĥÐ½ÑĮÐºÐ°":8299,"ĠÑģÐ°Ð»Ð´Ð°ÑĤ":8300,"ĠÐ¿ÑĢÐ°Ð¿Ð¾ÑĢ":8301,"ĠÐ¢ÐµÑģÐ»Ñı":8302,"ĠÐ½Ð¾ÑĢÐ¼":8303,"ĠÐ·Ð´Ð°Ð»ÐµÐºÑĥ":8304,"ĠÐ½ÐµÐ¾Ð´Ð¼ÑĸÐ½Ð½Ð¾":8305,"ĠÐ¤Ð°ÑĤÑĸÑħÐ°":8306,"ĠÐ³Ð°Ð»Ð°Ñģ":8307,"ĠÐ¿Ð¾Ð²ÑĤÐ¾ÑĢÐ¸Ð²":8308,"ÑĢÐ¾ÑĹ":8309,"ÑģÐµÑĢ":8310,"Ð»Ð°Ð±":8311,"Ð²Ð¾Ð»ÑĮ":8312,"ÐºÐ»Ð¾":8313,"ĠÐ½Ð°Ð»Ðµ":8314,"Ð´ÑıÐ¼":8315,"ĠÑģÑĮ":8316,"ĠÐ·Ð»Ð¸Ð²":8317,"ÑĩÐ°Ð½Ð½Ñı":8318,"ĠÐ´Ð½Ð¾":8319,"ÑİÑĶÑĤÑĮÑģÑı":8320,"ĠÐ±Ñİ":8321,"Ð¿ÑĢÐµ":8322,"ĠÐºÐ¸Ñģ":8323,"ĠÑĸÑĪÐ»Ð°":8324,"ĠÑĸÐ´ÑĥÑĤÑĮ":8325,"ĠÐ½ÐµÐ¿Ð¾Ð²":8326,"Ð»Ð¸Ð»Ð¸":8327,"Ð»Ð¸ÐºÐ°":8328,"Ð·Ð¼Ñĥ":8329,"Ð·Ð´Ð°":8330,"ĠÑĢÐ°Ñİ":8331,"Ð¾ÑĢÐ¾Ñĩ":8332,"ĠÐ¾ÐºÐµ":8333,"ĠÑĩÑĥÑĤÑĤÑı":8334,"Ð¸Ð²ÑģÑĮ":8335,"ĠÐ°ÑĤ":8336,"ĠÐ°Ð¿Ð°ÑĢ":8337,"ĠÐ¿Ð¾ÑĪÐº":8338,"ĠÐ¿Ð¾ÑģÑĤÐ¾ÑıÐ²":8339,"ĠÐ²Ð¸ÑĢÐ¾ÑģÑĤ":8340,"ĠÐ²Ð¸ÑħÐ¾Ð´Ð¸Ð»Ð¸":8341,"Ð½Ð°Ñİ":8342,"ÐºÑĥÑĢ":8343,"ĠÐ±ÑĥÐ½ÑĤ":8344,"Ð½ÑıÐ¼":8345,"ĠÑĹÐ»Ð¸":8346,"ĠÐ¢ÑĢÐ¸":8347,"ĠÐľÐ¾Ñı":8348,"ĠÐľÑĥÑħ":8349,"Ð¾ÑĩÐºÐ¾Ð¼":8350,"ĠÐ¾Ð´Ð¼Ð¾Ð²":8351,"ĠÐĹÐ³Ð°Ð´":8352,"ÑĢÐ°ÑīÐµ":8353,"ÑĨÑĮÐºÑĥ":8354,"ĠÐŀÐ²":8355,"Ð±ÐµÐ¹":8356,"ÑģÑĤÐ¸ÑĢ":8357,"ĠÐ¿Ð¾ÐºÐ¾Ð»":8358,"ĠÐ¼ÐµÑĪÐº":8359,"ĠÐłÐ¾Ð±":8360,"ĠÐ¿Ð¾ÑĩÐ½Ðµ":8361,"ĠÐ±Ð¾ÑĨÑĸ":8362,"ĠÐĽÑĸÑģ":8363,"ĠÐºÑĢÐµÐ¼":8364,"ÑĢÑıÐ¼Ð¸":8365,"ĠÐ·Ð°ÐºÑĢÑĥÑĤÐ¸":8366,"ĠÑĦÐ°Ð»ÑĮ":8367,"ĠÑĦÑĸÐ·Ð¸":8368,"ĠÐ·Ð°Ð±Ð»Ñĥ":8369,"ĠÐ±ÑĸÐ»ÑĸÐ¹":8370,"ĠÑģÑħÐ¸Ð»Ð¸":8371,"ĠÐ·Ð±Ð»Ð¸":8372,"ĠÐ»ÑİÐ´ÑıÑħ":8373,"ĠÐ¿Ð°ÑĢÐ¾Ð¿":8374,"ĠÐ½ÐµÐ²ÑĸÐ»ÑĮ":8375,"ĠÐ²ÑĸÐºÐ½Ð°Ð¼Ð¸":8376,"Ð°Ð½Ð¸Ð½Ð°":8377,"ĠÐ¼Ð°ÑĶÑĤÐµ":8378,"ĠÐ³Ð»Ð¸Ð½Ð¸":8379,"ĠÐ²Ð¸Ð¹Ð½ÑıÐ²":8380,"ĠÐ±Ð»Ð°Ð¶":8381,"ĠÐ»ÐµÐ¶Ð°Ð»Ð¾":8382,"ĠÐĲÐ½Ð´ÑĢÑĸÑĶ":8383,"ĠÐ½Ð°Ð±Ð»Ð¸Ð·":8384,"ĠÐ¿Ð»Ð°ÑĤÑĤÑı":8385,"ĠÑİÐ½Ð°":8386,"ĠÐºÐ¾ÑĤÑĢÑĥ":8387,"ĠÐ´Ð·Ð²Ðµ":8388,"ĠÑĩÐ¸Ð¼ÑģÑĮ":8389,"ĠÐ´Ð¸ÑĤÐ¸Ð½Ð¾":8390,"ĠÐ²Ð³Ð¾Ð»Ð¾Ñģ":8391,"ĠÐ´ÐµÑĢÐ¶Ð°Ð²Ð¸":8392,"ĠÑĩÑĥÐ´Ð½Ð¾":8393,"ĠÐ¶Ð°ÑĢÑĤ":8394,"ĠÐ¿ÑĸÐ·Ð½ÑĸÑĪÐµ":8395,"ĠÐ¿Ð¾ÑĢÐ¾Ð¶Ð½Ñı":8396,"ĠÐ·Ð¾ÑģÑĤÐ°Ð»Ð°ÑģÑı":8397,"ĠÑĢÑĥÑħÐ¾Ð¼":8398,"ĠÑģÐºÐ¾ÑĩÐ¸Ð²":8399,"ĠÑĥÑģÐ¼ÑĸÑħÐ½ÑĥÐ²ÑģÑı":8400,"ĠÐĴÐµÐ»Ð¸ÐºÐ¸Ð¹":8401,"ĠÐ½Ð°Ð²Ð¿ÑĢÐ¾ÑģÑĤ":8402,"ĠÐ²ÑģÑĤÐ°Ð»Ð°":8403,"Ð¾ÑģÑıÐ¶":8404,"ĠÐ³Ð»Ð¸Ð±Ð¸Ð½Ð¸":8405,"ĠÐ³Ð»Ð¸Ð±Ð¸Ð½Ñĸ":8406,"ĠÐ´ÑıÐ´ÑĮÐºÐ°":8407,"ĠÐŁÑĸÑĪÐ¾Ð²":8408,"ĠÐºÐ¾Ð¼Ð°Ð½Ð´Ð¸":8409,"ĠÐºÐ°ÑĤÐµÐ³":8410,"ĠÑĤÑĢÐ¸Ð²Ð¾Ð¶Ð½Ð¾":8411,"ĠÑĤÑĢÐ°Ð³ÑĸÑĩ":8412,"Ð¼ÑĸÑĪÐºÐ¾Ñİ":8413,"ĠÑĢÑĥÑĹÐ½Ð¸":8414,"ĠÐ³ÑĢÑĸÐ·Ð½Ð¾":8415,"ĠÐŁÐ°Ð»Ð°Ð³":8416,"ĠÐ±ÐµÐ·Ð¶ÑĥÑĢ":8417,"ĠÐ²ÐµÐ´Ð¼Ðµ":8418,"ĠÐŀÑģÐ¼Ð°Ð½ÑĸÐ²":8419,"ĠÑĦÐ°Ð½ÑĤÐ°ÑģÑĤÐ¸":8420,"Ð°Ð¹Ð²Ð¾ÑĢÐ¾Ð½":8421,"ĠÐĽÐ¾ÑĪÐ°ÐºÐ¾Ð²":8422,"ĠÐĿÐµÐ¼Ð°ÑĶ":8423,"ĠÐ¼ÐµÐ»Ð¾Ð´Ñĸ":8424,"ĠÐ·Ð´ÐµÐ±ÑĸÐ»ÑĮ":8425,"ĠÐ³Ð°Ð»ÑıÐ²Ð¸":8426,"Ð®":8427,"Ð¸ÑĢÐ°Ð²":8428,"Ð½ÑģÑĮÐºÐ¾Ð³Ð¾":8429,"ÑģÐ²Ð¾ÑĶÐ¼Ñĥ":8430,"ĠÐ¿Ð°ÑĪ":8431,"ÑĮÐºÐ°":8432,"Ð¼ÐµÐ¼Ð¾":8433,"ĠÐ·Ð½Ð¾":8434,"ĠÐ·Ð¾ÑģÐµÑĢÐµÐ´":8435,"ÑĩÐ°ÑĤ":8436,"ÑİÐ±":8437,"Ð¾Ð²ÑĸÐ´":8438,"ĠÐ±ÐµÑĢÑĥ":8439,"ĠÐ±Ð¾Ð»Ð¸ÑĤÑĮ":8440,"ĠÐ¼Ð¾ÑģÑĤÐ¸":8441,"ĠÐºÑĥÐ´":8442,"ĠÐºÐ»Ð¸Ñĩ":8443,"Ð¾Ð»Ð¾Ð´Ñĸ":8444,"Ð·Ð´Ñĸ":8445,"Ð¾Ð´Ð°Ð²":8446,"ÑĨÑĸÐ´":8447,"Ð¸Ð²Ð°ÑĶ":8448,"ĠÐ°Ð»ÑĮ":8449,"ĠÐ²Ð¸ÑĢÐ¸":8450,"ĠÑģÑĤÐ²ÐµÑĢ":8451,"ĠÑģÑĤÐ²Ð¾ÑĢÐ¸":8452,"Ð½Ð°ÑİÑĤÑĮ":8453,"ĠÑģÐ²Ñĸ":8454,"ĠÑĹÐ´Ðµ":8455,"Ð»ÐµÐ±":8456,"ĠÐĲÐ¹":8457,"ĠÐ²ÑĸÐ´ÑĤÐ°Ðº":8458,"Ð¾ÑĤÐ²Ð¾ÑĢ":8459,"ĠÐŁÐ°Ð¼":8460,"ÑīÐ¸Ð¼":8461,"ĠÑĢÐ¾Ð·ÑģÑĤÐ°Ð²":8462,"ĠÑĢÐ¾Ð·ÑĩÐ¸Ð½Ð¸":8463,"ĠÑĢÐ¾Ð·ÑĤÐ¾Ð¿":8464,"ĠÐĿÑĸÑı":8465,"ĠÐ¡ÐµÐ¼ÐµÐ½":8466,"ĠÑĪÐµÐ¹":8467,"ĠÑĤÐµÐ»ÐµÐ³":8468,"ÑĪÐµÑĪ":8469,"ĠÐ¿ÐµÑĢÐµÐ±Ð¸Ð²":8470,"ĠÑģÐºÐ»ÐµÐ¿":8471,"ÑĩÐµÑģ":8472,"ĠÐĹÐ²Ð¸ÑĩÐ°Ð¹":8473,"ĠÐļÑĢÐ°Ð²":8474,"ĠÐļÑĥÐ¿":8475,"ÑĩÑĸÑģÑĤÑĮ":8476,"ĠÐŀÑģÑĤ":8477,"ĠÐ¿Ð¾Ð²ÐµÐ´":8478,"ÑĥÑĢÑĸÐ²":8479,"ĠÐ½Ð°Ð²Ð¸Ñģ":8480,"ÑģÐ¸ÑĢ":8481,"ÑĥÐ´Ð¸Ð²":8482,"ĠÐ·Ð°Ð¿ÐµÐº":8483,"ĠÐ´Ð¸Ð²Ð»ÑıÑĤÑĮÑģÑı":8484,"ĠÐ³Ð¾ÑĢÐ´Ñĸ":8485,"ĠÑĸÐ½ÑĤÐµ":8486,"ĠÐ·Ð°ÐºÐ¸":8487,"ĠÐ¾ÑĤÐ°Ð¼Ð°Ð½":8488,"ĠÐ·Ð°Ð³ÑĥÐ±Ð¸":8489,"ĠÑģÑĤÐ°ÑĢÑĸÑģÑĤÑĮ":8490,"ĠÐ±ÑĢÐ¾Ð½":8491,"ĠÐºÑĢÐ¸ÐºÐ¾Ð¼":8492,"ĠÐ¿ÑĸÑģÑĤ":8493,"ĠÐ¿Ð°Ð½Ð½Ð¾":8494,"ĠÑĩÐ¾Ð»Ð¾Ð²ÑĸÑĩÐµ":8495,"ĠÐ½ÐµÐ·Ð½":8496,"ĠÐ¾ÑģÑĸÐ½":8497,"ĠÐ¡ÑĤÐ°ÑĢÐ°":8498,"ĠÑĤÐµÐ¼Ð½Ð°":8499,"ÑĸÑĹÐ²":8500,"ĠÑģÐ¼ÐµÑĢÑĤÐµÐ»ÑĮ":8501,"ĠÐºÐ¾Ð¼Ð±":8502,"ĠÐ¼Ð¾Ð»Ð¾Ð´Ðµ":8503,"ĠÐ²ÐµÑĩÐµÑĢÑĸ":8504,"ĠÑĤÑıÐ¶ÐºÐ¸Ð¹":8505,"ĠÑĤÑıÐ¶ÐºÑĸ":8506,"ĠÑħÐ¾Ð»Ð¾Ð´Ð½Ð°":8507,"ĠÑģÐ¿ÑĸÐ²ÑĩÑĥÑĤÑĤÑı":8508,"ĠÐĳÑĥÐ´Ðµ":8509,"Ð»ÑĸÐ´ÑĩÐ¸Ð¹":8510,"ĠÐ´ÑĥÑĢÐ½Ñĸ":8511,"ĠÐ±ÑĸÐ´Ð¾Ð»Ð°ÑĪ":8512,"ĠÑĤÑĢÐµÐ¼ÑĤ":8513,"ĠÑħÐ»ÑĸÐ±Ð¾Ð¼":8514,"ĠÑıÐºÐ¸Ð¼ÑģÑĮ":8515,"ĠÐ¿Ð¾ÑĢÐ¾Ð¶Ð½ÑĸÐ¹":8516,"ĠÐ´Ð¸ÑħÐ°ÑĤÐ¸":8517,"ĠÐ´Ð°ÑĢÐµÐ¼Ð½Ð¾":8518,"ĠÐ²Ð¸ÑħÐ¾Ð´Ñĥ":8519,"ĠÑĪÐ¼Ð°ÑĤÐºÐ¸":8520,"ĠÐ²ÑĸÐ·Ð¸ÑĢÐ¾Ð¼":8521,"Ð¡ÑĤÐ°ÑĢÐ¸Ð¹":8522,"ĠÐ¼Ð¸Ð¼Ð¾Ñħ":8523,"ÑĥÑĤÑĥÐ·":8524,"ĠÐ·Ð±Ð¸ÑĢÐ°Ð²ÑģÑı":8525,"ĠÐºÐ¾Ð»ÑĸÐ½Ð°Ñħ":8526,"ĠÑģÑĤÑĸÐ»ÑĮÑĨÑĸ":8527,"ĠÐĶÐ¼Ð¸ÑĤÑĢÐ¸Ðº":8528,"ĠÐ¼Ð¸Ð½ÑĥÐ»Ðµ":8529,"ĠÐ¢Ð¸ÑħÐ¾":8530,"ĠÐ¥Ð¾Ð´ÑĸÐ¼Ð¾":8531,"ĠÑĥÑģÐ¼ÑĸÑĪÐºÐ°":8532,"ĠÐ´ÑĸÑĶÑĤÑĮÑģÑı":8533,"ĠÐ¿Ð¾ÑĪÐµÐ¿ÐºÐ¸":8534,"ĠÐ¼Ð»ÑıÐ²Ð¾":8535,"Ð½Ñĭ":8536,"Ð²ÑĸÑģ":8537,"ĠÐ²Ñī":8538,"ĠÐ²Ð¾ÑģÑĮ":8539,"ĠÐ¿ÑĸÐ¹Ð¼":8540,"ĠÐ½Ð¾Ð³Ð°":8541,"Ð´Ð¾ÑĢÐ¾Ð²":8542,"ĠÑģÐ°Ð½Ð¸":8543,"ĠÑģÑĨÐµÐ½":8544,"ĠÐ´Ð°Ð½Ð¾":8545,"ĠÐ¼Ð°Ð·":8546,"ĠÐ¼Ð¾ÑģÐºÐ¾Ð²":8547,"ĠÐ½ÐµÑħ":8548,"Ð½Ð¸ÐºÐ°Ñħ":8549,"ĠÐ¾Ð¶Ðµ":8550,"Ð¶Ð¾Ð²":8551,"ĠÐ³Ð»Ð°Ñģ":8552,"ÐµÐ½Ð½Ð¸Ñħ":8553,"ÐµÐ½ÑĤÑĢ":8554,"ĠÑĩÑĥÐ¼":8555,"ĠÑĩÑĸÑĤÐºÐ¾":8556,"Ð°ÑĢÐ´":8557,"ĠÐ»Ð°Ðº":8558,"Ð¸Ð²Ð°ÑİÑĩÐ¸":8559,"ÑĸÐ»ÐºÐ¸":8560,"Ð»ÑıÑĤÐ¸ÑģÑı":8561,"ĠÐ·Ð°ÑĩÑĸÐ¿Ð»ÑıÐ½":8562,"ĠÐ·Ð°ÑĨÑĸÐºÐ°Ð²":8563,"Ð»ÐµÑĤÑĸÐ²":8564,"Ð¾Ð¶Ñĥ":8565,"ĠÐ¿ÑĢÐ¸ÐºÑĥ":8566,"Ð¾ÑĤÑıÑĤÑĮ":8567,"Ð¸ÑħÐ°Ð¹":8568,"ĠÑĢÐ¾Ð·ÑģÑĤÑĢÑĸÐ»":8569,"Ð°ÑħÑĩÐ¸Ñģ":8570,"Ð»ÑĸÑģ":8571,"ĠÐ²ÐµÐ´ÑĥÑĤÑĮ":8572,"ĠÐļÑĢÑĸÐ¼":8573,"ĠÐĳÑĸÐ»ÑĮÑĪÐµ":8574,"ÑĤÐµÐ»ÑĮÐ½Ð¾":8575,"Ð±ÐµÐ»Ñĸ":8576,"ĠÑĩÐ¸Ñı":8577,"Ð¾Ð±ÑĸÑĤÑĮ":8578,"ĠÐ·Ð²ÑĸÐ²":8579,"ĠÐ·Ð²ÐµÐ»Ñĸ":8580,"ĠÐ·Ð°Ð¿ÑĢÐ¾":8581,"ĠÐ²ÐµÐ»Ð¸ÐºÐ¾Ñİ":8582,"ÐŁÐµÑĢÐµÐ´":8583,"ĠÐ²ÑģÑĸÑĶÑĹ":8584,"ĠÐ´Ð¾Ð±ÑĢÑĥ":8585,"ÐĿÑĸÑĩ":8586,"ĠÐ·ÑĢÐ¾Ð´Ñĥ":8587,"ĠÑĤÑĥÑĦ":8588,"ÑīÐµÐ½Ð¸Ð¼Ð¸":8589,"ĠÐ´ÑĢÑĥÐ³ÑĸÐ¹":8590,"ĠÐ·Ð°Ð¼ÑĸÐ¶":8591,"ĠÐ¶Ð¸Ð²ÑĸÑĤ":8592,"ĠÑĩÐµÑĢÐº":8593,"Ð°ÑĩÐºÐ¸":8594,"ĠÑĤÐµÐ¼Ð½Ð¸Ð¹":8595,"ĠÐ¿Ð¸ÑĪÐ½Ð¾":8596,"Ð²Ð°Ð½Ð¸Ð¹":8597,"ĠÐ²Ð´Ð²Ð¾Ñħ":8598,"ĠÐ¿Ð¾ÑħÐ¾Ð´Ñĥ":8599,"Ð¥Ð¾Ñĩ":8600,"ĠÐ½Ð°Ð±ÑĢÐ¸Ð´":8601,"ĠÐ²ÑĸÐ¹Ð½Ð°":8602,"Ð²ÑĸÐ´Ð¾Ð¼Ð¾":8603,"ĠÐ²Ð°Ð¶ÐºÐ¸Ð¹":8604,"ĠÐ¿ÑĢÐ¾ÑģÐ¸ÑĤÐ¸":8605,"ĠÐĸÑĸÐ½ÐºÐ°":8606,"ĠÑģÐ»ÑĥÑħÐ°ÑİÑĩÐ¸":8607,"Ð°Ð½Ð´Ð¶":8608,"ĠÐ¿ÑĢÐ¾ÐºÐ»ÑĮ":8609,"ĠÑĩÐµÑĢÐ²Ð¾Ð½Ðµ":8610,"ĠÑĢÐ¸Ð±Ñĥ":8611,"ĠÐ¿ÑĢÐ¾ÑĤÐ¸Ð»ÐµÐ¶":8612,"ĠÐ±Ð°ÑĢÐ°Ð±":8613,"ĠÑĪÐ¸ÑĢÐ¾ÐºÐ¸Ð¹":8614,"ĠÐķÐ´":8615,"ĠÐ¿Ð¾Ð²ÑĸÐºÐ¸":8616,"ĠÐ¥Ð¾ÑĩÐ°":8617,"ĠÐ·Ð¾ÑģÑĤÐ°Ð²ÑģÑı":8618,"ĠÑħÐ¼Ð°ÑĢÐ°":8619,"ĠÐ·Ð°ÑħÐ¾Ð¿Ð»ÐµÐ½Ð¾":8620,"ĠÐ²Ð¸Ð·Ð¸ÑĢ":8621,"ĠÐ¼Ð¾ÑĤÐ¾ÑĢ":8622,"ĠÐ¿Ð¾Ð³Ð»ÑıÐ´Ð¸":8623,"ĠÐ²Ð¼ÑĸÑĶ":8624,"ĠÐ£ÐºÑĢÐ°ÑĹÐ½Ñĸ":8625,"ĠÐ¿Ð¾ÑĹÐ·Ð´":8626,"ĠÐĹÐ½Ð°Ñİ":8627,"ĠÑĢÑĥÐ±Ð»ÑĸÐ²":8628,"ĠÐ¼Ð¾ÑģÐºÐ°Ð»ÑĮ":8629,"ĠÑĶÐ²Ð½ÑĥÑħÐ¸":8630,"ĠÐłÑĥÑģÑĤÐµÐ¼Ð°":8631,"ĠÐ¿ÑĸÐ´Ð±Ð¾ÑĢÑĸÐ´":8632,"ĠÑĪÐ¸Ð½ÐºÑĥ":8633,"ĠÐ¡Ð¾ÐºÐ¾Ð»ÑİÐºÑĸÐ²":8634,"ĠÐ¼Ð¾Ð·Ð¾Ðº":8635,"................":8636,"ĠÐºÐ¾Ð¼Ð¿Ð°Ð½Ñĸ":8637,"ĠÐ²ÐµÑĩÐµÑĢÑİ":8638,"ĠÐ½ÐµÐ²Ð¸Ð´Ð¸Ð¼":8639,"ĠÐłÐ¸Ð±":8640,"ĠÐ¾ÑĩÐµÐ²Ð¸Ð´Ð½Ð¾":8641,"ĠÑĩÐ¾ÑĤÐ¸ÑĢÑĮÐ¾Ñħ":8642,"ĠÐºÐ»Ð°Ð¿":8643,".)":8644,"ÑĢÐ°Ð´Ð¸":8645,"ÑĤÐ°Ð»Ñĸ":8646,"ÑĥÐ»Ð¸":8647,"Ð»Ð¾Ð²Ð¸":8648,"Ð²Ð°Ð½Ñĸ":8649,"ĠÐ²Ð¾":8650,"ĠÐ²ÑĢÐµÑĪÑĤÑĸ":8651,"ĠÐ·Ð¾Ð²":8652,"ĠÑĤÑĸÑģÐ½Ð¾":8653,"ĠÐ´Ð½Ð°":8654,"ÑİÑħ":8655,"ÑİÐºÐ°":8656,"ĠÐ±Ð°Ð²":8657,"Ð¾Ð³ÑĢÐ°Ð´":8658,"ĠÐºÐ¾Ð±":8659,"ĠÐºÐ¸ÑĤÐ°Ð¹":8660,"ĠÑĢÑĸÐ¶":8661,"Ð½Ð¸ÑĨÑıÐ¼Ð¸":8662,"Ð¾ÑĢÐ¾Ð¶Ðµ":8663,"ĠÐ³Ð»Ðµ":8664,"ĠÐ³Ð½Ð°Ð²":8665,"ÑĥÐ²Ð°Ð»Ð¾ÑģÑĮ":8666,"ĠÐ²Ð¸Ð»Ð°":8667,"ĠÐ²Ð¸Ð¿ÑĥÑģÑĤÐ¸":8668,"ĠÑģÑĤÑĸÐ¹":8669,"ĠÐ¶ÐµÑĢÐµ":8670,"ĠÐ¶Ð´Ð°Ð²":8671,"ĠÐ¢Ð¾Ð³Ð¾":8672,"ĠÐŁÐ¾ÑĹ":8673,"ĠÑģÐ¿Ð¸ÑĢ":8674,"ĠÑĢÐ¾Ð·ÑĢÐ¸Ð²":8675,"ĠÑĢÐ¾Ð·ÑģÑĤÑĢ":8676,"ÑĪÐ¸Ð»Ð¸ÑģÑı":8677,"ĠÐľÐ¸ÑĢ":8678,"ĠÐľÐ¾ÑĢÐ¾Ð·":8679,"ĠÑĪÐ½Ñĥ":8680,"ĠÑĤÐµÐ°ÑĤ":8681,"ĠÐ¾Ð±ÑĢÐ°Ð¶":8682,"ĠÐ»ÑİÑĤÑĸ":8683,"ĠÐĹÐ¾Ð²ÑģÑĸÐ¼":8684,"ĠÐļÐ°ÑĦ":8685,"ĠÐĳÑĥÐ´":8686,"ĠÑĨÐµÑħ":8687,"ĠÐĵÐ°Ð»":8688,"ĠÐŀÐ¼Ð°ÑĢ":8689,"ĠÑīÐµÐ»Ðµ":8690,"ÑĸÐ·Ð´":8691,"ĠÑĹÑħÐ°Ð»Ð¸":8692,"ĠÑģÐµÐ»Ð¾Ð¼":8693,"ÑĦÑĤ":8694,"ĠÐ·Ð²ÑĸÑģÐ½Ð¾":8695,"ÑģÐ¸Ð»ÑĮ":8696,"ĠÐ¼Ð¸Ð½ÑĥÐ»Ð¾":8697,"ĠÐ´Ð¸Ð²Ð°Ð½Ñĸ":8698,"ĠÐ³Ð¾ÑĢÐ°Ñħ":8699,"ĠÐ³Ð¾ÑĢÑĸÐ»Ð°":8700,"ÑģÑĤÑıÑĤÑĮ":8701,"ĠÑĸÐ½ÑĪÐ¾Ð¼Ñĥ":8702,"ĠÐ´Ð¾Ð±ÑĢÐ¸Ð¼":8703,"ĠÐºÐ¾Ð»Ñİ":8704,"ĠÑĦÑĢÐ°Ð·":8705,"ĠÑĤÐ¸ÑħÐ¸Ð¼":8706,"ĠÑĤÑĥÐ³Ð¸":8707,"ĠÐºÑĢÐ¸ÐºÑĥ":8708,"ĠÑĩÐ¾ÑĢÐ½Ð¾Ñİ":8709,"Ð½ÑĮÑĤÐµ":8710,"ĠÐ¿Ð°Ð½Ð¾Ð²Ñĸ":8711,"ĠÐ¿Ð¾Ð·Ð±Ñĥ":8712,"ĠÑĤÐµÐ¼Ð½Ð¸Ñħ":8713,"ĠÐ½ÐµÐ²Ð¾Ð»Ñĸ":8714,"ĠÐ²Ð¾ÑĢÐ¾Ð³Ð¸":8715,"ĠÑģÐ¿Ð¸ÑĤÐ°ÑĤÐ¸":8716,"ĠÐ½Ð°Ð±ÑĸÐº":8717,"ĠÐ½ÑĸÐ¶Ð½Ð¾":8718,"Ð§Ð¾Ð³Ð¾":8719,"ĠÐĸÐ¸ÑĤÑĤÑı":8720,"ĠÐ´Ð°Ð»ÐµÐºÐ¸Ð¹":8721,"ÐµÑĢÐ¶Ð°Ð²":8722,"ĠÐŁÑĢÐ¾ÑģÑĤÐ¾":8723,"ĠÐ²ÑĸÑĢÐ°":8724,"ÑıÑģÐ°":8725,"ĠÑħÐ¾Ð»Ð¾Ð´Ñĥ":8726,"ĠÐ¿ÑĢÐ¾ÐºÐ¸Ð´":8727,"ĠÐ²Ð»Ð°ÑģÐ½Ñĸ":8728,"ĠÐ¿Ð¾ÐµÑĤÐ¸":8729,"ĠÐ¾ÑģÑĤÐ°Ð½Ð½ÑĶ":8730,"ĠÐºÐ½Ð¸Ð³Ñĥ":8731,"ĠÐļÐ¾Ð»ÑĸÑģÐ½Ð¸ÐºÐ°":8732,"Ð»ÑĸÑĤÐ°Ð»Ð¸":8733,"ĠÐ´ÑĥÑħÐ¾Ð²":8734,"ĠÐ²ÑĸÐ´Ð¿Ð¾Ð²ÑĸÐ´Ð°Ð²":8735,"Ð½Ð¸ÑĨÑıÑħ":8736,"ĠÐºÑĥÑĤÐ¾Ðº":8737,"ĠÐ¿Ð°Ð´Ð°ÑĶ":8738,"ĠÐ¡Ð°Ð¼ÑĸÐ¹":8739,"ĠÐ¿ÐµÑĢÐµÐ¼Ð¾Ð³Ð¸":8740,"ĠÐ³ÑĢÐ¾Ð¼Ð°Ð´Ð°":8741,"ĠÐ²ÑĤÑĢÐ¸Ð¼":8742,"ĠÑħÑĥÐ´Ð¾Ð±Ñĥ":8743,"ĠÐ´ÑĢÑĥÐ¶Ð¸Ð½Ð°":8744,"ĠÐ³Ð°ÑĢÐµÐ¼Ñĸ":8745,"ĠÐĿÐ°ÑĤÐ°Ð»":8746,"ĠÐ½Ð°Ð·Ð¸Ð²Ð°Ð»Ð¸":8747,"ĠÐ»Ð°Ð¼Ð¿":8748,"ĠÑħÐ²Ð¾ÑģÑĤ":8749,"ĠÑİÑĢÐ±Ð¸":8750,"ĠÐºÐ°ÑĢÑĤÐ¸Ð½Ñĥ":8751,"ĠÐłÑĥÐ±Ð°Ð½Ð°":8752,"ĠÐ½ÐµÐ²Ð¸ÑĢÐ°Ð·":8753,"ĠÐ´Ð¾ÑģÑĤÐ°ÑĤ":8754,"ĠÐļÐ°ÑĤÐµÑĢÐ¸":8755,"ĠÐ¿Ð¾ÑħÐ¾Ð´Ð¶ÐµÐ½Ð½Ñı":8756,"ĠÑĪÐºÑĸÑĢÐ¸":8757,"ĠÐ½Ð¸Ð·ÑĮÐºÐ¾":8758,"ĠÐ¿ÑĢÐ¾ÑĦÐµÑģÐ¾ÑĢ":8759,"ĠÐĶÑĸÐ²ÑĩÐ¸Ð½Ð°":8760,"ĠÐ¾ÐºÑĥÐ»Ñı":8761,"ĠÐ½Ð°Ð¹Ð´Ð¾ÑĢÐ¾Ð¶":8762,"ĠÐ½Ð°ÑģÐ¸Ð»Ñĥ":8763,"ĠÐŀÐºÑģÐ°Ð½Ð°":8764,"ĠÐ¿Ð¾ÐµÐ·ÑĸÑĹ":8765,"ĠÐ¡ÑĸÐ½Ð°Ð¼":8766,"ĠÑĥÐ½ÑĸÑĦÐ¾ÑĢ":8767,"Ð¸ÑģÑı":8768,"ÑĤÐ¾Ð±":8769,"ÑģÐ°Ð»Ð¸":8770,"ÐºÐ½Ðµ":8771,"ĠÐ²Ð¾Ð·Ñĸ":8772,"ĠÐ¿ÑĸÑĤÑĮ":8773,"ĠÐ½Ð°Ð½":8774,"ĠÐ·Ð¾Ð´ÑıÐ³":8775,"ÑĩÑĸÐ¹":8776,"ÑħÐ¾Ð»":8777,"ÑĪÑĥÐ²Ð°Ð²":8778,"Ð¿Ð¾Ð½":8779,"Ð¿Ð°Ð»Ð°":8780,"Ð¾Ð»ÑĸÑĤ":8781,"ĠÐ³ÑĥÐ¿":8782,"ĠÐ³Ð²Ð¸Ð½":8783,"ĠÑħÑĸÐ´":8784,"ĠÐ²Ð¸Ð»Ð¸Ð²":8785,"ĠÐ²Ð¸ÑĪÐ¸Ð²":8786,"Ð°ÑĤÐ¸Ð¼ÑĥÑĤÑĮ":8787,"ÐµÑĢÐµÑĩ":8788,"ÑĸÐ¹ÑĤÐ¸":8789,"ĠÑģÐ²Ð°Ð²":8790,"ĠÑĹÐ¶Ñĥ":8791,"ĠÐ²ÑĸÐ´Ð²Ð°Ð¶":8792,"ĠÑĢÐ¾Ð·Ð±Ð¸Ð²":8793,"ĠÑĢÐ¾Ð·ÑģÑĤÐµ":8794,"Ð¾ÑģÐ²ÑĸÑĤ":8795,"ÑĢÑĸÑģÑĤÑİ":8796,"ĠÑĤÐµÑĩÑĸ":8797,"Ð¾ÑĩÐºÐ°Ñħ":8798,"Ð²Ð¸Ð½ÑĤ":8799,"ĠÐĹÐ°Ð´":8800,"ĠÐĹÐ¾Ð»Ð¾ÑĤ":8801,"ĠÐĵÐ°Ð½":8802,"ĠÑģÐ¸Ð½ÑĸÐ¹":8803,"ĠÐ¿Ð¾Ð²Ð½Ñĥ":8804,"ĠÑģÑĥÑĤÑĮ":8805,"ĠÑģÑĥÐ´Ñĥ":8806,"ĠÑĹÑħÐ½ÑĮÐ¾Ð¼Ñĥ":8807,"ÐµÐ½ÑĮÐºÐµ":8808,"Ð°ÑĢÐ¸Ð²":8809,"ĠÐ¿Ð¾ÐºÐ»Ð¸":8810,"ĠÐ¼ÐµÑĩ":8811,"ĠÐ¿Ð¾Ð´ÑıÐº":8812,"ĠÑģÐ²ÑĸÑĤÐ¾Ð²Ñĸ":8813,"Ð¼ÐµÑĤÐ¸":8814,"ÐŁÑĢÑĸ":8815,"ĠÑĸÐ½ÑĪÐ°":8816,"ĠÐ£Ð·":8817,"ĠÐ£Ð³Ð¾ÑĢ":8818,"ĠÐºÐ¾Ð»Ð¾Ð½Ð¸":8819,"ÐĿÐ°Ð¹":8820,"ĠÑĦÑĥ":8821,"ĠÑĦÐ°Ðº":8822,"ĠÐ¿Ð¾Ð³ÑĢ":8823,"ĠÐ¾ÑĤÐ¶Ðµ":8824,"ĠÐ²Ð¸ÑģÑĸÐ²":8825,"ÑīÐµÐ½Ð¸Ð¹":8826,"ĠÐ³Ð°ÑĢÐ½Ð°":8827,"ÐºÐ¾Ð²ÑĸÐ¹":8828,"ÐĶÑĢÑĥÐ³":8829,"ĠÑĩÑĥÐ±":8830,"ÑıÐ·Ð°Ð²":8831,"Ð¸Ð½Ð°Ð¼Ð¸":8832,"ÐŀÑĤÐ°Ðº":8833,"ĠÐ·Ð°ÑĢÐ°Ð´Ð¸":8834,"Ð»Ð°Ð²ÑĪÐ¸":8835,"ĠÐ¾ÑģÑĸÐ½ÑĮ":8836,"ĠÐ²Ð¿Ð°Ð»Ð¾":8837,"ĠÐ¼Ð°Ð¹Ð´Ð°Ð½Ñĸ":8838,"ĠÐ·Ð°Ð´Ð°Ð²":8839,"ĠÐ²ÑĸÐºÐ½Ñĸ":8840,"ĠÑģÑĤÐµÐ¿Ð¾Ð²":8841,"ĠÐ¿Ð¾Ð²ÐµÑĢÐ½ÑĥÑĤÐ¸":8842,"ĠÐ¿Ð¾Ð±Ð°ÑĩÐ¸ÑĤÑĮ":8843,"ĠÐ¿Ð¾Ð±Ð°ÑĩÐ¸ÑĪ":8844,"ĠÐ·Ð°ÑħÐ¸ÑĤ":8845,"ĠÑĨÑĸÐ»Ð¾Ð³Ð¾":8846,"ĠÐ³Ð¾Ð»Ð¾Ð²Ð°Ñħ":8847,"ĠÐ¤ÐµÑĢÑħ":8848,"Ð¥ÑĸÐ±Ð°":8849,"ĠÐ´Ð°Ð»ÐµÐºÐ¸Ñħ":8850,"ĠÐ±Ð¾ÑĢÐ¾Ð½":8851,"ĠÑĢÑĸÐ´Ð½Ð¾ÑĹ":8852,"ĠÐ¾Ð·Ð½Ð°Ðº":8853,"ĠÑģÐ¿ÑĸÐ²Ð°ÑĶ":8854,"ĠÑģÐ»ÑĥÐ¶Ðµ":8855,"ĠÐ¿ÑĢÐ¸ÑģÐ»ÑĥÐ¶":8856,"ĠÐ²ÑĥÐ»Ð¸ÑĨÐµÑİ":8857,"ĠÑģÐ¸Ð½ÑĶ":8858,"ĠÑĪÐ»ÑıÑħÐ¸":8859,"ĠÐ¿ÑĢÐ¾Ð²ÑĸÐ²":8860,"ĠÐ½Ð°ÑĪÐ¾Ð¼Ñĥ":8861,"Ð¾Ð²Ð°Ð½Ð¸Ð¼":8862,"ĠÐ¼ÑĸÑģÑıÑĨÑĸÐ²":8863,"ĠÐ´Ð¾ÐºÐ»Ð°Ð´":8864,"ĠÐ³Ð»ÑıÐ½ÑĥÑĤÐ¸":8865,"ĠÐ±ÑĸÐ³Ð»Ð°":8866,"ĠÑĥÐ´Ð²Ð¾Ñħ":8867,"ĠÐ¿ÑĢÐ¸Ð¿Ð°Ð´":8868,"ĠÐ³Ð¾ÑģÑĤÑĢÐ¸Ð¹":8869,"ÑģÐ¸Ð¿Ð°Ð²":8870,"ĠÐ·Ð°Ð»ÑĸÐ·Ð¾":8871,"ĠÑĸÑģÑĤÐ¾ÑĤ":8872,"ĠÑĨÑĸÐºÐ°Ð²Ð¾":8873,"ĠÑĶÐ´Ð¸Ð½Ð°":8874,"ĠÑģÐ¾Ð»Ð¾Ð½":8875,"ĠÐ»ÑİÐ±Ð¸ÑĤÐ¸":8876,"ĠÐ¿Ð¾ÑĤÑĢÑĸÐ±ÐµÐ½":8877,"ĠÐ¿Ð°Ð»ÑĥÐ±":8878,"ĠÐ½Ð°Ð¿Ð¸ÑģÐ°Ð½Ð¾":8879,"ÐĻÐ¾Ð³Ð¾":8880,"ĠÐ¿Ð¾Ð»Ð¾Ð²Ð¸Ð½Ð°":8881,"ĠÐ¿ÑĢÐµÐ´ÑģÑĤÐ°Ð²":8882,"ĠÐºÐ¾ÑĢÐ¸Ð´Ð¾ÑĢÑĸ":8883,"ĠÐ±Ð°ÑĤÑİ":8884,"ĠÐ¶Ð°Ð»ÐµÐ¼":8885,"ĠÐ¿ÐµÑĢÐµÑģÐ»ÑĸÐ´":8886,"ÑĪÑĤÐ¾Ð²Ñħ":8887,"ĠÐ´Ð¾Ð»Ð¾Ð½Ñİ":8888,"ĠÐ´Ð¾Ð»Ð¾Ð½ÐµÑİ":8889,"ĠÐ²ÑĢÑıÐ´Ð¸":8890,"ĠÐ¼Ð¸Ð½ÑĥÐ»Ð¾Ð³Ð¾":8891,"ĠÐ²Ð¿ÐµÑĢÑĤÐ¾":8892,"ĠÐĹÐµÐ¼Ð»Ñı":8893,"ĠÐ±Ð´Ð¶Ð¾Ð»Ð¸":8894,"ĠÐ³Ð¾Ð²Ð¾ÑĢÑıÑĤÑĮ":8895,"ĠÐŁÐ°ÑĨÑİ":8896,"ĠÐĲÑģÐ»Ð°Ð½":8897,"ĠÐŀÑħÑĢÑĸÐ¼ÐµÐ½ÐºÐ¾":8898,"ĠÐ±Ð¾ÑıÐ·ÐºÐ¾":8899,"ÐºÐ´":8900,"ÐºÑĸÑģ":8901,"ÐºÑĥÐ²Ð°Ð»Ð°":8902,"ÑıÐ½Ð´":8903,"ÑıÑĶÑĤÑĮÑģÑı":8904,"ĠÐ²ÑĩÐ¸Ð½Ð¸":8905,"Ð´Ð½Ð¾":8906,"Ð¼Ð°Ñģ":8907,"ÑĩÐµÑĢÐ²Ð¾Ð½":8908,"ÑĤÐ¸Ð½Ñĥ":8909,"Ð°Ð²Ñĥ":8910,"ÑģÑĤÐºÐ¸":8911,"ĠÐ½Ð°ÑĤÑĢÐ°Ð¿":8912,"ÑĸÐ´Ð°Ð»Ð¸":8913,"Ð¾Ð´Ð¾Ñİ":8914,"ĠÑĥÐ»Ð¸":8915,"ĠÑĥÑĤÐµ":8916,"ĠÑĥÑĢÐ°Ð·":8917,"ÑĸÐ½ÑĨÑĸ":8918,"ĠÑĩÑĥÑĶÑĪ":8919,"Ð°Ð´Ð°ÑĤÐ¸":8920,"Ð»ÑıÐ»Ð°ÑģÑı":8921,"ĠÑĨÐ¾Ðº":8922,"ĠÑĨÑĥÑĢ":8923,"ĠÑĨÐ²Ð¸Ð½ÑĤ":8924,"ĠÐ·Ð°ÑģÑĸ":8925,"Ð´Ð¸Ð»Ð°":8926,"ĠÐŁÐ°Ð½ÑĮÐºÐ¾":8927,"Ð¾ÑĹÑĤÑĮ":8928,"ĠÑĢÐ¾Ð·ÑħÐ¾Ð´Ð¸":8929,"ĠÐľÐµÐ»ÑĮ":8930,"Ð½ÑĥÐ²Ð°ÑĤÐ¸":8931,"ĠÐ¾Ð´Ð½Ð¾Ñİ":8932,"ĠÑģÐ°Ð¼Ð¾Ð·":8933,"ĠÐ¥ÑĸÐ²":8934,"ĠÐĵÐ¾Ð´Ñĸ":8935,"ĠÑĤÐ¸ÑĪÑĥ":8936,"ÑģÑĤÐ¸ÑĤÑĮ":8937,"ĠÐ±ÐµÐ·ÑĥÐ¼":8938,"ĠÐ±ÐµÐ·Ð»ÑİÐ´":8939,"ĠÐ±ÐµÐ·Ð¿ÐµÑĢÐµÑĢÐ²":8940,"ÐĴÐ¶Ðµ":8941,"ĠÐ·Ð°Ð²Ð¼Ð¸ÑĢ":8942,"ÐŁÐ¾Ð¼":8943,"ĠÐ¿Ð¾ÑģÐ»ÑĸÐ´":8944,"ÑĢÑıÐ²Ð¸":8945,"ĠÑģÑĥÐ»ÑĤÐ°Ð½ÑģÑĮÐºÑĸ":8946,"ĠÐ·Ð½Ð°ÑĩÐµÐ½Ð½Ñı":8947,"ĠÐ·Ð°ÐºÐ°Ð¼":8948,"ĠÐ³ÑĥÑģÑĤÑĸ":8949,"ĠÐ¾ÑĤÑĩÐµ":8950,"Ð»Ð¾Ð¿Ð¾ÑĤ":8951,"ĠÐ²Ð¸ÑģÐ¾ÐºÑĥ":8952,"ĠÐ³Ð°ÑĢÐ¼Ð¾Ð½":8953,"ÑıÐ·Ð°ÑĤÐ¸":8954,"ĠÐºÐ¾Ð½ÑĩÐµ":8955,"ĠÐ¶Ð¸Ð²Ð¸Ð¼":8956,"ĠÐ½Ð°Ð·Ð´":8957,"ĠÐ²Ð¿Ð°ÑģÑĤÐ¸":8958,"ĠÑĢÐ¾Ð·Ð¿Ð¾Ð²ÑĸÑģÑĤÐ¸":8959,"ĠÐµÑĦ":8960,"ĠÐ²Ð´Ð¸Ð²Ð»Ñı":8961,"ĠÐ¿Ð¾Ð²ÐµÑĢÐ½ÐµÑĤÑĮÑģÑı":8962,"ÐĵÐ¾ÑģÐ¿":8963,"ĠÐ½ÐµÐ´Ð±":8964,"ĠÑĨÑĸÐ»Ð¾Ð¼Ñĥ":8965,"ĠÐ¿Ð¾ÐºÐ¸Ð½ÑĥÑĤÐ¸":8966,"ĠÐ½Ð°Ð±Ð¸ÑĢ":8967,"ĠÐ¼Ð°ÑĤÐ¸Ð¼Ðµ":8968,"Ð²Ð°Ð¶Ð°ÑİÑĩÐ¸":8969,"ĠÑĢÑĸÐ´Ð½Ñĥ":8970,"ĠÑĢÑĸÐ´Ð½Ð¸Ð¹":8971,"ĠÐ¼Ð¾Ð»Ð¾Ð´Ð¾ÑģÑĤÑĸ":8972,"ĠÐ½Ð¾ÑĩÐ°Ð¼Ð¸":8973,"ĠÐ´Ð¸ÑĢÐµÐºÑĤÐ¾ÑĢ":8974,"ĠÑĤÑĢÐ¸Ð¼Ð°Ð»Ð¸":8975,"ĠÑĤÑĢÐ¸Ð¼Ð°Ð»Ð°":8976,"ĠÐ»ÑİÐ±Ð»ÑıÑĤÑĮ":8977,"ĠÑĪÐ¸Ð½Ðµ":8978,"ĠÑĤÑıÐ³Ð°ÑĢ":8979,"ĠÐ·Ð³Ð°Ð´Ð°Ð»Ð°":8980,"ĠÐ±Ð°ÑĢÐ°Ð±Ð°Ð½":8981,"ĠÐ³Ð¾Ð´Ð¸ÑĤÑĮÑģÑı":8982,"ĠÑĩÑĥÐ¶Ð¾Ð³Ð¾":8983,"ĠÐ½ÐµÑĢÐ¾Ð·":8984,"ĠÑģÑĤÑĥÐ¿Ð¸Ð²":8985,"ĠÑĤÑİÑĢÐ¼Ð°":8986,"ĠÑĤÑĢÐµÐ¼ÑĤÐ¸ÑĤÑĮ":8987,"ĠÐ±Ð¾Ð³Ð¾Ð¼":8988,"ĠÑĪÐµÐ¿Ð¾ÑĤÑĸÐ²":8989,"ĠÐ·Ð²ÐµÑĤÑĮÑģÑı":8990,"ĠÐ¿Ð°Ð»Ð°Ñħ":8991,"ĠÑĤÑĢÑĸÑĪÐºÐ¸":8992,"ĠÑģÑĥÑħÐ¸Ð¹":8993,"ĠÐĦÐ»ÑĮÑĨÑĸ":8994,"ĠÐ½Ð°Ð¿Ð¸ÑģÐ°ÑĤÐ¸":8995,"ĠÑģÐ»Ð°Ð²ÐµÑĤ":8996,"ĠÐ»ÑĸÐºÐ°ÑĢ":8997,"Ð¿ÑĥÑģÐºÐ°Ð²":8998,"ĠÑĤÐ²Ð¾ÑĶÑĹ":8999,"ĠÐ²Ð¸ÑĤÑĢÐ¸Ð¼Ð°Ð²":9000,"ĠÐ²Ð¼ÐµÑĢÑĤÐ¸":9001,"ĠÑĨÑĸÐ»Ð¸Ð¼Ð¸":9002,"ĠÐºÐ»Ð°ÑĨ":9003,"ĠÐŁÑĸÑģÐºÐ¸":9004,"ĠÐ·Ð°Ð¿ÐµÑĢÐµÑĩ":9005,"ĠÑĢÑıÑĤÑĥÐ½ÐºÑĥ":9006,"ĠÐľÐ°Ð½ÑĸÑģ":9007,"ĠÐ¼ÐµÑĩÐµÑĤÑĸ":9008,"ĠÐºÐ²Ð°ÑĢÑĤÐ¸":9009,"ĠÐ·Ð°Ð³Ð¾Ð²Ð¾ÑĢÐ¸Ð²":9010,"ĠÑģÑĥÐ¼Ð½ÑĸÐ²Ñĥ":9011,"ĠÑĢÑĸÑĪÑĥÑĩÐµ":9012,"ĠÐ¿Ð¾ÑĤÑĢÐ¾ÑħÑĥ":9013,"ĠÐ½Ð°Ð²Ð¿ÑĢÐ¾ÑģÑĤÐµÑĨÑĮ":9014,"ĠÐķÐ´ÑĸÑĢÐ½Ðµ":9015,"ĠÐĺ":9016,"ÑĢÐ°Ð»Ð°":9017,"ÑĥÑĩÐ¸":9018,"ÑģÐ°ÑĢ":9019,"Ð»Ð°Ð½Ð°":9020,"Ð²Ð°Ð»Ð¾ÑģÑı":9021,"ÐºÐ°Ð»Ð¾":9022,"ÑıÐºÐ¾":9023,"ĠÐ²ÑĤÑıÐ³":9024,"ĠÐ²Ð²ÑĸÐ¹":9025,"ĠÐ¿Ð¸ÑĢ":9026,"Ð´Ð°ÑĢ":9027,"ĠÑĤÐ°Ð²":9028,"ĠÐ´Ð°Ð»ÑĮ":9029,"ÑħÐµ":9030,"ÑİÑģÑĮ":9031,"ÑĪÐ°ÑĶ":9032,"ÑĪÐºÐ°Ð¼Ð¸":9033,"Ð¿ÑĥÑĢ":9034,"ÐµÑĢÐ½ÑĥÐ²ÑģÑı":9035,"ĠÐºÑĸÐ»":9036,"ĠÐºÐ»Ñĸ":9037,"ĠÐºÑĢÐ°Ð²":9038,"ĠÐºÑĢÐµÑģ":9039,"ĠÐ½ÐµÑģÑĥ":9040,"ĠÐ½ÐµÑģÑĤÑıÐ¼":9041,"Ð¾Ð»ÐµÐ¼":9042,"ĠÐ½Ð°ÑĢÐ°Ð·":9043,"ĠÑĢÐ¸ÑĤ":9044,"Ð½ÑĸÑĶ":9045,"ĠÑĥÑģÑĤÐ°Ð½":9046,"ÐµÐ½Ð½Ñĥ":9047,"ĠÐ»Ð¾Ð¼":9048,"ĠÐ»ÑĥÐ½":9049,"ĠÐ»Ð¾Ð±Ð°":9050,"ĠÐ¿Ð¾ÑĹÑħÐ°Ð»Ð¸":9051,"ĠÐ¿ÑĢÐ¾Ñĩ":9052,"ĠÐ¶Ð¾Ð½Ð¸":9053,"ĠÐ´Ð¾ÑĪÐºÐ¸":9054,"ĠÐĴÑĸÑĤÐµÑĢ":9055,"ĠÐ¿ÑĢÐ¸ÑĩÐ¸Ð½Ð¸":9056,"Ð¾ÑĤÑı":9057,"ĠÑĢÐ¾Ð·Ð±Ñĥ":9058,"Ð½ÐµÐ½Ð¸Ñħ":9059,"ĠÑĤÐµÑĩÐµ":9060,"Ð°ÑħÐ¸":9061,"ĠÐ¿ÑĢÐ¾ÑģÑĤÑĸ":9062,"Ð²Ð¸Ð¶":9063,"ĠÐĨÐ²Ð°":9064,"ĠÐĶÐ²":9065,"Ð¾Ð´Ð¸Ð»Ð¾":9066,"ĠÐĳÐµÐ´Ðµ":9067,"ĠÐ·Ð½ÐµÐ½Ð°Ð²Ð¸":9068,"ĠÐºÐ¾Ð»Ð¸Ñģ":9069,"ĠÑģÑĥÐ±":9070,"ÑİÑĩÐ¸Ð¼":9071,"ĠÐ¿Ð¾ÐºÐ¾ÑĹ":9072,"ĠÐ¿Ð¾ÐºÐ»Ð¸ÐºÐ°Ð²":9073,"ĠÐ¿Ð¾ÐºÐ»Ð°Ð»Ð¸":9074,"ÑģÐµÐ»":9075,"ĠÐ´Ð¸Ð²Ð°Ð½":9076,"ĠÐĽÐµÐ³":9077,"ÑĢÑıÑħ":9078,"ĠÑģÑĥÐ»ÑĤÐ°Ð½ÑĪÑĥ":9079,"ĠÐºÑĥÑīÑĸ":9080,"ĠÐ¿Ð¾Ð¼ÑģÑĤÐ¸":9081,"ĠÑģÐµÑĢÐ´Ðµ":9082,"ĠÐ·Ð°Ð±Ð°ÑĢÐ¸":9083,"ĠÐ·ÑĢÑĸÐ´ÐºÐ°":9084,"ĠÐ¼ÑĥÑģÐ¸Ð»Ð°":9085,"Ð¡Ð°Ð¼":9086,"ĠÐºÑĢÐ¸ÑĤÐ¸":9087,"ĠÑĩÐ¾ÑĢÐ½ÑĸÐ¹":9088,"ĠÐ·Ð°ÑģÑĥÐ²":9089,"Ð»ÐµÐ½Ð¾Ð¼Ñĥ":9090,"ĠÐ·Ð³Ð°Ñģ":9091,"ĠÐ·Ð³Ð¾Ð´Ð¸":9092,"ÑıÑĤÐ°Ð²":9093,"ĠÐºÐ¸Ð½ÑĥÐ»Ð¸ÑģÑı":9094,"ĠÐ²Ð¸Ð¿Ð»Ð¸Ð²":9095,"ĠÐ¿ÑĢÐ°Ð²Ð¾Ñģ":9096,"ĠÐ³ÑĢÑİ":9097,"ĠÑĤÐµÐ¼ÑĢÑıÐ²Ð¸":9098,"ĠÑģÑĤÐµÐ¿Ð¸":9099,"ĠÐ¤ÑĢÐµÐ¹":9100,"ĠÐ»ÐµÐ¶Ð°ÑĤÑĮ":9101,"ĠÐ»ÑĸÑĤÐ°ÐºÐ¸":9102,"ĠÐ¿Ð»ÑĸÐ²":9103,"ĠÐ·Ð°Ð»Ñĥ":9104,"ĠÐ·ÑĢÐ¾Ð±Ð¸ÑĤÑĮ":9105,"ĠÑģÐ¼ÑĸÑĪÐ½Ð¾":9106,"ĠÐ¿ÑĸÐ²Ð´ÐµÐ½ÑĮ":9107,"ĠÐ·Ð»Ð¾Ð²Ñĸ":9108,"ĠÑģÐ¾ÑĢÐ¾Ð¼Ñĥ":9109,"ĠÐ»ÑĸÑģÐ¾Ð¼":9110,"ĠÑĪÐ¸Ð±Ðµ":9111,"ĠÑĸÐ¼ÐµÐ½Ð°":9112,"ÐĽÐ¸":9113,"ĠÑĤÐ¾Ð½ÐºÑĸ":9114,"ÑīÐ¸Ðº":9115,"ĠÐ¿Ð¸ÑģÐ°ÑĢ":9116,"ĠÐ³Ð»Ð¸Ð±ÑĪÐµ":9117,"ĠÐļÐ¾Ð»Ð¾":9118,"ĠÐ·Ð°Ð»ÑĸÐ·Ð½Ñĸ":9119,"ĠÐ²ÐµÑģÐ½Ð¸":9120,"ĠÑĤÑĢÐµÐ¼ÑĤÑĸÐ»Ð¸":9121,"ĠÐĩÐ²":9122,"ĠÐ·ÐµÐ»ÐµÐ½Ð¸Ð¹":9123,"ĠÐ±ÐµÐ·Ð¿Ð¾ÑĢÐ°Ð´":9124,"ĠÐĴÐµÐ»Ð¸Ðº":9125,"ĠÐ¿Ð¾ÑĤÑĢÑĸÐ±Ð½Ð°":9126,"ĠÐ¿Ð¾Ð´ÑĸÑĹ":9127,"ĠÑģÑĥÑģÑĸÐ´Ð°":9128,"ĠÑģÑĤÑĢÑĸÐ»Ð°":9129,"ĠÐ¿Ð»ÑıÐ¼Ð¸":9130,"ĠÑĢÑıÐ±":9131,"ĠÐ·Ð°ÑħÐ¾Ð¿Ð»ÐµÐ½Ð½Ñı":9132,"ĠÑĢÑĥÑĪÐ½Ð¸ÑĨÑĸ":9133,"ĠÐ·Ð½Ð¸ÐºÐ»Ð°":9134,"ĠÐ¿Ð¾Ð¼ÑĸÑĤÐ¸Ð»Ð°":9135,"ĠÐłÑĥÐºÐ¸":9136,"ĠÐ¿ÑĢÐ°ÑĨÑİÑĶ":9137,"ĠÐºÐ»Ð¾Ð¿Ð¾ÑĤÑĥ":9138,"ĠÐ±Ð»ÑĸÐ´Ð¸Ð¹":9139,"ĠÐļÐ¾Ð¶ÑĥÑĪ":9140,"ĠÐ½Ð°Ð»ÑıÐ³":9141,"ÑĹÐ´Ð¶Ñĸ":9142,"ĠÐ¿Ð¾Ð²Ð°Ð¶Ð½Ð¾":9143,"ĠÐºÑĢÐ°Ð¿Ð»Ñĸ":9144,"ĠÐºÐ¸Ð»Ð¸Ð¼":9145,"ĠÐ²Ð¾ÑĹÐ½ÑĸÐ²":9146,"ĠÐ¾ÑĤÐµÑĨÑĮ":9147,"ĠÑģÐ¾Ð»Ð¾Ð¼Ð¸":9148,"ĠÐ³ÐµÐ½ÐµÑĢÐ°Ð»":9149,"ĠÑģÐ¾ÑĢÐ¾Ð¼Ð½Ð¾":9150,"ĠÐ¿Ð¾ÑĤÑĸÐº":9151,"ĠÐŁÐ°ÑĢÑĦ":9152,"ĠÐ¿ÑĢÐ¸Ð½ÐµÑģÐ»Ð°":9153,"ĠÐĳÐ¾Ð½ÑĸÑĦÐ°ÑĨÑĸÐ¹":9154,"ĠÐ½ÐµÐ±ÐµÐ·Ð¿ÐµÑĩ":9155,"ĠÐ½Ð°ÑĤÐ¾Ð²Ð¿":9156,"ĠÑĤÑĢÐµÑĤÑĮÐ¾Ð³Ð¾":9157,"ĠÐĵÐ°ÑĦÑĸÐ¹":9158,"ĠÐ¿Ð¾Ð±Ð»Ð¸Ð·Ñĥ":9159,"ĠÐ¡ÑĤÑĢÐ°ÑĤÐ¾Ð½":9160,"ĠÐļÐ¾Ð¿Ð°ÑĶ":9161,"ĠÑħÐ¾ÑĤÑĸÐ»Ð¾ÑģÑĮ":9162,".,":9163,"Ġ'":9164,"Ð¾ÑĩÐ¸Ñħ":9165,"Ð¸Ð»ÑĮ":9166,"ÑĤÐ°Ð¶":9167,"Ð½Ð°Ð»Ð¾":9168,"ĠÐ²Ð¾Ð·Ð¸":9169,"ĠÐ¿ÑĥÑĤÑĮ":9170,"ĠÐ¿Ð°Ð»ÐµÑĨÑĮ":9171,"ĠÑģÐ°ÑĢ":9172,"Ð¼ÑĥÑĤ":9173,"ÑĩÐ½Ð¾Ð¼Ñĥ":9174,"ĠÑĤÑĸÐ½":9175,"ĠÐ´ÑĢÐ¾Ð²":9176,"ĠÐ´Ð¾ÑĢÑĸÐ¶":9177,"ÑİÐ½ÑĮ":9178,"ÑĤÐ¸Ð·":9179,"Ð¿Ð°ÑĢÐ°":9180,"ÐµÑĢÐ°Ð¼Ð¸":9181,"ĠÐ¼Ð°Ð¼Ð¸":9182,"ĠÐºÐµÐ´":9183,"ĠÑĸÐ´Ð¸":9184,"Ð·Ð½Ð¸":9185,"Ð½Ð¸Ð»Ð¸ÑģÑı":9186,"Ð½Ð¸ÑĨÑĤÐ²Ð¾":9187,"Ð¾ÑĢÐ¾Ñİ":9188,"ĠÐ¾ÑģÐº":9189,"Ð¶Ð¸ÑĤÑĮ":9190,"ĠÑīÐ¾ÐºÐ¸":9191,"ÑĹÐ·Ð´":9192,"ÑĹÐ·Ð´Ð¸":9193,"ĠÐ³ÑĢÐ¸Ð²":9194,"ĠÐ³Ð»ÑıÐ´":9195,"ĠÑıÐ¼Ð¸":9196,"Ð°ÐºÑĤÐµÑĢ":9197,"ÑĩÐ¸ÑħÐ°":9198,"ÑĩÐ¸Ð»Ð°ÑģÑĮ":9199,"ÑĸÐ»Ð¾Ð³Ð¾":9200,"ĠÑħÑĥÑģÑĤÐ¸":9201,"ĠÐ¶Ð¾Ð½":9202,"ĠÑĨÐ°ÑĢÐ¸":9203,"ĠÐ²ÑĸÐ´Ð¿Ñĥ":9204,"Ð°ÑĤÐ¾ÑĢÐ°":9205,"ĠÐ¿ÑĢÐ¸ÑıÑĤÐµ":9206,"ÑĸÐ»ÑĮÐ½Ð¸Ð¹":9207,"Ð¾ÑģÐ½Ñĸ":9208,"ÑĢÐµÐ½Ð¸Ð¹":9209,"ĠÐ¿ÑĸÐ´ÑĤÐ²ÐµÑĢ":9210,"ĠÐ¿ÑĢÐ¾ÑģÑĤÐµ":9211,"ĠÐ¾Ð±ÐµÑĢÐµ":9212,"ĠÑģÐºÐ°Ð»":9213,"ÑĩÐµÐ²":9214,"ÑĩÐµÑĪ":9215,"Ð±Ð¸ÑĤÐ¸Ð¹":9216,"ĠÐļÐ¾ÑĩÑĥ":9217,"ĠÐ¯Ð³ÐµÐ»ÑĮ":9218,"ĠÑģÐ¸Ð·":9219,"Ð»ÑĥÐ¿":9220,"ĠÐ¼ÑĸÑģÑĤÐ¾Ð¼":9221,"ÑĤÑĥÑİÑĤÑĮ":9222,"ĠÐ´Ð¸Ð²Ð½Ð¸Ð¹":9223,"ĠÐ»ÐµÐ¹":9224,"ĠÐ³Ð¾ÑĢÑĸÑĪ":9225,"ÐŁÐ°Ð²":9226,"ĠÑģÑĥÐ»ÑĤÐ°Ð½Ðµ":9227,"ĠÐ½Ð°Ð¹ÑģÑĤÐ°ÑĢ":9228,"ĠÐ¼ÑĥÑģÑıÑĤÑĮ":9229,"ĠÐ³ÑĥÐ±Ñĥ":9230,"ĠÐ³ÑĥÐºÐ°ÑĶ":9231,"ÑĥÑĶÐ¼Ð¾":9232,"ĠÑģÐ¼ÑĸÑĤÑĤÑı":9233,"ĠÐºÑĢÐ¸Ð¶":9234,"ĠÐ³Ð°ÑĢÐ±Ñĥ":9235,"ÑıÑĤÐ½Ð°Ð´ÑĨÑıÑĤÑĮ":9236,"ĠÐºÐ¾Ð½Ð²ÐµÐ¹":9237,"ĠÐ¿ÑĢÐ¸Ð¹Ð½ÑıÐ²":9238,"ĠÐºÐ¸Ð½ÑĥÑĤÐ¸":9239,"ĠÐ¿ÑĢÐ°Ð²ÐµÐ´":9240,"ĠÐ¿ÑĢÐ°Ð²Ð¾Ð²ÑĸÑĢ":9241,"ĠÐºÐ°ÑĢÐ°":9242,"ĠÐ¿Ð¾ÑħÐ²Ð°Ð»Ð¸":9243,"ÑıÐ½ÐºÐ¸":9244,"ĠÐ¿ÑĢÐ¾ÑģÐ¸ÑĤÑĮ":9245,"Ð±Ð¸ÑĢÐ°ÑĤÐ¸":9246,"ĠÑĢÑĸÐ´Ð½Ñĸ":9247,"ĠÐ¿ÑĢÐ¸Ð³Ð¾Ð´Ð¸":9248,"ĠÑģÑĤÐ¾ÑĢÐ¾Ð¶Ð°":9249,"ĠÐ½Ð¾ÑģÐ¸":9250,"ĠÐ½Ð¾ÑģÐ¸ÑĤÐ¸":9251,"Ð°ÑĦÐ¸Ð³":9252,"ÐºÐ¸Ð´Ð°Ð»Ð¸":9253,"ĠÑħÑĢÐµÑģÑĤÐ°":9254,"ĠÐ·Ð¾ÑģÑĤÐ°Ð»Ð¾ÑģÑı":9255,"ĠÐ½ÐµÐ²ÐµÑģÐµ":9256,"ĠÐ³Ð¾ÑĤÐ¾Ð²Ñĸ":9257,"ĠÑĤÑĢÑĸÑģ":9258,"ĠÐ¥Ð»Ð¾Ð¿ÑĨÑĸ":9259,"ĠÐ²Ð¸ÑħÐ¾Ð²":9260,"ĠÐ²Ð¸ÑħÑĸÐ´":9261,"ĠÐ¿Ð¾Ð¼ÑĸÑĩÐ°Ð²":9262,"ĠÑħÐ¼Ð°ÑĢÐ°Ð¼Ð¸":9263,"ĠÑĥÑģÑĤÐ°Ñħ":9264,"ĠÐ²ÑĸÐ»ÑĮÐ½Ð¸Ð¹":9265,"ĠÐ½ÐµÑīÐ°Ð´":9266,"ĠÑĤÐ¸Ð¶Ð½Ñĸ":9267,"ĠÐ½ÑĸÐ¼ÑĨÑĸ":9268,"ĠÐºÐ°ÑĢÑĤÐ¸Ð½Ð¸":9269,"ĠÐºÑĸÐ½ÑĮÐ¼Ð¸":9270,"ĠÐºÑĢÐ°ÑĹÐ½Ð¸":9271,"Ð°ÑĢÐµÐ¼Ð½Ð¾":9272,"ĠÐ¿ÐµÑĢÑĪÐ¾Ð¼Ñĥ":9273,"ĠÐ¿ÑĢÐ¸Ð·Ð½Ð°ÑĩÐµÐ½Ð½Ñı":9274,"ĠÐºÐ¾Ð»Ð¸ÑĪÐ½ÑĸÐ¹":9275,"ĠÐ·Ð°Ð¼Ð¸Ñģ":9276,"ĠÑħÐ°Ð·ÑıÐ¹ÐºÐ°":9277,"ĠÐ¼Ð¾Ð»Ð¾Ð´ÑĸÑģÑĤÑĮ":9278,"ĠÑĩÐ¾Ð²ÐµÐ½":9279,"ĠÐ´Ð¾Ð·Ð²Ð¾Ð»Ñı":9280,"ĠÐ·ÑĢÑĥÐ¹":9281,"ĠÐŁÑĢÐ¸Ð¹ÑĪÐ¾Ð²":9282,"ĠÐ·Ð´Ð¾ÑĢÐ¾Ð²Ñĸ":9283,"ĠÐ½Ð°ÑĥÐºÑĥ":9284,"ĠÐ·Ð°Ð¿Ð»Ð°ÐºÐ°Ð»Ð°":9285,"Ġ20":9286,"ĠÑģÐ²ÑĸÐ´Ð¾Ð¼ÑĸÑģÑĤÑĮ":9287,"ĠÐ¿ÐµÑĢÐµÑĤÐ²Ð¾ÑĢ":9288,"ĠÐ¿Ð¾Ð¶ÐµÐ¶Ñĸ":9289,"ĠÐ´Ð¾Ð»ÑĸÐ²ÑĨÑĸ":9290,"ĠÐ´ÑĸÐ²ÑĩÐ¸Ð½ÐºÐ°":9291,"ĠÐ¡Ð¿ÑĢÐ°Ð²Ð´Ñĸ":9292,"ÐŁÑĢÐ¾ÑĤÐµ":9293,"ĠÐ¥Ð¼ÐµÐ»ÑĮÐ½Ð¸ÑĨÑĮÐºÐ¸Ð¹":9294,"ĠÐ¿Ð°ÑĢÑĤÑĸÑĹ":9295,"ĠÐ½Ð°Ð¿ÑĢÑıÐ¼ÐºÑĥ":9296,"ĠÐ½ÐµÐ¼Ð¾Ð¶Ð»Ð¸Ð²Ð¾":9297,"ĠÐºÐ°Ð»Ð°Ð¼ÑĥÑĤ":9298,"ÐłÐŀÐĹ":9299,"ĠÐ¿Ð¾ÑģÑĤÑĥÐºÐ°Ð²":9300,"ÑħÑĸÑĤÐµÐº":9301,"ĠÐ½ÐµÐ·Ð³ÑĢÐ°Ð±":9302,"ÑģÐ°Ð¼":9303,"Ð²Ð¾ÑĢÐ°":9304,"ÐºÐ¾ÑĢ":9305,"ĠÐ½Ð¾":9306,"ĠÐ½Ð¾Ð¶Ð°":9307,"Ð´Ð²Ð°":9308,"ĠÑģÑĸÐ½Ð°":9309,"Ð¼Ð°Ð²":9310,"ĠÐ·Ð´Ñĥ":9311,"ÑĩÐ°Ð½ÐºÐ°":9312,"ÑĪÐ°Ð»Ð°":9313,"ÑĪÑĥÐ²Ð°Ð»Ð¸":9314,"ĠÐ±Ð¾Ð¹":9315,"ĠÐ±Ð°Ð½ÑĮ":9316,"Ð¿Ð¾ÑģÑĤ":9317,"Ð»Ð¸Ð½Ñĥ":9318,"Ð·Ð²Ð¾Ð½":9319,"Ð¶ÐºÐ¸":9320,"ĠÑĥÐ»Ð¸ÑĨÑĸ":9321,"ĠÑĩÐµÐ¼":9322,"Ð¸Ð²Ð°ÑĤÐ¸":9323,"ĠÐ°ÑģÑĤÑĢ":9324,"Ð¾ÐºÐ¾Ñİ":9325,"ĠÐ²Ð¸Ð»Ð°Ð·":9326,"ĠÑģÑĤÐ°ÑİÑĤÑĮ":9327,"Ð»ÑıÐ½Ð¸":9328,"ĠÐ¶Ð¼ÐµÐ½":9329,"ĠÑĨÐ°ÑĢÑı":9330,"ĠÐ·Ð°ÑĤÑĸ":9331,"ĠÐ·Ð°ÑıÐ²":9332,"ÐºÑĥÐ¹":9333,"Ð»ÐµÐ´ÑĮ":9334,"ĠÐĴÑģÑı":9335,"ĠÐĴÑĸÑĤ":9336,"ĠÐĴÐ°Ð¶":9337,"ĠÐ²ÑĸÐ´ÑĢÐ¾":9338,"ĠÐ²ÑĸÐ´ÐºÐ°Ð·":9339,"ĠÐ²ÑĸÐ´Ð²ÑĸÐ´":9340,"ĠÐ¿ÑĢÐ¸ÐºÐ¸":9341,"ĠÐ¿ÑĢÐ¸ÑĤÑıÐ³":9342,"ÑĢÑĥÐ»ÑĮ":9343,"ĠÑģÐ¿Ð°Ñģ":9344,"ĠÑģÐ¿ÑĢÐ¾Ð¼":9345,"ĠÑĢÐ¾Ð·ÐºÐ¸":9346,"ĠÑĢÐ¾Ð·ÑĩÐ°Ð²":9347,"ĠÐ¡ÑĤÐ°Ð½":9348,"ĠÑĤÐµÑħÐ½Ñĸ":9349,"Ð°ÑħÐ¾Ð¼":9350,"ĠÐ¿ÑĢÐ¾ÑħÐ¾Ð´Ð¸Ð»Ð¸":9351,"ĠÐ¿ÐµÑĢÐµÑĪÐº":9352,"ĠÑģÐºÐ»Ð¾":9353,"ĠÐĹÐ¾ÑģÑı":9354,"ĠÐļÐ°Ð¶ÑĥÑĤÑĮ":9355,"ĠÐļÑĢÐ°ÑīÐµ":9356,"Ð¾Ð´Ð¸Ð½":9357,"ĠÐ¥Ð°ÑĦ":9358,"ĠÑĢÑĥÑħÑĥ":9359,"ĠÑĢÑĥÐ½Ð´Ñĥ":9360,"ĠÐŀÐº":9361,"ĠÑĤÐ¸Ñģ":9362,"ĠÐ±ÐµÐ·Ð¼ÑĸÑĢ":9363,"ĠÑģÐµÑģÑĤÑĢÑĥ":9364,"ĠÑĩÐ¸ÑģÑĤÑĸ":9365,"ĠÐ»Ð¸ÑĩÐºÐ¾":9366,"ĠÐ½Ð°Ð²Ð°Ð¶":9367,"ĠÐ¼ÐµÐ¶":9368,"ĠÐ¿Ð¾ÑĢÑĸÐ²Ð½Ñı":9369,"ĠÐ¿ÐµÑĢÐµÐ´Ð°ÑĤÐ¸":9370,"ÑĪÑĥÑİÑĤÑĮ":9371,"ĠÐ·ÐµÐ¼ÐµÐ»ÑĮ":9372,"ĠÑģÑĥÐ»ÑĤÐ°Ð½ÑģÑĮÐºÑĥ":9373,"ĠÑģÐµÑĢÐ¿Ð°Ð½":9374,"ĠÐ·Ð°ÐºÐ¾Ð½Ð¸":9375,"ĠÐ·Ð°ÐºÐ¾Ð½Ñĥ":9376,"ĠÐ¿Ð¾Ð³Ð¾Ð²Ð¾ÑĢÐ¸":9377,"ĠÐºÑĢÐ¸Ð»ÑĮ":9378,"Ð½ÑĮÐºÐ¸":9379,"ĠÐ´ÑĢÑĥÐ³Ð¾Ñİ":9380,"ĠÐ·Ð³ÑĸÐ´Ð½Ð¾":9381,"ĠÐ²Ð¾Ð»Ð¾ÑģÑĤÑĸ":9382,"ĠÐ²Ð¾Ð»ÐµÑİ":9383,"ĠÐ²Ð¸Ð´ÐºÐ¾":9384,"ĠÐºÐ¸Ð½ÑĥÐ»Ð¸ÑģÑĮ":9385,"ĠÐ´Ð¾ÑĢÐ¾Ð³Ð¾":9386,"ĠÑħÐ»Ð¾Ð¿ÑĨÐµÐ²Ñĸ":9387,"ĠÐ²Ð¾ÑĢÐ¾ÑĤ":9388,"ĠÐ¿Ð¾Ð²ÐµÑĢÐ½ÑĥÑĤÐ¸ÑģÑı":9389,"ĠÐ½ÐµÐ´Ð¾ÑģÑĤ":9390,"ĠÐ½Ð°ÑĢÐ¾Ð±":9391,"ĠÐ²Ð¸ÐºÐ»Ñİ":9392,"ÐµÑĩÐµÑĢ":9393,"ÐµÑĩÐ¾ÑĢÐ°":9394,"ĠÑģÐ»ÑĥÑħÐ°Ð»Ð¸":9395,"ĠÑģÑĥÐ¼Ð¾Ð²":9396,"ÑīÐ°ÑĤÑĮ":9397,"ĠÑģÐ¿ÑĸÐ²Ð°Ð²":9398,"ĠÐŀÐ´Ð½Ñĸ":9399,"ĠÑĩÐµÑĢÐ²Ð¾Ð½Ð¸Ñħ":9400,"ĠÐ·Ð°Ð¹ÑĤÐ¸":9401,"ĠÑģÐºÐ°Ð¶ÑĸÐ¼Ð¾":9402,"ĠÑĢÑĸÐ·ÑĮ":9403,"ĠÐ·Ð°ÑĤÐ¾Ð¿":9404,"ĠÑĤÐµÐ¿Ð»Ñĸ":9405,"ĠÐ²Ð°ÑĢÑĤÐ°":9406,"ĠÐ·Ð°Ð¿Ð¸ÑĤÐ°Ð»Ð°":9407,"ĠÑĩÑĥÐ¶Ð¸Ð½":9408,"ĠÐºÑĢÐ°ÑģÐ°":9409,"ĠÐ¿Ð°Ð´Ð°Ð²":9410,"ĠÐ¶Ð°ÑĢÑĤÐ¸":9411,"Ð¾Ð»Ð¾ÑģÐ¸Ð²":9412,"ĠÐ·ÑĢÐ¾Ð·ÑĥÐ¼ÑĸÐ»Ð°":9413,"ĠÐļÐ¸ÑĢÐ¸Ð»Ð°":9414,"ĠÐ·ÑĢÐ°Ð´ÑĸÐ²":9415,"ÐµÐ½Ð´ÐµÑĢ":9416,"ĠÑĤÐµÐ¼ÑĢÑıÐ²Ð°":9417,"ĠÐ±Ð°Ð³Ð°ÑĤÑģÑĤÐ²Ð¾":9418,"ĠÐŀÑģÐ¾Ð±Ð»Ð¸Ð²Ð¾":9419,"ĠÐ²ÑĥÑħÐ°Ñħ":9420,"ĠÐ¼Ð¾ÑģÐºÐ°Ð»Ñĸ":9421,"ĠÐ¿ÑĤÐ°ÑħÐ¸":9422,"ĠÐ¼Ð°Ð¹Ð±ÑĥÑĤÐ½ÑĮÐ¾Ð³Ð¾":9423,"ĠÑģÐ²ÑĸÑĩÐºÐ¸":9424,"ĠÐ¶Ð´Ð°ÑĤÐ¸":9425,"ĠÑĢÐµÑĪÑĤÑĥ":9426,"ĠÐĲÐ»ÑĸÐ¼":9427,"ĠÑīÐµÐ´ÑĢÐ¾":9428,"ĠÑĪÐµÐ»ÐµÑģÑĤ":9429,"ĠÑıÑĢÐ¼Ð°ÑĢÐ¾Ðº":9430,"ĠÐ³Ð°ÑĢÑıÑĩÐ¸Ð¹":9431,"ĠÐ²ÑĸÐ´ÑĤÐ¾Ð´Ñĸ":9432,"ĠÐĽÑĥÑĹÐ´Ð¶Ñĸ":9433,"ĠÐ·Ð´Ð°Ð»ÐµÐºÐ°":9434,"ĠÑĦÑĢÐ¾Ð½ÑĤ":9435,"ĠÐ·Ð°Ð³ÑĢÐ¾Ð¶":9436,"ĠÐ»ÑĸÐ½ÑĸÑĹ":9437,"ĠÐ¿Ð¾Ð³Ð¾ÑĢ":9438,"ĠÐ¨ÐºÐ¾Ð´Ð°":9439,"ĠÑģÐ¿Ð°Ð´ÐºÐ¾ÑĶÐ¼":9440,"ĠÐºÐ¾ÑĢÐ¿ÑĥÑģÑĥ":9441,"ĠÐ¥Ð°ÑĤÑĸÐ´":9442,"Ġ,":9443,"ÑĢÐ°Ð½Ñĸ":9444,"ÑĤÑĢÑĥ":9445,"Ð½Ð¾Ð¶":9446,"Ð½ÐºÑĤ":9447,"Ð»ÑĶ":9448,"ĠÐ²Ð°Ð½ÑĤÐ°Ð¶":9449,"Ð´ÑĸÐ»":9450,"ĠÑģÐ°Ð¿":9451,"ĠÐ·Ð¼Ð¾Ð²":9452,"ĠÐ´ÑĸÐ»ÑĮ":9453,"ĠÐ±Ð°Ðº":9454,"Ð±ÑĸÑģ":9455,"ĠÐºÐ°ÑĤÐ°":9456,"ĠÐºÐ²Ð¾Ð»":9457,"ĠÑĸÐ»Ñİ":9458,"ĠÐ½ÐµÐ°Ð±Ð¸":9459,"ĠÐ¹Ð´ÑĥÑĩÐ¸":9460,"ÑĥÐ²Ð°ÑİÑĩÐ¸":9461,"ÑĩÐ¸Ð»Ð¾ÑģÑı":9462,"ĠÑħÐ¼ÑĸÐ»ÑĮ":9463,"ĠÐ¿ÑĢÐ¾ÑģÐ¿":9464,"ĠÐ²Ð¸Ð»Ð¸":9465,"ĠÐ²Ð¸ÑħÐ¾Ð´Ð¸Ð»Ð°":9466,"ĠÐ´Ð¾ÑģÐº":9467,"ĠÐ·Ð°ÑħÐ¾Ð´Ð¸Ð²":9468,"ĠÐ±ÑĥÐ¼":9469,"ĠÐ±ÑĥÐ·":9470,"Ð½ÑıÐº":9471,"ĠÐĲÐ½":9472,"ĠÐ²ÑĸÐ´Ð²ÐµÑĢ":9473,"Ð°ÑĤÐ¾Ñİ":9474,"ĠÐ¿ÑĢÐ¸Ð²Ð¸Ð´":9475,"ĠÐŁÐ¾Ð±":9476,"ÑīÐ°Ñģ":9477,"ĠÑĢÐ¾Ð·ÑĪÐ¸":9478,"ĠÑĢÐ¾Ð·Ð¼Ð¸":9479,"ĠÐ¡Ñĸ":9480,"ĠÐ¡ÐµÐ¼":9481,"ĠÐľÐ°Ñģ":9482,"ĠÐ¿ÑĢÐ¾ÑĨÑĸÐ´":9483,"ĠÐ¿ÐµÑĢÐµÐ»Ñı":9484,"ĠÐ¾Ð±Ð´Ð¸Ð²":9485,"ĠÐĹÐ¾ÑģÑĮÐºÐ°":9486,"ĠÑģÐ¸ÑĢÐ¾Ð²":9487,"Ð±ÐµÐ³":9488,"Ð¼ÑĸÐ½Ñĸ":9489,"ĠÑĩÐ¸ÑģÑĤÐ°":9490,"ĠÐ½Ð°Ð´ÑĸÑĶÑİ":9491,"ÑĤÑĥÑħ":9492,"ĠÐ±Ð°ÑĪ":9493,"ÑĥÐ´Ð°":9494,"ĠÐ·Ð°Ð¿Ð°ÑħÑĥ":9495,"ĠÐ¿Ð¾ÑĩÐ¾ÑĢ":9496,"ĠÐ¿Ð¾ÑĢÑıÑĤ":9497,"ĠÐ¿Ð¾Ð»ÑİÐ²Ð°Ð½Ð½Ñı":9498,"Ð°Ð½ÑĸÑģÑĤÑĮ":9499,"ĠÐ´ÑĥÐ¼ÐºÐ°Ð¼Ð¸":9500,"ÐĿÐ°ÑĤ":9501,"ĠÐ½Ð°Ð¹Ñģ":9502,"ĠÐ·Ð°ÐºÐ»Ð°Ð´":9503,"ĠÑĦÑĥÐ½":9504,"ĠÐ·Ð°Ð±Ð»Ð¸":9505,"Ð¾ÑıÑĤÐ¸":9506,"ĠÐ¼ÑĥÑĪÑĥ":9507,"ĠÐ²Ð¸ÑģÐ½Ð°Ð¶":9508,"ĠÐ·Ð°ÑģÐ½ÑĥÑĤÐ¸":9509,"ĠÐ¿ÐµÑģÐ¸":9510,"ÐĶÐĨÐĽ":9511,"ÑıÐ·Ð¸":9512,"ÑıÑĤÐµÑĢÐ¾":9513,"ÐĹÐ°Ð¿":9514,"ĠÐ´ÑĸÐ²Ð¾Ñĩ":9515,"ĠÐ¿ÑĢÐ°Ð²Ð´Ð¸Ð²":9516,"ĠÐºÐ¾Ð¶Ð½Ð¸Ð¹":9517,"ĠÐ¡ÑĤÐ°Ð»":9518,"ĠÐ¿Ð¾Ð·Ð°Ð´":9519,"ĠÐ¼Ð°ÑĤÑĢÐ¾Ñģ":9520,"ĠÐľÐ°ÑĢÑĸÐ¹ÐºÐ°":9521,"ĠÐ½ÐµÐ´Ð°Ð»ÐµÐºÐ¾":9522,"ĠÑĤÐ¾Ð²Ð°ÑĢ":9523,"ĠÐºÐ°Ð·ÐºÐ¸":9524,"ĠÐ¿Ð¾ÑħÐ¸ÑĤÑĥ":9525,"ĠÐ´Ð¾Ð´Ð°Ð»Ð°":9526,"ĠÐ¿ÑĢÐ¾ÑģÑĤÐ¸Ð¹":9527,"Ð§ÐµÑĢÐµÐ·":9528,"Ð£Ð¶Ðµ":9529,"ĠÐ¼Ð¾Ð»Ð¾Ð´Ð¸Ð¼":9530,"ĠÑģÐ»ÑĥÐ³Ð¸":9531,"ĠÐ²ÑĥÐ»Ð¸ÑĨÑıÐ¼Ð¸":9532,"ĠÐ´Ð¸ÑĤÐ¸Ð½Ð¾Ñİ":9533,"ĠÑģÐ¿Ð¾ÐºÑĸÐ¹Ð½Ð¸Ð¹":9534,"ĠÐ¿ÑĢÐ¸Ð²ÑĸÐ²":9535,"ĠÐ¿ÑĢÐ¸Ð²Ð°Ð±":9536,"ĠÐ´ÑĸÑĤÑıÐ¼":9537,"ĠÐ¿ÑĢÐ¾Ð²Ð¾Ð´Ð¶":9538,"ĠÐ½Ð°ÑĪÑĸÐ¹":9539,"ĠÐºÐ¾Ð¼ÑĥÐ½Ñĸ":9540,"ĠÐºÐ¾Ð¼ÑĥÐ½Ñĥ":9541,"ĠÐ¿ÑĢÐ¾Ð±ÑĥÑĢ":9542,"ĠÐĳÐ°ÑĩÐ¸ÑĪ":9543,"ĠÐŁÑĢÑĸÑģÑĮ":9544,"Ð¾ÑĦÑĸÑĹ":9545,"ÐºÐ¾Ð½Ð¾Ð¼":9546,"ĠÑĩÑĥÐ´Ð¾":9547,"ĠÐ²ÐµÑģÐ½Ð°":9548,"ÐµÑĢÐµÐ´Ð¸Ð½Ñĥ":9549,"ĠÐ¿ÐµÑĢÐµÐ¼Ð¾Ð³ÑĤÐ¸":9550,"ĠÐ´ÑĢÐ¾Ð²Ð°":9551,"ĠÐ½Ð°ÑĢÐ¾Ð´Ð¸Ð²ÑģÑı":9552,"ĠÐ¯Ð²ÑĤÑĥÑĪÐºÐ°":9553,"ĠÑħÑĥÐ´Ð¾Ð±Ð¸":9554,"ĠÐ²Ð¾Ð»Ð¾ÑģÑģÑıÐ¼":9555,"ĠÐºÐ²Ð°Ñģ":9556,"ĠÐ·ÐµÐ»ÐµÐ½Ð°":9557,"ĠÑģÑĥÑĤÑĸÐ½":9558,"ĠÐ½ÐµÐ²Ð¸Ð½":9559,"ĠÐ²Ð¾ÑĢÑĥÑħ":9560,"ĠÐ¾ÑģÑĤÑĢÑĸÐ²":9561,"ĠÑĢÐ¾Ð·ÑģÐ¼Ñĸ":9562,"ĠÐ¿Ð¾Ð²Ð¸Ð½Ð½Ð°":9563,"ĠÐ³Ð°ÑĢÑıÑĩÑĸ":9564,"ĠÐ²Ð¾ÑĹÐ½Ð¸":9565,"ĠÐ´Ð¾Ð·Ð²Ð¾Ð»Ð¸":9566,"ĠÐ´Ð¾Ð½ÑĮÐºÑĥ":9567,"ĠÐ¼Ð°Ð¹Ð±ÑĥÑĤÐ½ÑĶ":9568,"ĠÐ¿Ð¾ÑħÐ¼ÑĥÑĢÐ¾":9569,"ĠÐ¶Ð¸Ð»Ð°Ñħ":9570,"ĠÑĥÐ´Ð°ÑĢÐ¸Ð²":9571,"ĠÑıÐ²Ð½Ð¾":9572,"ĠÐ¼ÑĸÐ»ÑĸÑĨÑĸÐ¾Ð½":9573,"ĠÐ²Ð¸ÐºÐ¾ÑĢÐ¸ÑģÑĤ":9574,"ĠÑģÑĥÐ´Ð¸Ð»Ð¾ÑģÑı":9575,"ĠÐ±ÐµÑĢÑĥÑĤÑĮ":9576,"ÑģÑĸÐ±ÑĸÑĩ":9577,"ĠÐ½ÑĸÐ·Ð´ÑĢÑĸ":9578,"ĠÐ¿ÑĢÐ¾Ð»ÐµÑĤÐ°ÑĢ":9579,"ĠÑĢÐµÐ¶Ð¸Ñģ":9580,"ĠÐ±ÑĸÐ±Ð»ÑĸÐ¾ÑĤÐµ":9581,"ĠÐ·Ð¾Ð²Ð½ÑĸÑĪ":9582,"Ð¸Ð½Ð¾Ñİ":9583,"ÐµÑĤÐµ":9584,"ÐµÐ²Ð¾":9585,"ÑĢÐ°Ð³":9586,"ÑĢÐ°Ñİ":9587,"ĠÐ²Ð°Ð»Ð¸":9588,"ĠÑģÐºÐ°":9589,"ĠÐ·ÑĸÐ²":9590,"ÑĤÐ¸Ð²ÑģÑı":9591,"ĠÐ±ÐµÐ¹":9592,"ĠÐ±Ð¾Ð³Ð¸":9593,"Ð±Ð¾ÑĤ":9594,"ĠÐ¼Ð°Ð½Ñĸ":9595,"ĠÐºÐ°Ð»Ñĸ":9596,"ĠÐºÐµÐ»Ð¸":9597,"ĠÐ½ÐµÐ½Ð°ÑĢ":9598,"ĠÐ½ÐµÑĩÑĥÑĤ":9599,"ÑģÑĤÐºÑĥ":9600,"ĠÐ¾Ð¶":9601,"ĠÐ³Ð½Ñĥ":9602,"ĠÐ³Ð°Ð½Ðµ":9603,"ÑĥÐ²Ð°Ð½Ñĸ":9604,"ÐµÐ½Ð½Ðµ":9605,"ĠÑħÐ»ÑİÐ¿":9606,"Ð¾ÐºÐ·":9607,"Ð°ÑĤÐ¸Ð¼":9608,"ĠÐ´Ð¾ÑīÑĸ":9609,"ĠÐ´Ð¾ÑĩÐºÐ¸":9610,"ĠÑĨÑıÑĤ":9611,"ÐºÐ¾ÑĤÑĸÐ»Ð°":9612,"Ð°ÑĤÐ°Ð¼Ð¸":9613,"ĠÐ¿ÑĢÐ¸ÑģÑĤÑĢ":9614,"ÑĸÐ»ÑĮÐ½Ñĸ":9615,"ĠÐŁÐ¾Ñħ":9616,"ĠÑģÐ¿Ð¾Ð³Ð»ÑıÐ´":9617,"ÑīÐ°Ð»Ð°":9618,"ĠÑĢÐ¾Ð·ÑĸÐ±ÑĢ":9619,"Ð¾ÑģÐ»ÑĸÐ´":9620,"ĠÐĿÐ¸":9621,"ĠÐ¡Ð°ÑĦÐ¸Ð³":9622,"Ð°ÑģÐ°":9623,"ĠÐľÐ°Ð»Ð°":9624,"ĠÐľÐ°Ð»Ð¾":9625,"ĠÐľÐ¸ÑħÐ°Ð¹":9626,"Ð¶ÐµÐ»Ðµ":9627,"Ð½ÐµÐºÐ´":9628,"ÑĢÐµÐº":9629,"ÑĢÐµÑĩ":9630,"ĠÐĨÑĪÐ¾Ð²":9631,"ĠÑģÐºÐ°Ðº":9632,"ÑĩÐµÑİ":9633,"ĠÑģÐ°Ð¼Ð¸Ð¼Ð¸":9634,"ĠÐ»ÑİÐ´Ñĥ":9635,"ĠÐĳÑĸÐ´":9636,"ĠÑĨÐµÐ±ÑĤÐ¾":9637,"ĠÐ¯ÐºÐ¾ÑģÑĮ":9638,"ĠÐ³Ð¾Ð»Ð¸Ñħ":9639,"ĠÑģÐ¸Ð½Ñİ":9640,"ÑĥÐ¿ÑĢÐ¸":9641,"ĠÐ§ÐµÑĢÐ²Ð¾Ð½":9642,"Ð½Ð¸ÑħÐ°":9643,"ĠÐ½Ð°Ð²ÐºÐ¾Ð»":9644,"ĠÐ½Ð°Ð´Ð°Ð²":9645,"ĠÐ¿Ð¾ÐºÐ¾Ñİ":9646,"ĠÐ¼Ð¸Ð½ÑĥÐ»Ð¸":9647,"ÑĸÑĩÐ½Ñĸ":9648,"ĠÐ·Ð°Ð²Ð´":9649,"ĠÐ±Ð¾ÑıÐ»Ð¸ÑģÑı":9650,"Ð²ÑĸÐ»Ð¸":9651,"ĠÐ¿Ð¾ÑĢÐ¾Ð±":9652,"ÑĪÐ°ÑĤÑĮ":9653,"ĠÐºÐ¾Ð»Ð°":9654,"ĠÐºÑĥÑģ":9655,"ĠÐ·Ð°ÐºÐ¾Ð¿":9656,"ĠÐ·Ð°ÐºÐ»Ð¾Ð¿Ð¾ÑĤ":9657,"ĠÐ·Ð°Ð±ÑĥÑĤ":9658,"Ð¾ÑģÑĤÑĢ":9659,"ĠÐ³ÑĥÐ´Ðµ":9660,"ĠÐ¿Ð¾Ð±Ð°ÑĩÐµÐ½Ð½Ñı":9661,"ĠÐºÐ¾ÑĢÐ¾Ð±":9662,"ĠÑĩÐ¾ÑĢÐ½Ð¾Ð¼Ñĥ":9663,"ÐĨÐ½":9664,"ĠÐ¿Ð°Ð½Ð¾Ð¼":9665,"ÐĶÐ»Ñı":9666,"ÑıÑĤÐ°ÑĶ":9667,"ĠÐ·Ð±ÑĸÐ»ÑĮ":9668,"ÐľÐ¾ÑĤ":9669,"ÐĹÐ°Ð¼":9670,"ĠÐ³Ð¾Ð»Ð¾ÑģÑĸÐ²":9671,"Ð´Ð°ÑģÑĤÑĮ":9672,"ĠÐ¶ÐµÐ±ÑĢ":9673,"ĠÐ²Ð·Ñı":9674,"ĠÐ²Ð¿Ð¾Ð´":9675,"ĠÐ³ÑĢÑĥÐ¿Ð¸":9676,"ĠÑĢÐ¾Ð·Ð¿Ð»Ñİ":9677,"ĠÑĤÐµÐ¼Ð½Ñĥ":9678,"Ð°ÑĪÐºÐ¸":9679,"ĠÑħÐ»Ð¾Ð¿ÑĩÐµ":9680,"ĠÐ²ÑĸÑģÑĤÑĸ":9681,"ĠÐ¼Ð°Ð¹Ð¾ÑĢ":9682,"ĠÐ´Ð¾Ð²Ð³Ð¸Ð¼Ð¸":9683,"ĠÑģÐ»ÑĸÐ´Ñĥ":9684,"ĠÐ±Ð»ÑĸÐ´Ðµ":9685,"ĠÐ½Ð°Ð±Ð°Ð³Ð°ÑĤÐ¾":9686,"Ð½Ð¸ÑĩÐ°ÑĢ":9687,"ĠÑĢÐ¾Ð·ÑĥÐ¼ÑĸÑİ":9688,"ÐĳÐ°":9689,"ĠÑģÐ¼ÑĸÑıÐ»Ð¸ÑģÑı":9690,"ĠÑĥÐ¿ÑĸÐ·Ð½Ð°Ð²":9691,"ĠÐ²ÑĸÑĢÐ½Ð¸Ð¹":9692,"ĠÑĤÑĢÐ¸ÑĩÑĸ":9693,"ĠÑĤÑıÐ¶ÐºÐ°":9694,"ĠÐ¿ÑĢÐ¸Ð³Ð¾ÑĤ":9695,"ĠÑģÐ¿ÑĸÐ²Ð°ÑİÑĤÑĮ":9696,"ĠÐ¿ÑĢÐ¾ÐºÐ°Ð·":9697,"ĠÐ½Ð¾ÑĩÐµÐ¹":9698,"ĠÐ·Ð°Ð¹ÑĪÐ»Ð¸":9699,"ĠÐ·Ð»Ð¾Ð´ÑĸÐ¹":9700,"ĠÐ»ÑĸÑģÐ½Ð¸Ðº":9701,"ĠÐ²Ð¸ÑĤÐµÑĢ":9702,"ĠÐ¿Ð°Ð»ÑĮÑĨÑĸÐ²":9703,"ĠÑĢÑĸÐ·ÐºÐ¾":9704,"ĠÐ¿ÑĢÐ¾Ð¿Ð°Ð»Ð°":9705,"ĠÑĤÐ¾Ð½ÐºÐ¸Ð¹":9706,"ĠÐ´ÑĸÐ´Ñĥ":9707,"ĠÑĢÑĸÑĩÐºÐ¾Ñİ":9708,"ĠÑıÑģÐ½Ð°":9709,"ĠÐºÐ¾Ð¼ÑĥÐ½Ð¸":9710,"ĠÐ¾ÑģÑĤÐ°Ð½Ð½ÑĸÑħ":9711,"ĠÑĥÐ´ÑĢÑĥÐ³Ðµ":9712,"ĠÐ¿ÑĢÐ¸ÐºÑĢÐ¸Ð²":9713,"ĠÑĤÑĢÐ°Ð²Ð¾Ñİ":9714,"ĠÐ¿ÑĢÐ¾Ð±Ð»Ðµ":9715,"ĠÐ¿ÑĢÐ¾Ð±ÑĥÐ²Ð°Ð²":9716,"ĠÐ½ÑĸÑıÐºÐ¾Ð²Ð¾":9717,"ĠÑĤÐ¸ÑģÑıÑĩÑĥ":9718,"ĠÐ±ÑĥÑĢÑħ":9719,"ĠÑĪÐ¸ÑĢÐ¾ÐºÑĸ":9720,"ĠÐ¿Ð°Ð´Ð°ÑİÑĤÑĮ":9721,"ĠÐ¿Ð¾Ð²ÑĸÑĢÐ¸Ð²":9722,"ĠÐ²ÑĤÑĸÑħÑĥ":9723,"ĠÐ²Ð¸ÑĢÑĸÑģ":9724,"ĠÐ·ÐµÐ»ÐµÐ½Ð¸Ð¼":9725,"ĠÐ·Ð½ÐµÐ²":9726,"ĠÑģÐ¾ÑĤÐ½Ð¸Ðº":9727,"ĠÑģÑĤÐµÐ¶ÐºÑĥ":9728,"ĠÑģÑĤÐµÐ¶ÑĨÑĸ":9729,"ĠÑģÑĤÐ¾Ð²Ð¿Ð¸":9730,"ĠÐ¿ÑĢÐ¾ÑĢÐ¾Ðº":9731,"ĠÑīÐ°ÑģÐ»Ð¸Ð²Ð¸Ð¹":9732,"ĠÐ²Ð¾Ð»Ð¾Ð´Ð°ÑĢÑı":9733,"ĠÐ²ÑĩÐ¾ÑĢÐ°ÑĪ":9734,"ĠÐ¿Ð¾ÐºÐ»Ð°Ð²ÑĪÐ¸":9735,"ĠÐ´Ð¾Ð»Ð¸Ð½Ñĥ":9736,"ĠÑģÐ½ÑĸÐ´":9737,"ĠÐ·Ð»ÑıÐºÐ°Ð²ÑģÑı":9738,"ĠÐ´Ð¸ÑĤÐ¸Ð½ÑģÑĤÐ²Ñĸ":9739,"ĠÑģÐ²ÑıÑĤÐ¾Ð³Ð¾":9740,"ĠÐºÐ°Ð±ÑĸÐ½":9741,"ĠÐ¿Ð¾ÑĤÑĢÐµÐ±Ð¸":9742,"ĠÐ¯ÐºÐ¸Ð¹ÑģÑĮ":9743,"ĠÐºÑĥÐ¼Ð°":9744,"ĠÑĪÐ¸Ð½Ð¾Ðº":9745,"ĠÐ²Ð¸ÑıÐ²Ð¸Ð»Ð¾ÑģÑı":9746,"ĠÐŀÐ»ÐµÐºÑģÐ°Ð½Ð´ÑĢÐ¸":9747,"ĠÐ¼ÐµÑĢÐµÑħÑĤ":9748,"ĠÑħÐ²Ð¸Ð»ÑİÐ²Ð°Ð½Ð½Ñı":9749,"ĠÐĿÐµÐ·Ð°Ð±Ð°ÑĢÐ¾Ð¼":9750,"ĠÐ¾ÑĢÐ³Ð°Ð½ÑĸÐ·Ð°ÑĨÑĸÑĹ":9751,"ĠÐ¿ÑĢÐµÑģÑĤÐ¾Ð»":9752,"ĠÐ½Ð°ÑģÐºÑĢÑĸÐ·ÑĮ":9753,"ĠÐ·Ð½ÑĥÑī":9754,"ÐłÐŀÐĹÐĶÐĨÐĽ":9755,"Ġ...":9756,"ÑĤÐ°ÑĶ":9757,"Ð½ÐµÑĢ":9758,"Ð½Ð¾Ð¿":9759,"Ð½ÑĤÑĥ":9760,"ÑĥÐ½ÑĥÐ²":9761,"ÑģÐ½Ð¸Ð¹":9762,"ÐºÐ°Ðº":9763,"ÑıÐ½Ð¾Ð¼Ñĥ":9764,"ĠÐ²Ð±Ð¸ÑĢ":9765,"ĠÐ¿ÑĸÐ»":9766,"ĠÐ¿Ð¾Ð±Ñĸ":9767,"ĠÐ¿Ð°Ð»Ñı":9768,"ĠÐ·Ñı":9769,"ÑĩÐ°Ðº":9770,"ÑĩÐ°ÑİÑĩÐ¸":9771,"ÑĩÐ¾ÑĢÐ°":9772,"ÑĩÐ¾ÑģÑĤÑĸ":9773,"ÑİÑĩÐµ":9774,"Ð¾Ð²ÑĥÐ²Ð°ÑĤÐ¸":9775,"ĠÐ±Ð¾Ðº":9776,"ÐµÑĢÐ½Ð°":9777,"ĠÐºÐ°Ð¹":9778,"ĠÐ½ÐµÐ´Ñĥ":9779,"Ð¾Ð»ÐµÑĤ":9780,"Ð°Ð½Ð¾Ð²":9781,"ÑģÑĤÐ¾ÑĹ":9782,"Ð·Ð¸ÑĢ":9783,"ĠÑĢÐ°Ð½Ð¸":9784,"Ð¾Ð´ÑıÑĤÑĮ":9785,"ÑĶÐº":9786,"ĠÑĥÐ´Ð°Ð²":9787,"Ð°ÐºÐ¾Ð½":9788,"ĠÑĩÑĸÐ¼":9789,"Ð¾Ð±Ð¾ÑĢ":9790,"ĠÐ»Ð¾Ñģ":9791,"ĠÐ°ÐºÐ°":9792,"ĠÑħÐ¸Ð»Ð¸":9793,"ĠÐ¿ÑĢÐ°ÐºÑĤÐ¸":9794,"ĠÐ²Ð¸Ð¿Ñĥ":9795,"ĠÑĹÑģÑĤÑĮ":9796,"ĠÐĴÐ¾Ð³":9797,"ĠÑģÐ¿Ð°ÑģÐ¸Ð±Ñĸ":9798,"ĠÑĢÐ¾Ð·ÑĢÐ°Ñħ":9799,"Ð¾ÑģÐ¸ÑĤÑĮ":9800,"Ð¸ÑĤÐºÐ¸":9801,"Ð°ÑħÑĥÐ²Ð°Ð²":9802,"ĠÐ¿ÑĸÐ´Ð¿Ð¸":9803,"ÑĸÑĢÐ°":9804,"ĠÐ¿ÐµÑĢÐµÐ±ÑĢ":9805,"ĠÐ¾Ð´Ð½Ð¸Ñħ":9806,"ĠÐ¾Ð´ÑĢÑĥÐ¶":9807,"ĠÐ¥Ð°Ð·Ñı":9808,"ĠÐ±ÐµÐ·ÑĤÑıÐ¼":9809,"ĠÐ±ÑĥÐ²Ð°ÑİÑĤÑĮ":9810,"ĠÐ´Ð¸Ð²Ð°":9811,"ÐĴÐĲ":9812,"ĠÐ·Ð°Ð²Ð·":9813,"ĠÐ³Ð¾ÑĢÑıÑĤÑĮ":9814,"ÑĢÑıÐ¶":9815,"ĠÐ¿Ð¾Ð¼Ð¾Ð²ÑĩÐ°Ð²":9816,"ĠÐ·Ð°ÐºÐ»ÑıÐº":9817,"ĠÑĦÐ°Ð½":9818,"ĠÑĦÑĢÐ°Ð½":9819,"Ð¾Ð½Ð¸ÑĤÑĮ":9820,"ĠÐ¿ÐµÑĢÑģÑĤ":9821,"ĠÐ¿ÐµÑĢÐµÐ½":9822,"Ð¾ÑĤÐ¸ÑĤÑĮ":9823,"ĠÑģÑĤÐ°ÑĢÐ¾ÑģÑĤÐ°":9824,"ĠÑĩÐ¾Ð»Ð°":9825,"Ð»Ð¸ÑĩÑĩÑı":9826,"ĠÐ³Ð°ÑĢÐ½Ñĸ":9827,"ÑıÐ·Ñĸ":9828,"ÑıÑĤÐ´ÐµÑģÑıÑĤ":9829,"ĠÑģÑħÐ»Ð¸Ð¿":9830,"ÐľÐ°ÑĤÐ¸":9831,"ÐĹÐ½Ð¾Ð²Ñĥ":9832,"ĠÐ²Ð¸Ð¿ÑĢÐ¾Ð±":9833,"ĠÑĤÑĢÑĮ":9834,"ĠÐ¿ÑĢÐ°Ð²Ð´Ð¸":9835,"ĠÑĩÐµÑĢÐ³Ð°":9836,"ĠÑĢÐ¾Ð·Ð¿Ð¾Ñĩ":9837,"ĠÑĢÐ¾Ð·Ð¿Ð¸Ñģ":9838,"ĠÐ½Ð°Ð³Ð¾Ð´Ð¸":9839,"ĠÑħÐ»Ð¾Ð¿ÑĩÐµÐ½Ñı":9840,"ĠÐ´Ð¾Ð²Ð³Ð¸Ñħ":9841,"ĠÐ½ÐµÐ²Ð¿Ð¸Ð½":9842,"ĠÐ¼Ð¾Ð³Ð¸Ð»Ð¸":9843,"ĠÐºÑĥÐ¿Ð°":9844,"Ð½Ð¸ÑĩÐ¾Ð³Ð¾":9845,"Ð²ÑĸÐ´Ð´":9846,"Ð§Ð¾Ð¼Ñĥ":9847,"ĠÐ¨Ð¿Ð°":9848,"ĠÐ²Ð¸ÑģÐ¾ÐºÐ¾ÑĹ":9849,"ĠÑĢÑĸÐ´ÐºÐ¾":9850,"ĠÐ¿ÑĸÐ²Ð½Ð¾ÑĩÑĸ":9851,"ĠÑħÐ¾Ð»Ð¾Ð´Ð½Ñĸ":9852,"ĠÐ´Ð¸ÐºÐ¸Ð¹":9853,"ĠÐ·Ð»Ð¾Ð±":9854,"ĠÑĤÐ¾ÑĢÐ¾Ñħ":9855,"ÑĥÑģÐ°":9856,"ĠÐ¿Ð¾ÐµÑĤÑĸÐ²":9857,"ĠÑĤÐ¾Ð²Ð°ÑĢÐ¸ÑĪÑĥ":9858,"ĠÑĥÐ²ÑĸÐ¹ÑĪÐ»Ð°":9859,"Ð½Ð¾Ð¼Ð°Ð½":9860,"ĠÑģÑĤÐ°ÑĢÐ¸Ð¼":9861,"ĠÐ·Ð¼ÑĸÑĨ":9862,"Ð»Ð¸Ð²ÑĸÑĪÐµ":9863,"ĠÐ¿Ð¾ÑģÑĤÐ°Ð²Ð¸Ð»Ð¸":9864,"Ð°ÑĢÐ°Ñı":9865,"ĠÐ·Ð°Ð»ÑĸÐ·Ð¾Ð¼":9866,"ĠÐ¿Ð¾ÑĩÑĥÐ²ÑĪÐ¸":9867,"ĠÐ²ÑĸÐ´ÑĩÑĥÐ²Ð°ÑİÑĩÐ¸":9868,"ĠÑģÐ°Ð´Ð¾Ðº":9869,"ĠÐ¶Ð°ÑĢÑĤÑĸÐ²":9870,"ĠÐłÐ¾ÐºÑģÐ¾Ð»Ð°Ð½Ñĥ":9871,"ÑĤÑĢÐ¸Ð¼Ñĥ":9872,"ĠÑĪÐ»ÑıÑħÐµÑĤ":9873,"ĠÑĪÐµÐ¿ÑĸÑĤ":9874,"ĠÐ³ÑĥÑĢÑĤ":9875,"ĠÐ¿Ð¾ÑĤÑĢÑĸÐ±Ð½Ðµ":9876,"ĠÐ·Ð½ÐµÑģÐ¸":9877,"ĠÐ¿ÑĢÐ¾ÑħÐ°Ð½Ð½Ñı":9878,"ĠÑĢÑıÐ´Ð¸":9879,"ĠÐ¿Ð¾ÑıÑģÐ½Ð¸Ð²":9880,"ĠÐ´ÐµÑĢÐ¶Ð°Ð²Ñĸ":9881,"ĠÐ¿ÐµÑĢÐµÐ²ÑĸÐ·":9882,"ĠÑĪÐ¾Ð²Ðº":9883,"ĠÐ¶Ð¾ÑĢÑģÑĤÐ¾ÐºÐ¾":9884,"ĠÐºÐ»ÑĥÐ½Ñĸ":9885,"ĠÐ¿ÑĢÐ¸Ð²ÑĸÑĤÐ°Ð²ÑģÑı":9886,"ĠÐ¿Ð¾ÑĨÑĸÐ»ÑĥÐ½":9887,"ĠÑĸÑģÑĤÐ¾ÑĢÑĸÑı":9888,"ĠÐ±Ð¾Ð¶ÐµÐ²ÑĸÐ»ÑĮÐ½Ð¸Ð¹":9889,"ĠÐ²Ð¸Ð½Ð¾Ð³ÑĢÐ°Ð´":9890,"ĠÐºÐ¾ÑĤÑĢÐ¸Ð¹ÑģÑĮ":9891,"ĠÐ²Ð¼ÐµÑĢÐ»Ð°":9892,"ĠÐľÐ°ÑĤÐ½Ñı":9893,"ĠÑħÐ°Ð¾Ñģ":9894,"ĠÐ¶ÐµÑĢÑĤÐ²Ñĥ":9895,"ĠÐ¼Ð¾Ð»Ð¸ÑĤÐ²Ñĥ":9896,"ĠÐ²ÐµÑĢÐ±Ð»ÑİÐ´":9897,"ĠÑģÑıÐ¹Ð²Ð¾":9898,"ĠÐ½Ð°ÑģÑĥÐ¿ÑĢÐ¾ÑĤÐ¸":9899,"ĠÐ¡Ð¸Ð´ÑĸÐ²":9900,"ĠÑĩÐµÑĢÐµÐ²Ð¸ÐºÐ¸":9901,"ĠÐ¼ÐµÑĤÐµÐ»Ð¸ÐºÐ¸":9902,"ĠÐ¿Ð¾ÑĢÑĤÑĢÐµÑĤ":9903,"ĠÐĽÐµÐ²ÐºÐ¾":9904,"ĠÐ±ÐµÐ·Ð³Ð»ÑĥÐ·Ð´Ñı":9905,"ĠÐ²Ð¸ÑĤÑĢÑĸÑī":9906,"ĠÑīÐ¾Ð½Ð°Ð¹":9907,"ĠÐ¿Ð°ÑĢÐ¾Ð¿Ð»Ð°Ð²":9908,"ĠÐ·Ð´ÐµÐ±ÑĸÐ»ÑĮÑĪÐ¾Ð³Ð¾":9909,"ĠÐ´Ð¾ÑģÐºÐ¾Ð½":9910,"19":9911,"Ð½ÑĸÐ´":9912,"Ð½ÐµÐ½ÑĮÐºÐ¾":9913,"Ð»Ð¾Ð¶":9914,"Ð²Ð°Ð»Ñı":9915,"ĠÐ²Ð´Ñĸ":9916,"Ð´Ð°Ð½Ñĥ":9917,"ÑĩÐºÐ°Ñħ":9918,"ĠÐ±Ð¸Ð»Ð¸ÑģÑı":9919,"ĠÐ±Ñĭ":9920,"ĠÐºÐ»Ð°Ð²":9921,"ĠÐ½ÐµÐ¼Ñĸ":9922,"ÑģÑĤÐ¾Ñģ":9923,"ĠÐ½Ð°ÑĢÑĸ":9924,"ĠÐ½Ð°ÑĤÑıÐ³":9925,"ĠÐ½Ð°ÑīÐ°Ð´":9926,"Ð½Ð¸ÑĤÐ¸ÑģÑı":9927,"Ð¶Ð°Ð»Ð¸":9928,"Ð³ÐµÑĢ":9929,"Ð¾Ð´Ð°Ð¼Ð¸":9930,"ĠÑīÐ¸ÑĢ":9931,"ĠÐ³ÑĸÑģÑĤÑĮ":9932,"ÐµÐ½ÑĤÑĥ":9933,"ÐµÐ½ÑĤÐ°":9934,"ĠÐ»Ð°Ð±":9935,"ĠÑħÐ¾ÑĢ":9936,"ĠÑħÑĢÑĥ":9937,"ĠÑħÐ²ÑĸÑģÑĤ":9938,"ĠÑīÐ¾ÑģÐ¸Ð»Ð¸":9939,"Ð°Ð´Ð¸Ð»Ð¸":9940,"ĠÐ²Ð¸ÑĪÐ¸":9941,"Ð»ÑıÐ»Ð¾":9942,"Ð»ÑıÐ»Ð¾ÑģÑı":9943,"ĠÑĨÑĸÐ²":9944,"ĠÑĨÑĥÐ¿":9945,"ĠÐ·Ð°ÑħÐ¾Ð´Ð¸":9946,"ÐºÑĥÑİ":9947,"ĠÑĹÐ·Ð´Ð¸Ð²":9948,"ĠÐĲÐ»":9949,"ĠÐĲÐ½Ð°ÑĤ":9950,"Ð°ÑĤÑĸÐ²":9951,"ÑīÐµÐ½Ð¾":9952,"ĠÑĢÐ¾Ð·Ð½Ð¾":9953,"ĠÑĢÐ¾Ð·Ð´Ñĥ":9954,"ĠÐľÐ¾Ð»Ð¾Ð´":9955,"ĠÑĪÐµÐ²":9956,"ÑĢÐµÐ´":9957,"Ð°Ð±ÑĸÑĩ":9958,"ĠÐ¿ÑĢÐ¾ÑħÐ¾Ð´Ð¸Ð²":9959,"ĠÐ¿ÐµÑĢÐµÐºÐ¸Ð´":9960,"ĠÐ¾Ð±Ð³Ð¾ÑĢ":9961,"ĠÐ¾Ð±Ð»ÑıÐ³":9962,"Ð»ÑĸÐ»Ð°":9963,"ÑĸÑģÐ»Ð°Ð¼":9964,"ĠÐĹÐ½Ð°Ð¹":9965,"ÐµÐ·Ð»Ð¸":9966,"ÑĨÑĮÐºÐ¸Ñħ":9967,"ĠÐ±ÐµÐ·Ð±":9968,"Ð°Ð»ÑĮÐ½Ð¾Ð¼Ñĥ":9969,"ĠÑģÐµÐ»Ñĥ":9970,"Ð¾Ð²Ð¸Ð½Ð°":9971,"Ð¾ÑĢÐ¸Ð²":9972,"ÑĸÑĩÐ½Ð¾Ð³Ð¾":9973,"ĠÐ·Ð°Ð²Ð¸Ñģ":9974,"ĠÐ³Ð¾ÑĢÐ»Ð°":9975,"ĠÑĸÐ½ÑĪÑĥ":9976,"ĠÐºÑĥÐ»Ñĸ":9977,"ĠÐ¿Ð¾Ð¼ÑĸÑĤÐ½Ð¾":9978,"ĠÐ½Ð°Ð¹Ð¿ÐµÑĢÑĪÐµ":9979,"ĠÑĢÐµÐ´Ð°Ðº":9980,"ĠÐ±ÑĢÐ¾Ð²Ð°Ð¼Ð¸":9981,"ĠÐºÑĢÐ¸ÑĩÐ°Ð»Ð°":9982,"ĠÐ·Ð°ÑģÐ¿":9983,"ÐĶÐ¾Ð²Ð³Ð¾":9984,"ĠÑĤÑĢÑİ":9985,"ĠÑħÐ°ÑĤÐ°Ñħ":9986,"ĠÐ½ÐµÐ·Ð°Ð»ÐµÐ¶":9987,"ÐºÐ¾Ð»Ð¸ÑĪ":9988,"ĠÐ¼ÑĸÑģÑĤÐ¸":9989,"ĠÐ½Ð°Ð³Ð¾Ð´":9990,"ĠÑħÐ»Ð¾Ð¿ÑĩÐ¸Ðº":9991,"ĠÐ²ÑĸÑĢÐ¸ÑĤÐ¸":9992,"ĠÐµÐ»Ðµ":9993,"ĠÐ½ÐµÐ²Ð¶Ðµ":9994,"ĠÐ½ÐµÐ²ÑĤÐ¾Ð¼":9995,"ĠÑħÐ²Ð¸Ð»ÑĮ":9996,"ĠÐ½Ð°ÑĢÐ¾Ð´Ð¸Ð»Ð°":9997,"ÑıÑĩÐ¸Ð¹":9998,"ĠÐĲÐ½Ð´ÑĢÑĸÑĶÐ¼":9999}